{
  "version": "1.0",
  "truncation": null,
  "padding": null,
  "added_tokens": [
    {
      "id": 0,
      "content": "<unk>",
      "single_word": false,
      "lstrip": false,
      "rstrip": false,
      "normalized": false,
      "special": true
    },
    {
      "id": 1,
      "content": "<pad>",
      "single_word": false,
      "lstrip": false,
      "rstrip": false,
      "normalized": false,
      "special": true
    },
    {
      "id": 2,
      "content": "<SOT>",
      "single_word": false,
      "lstrip": false,
      "rstrip": false,
      "normalized": false,
      "special": true
    },
    {
      "id": 3,
      "content": "<EOT>",
      "single_word": false,
      "lstrip": false,
      "rstrip": false,
      "normalized": false,
      "special": true
    },
    {
      "id": 4,
      "content": "<SUBJ>",
      "single_word": false,
      "lstrip": false,
      "rstrip": false,
      "normalized": false,
      "special": true
    },
    {
      "id": 5,
      "content": "<PRED>",
      "single_word": false,
      "lstrip": false,
      "rstrip": false,
      "normalized": false,
      "special": true
    },
    {
      "id": 6,
      "content": "<OBJ>",
      "single_word": false,
      "lstrip": false,
      "rstrip": false,
      "normalized": false,
      "special": true
    },
    {
      "id": 7,
      "content": "<OBJ_LIST>",
      "single_word": false,
      "lstrip": false,
      "rstrip": false,
      "normalized": false,
      "special": true
    },
    {
      "id": 8,
      "content": "|",
      "single_word": false,
      "lstrip": false,
      "rstrip": false,
      "normalized": false,
      "special": true
    },
    {
      "id": 9,
      "content": "<RDF2Text>",
      "single_word": false,
      "lstrip": false,
      "rstrip": false,
      "normalized": false,
      "special": true
    },
    {
      "id": 10,
      "content": "<Text2RDF>",
      "single_word": false,
      "lstrip": false,
      "rstrip": false,
      "normalized": false,
      "special": true
    },
    {
      "id": 11,
      "content": "<CONTINUERDF>",
      "single_word": false,
      "lstrip": false,
      "rstrip": false,
      "normalized": false,
      "special": true
    },
    {
      "id": 12,
      "content": "<MASK>",
      "single_word": false,
      "lstrip": false,
      "rstrip": false,
      "normalized": false,
      "special": true
    }
  ],
  "normalizer": null,
  "pre_tokenizer": {
    "type": "Whitespace"
  },
  "post_processor": {
    "type": "TemplateProcessing",
    "single": [
      {
        "Sequence": {
          "id": "A",
          "type_id": 0
        }
      }
    ],
    "pair": [
      {
        "Sequence": {
          "id": "A",
          "type_id": 0
        }
      },
      {
        "Sequence": {
          "id": "B",
          "type_id": 1
        }
      }
    ],
    "special_tokens": {
      "<pad>": {
        "id": "<pad>",
        "ids": [
          1
        ],
        "tokens": [
          "<pad>"
        ]
      }
    }
  },
  "decoder": null,
  "model": {
    "type": "BPE",
    "dropout": null,
    "unk_token": "<unk>",
    "continuing_subword_prefix": null,
    "end_of_word_suffix": null,
    "fuse_unk": false,
    "byte_fallback": false,
    "ignore_merges": false,
    "vocab": {
      "<unk>": 0,
      "<pad>": 1,
      "<SOT>": 2,
      "<EOT>": 3,
      "<SUBJ>": 4,
      "<PRED>": 5,
      "<OBJ>": 6,
      "<OBJ_LIST>": 7,
      "|": 8,
      "<RDF2Text>": 9,
      "<Text2RDF>": 10,
      "<CONTINUERDF>": 11,
      "<MASK>": 12,
      "!": 13,
      "\"": 14,
      "#": 15,
      "$": 16,
      "%": 17,
      "&": 18,
      "'": 19,
      "(": 20,
      ")": 21,
      "+": 22,
      ",": 23,
      "-": 24,
      ".": 25,
      "/": 26,
      "0": 27,
      "1": 28,
      "2": 29,
      "3": 30,
      "4": 31,
      "5": 32,
      "6": 33,
      "7": 34,
      "8": 35,
      "9": 36,
      ":": 37,
      ";": 38,
      "<": 39,
      ">": 40,
      "?": 41,
      "A": 42,
      "B": 43,
      "C": 44,
      "D": 45,
      "E": 46,
      "F": 47,
      "G": 48,
      "H": 49,
      "I": 50,
      "J": 51,
      "K": 52,
      "L": 53,
      "M": 54,
      "N": 55,
      "O": 56,
      "P": 57,
      "Q": 58,
      "R": 59,
      "S": 60,
      "T": 61,
      "U": 62,
      "V": 63,
      "W": 64,
      "X": 65,
      "Y": 66,
      "Z": 67,
      "_": 68,
      "a": 69,
      "b": 70,
      "c": 71,
      "d": 72,
      "e": 73,
      "f": 74,
      "g": 75,
      "h": 76,
      "i": 77,
      "j": 78,
      "k": 79,
      "l": 80,
      "m": 81,
      "n": 82,
      "o": 83,
      "p": 84,
      "q": 85,
      "r": 86,
      "s": 87,
      "t": 88,
      "u": 89,
      "v": 90,
      "w": 91,
      "x": 92,
      "y": 93,
      "z": 94,
      "¥": 95,
      "½": 96,
      "Á": 97,
      "Å": 98,
      "É": 99,
      "Ó": 100,
      "Ö": 101,
      "à": 102,
      "á": 103,
      "â": 104,
      "ã": 105,
      "ä": 106,
      "ç": 107,
      "è": 108,
      "é": 109,
      "ë": 110,
      "í": 111,
      "î": 112,
      "ï": 113,
      "ñ": 114,
      "ò": 115,
      "ó": 116,
      "ô": 117,
      "õ": 118,
      "ö": 119,
      "ø": 120,
      "ù": 121,
      "ú": 122,
      "ü": 123,
      "ý": 124,
      "ā": 125,
      "ă": 126,
      "ć": 127,
      "č": 128,
      "ę": 129,
      "ě": 130,
      "ı": 131,
      "ł": 132,
      "Ō": 133,
      "ō": 134,
      "Ř": 135,
      "ř": 136,
      "ş": 137,
      "Š": 138,
      "š": 139,
      "ū": 140,
      "ș": 141,
      "Ț": 142,
      "ț": 143,
      "ḥ": 144,
      "–": 145,
      "—": 146,
      "‘": 147,
      "’": 148,
      "あ": 149,
      "た": 150,
      "な": 151,
      "に": 152,
      "の": 153,
      "は": 154,
      "る": 155,
      "一": 156,
      "世": 157,
      "之": 158,
      "亨": 159,
      "傳": 160,
      "哥": 161,
      "城": 162,
      "大": 163,
      "奇": 164,
      "宏": 165,
      "情": 166,
      "愛": 167,
      "新": 168,
      "果": 169,
      "界": 170,
      "糖": 171,
      "色": 172,
      "賭": 173,
      "陳": 174,
      "雨": 175,
      "db": 176,
      "BJ": 177,
      "OT": 178,
      "dbr": 179,
      "ar": 180,
      "in": 181,
      "dbo": 182,
      "PR": 183,
      "PRE": 184,
      "EOT": 185,
      "OBJ": 186,
      "SU": 187,
      "SOT": 188,
      "PRED": 189,
      "SUBJ": 190,
      "an": 191,
      "er": 192,
      "st": 193,
      "ing": 194,
      "arr": 195,
      "Ca": 196,
      "il": 197,
      "starr": 198,
      "starring": 199,
      "e_": 200,
      "or": 201,
      "ilm": 202,
      "film": 203,
      "on": 204,
      "re": 205,
      "th": 206,
      "ri": 207,
      "en": 208,
      "ed": 209,
      "ct": 210,
      "and": 211,
      "al": 212,
      "ic": 213,
      "es": 214,
      "di": 215,
      "as": 216,
      "el": 217,
      "a_": 218,
      "ter": 219,
      "is": 220,
      "y_": 221,
      "wri": 222,
      "am": 223,
      "19": 224,
      "rect": 225,
      "direct": 226,
      "at": 227,
      "_film": 228,
      "om": 229,
      "writer": 230,
      "os": 231,
      "Cal": 232,
      "Car": 233,
      "_S": 234,
      "ou": 235,
      "of": 236,
      "the": 237,
      "ol": 238,
      "Th": 239,
      "by": 240,
      "director": 241,
      "o_": 242,
      "us": 243,
      "Cap": 244,
      "it": 245,
      "le": 246,
      "_B": 247,
      "_M": 248,
      "20": 249,
      "Cas": 250,
      "ir": 251,
      "ch": 252,
      "Cam": 253,
      "DF": 254,
      "RDF": 255,
      "ad": 256,
      "et": 257,
      "_C": 258,
      "ag": 259,
      "ur": 260,
      "ov": 261,
      "Call": 262,
      "_H": 263,
      "ill": 264,
      "un": 265,
      "ot": 266,
      "Can": 267,
      "s_": 268,
      "ain": 269,
      "ay": 270,
      "Am": 271,
      "the_": 272,
      "ex": 273,
      "_R": 274,
      "usic": 275,
      "Capt": 276,
      "ac": 277,
      "ow": 278,
      "omp": 279,
      "ak": 280,
      "_the_": 281,
      "ext": 282,
      "_G": 283,
      "music": 284,
      "AS": 285,
      "MAS": 286,
      "Text": 287,
      "av": 288,
      "MASK": 289,
      "ion": 290,
      "act": 291,
      "ard": 292,
      "ang": 293,
      "id": 294,
      "ompos": 295,
      "_D": 296,
      "od": 297,
      "ent": 298,
      "The": 299,
      "_A": 300,
      "omposer": 301,
      "im": 302,
      "ul": 303,
      "_F": 304,
      "ber": 305,
      "Be": 306,
      "Jo": 307,
      "for": 308,
      "man": 309,
      "ell": 310,
      "_Th": 311,
      "_W": 312,
      "iv": 313,
      "ig": 314,
      "Composer": 315,
      "musicComposer": 316,
      "directed": 317,
      "Carr": 318,
      "ra": 319,
      "It": 320,
      "Captain": 321,
      "age": 322,
      "Cl": 323,
      "201": 324,
      "Cat": 325,
      "_P": 326,
      "Mar": 327,
      "ut": 328,
      "On": 329,
      "_L": 330,
      "Camp": 331,
      "ni": 332,
      "eric": 333,
      "to": 334,
      "Ch": 335,
      "ers": 336,
      "Americ": 337,
      "was": 338,
      "200": 339,
      "ich": 340,
      "ap": 341,
      "actor": 342,
      "Carry_": 343,
      "_of": 344,
      "ab": 345,
      "son": 346,
      "An": 347,
      "uc": 348,
      "_The_": 349,
      "American": 350,
      "uage": 351,
      "anguage": 352,
      "_N": 353,
      "all": 354,
      "Ro": 355,
      "language": 356,
      "um": 357,
      "St": 358,
      "_K": 359,
      "oun": 360,
      "ric": 361,
      "ne": 362,
      "op": 363,
      "ased": 364,
      "ian": 365,
      "hn": 366,
      "Carry_On": 367,
      "ars": 368,
      "em": 369,
      "ev": 370,
      "_T": 371,
      "ran": 372,
      "_J": 373,
      "osed": 374,
      "John": 375,
      "res": 376,
      "e_Cl": 377,
      "est": 378,
      "CO": 379,
      "NT": 380,
      "2RDF": 381,
      "2Text": 382,
      "ERDF": 383,
      "IN": 384,
      "UERDF": 385,
      "RDF2Text": 386,
      "Text2RDF": 387,
      "CONT": 388,
      "INUERDF": 389,
      "CONTINUERDF": 390,
      "Al": 391,
      "ies": 392,
      "bert": 393,
      "tt": 394,
      "198": 395,
      "end": 396,
      "oc": 397,
      "ith": 398,
      "ama": 399,
      "igh": 400,
      "ern": 401,
      "au": 402,
      "Case_Cl": 403,
      "Case_Closed": 404,
      "Sh": 405,
      "7_film": 406,
      "ry": 407,
      "sh": 408,
      "art": 409,
      "Cast": 410,
      "ep": 411,
      "les": 412,
      "196": 413,
      "ie": 414,
      "ack": 415,
      "i_": 416,
      "Cand": 417,
      "Caf": 418,
      "se": 419,
      "_E": 420,
      "ant": 421,
      "com": 422,
      "ew": 423,
      "irl": 424,
      "der": 425,
      "Cali": 426,
      "5_film": 427,
      "ish": 428,
      "ath": 429,
      "wh": 430,
      "_and": 431,
      "_St": 432,
      "Catch": 433,
      "ey": 434,
      "per": 435,
      "tten": 436,
      "og": 437,
      "qu": 438,
      "pr": 439,
      "194": 440,
      "aw": 441,
      "ount": 442,
      "199": 443,
      "written": 444,
      "ong": 445,
      "ll": 446,
      "195": 447,
      "forni": 448,
      "Californi": 449,
      "our": 450,
      "ight": 451,
      "In": 452,
      "193": 453,
      "ott": 454,
      "ation": 455,
      "_of_the_": 456,
      "ass": 457,
      "ie_": 458,
      "her": 459,
      "8_film": 460,
      "sc": 461,
      "ser": 462,
      "ce": 463,
      "comed": 464,
      "ik": 465,
      "pl": 466,
      "_Sh": 467,
      "org": 468,
      "rele": 469,
      "_Girl": 470,
      "oll": 471,
      "6_film": 472,
      "California_": 473,
      "stars": 474,
      "Fran": 475,
      "dr": 476,
      "ino_": 477,
      "de_": 478,
      "ef": 479,
      "att": 480,
      "ick": 481,
      "ier": 482,
      "ia": 483,
      "ug": 484,
      "Dav": 485,
      "Ra": 486,
      "comedy": 487,
      "ast": 488,
      "Robert": 489,
      "fe": 490,
      "ean": 491,
      "Cag": 492,
      "red": 493,
      "eg": 494,
      "rom": 495,
      "ud": 496,
      "ton": 497,
      "released": 498,
      "Pr": 499,
      "ames": 500,
      "old": 501,
      "illi": 502,
      "ood": 503,
      "4_film": 504,
      "ah": 505,
      "le_": 506,
      "Calling": 507,
      "Br": 508,
      "drama": 509,
      "ind": 510,
      "ett": 511,
      "oy": 512,
      "Call_M": 513,
      "ark": 514,
      "ower": 515,
      "Le": 516,
      "ive_": 517,
      "Cann": 518,
      "_Y": 519,
      "Ar": 520,
      "prod": 521,
      "Un": 522,
      "_O": 523,
      "adi": 524,
      "ob": 525,
      "ael": 526,
      "Ge": 527,
      "ash": 528,
      "with": 529,
      "ort": 530,
      "ess": 531,
      "9_film": 532,
      "series": 533,
      "ani": 534,
      "based": 535,
      "ict": 536,
      "De": 537,
      "Mich": 538,
      "pe": 539,
      "an_": 540,
      "Pa": 541,
      "ist": 542,
      "ren": 543,
      "192": 544,
      "Camill": 545,
      "ph": 546,
      "count": 547,
      "e_L": 548,
      "e_M": 549,
      "illiam": 550,
      "lan": 551,
      "orn": 552,
      "Café": 553,
      "Georg": 554,
      "ai": 555,
      "ore": 556,
      "ory": 557,
      "country": 558,
      "ly": 559,
      "ok": 560,
      "e_S": 561,
      "een": 562,
      "uk": 563,
      "produc": 564,
      "up": 565,
      "Call_of_the_": 566,
      "2_film": 567,
      "He": 568,
      "ost": 569,
      "ann": 570,
      "David": 571,
      "reen": 572,
      "el_": 573,
      "a_M": 574,
      "ust": 575,
      "ine": 576,
      "one": 577,
      "Char": 578,
      "Ph": 579,
      "rit": 580,
      "Casino_": 581,
      "En": 582,
      "ip": 583,
      "unt": 584,
      "rist": 585,
      "Michael": 586,
      "bal": 587,
      "eer": 588,
      "ub": 589,
      "ar_": 590,
      "_Ch": 591,
      "iz": 592,
      "ro": 593,
      "ure": 594,
      "ame": 595,
      "Paul": 596,
      "ib": 597,
      "Camille_": 598,
      "Ken": 599,
      "de": 600,
      "Cain": 601,
      "Jack": 602,
      "_a_": 603,
      "ins": 604,
      "nibal": 605,
      "who": 606,
      "ach": 607,
      "ity_": 608,
      "Pra": 609,
      "Rich": 610,
      "feat": 611,
      "are": 612,
      "_Bl": 613,
      "Camer": 614,
      "produced": 615,
      "James": 616,
      "his": 617,
      "ini": 618,
      "rim": 619,
      "3_film": 620,
      "from": 621,
      "io_": 622,
      "Caged": 623,
      "William": 624,
      "_V": 625,
      "az": 626,
      "ald": 627,
      "Captive_": 628,
      "own": 629,
      "ress": 630,
      "II": 631,
      "aut": 632,
      "Cannibal": 633,
      "play": 634,
      "Ed": 635,
      "ream": 636,
      "ock": 637,
      "ary": 638,
      "co": 639,
      "enn": 640,
      "Calend": 641,
      "ck": 642,
      "ures": 643,
      "Candy_": 644,
      "Richard": 645,
      "Jos": 646,
      "yn": 647,
      "rem": 648,
      "197": 649,
      "oman": 650,
      "1_film": 651,
      "Ad": 652,
      "Pe": 653,
      "Cab": 654,
      "e_F": 655,
      "ond": 656,
      "Camping": 657,
      "Castle_": 658,
      "cer": 659,
      "ger": 660,
      "ild": 661,
      "_language": 662,
      "iss": 663,
      "ee": 664,
      "so": 665,
      "ia_": 666,
      "Carav": 667,
      "Capric": 668,
      "Casan": 669,
      "ung": 670,
      "2006_film": 671,
      "ire": 672,
      "tin": 673,
      "_in": 674,
      "if": 675,
      "ime": 676,
      "uck": 677,
      "El": 678,
      "Film": 679,
      "gh": 680,
      "gl": 681,
      "oth": 682,
      "Calam": 683,
      "ive": 684,
      "e_B": 685,
      "191": 686,
      "s_of": 687,
      "_The_F": 688,
      "_You": 689,
      "ord": 690,
      "Ital": 691,
      "eph": 692,
      "Frank": 693,
      "Charles": 694,
      "Power": 695,
      "Carm": 696,
      "ley": 697,
      "_Mc": 698,
      "ere": 699,
      "mer": 700,
      "Carl": 701,
      "Carry_On_": 702,
      "ru": 703,
      "Don": 704,
      "Card": 705,
      "aj": 706,
      "tor": 707,
      "ward": 708,
      "ina": 709,
      "be": 710,
      "Casper": 711,
      "ovie": 712,
      "_Lov": 713,
      "iel": 714,
      "vent": 715,
      "ical": 716,
      "Casanov": 717,
      "0_film": 718,
      "Jan": 719,
      "Sc": 720,
      "iri": 721,
      "ines": 722,
      "Cad": 723,
      "ous": 724,
      "_All": 725,
      "Gu": 726,
      "han": 727,
      "io": 728,
      "atric": 729,
      "Sp": 730,
      "by_": 731,
      "ld": 732,
      "e_D": 733,
      "e_H": 734,
      "screen": 735,
      "cl": 736,
      "Carb": 737,
      "off": 738,
      "Cash": 739,
      "irst": 740,
      "Italian": 741,
      "ris": 742,
      "as_": 743,
      "y_W": 744,
      "Caref": 745,
      "Beaut": 746,
      "Candy": 747,
      "af": 748,
      "air": 749,
      "under": 750,
      "ana_": 751,
      "ovel": 752,
      "Campus": 753,
      "Bill": 754,
      "Music": 755,
      "Nor": 756,
      "Se": 757,
      "ont": 758,
      "Peter": 759,
      "but": 760,
      "e_G": 761,
      "y_R": 762,
      "omas": 763,
      "out": 764,
      "_Her": 765,
      "iller": 766,
      "Jean": 767,
      "rol": 768,
      "story": 769,
      "en_": 770,
      "Cars_": 771,
      "ity": 772,
      "iro_": 773,
      "ide": 774,
      "Roy": 775,
      "ound": 776,
      "Call_Me_": 777,
      "ana": 778,
      "Career": 779,
      "ina_": 780,
      "e_N": 781,
      "aker": 782,
      "_Girls": 783,
      "Calling_All": 784,
      "Bel": 785,
      "inn": 786,
      "adian": 787,
      "Bl": 788,
      "bo": 789,
      "s_C": 790,
      "ale_": 791,
      "man_": 792,
      "Martin": 793,
      "utt": 794,
      "Ann": 795,
      "22": 796,
      "iet": 797,
      "ler": 798,
      "inal": 799,
      "also": 800,
      "ates": 801,
      "Calendar": 802,
      "Con": 803,
      "ial": 804,
      "yon": 805,
      "ara_": 806,
      "ank": 807,
      "ert": 808,
      "ade": 809,
      "Call_": 810,
      "Captain_": 811,
      "Pot": 812,
      "novel": 813,
      "ival": 814,
      "3F": 815,
      "Pov": 816,
      "ra_": 817,
      "Cairo_": 818,
      "e_Be": 819,
      "1967_film": 820,
      "Bell": 821,
      "Is": 822,
      "Canadian": 823,
      "actress": 824,
      "Bar": 825,
      "Tim": 826,
      "ari": 827,
      "Cak": 828,
      "or_": 829,
      "es_": 830,
      "ney": 831,
      "lin": 832,
      "land": 833,
      "ilent": 834,
      "Har": 835,
      "_de_": 836,
      "ek": 837,
      "p_the_": 838,
      "to_": 839,
      "erg": 840,
      "e_of": 841,
      "ons": 842,
      "ury": 843,
      "ited": 844,
      "Befor": 845,
      "Carry": 846,
      "appe": 847,
      "Anne": 848,
      "Tom": 849,
      "ers_": 850,
      "esp": 851,
      "ated": 852,
      "_Sp": 853,
      "Canyon": 854,
      "Christ": 855,
      "Phil": 856,
      "Casino_Roy": 857,
      "Casino_Royale_": 858,
      "Dani": 859,
      "Sam": 860,
      "ail": 861,
      "rac": 862,
      "esar": 863,
      "And": 864,
      "Careful": 865,
      "ez": 866,
      "fl": 867,
      "y_M": 868,
      "ats": 869,
      "omb": 870,
      "urn": 871,
      "_Jatt": 872,
      "Harr": 873,
      "Jac": 874,
      "Jul": 875,
      "eth": 876,
      "hy": 877,
      "iott": 878,
      "ma": 879,
      "tit": 880,
      "ese": 881,
      "ele": 882,
      "oss": 883,
      "Calm": 884,
      "ush": 885,
      "Ale": 886,
      "_In": 887,
      "ky": 888,
      "ate": 889,
      "urt": 890,
      "_He": 891,
      "_Run": 892,
      "_Par": 893,
      "_New": 894,
      "ember": 895,
      "Calamity_": 896,
      "Pict": 897,
      "ball": 898,
      "he": 899,
      "lor": 900,
      "amb": 901,
      "Indi": 902,
      "Prairi": 903,
      "Carbon": 904,
      "Dream": 905,
      "Ger": 906,
      "Jon": 907,
      "chi": 908,
      "_Wil": 909,
      "glish": 910,
      "Pictures": 911,
      "Kir": 912,
      "ara": 913,
      "arn": 914,
      "Fren": 915,
      "Gre": 916,
      "Qu": 917,
      "Ton": 918,
      "ff": 919,
      "wor": 920,
      "arg": 921,
      "ary_": 922,
      "ans": 923,
      "err": 924,
      "a_K": 925,
      "uss": 926,
      "Cass": 927,
      "_An": 928,
      "Cannon": 929,
      "ield": 930,
      "venture": 931,
      "Casanova_": 932,
      "French": 933,
      "Bri": 934,
      "Ben": 935,
      "Fred": 936,
      "gen": 937,
      "anc": 938,
      "ori": 939,
      "ola": 940,
      "ordon": 941,
      "Mal": 942,
      "TV": 943,
      "_on": 944,
      "mith": 945,
      "runt": 946,
      "tto": 947,
      "well": 948,
      "_Ro": 949,
      "2018_film": 950,
      "Carry_on": 951,
      "which": 952,
      "United": 953,
      "Cake_": 954,
      "runtime": 955,
      "Wal": 956,
      "ance": 957,
      "ale": 958,
      "Carol": 959,
      "Bern": 960,
      "Lu": 961,
      "first": 962,
      "ps": 963,
      "ters": 964,
      "o_M": 965,
      "ite": 966,
      "_Rang": 967,
      "_Gold": 968,
      "English": 969,
      "Camping_": 970,
      "Power_Rang": 971,
      "Daniel": 972,
      "iy": 973,
      "oul": 974,
      "berg": 975,
      "apan": 976,
      "neth": 977,
      "Kenneth": 978,
      "Cannonball": 979,
      "Col": 980,
      "Di": 981,
      "len": 982,
      "ox": 983,
      "ino": 984,
      "thr": 985,
      "itt": 986,
      "aki": 987,
      "2015_film": 988,
      "_Ell": 989,
      "Catch_": 990,
      "ollow": 991,
      "Joseph": 992,
      "Japan": 993,
      "Par": 994,
      "reet": 995,
      "ice": 996,
      "Capit": 997,
      "Marc": 998,
      "Prem": 999,
      "Sid": 1000,
      "ca": 1001,
      "go_": 1002,
      "ment": 1003,
      "rand": 1004,
      "same": 1005,
      "ured": 1006,
      "e_W": 1007,
      "one_": 1008,
      "Care_Be": 1009,
      "Casa_": 1010,
      "musical": 1011,
      "Beh": 1012,
      "_Tak": 1013,
      "orn_": 1014,
      "Cain_and": 1015,
      "_Blu": 1016,
      "Caprice_": 1017,
      "Care_Bears": 1018,
      "King": 1019,
      "Lau": 1020,
      "Lew": 1021,
      "ual": 1022,
      "inc": 1023,
      "Camel": 1024,
      "ura": 1025,
      "erson": 1026,
      "Ab": 1027,
      "Man": 1028,
      "cutt": 1029,
      "ix": 1030,
      "ke": 1031,
      "ma_": 1032,
      "e_m": 1033,
      "orr": 1034,
      "ors": 1035,
      "aled": 1036,
      "_Co": 1037,
      "oward": 1038,
      "_Dog": 1039,
      "Calendar_Girl": 1040,
      "Before_": 1041,
      "Behind": 1042,
      "cap": 1043,
      "follow": 1044,
      "port": 1045,
      "that": 1046,
      "esh": 1047,
      "ason": 1048,
      "its": 1049,
      "Came": 1050,
      "und": 1051,
      "raz": 1052,
      "estern": 1053,
      "estival": 1054,
      "Ke": 1055,
      "Lou": 1056,
      "Me": 1057,
      "Ne": 1058,
      "_series": 1059,
      "composer": 1060,
      "ki": 1061,
      "oot": 1062,
      "tel": 1063,
      "ane": 1064,
      "ile": 1065,
      "Calcutt": 1066,
      "_Sc": 1067,
      "ada": 1068,
      "2010_film": 1069,
      "short": 1070,
      "Caravan_": 1071,
      "Musical": 1072,
      "Calamity_Anne": 1073,
      "TV_series": 1074,
      "Bernard": 1075,
      "Hot": 1076,
      "eb": 1077,
      "inem": 1078,
      "antic": 1079,
      "ather": 1080,
      "rime": 1081,
      "title": 1082,
      "ray": 1083,
      "teen": 1084,
      "ice_": 1085,
      "ely": 1086,
      "y_D": 1087,
      "uring": 1088,
      "Call_Girl": 1089,
      "aven": 1090,
      "oung": 1091,
      "Caged_": 1092,
      "Scott": 1093,
      "Cash_": 1094,
      "Ma": 1095,
      "mas": 1096,
      "udi": 1097,
      "esc": 1098,
      "Carson": 1099,
      "adow": 1100,
      "lesh": 1101,
      "Dead": 1102,
      "Brit": 1103,
      "For": 1104,
      "Ol": 1105,
      "ly_": 1106,
      "ston": 1107,
      "ction": 1108,
      "Cargo_": 1109,
      "Thomas": 1110,
      "Capone_": 1111,
      "_Con": 1112,
      "_Al": 1113,
      "_The_Musical": 1114,
      "_Night": 1115,
      "1984_film": 1116,
      "Café_de_": 1117,
      "Edward": 1118,
      "Castle_of": 1119,
      "_Jatta_": 1120,
      "Carry_on_Jatta_": 1121,
      "Power_Rangers_": 1122,
      "Louis": 1123,
      "British": 1124,
      "Bed": 1125,
      "If": 1126,
      "Jim": 1127,
      "No": 1128,
      "Pow": 1129,
      "Patric": 1130,
      "Vict": 1131,
      "You": 1132,
      "ec": 1133,
      "rou": 1134,
      "any": 1135,
      "era": 1136,
      "Caesar": 1137,
      "ques": 1138,
      "romantic": 1139,
      "Barb": 1140,
      "Jacques": 1141,
      "00": 1142,
      "54": 1143,
      "Barr": 1144,
      "Pier": 1145,
      "Wild": 1146,
      "Yuk": 1147,
      "_X": 1148,
      "ait": 1149,
      "mond": 1150,
      "tre": 1151,
      "riend": 1152,
      "a_S": 1153,
      "y_S": 1154,
      "Carn": 1155,
      "_Sak": 1156,
      "o_R": 1157,
      "o_Kir": 1158,
      "lead": 1159,
      "char": 1160,
      "ad_": 1161,
      "adh": 1162,
      "entury": 1163,
      "Joe": 1164,
      "Captain_S": 1165,
      "son_": 1166,
      "ociet": 1167,
      "Prat": 1168,
      "Cameo_Kir": 1169,
      "Cameo_Kirby_": 1170,
      "Dark": 1171,
      "Sim": 1172,
      "Van": 1173,
      "Captured": 1174,
      "umb": 1175,
      "evin": 1176,
      "ght": 1177,
      "Cardcap": 1178,
      "appear": 1179,
      "thriller": 1180,
      "Powder": 1181,
      "Cardcaptor": 1182,
      "Em": 1183,
      "Ter": 1184,
      "Up_the_": 1185,
      "ater": 1186,
      "con": 1187,
      "eet": 1188,
      "har": 1189,
      "ien": 1190,
      "los": 1191,
      "vo": 1192,
      "zz": 1193,
      "ille": 1194,
      "e_R": 1195,
      "ision": 1196,
      "aman": 1197,
      "Carib": 1198,
      "_By": 1199,
      "_Mar": 1200,
      "_Dr": 1201,
      "_Ab": 1202,
      "_Ap": 1203,
      "One": 1204,
      "_Kid": 1205,
      "1947_film": 1206,
      "Prak": 1207,
      "Leon": 1208,
      "Carry_On_Up_the_": 1209,
      "Alex": 1210,
      "_Run_": 1211,
      "English_language": 1212,
      "..": 1213,
      "18": 1214,
      "Cor": 1215,
      "Gold": 1216,
      "Hen": 1217,
      "Movie": 1218,
      "Wend": 1219,
      "field": 1220,
      "ha": 1221,
      "ham": 1222,
      "ye": 1223,
      "yan": 1224,
      "ster": 1225,
      "onse": 1226,
      "rid": 1227,
      "iders": 1228,
      "Joan": 1229,
      "Stev": 1230,
      "Franc": 1231,
      "Heaven": 1232,
      "Beauties": 1233,
      "roles": 1234,
      "esponse": 1235,
      "Victor": 1236,
      "May": 1237,
      "Western": 1238,
      "_b": 1239,
      "_to_": 1240,
      "ear_": 1241,
      "ker": 1242,
      "ver": 1243,
      "orld": 1244,
      "ens": 1245,
      "y_B": 1246,
      "amp": 1247,
      "_Sand": 1248,
      "_Sto": 1249,
      "Cape_F": 1250,
      "_Boy": 1251,
      "_Man": 1252,
      "_Can_": 1253,
      "_City_": 1254,
      "_Hen": 1255,
      "_Response": 1256,
      "ake": 1257,
      "ally": 1258,
      "evision": 1259,
      "Albert": 1260,
      "ies_": 1261,
      "1987_film": 1262,
      "1965_film": 1263,
      "_Shadow": 1264,
      "Calling_Dr": 1265,
      "Carmen_": 1266,
      "Candyman_": 1267,
      "Indian": 1268,
      "genre": 1269,
      "Carson_City_": 1270,
      "If_You": 1271,
      "Caesar_and": 1272,
      "ociety_": 1273,
      "Cape_Fear_": 1274,
      "Kevin": 1275,
      "Ru": 1276,
      "Sus": 1277,
      "kn": 1278,
      "name": 1279,
      "ue": 1280,
      "yle": 1281,
      "arl": 1282,
      "ati": 1283,
      "Calv": 1284,
      "202": 1285,
      "Casual": 1286,
      "ave": 1287,
      "about": 1288,
      "Steph": 1289,
      "erno": 1290,
      "ogra": 1291,
      "eff": 1292,
      "feature": 1293,
      "Donald": 1294,
      "screenplay": 1295,
      "television": 1296,
      ").": 1297,
      "Mc": 1298,
      "Silent": 1299,
      "_9": 1300,
      "_I": 1301,
      "bl": 1302,
      "ka": 1303,
      "uri": 1304,
      "ing_": 1305,
      "a_D": 1306,
      "a_G": 1307,
      "ison": 1308,
      "y_G": 1309,
      "Came_": 1310,
      "ovie_": 1311,
      "action": 1312,
      "ide_": 1313,
      "_Fur": 1314,
      "_Thunder": 1315,
      "Captain_F": 1316,
      "2014_film": 1317,
      "_of_B": 1318,
      "1989_film": 1319,
      "1968_film": 1320,
      "athan": 1321,
      "Catch_M": 1322,
      "1939_film": 1323,
      "Under": 1324,
      "_Blood": 1325,
      "Philip": 1326,
      "_Elliott": 1327,
      "charact": 1328,
      "Cardcaptor_Sak": 1329,
      "Silent_film": 1330,
      "Century": 1331,
      "Her": 1332,
      "Last": 1333,
      "ife": 1334,
      "nor": 1335,
      "anim": 1336,
      "omic": 1337,
      "osh": 1338,
      "ole": 1339,
      "Case": 1340,
      "ace": 1341,
      "apt": 1342,
      "features": 1343,
      "known": 1344,
      "Ell": 1345,
      "Festival": 1346,
      "La": 1347,
      "Pour": 1348,
      "wo": 1349,
      "wood": 1350,
      "ink": 1351,
      "films": 1352,
      "rep": 1353,
      "rev": 1354,
      "enz": 1355,
      "asi": 1356,
      "ami": 1357,
      "Calig": 1358,
      "Among": 1359,
      "_Ros": 1360,
      "ake_": 1361,
      "mann": 1362,
      "_Wh": 1363,
      "Captain_Thunder": 1364,
      "Clau": 1365,
      "2017_film": 1366,
      "Cat_and": 1367,
      "_Pe": 1368,
      "_Le": 1369,
      "Camp_C": 1370,
      "2007_film": 1371,
      "2005_film": 1372,
      "2008_film": 1373,
      "_of_D": 1374,
      "umi": 1375,
      "ummer": 1376,
      "ester": 1377,
      "_Street": 1378,
      "awa": 1379,
      "arget": 1380,
      "Caligul": 1381,
      "Howard": 1382,
      "Im": 1383,
      "Mik": 1384,
      "Na": 1385,
      "Re": 1386,
      "band": 1387,
      "bell": 1388,
      "ferno": 1389,
      "gar": 1390,
      "ji": 1391,
      "me": 1392,
      "thur": 1393,
      "ctor": 1394,
      "ase": 1395,
      "ome": 1396,
      "Capri": 1397,
      "itz": 1398,
      "ove": 1399,
      "unfl": 1400,
      "abel": 1401,
      "serial": 1402,
      "ugh": 1403,
      "debut": 1404,
      "Andre": 1405,
      "Ev": 1406,
      "Gi": 1407,
      "Jung": 1408,
      "Or": 1409,
      "Val": 1410,
      "_Z": 1411,
      "car": 1412,
      "cast": 1413,
      "prem": 1414,
      "sup": 1415,
      "t_H": 1416,
      "ree": 1417,
      "y_H": 1418,
      "y_L": 1419,
      "amil": 1420,
      "adapt": 1421,
      "_Carr": 1422,
      "s_on": 1423,
      "_Re": 1424,
      "_the_G": 1425,
      "_the_S": 1426,
      "_Fl": 1427,
      "iver": 1428,
      "2003_film": 1429,
      "_The_Last": 1430,
      "_James": 1431,
      "awtre": 1432,
      "ourteen": 1433,
      "Raj": 1434,
      "1926": 1435,
      "Calendar_": 1436,
      "Caravan": 1437,
      "screenwriter": 1438,
      "Call_It": 1439,
      "ourteenth": 1440,
      "Ak": 1441,
      "Hel": 1442,
      "Jeff": 1443,
      "Nic": 1444,
      "Ros": 1445,
      "Rain": 1446,
      "Serg": 1447,
      "Wh": 1448,
      "Wil": 1449,
      "crime": 1450,
      "fer": 1451,
      "horr": 1452,
      "lo": 1453,
      "made": 1454,
      "ner": 1455,
      "te": 1456,
      "uction": 1457,
      "win": 1458,
      "wan": 1459,
      "rig": 1460,
      "andr": 1461,
      "outh": 1462,
      "oland": 1463,
      "illac": 1464,
      "Casting": 1465,
      "sec": 1466,
      "que": 1467,
      "Arthur": 1468,
      "ocket": 1469,
      "iful": 1470,
      "Cadillac": 1471,
      "Beautiful": 1472,
      "role": 1473,
      "Gerald": 1474,
      "Lewis": 1475,
      "Stephen": 1476,
      "horror": 1477,
      "As": 1478,
      "Co": 1479,
      "Ey": 1480,
      "Gen": 1481,
      "Mel": 1482,
      "Su": 1483,
      "del_": 1484,
      "irit": 1485,
      "mare": 1486,
      "s_S": 1487,
      "vs": 1488,
      "e_T": 1489,
      "e_de_": 1490,
      "eng": 1491,
      "asse": 1492,
      "a_L": 1493,
      "a_of": 1494,
      "_Sim": 1495,
      "_Sunfl": 1496,
      "oli": 1497,
      "itch": 1498,
      "_Br": 1499,
      "_But": 1500,
      "_Cle": 1501,
      "_Hay": 1502,
      "illon": 1503,
      "ot_": 1504,
      "ote": 1505,
      "_Ad": 1506,
      "_Fe": 1507,
      "Joe_": 1508,
      "_Thomas": 1509,
      "_Wash": 1510,
      "America_": 1511,
      "Cast_a_": 1512,
      "arker": 1513,
      "owers_of": 1514,
      "_Otto": 1515,
      "issim": 1516,
      "e_No": 1517,
      "_Inferno": 1518,
      "_Paradi": 1519,
      "Calcutta_": 1520,
      "Among_the_": 1521,
      "premier": 1522,
      "Casting_By": 1523,
      "_Sunflowers_of": 1524,
      "_Sunflowers_of_Inferno": 1525,
      "Dr": 1526,
      "Gordon": 1527,
      "Hal": 1528,
      "Tal": 1529,
      "had": 1530,
      "ious": 1531,
      "movie": 1532,
      "set": 1533,
      "silent": 1534,
      "ui": 1535,
      "oney": 1536,
      "ther": 1537,
      "enc": 1538,
      "ism": 1539,
      "ougl": 1540,
      "their": 1541,
      "iro": 1542,
      "Bear": 1543,
      "ithout": 1544,
      "Raiders": 1545,
      "Cameron": 1546,
      "Williams": 1547,
      "Cabby": 1548,
      "rue": 1549,
      "after": 1550,
      "Norman": 1551,
      "inning": 1552,
      "anks": 1553,
      "77": 1554,
      "Bob": 1555,
      "Crim": 1556,
      "Dor": 1557,
      "Ian": 1558,
      "Jen": 1559,
      "bean": 1560,
      "oes": 1561,
      "u_": 1562,
      "were": 1563,
      "ine_": 1564,
      "e_d": 1565,
      "ret": 1566,
      "alam": 1567,
      "ase_": 1568,
      "tern": 1569,
      "y_F": 1570,
      "omen": 1571,
      "Caly": 1572,
      "ita": 1573,
      "ady": 1574,
      "adventure": 1575,
      "agg": 1576,
      "age_": 1577,
      "_William": 1578,
      "2009_film": 1579,
      "abes": 1580,
      "Anton": 1581,
      "um_": 1582,
      "_Target": 1583,
      "_Jon": 1584,
      "ept": 1585,
      "less": 1586,
      "Cafe_M": 1587,
      "sequ": 1588,
      "antom": 1589,
      "_Style": 1590,
      "iko_": 1591,
      "George_": 1592,
      "Phantom": 1593,
      "s_of_the_": 1594,
      "_The_Fourteenth": 1595,
      "Carry_On_Cabby": 1596,
      "Cadet": 1597,
      "Italian_Style": 1598,
      "_Newman": 1599,
      "Cannonball_Run_": 1600,
      "Casa_de_": 1601,
      "Cain_and_Ab": 1602,
      "Caprice_Italian_Style": 1603,
      "follows": 1604,
      "Call_Girl_": 1605,
      "Deadly_": 1606,
      "Caribbean": 1607,
      "Wendy": 1608,
      "Caesar_and_Otto": 1609,
      "_The_Fourteenth_Target": 1610,
      "Cannonball_Run_II": 1611,
      "Cain_and_Abel_": 1612,
      "Er": 1613,
      "Eric": 1614,
      "Gab": 1615,
      "Jay": 1616,
      "Jess": 1617,
      "Luc": 1618,
      "Vir": 1619,
      "dom": 1620,
      "gr": 1621,
      "iu": 1622,
      "mi": 1623,
      "nam": 1624,
      "ya": 1625,
      "int": 1626,
      "ings": 1627,
      "among": 1628,
      "ato": 1629,
      "Calap": 1630,
      "Canv": 1631,
      "actical": 1632,
      "ford": 1633,
      "raw": 1634,
      "ever": 1635,
      "ewart": 1636,
      "oyd": 1637,
      "Casanova": 1638,
      "racass": 1639,
      "Capitol": 1640,
      "Darkest": 1641,
      "ograph": 1642,
      "second": 1643,
      "Virg": 1644,
      "Bel_": 1645,
      "Girl": 1646,
      "Jun": 1647,
      "My": 1648,
      "Mur": 1649,
      "Mau": 1650,
      "Nat": 1651,
      "Ty": 1652,
      "Tel": 1653,
      "Tur": 1654,
      "World": 1655,
      "fred": 1656,
      "ky_": 1657,
      "mo": 1658,
      "oe": 1659,
      "s_B": 1660,
      "t_B": 1661,
      "t_Sto": 1662,
      "uel": 1663,
      "ve": 1664,
      "way": 1665,
      "ym": 1666,
      "ari_": 1667,
      "iles": 1668,
      "thy": 1669,
      "ries": 1670,
      "and_S": 1671,
      "ando_": 1672,
      "elf": 1673,
      "eles": 1674,
      "a_P": 1675,
      "ata_": 1676,
      "_Sch": 1677,
      "This": 1678,
      "o_F": 1679,
      "Capp": 1680,
      "etter": 1681,
      "agger": 1682,
      "ayalam": 1683,
      "Ami_": 1684,
      "_Rock": 1685,
      "_Dy": 1686,
      "forcer": 1687,
      "elli": 1688,
      "2011_film": 1689,
      "Mario_": 1690,
      "ichol": 1691,
      "apph": 1692,
      "abeth": 1693,
      "_The_Movie": 1694,
      "_Nation": 1695,
      "ney_": 1696,
      "Alan": 1697,
      "1982_film": 1698,
      "shall": 1699,
      "i_c": 1700,
      "ants": 1701,
      "_and_R": 1702,
      "1948_film": 1703,
      "ational": 1704,
      "California_Dream": 1705,
      "Practical": 1706,
      "Union": 1707,
      "Cars_3": 1708,
      "Harold": 1709,
      "Carbon_Nation": 1710,
      "Brian": 1711,
      "Malayalam": 1712,
      "pso_": 1713,
      "Japanese": 1714,
      "Before_the_": 1715,
      "Bed_of": 1716,
      "Patrick": 1717,
      "Barbara_": 1718,
      "Captain_Fracass": 1719,
      "1926_": 1720,
      "Calypso_": 1721,
      "Calapor_": 1722,
      "Capitol_": 1723,
      "Bel_Ami_": 1724,
      "apphire": 1725,
      "Award": 1726,
      "Flor": 1727,
      "Jr": 1728,
      "Meg": 1729,
      "Nick": 1730,
      "Pran": 1731,
      "Ram": 1732,
      "down": 1733,
      "ja": 1734,
      "pol": 1735,
      "von": 1736,
      "stri": 1737,
      "Caram": 1738,
      "ova": 1739,
      "Canada": 1740,
      "abu": 1741,
      "ucamong": 1742,
      "George": 1743,
      "Enforcer": 1744,
      "animated": 1745,
      "Crimson": 1746,
      "ucamonga": 1747,
      "Aust": 1748,
      "Cinem": 1749,
      "Day": 1750,
      "Mo": 1751,
      "Mon": 1752,
      "aunt": 1753,
      "bet": 1754,
      "cart": 1755,
      "has": 1756,
      "ks": 1757,
      "pt": 1758,
      "pres": 1759,
      "su": 1760,
      "vad": 1761,
      "ying": 1762,
      "erman": 1763,
      "orig": 1764,
      "Caramb": 1765,
      "Car_Wash": 1766,
      "_Smith": 1767,
      "ous_": 1768,
      "usband": 1769,
      "Casi_c": 1770,
      "ire_": 1771,
      "ada_": 1772,
      "agu": 1773,
      "Captive": 1774,
      "aka": 1775,
      "_the_Sh": 1776,
      "ard_": 1777,
      "ull": 1778,
      "_For": 1779,
      "Bees": 1780,
      "_That": 1781,
      "Captain_Newman": 1782,
      "March": 1783,
      "Camp_Blood": 1784,
      "Camp_Rock": 1785,
      "nifer": 1786,
      "_of_Blu": 1787,
      "_The_Phantom": 1788,
      "_The_Darkest": 1789,
      "Carry_On_Girls": 1790,
      "_Tin": 1791,
      "Allan": 1792,
      "_Story": 1793,
      "ountdown": 1794,
      "1995_film": 1795,
      "1994_film": 1796,
      "ation_": 1797,
      "ette": 1798,
      "ist_of_Blu": 1799,
      "lanc": 1800,
      "e_Sapphire": 1801,
      "oster": 1802,
      "izard": 1803,
      "acher": 1804,
      "Caged_Fur": 1805,
      "1914": 1806,
      "_The_Fist_of_Blu": 1807,
      "Charles_H": 1808,
      "y_Rick": 1809,
      "aker_Street": 1810,
      "Blood": 1811,
      "Povest": 1812,
      "p_the_Music": 1813,
      "_Nightmare": 1814,
      "voice_": 1815,
      "_App": 1816,
      "If_You_Can_": 1817,
      "_of_Baker_Street": 1818,
      "character": 1819,
      "Captain_Thunder_": 1820,
      "Camp_Cucamonga": 1821,
      "Jennifer": 1822,
      "t_Stop_the_Music": 1823,
      "Cappy_Rick": 1824,
      "Caramel_": 1825,
      "cartier": 1826,
      "Carambola": 1827,
      "Car_Wash_": 1828,
      "Casi_casi": 1829,
      "_The_Phantom_of_Baker_Street": 1830,
      "_The_Darkest_Nightmare": 1831,
      "Caged_Fury_": 1832,
      "_The_Fist_of_Blue_Sapphire": 1833,
      "Kar": 1834,
      "Mount": 1835,
      "Matt": 1836,
      "Ray": 1837,
      "Sand": 1838,
      "Sean": 1839,
      "Sept": 1840,
      "bot": 1841,
      "ei": 1842,
      "ein": 1843,
      "friend": 1844,
      "ge": 1845,
      "my": 1846,
      "aron": 1847,
      "incl": 1848,
      "rel": 1849,
      "right": 1850,
      "encer": 1851,
      "ander": 1852,
      "ala": 1853,
      "icul": 1854,
      "add": 1855,
      "acon": 1856,
      "ode": 1857,
      "2007": 1858,
      "arsh": 1859,
      "assage": 1860,
      "here": 1861,
      "Rao": 1862,
      "Bruc": 1863,
      "inds": 1864,
      "Arm": 1865,
      "ubl": 1866,
      "ucky": 1867,
      "Candyman": 1868,
      "Greg": 1869,
      "Luis": 1870,
      "Helen": 1871,
      "September": 1872,
      "Pound": 1873,
      "War": 1874,
      "_Am": 1875,
      "_Jo": 1876,
      "hel": 1877,
      "tain": 1878,
      "ero_": 1879,
      "ington": 1880,
      "e_film": 1881,
      "e_Ar": 1882,
      "filmm": 1883,
      "ed_B": 1884,
      "a_B": 1885,
      "y_of": 1886,
      "ould": 1887,
      "of_": 1888,
      "olog": 1889,
      "_Bur": 1890,
      "_Mart": 1891,
      "_Mass": 1892,
      "_Meet": 1893,
      "eta_": 1894,
      "_Cl": 1895,
      "_Countdown": 1896,
      "ove_": 1897,
      "Call_O": 1898,
      "_Hol": 1899,
      "s_L": 1900,
      "s_Wendy": 1901,
      "the_Enforcer": 1902,
      "_Roth": 1903,
      "acre": 1904,
      "ompany": 1905,
      "_the_F": 1906,
      "_Gen": 1907,
      "_Do": 1908,
      "_Du": 1909,
      "Beatric": 1910,
      "_Woman": 1911,
      "_Wizard": 1912,
      "2016": 1913,
      "Cat_on": 1914,
      "Cat_Pe": 1915,
      "_Pr": 1916,
      "Marshall": 1917,
      "Campbell": 1918,
      "Ang": 1919,
      "_The_Crimson": 1920,
      "American_B": 1921,
      "States": 1922,
      "opher": 1923,
      "ople_": 1924,
      "_Te": 1925,
      "i_O": 1926,
      "_Ep": 1927,
      "Catch_and_R": 1928,
      "otti": 1929,
      "_of_the_Century": 1930,
      "Call_Me_L": 1931,
      "Call_Me_M": 1932,
      "Canner": 1933,
      "esses": 1934,
      "1927_film": 1935,
      "e_Letter": 1936,
      "_a_Hot": 1937,
      "Camera_": 1938,
      "Calamari_": 1939,
      "Carmen": 1940,
      "Casper_Meet": 1941,
      "_Love_Letter": 1942,
      "Career_": 1943,
      "22_": 1944,
      "elease_": 1945,
      "_Roof_": 1946,
      "Forest": 1947,
      "_born_": 1948,
      "_to_Heaven": 1949,
      "2021_film": 1950,
      "Jungle": 1951,
      "_Zero_": 1952,
      "_The_Last_Wizard": 1953,
      "Gerald_Thomas": 1954,
      "e_de_cartier": 1955,
      "_Williams": 1956,
      "_Tin_Roof_": 1957,
      "Poveste_de_cartier": 1958,
      "_Countdown_to_Heaven": 1959,
      "Cat_on_a_Hot": 1960,
      "Cat_People_": 1961,
      "_The_Crimson_Love_Letter": 1962,
      "Catch_and_Release_": 1963,
      "Call_Me_Lucky": 1964,
      "Calamari_Union": 1965,
      "Casper_Meets_Wendy": 1966,
      "_Zero_the_Enforcer": 1967,
      "_The_Last_Wizard_of_the_Century": 1968,
      "Cat_on_a_Hot_Tin_Roof_": 1969,
      "Ash": 1970,
      "Dick": 1971,
      "Fern": 1972,
      "Ral": 1973,
      "Sch": 1974,
      "Vinc": 1975,
      "cre": 1976,
      "cat": 1977,
      "kers": 1978,
      "sol": 1979,
      "ved": 1980,
      "ween": 1981,
      "anish": 1982,
      "erb": 1983,
      "along": 1984,
      "distri": 1985,
      "Caresses": 1986,
      "Cassh": 1987,
      "Being": 1988,
      "form": 1989,
      "Closed": 1990,
      "2000": 1991,
      "ucc": 1992,
      "She": 1993,
      "ourage": 1994,
      "eginning": 1995,
      "iction": 1996,
      "Heart": 1997,
      "Christian": 1998,
      "Jonathan": 1999,
      "caus": 2000,
      "Abb": 2001,
      "Simon": 2002,
      "Nicol": 2003,
      "Talbot": 2004,
      "sequel": 2005,
      "Telug": 2006,
      "between": 2007,
      "Mountain": 2008,
      "Ralph": 2009,
      "distribut": 2010,
      "Casshern": 2011,
      "Cy": 2012,
      "Del": 2013,
      "Dean": 2014,
      "Iv": 2015,
      "Min": 2016,
      "Roman": 2017,
      "Wood": 2018,
      "Yama": 2019,
      "_2": 2020,
      "ds": 2021,
      "hist": 2022,
      "kin": 2023,
      "mir": 2024,
      "not": 2025,
      "sl": 2026,
      "sen": 2027,
      "tr": 2028,
      "two": 2029,
      "án": 2030,
      "iny": 2031,
      "ory_": 2032,
      "enberg": 2033,
      "aly": 2034,
      "a_Jo": 2035,
      "ato_": 2036,
      "osm": 2037,
      "Careles": 2038,
      "_Se": 2039,
      "ittor": 2040,
      "ley_": 2041,
      "_Barr": 2042,
      "_Bill": 2043,
      "_Bacon": 2044,
      "_Mag": 2045,
      "unicul": 2046,
      "_A_Sp": 2047,
      "ult": 2048,
      "Best": 2049,
      "Becaus": 2050,
      "elly": 2051,
      "raper": 2052,
      "2012": 2053,
      "_Pol": 2054,
      "Camp_Wil": 2055,
      "Rock": 2056,
      "rick": 2057,
      "Carry_On_Lov": 2058,
      "_Jack": 2059,
      "1986_film": 2060,
      "1936_film": 2061,
      "scraper": 2062,
      "_Shar": 2063,
      "_Shut": 2064,
      "Brown": 2065,
      "Canned": 2066,
      "Cannes": 2067,
      "Candy_Rain": 2068,
      "Candy_Mountain": 2069,
      "Castle_in": 2070,
      "Capricorn_": 2071,
      "_The_Final": 2072,
      "Cash_and": 2073,
      "Sealed": 2074,
      "s_Clos": 2075,
      "ombed": 2076,
      "kyscraper": 2077,
      "Tony_": 2078,
      "erry_": 2079,
      "Walter": 2080,
      "Capital": 2081,
      "Premi": 2082,
      "_Dog_": 2083,
      "porting": 2084,
      "Max": 2085,
      "Carry_on_Jatta_2": 2086,
      "Pierr": 2087,
      "_Henry": 2088,
      "Susan": 2089,
      "Catch_Me_": 2090,
      "Caligula_": 2091,
      "awtrey_": 2092,
      "irited_B": 2093,
      "premiered": 2094,
      "Turbo": 2095,
      "Charles_Hawtrey_": 2096,
      "voice_actor": 2097,
      "Beatrice_": 2098,
      "Cannery_R": 2099,
      "_born_1914": 2100,
      "Casshern_": 2101,
      "Careless_L": 2102,
      "_Bill_Elliott": 2103,
      "_A_Spirited_B": 2104,
      "Camp_Wilder": 2105,
      "Carry_On_Loving": 2106,
      "Candy_Rain_": 2107,
      "Capricorn_One": 2108,
      "s_Closet": 2109,
      "_A_Spirited_Beginning": 2110,
      "71": 2111,
      "Ja": 2112,
      "Khy": 2113,
      "Larr": 2114,
      "New": 2115,
      "Sy": 2116,
      "Up": 2117,
      "Ven": 2118,
      "Will": 2119,
      "Wak": 2120,
      "Yam": 2121,
      "aus": 2122,
      "col": 2123,
      "gain": 2124,
      "oor": 2125,
      "ral": 2126,
      "sm": 2127,
      "sp": 2128,
      "zaki": 2129,
      "orical": 2130,
      "edd": 2131,
      "Cars": 2132,
      "ough": 2133,
      "olt": 2134,
      "Casab": 2135,
      "ots": 2136,
      "idd": 2137,
      "ents": 2138,
      "ign": 2139,
      "rab": 2140,
      "2010": 2141,
      "Chan": 2142,
      "umar": 2143,
      "Caliber": 2144,
      "Cage": 2145,
      "Spencer": 2146,
      "Prairie": 2147,
      "razil": 2148,
      "escu": 2149,
      "ouglas": 2150,
      "filmmaker": 2151,
      "historical": 2152,
      "Khyber": 2153,
      "Be_": 2154,
      "Denn": 2155,
      "Fab": 2156,
      "Lor": 2157,
      "Nichol": 2158,
      "Rep": 2159,
      "Sl": 2160,
      "Women": 2161,
      "_7": 2162,
      "_Card": 2163,
      "aal": 2164,
      "bin": 2165,
      "ders": 2166,
      "doc": 2167,
      "fiction": 2168,
      "ient": 2169,
      "lers": 2170,
      "ly_W": 2171,
      "ron": 2172,
      "self": 2173,
      "er_": 2174,
      "erm": 2175,
      "ila_": 2176,
      "riel": 2177,
      "ali": 2178,
      "esl": 2179,
      "is_B": 2180,
      "Caleta_": 2181,
      "Cart": 2182,
      "_Skyscraper": 2183,
      "oft": 2184,
      "Cape_No": 2185,
      "ition": 2186,
      "_Ball": 2187,
      "_Mac": 2188,
      "_Mous": 2189,
      "_Miller": 2190,
      "_Mabel": 2191,
      "Case_": 2192,
      "ete": 2193,
      "_Cor": 2194,
      "_Cur": 2195,
      "ura_M": 2196,
      "illesp": 2197,
      "s_Dream": 2198,
      "aine": 2199,
      "_Ra": 2200,
      "_Rush": 2201,
      "ardless": 2202,
      "ardly_W": 2203,
      "_Far": 2204,
      "Captain_V": 2205,
      "2012_film": 2206,
      "Chris": 2207,
      "app": 2208,
      "_The_Tim": 2209,
      "_The_Sealed": 2210,
      "_Tr": 2211,
      "Johnn": 2212,
      "les_": 2213,
      "i_Yam": 2214,
      "Cafe_S": 2215,
      "1942_film": 2216,
      "1955_film": 2217,
      "1958_film": 2218,
      "1952_film": 2219,
      "ight_": 2220,
      "California_F": 2221,
      "egardless": 2222,
      "production": 2223,
      "lanca": 2224,
      "ustlers": 2225,
      "_Christ": 2226,
      "azz": 2227,
      "III": 2228,
      "reaming": 2229,
      "Adam": 2230,
      "e_Bombed": 2231,
      "Carry_On_Camping": 2232,
      "Spanish": 2233,
      "North": 2234,
      "Cars_2": 2235,
      "Pover": 2236,
      "Belle_m": 2237,
      "e_of_the_": 2238,
      "ansen": 2239,
      "Casa_d": 2240,
      "Cain_and_Mabel": 2241,
      "Castle_of_Sand": 2242,
      "Carry_on_Jatta_3": 2243,
      "Power_Rangers_Turbo": 2244,
      "Carry_On_Up_the_Khyber": 2245,
      "Joan_Sim": 2246,
      "Calvary_": 2247,
      "ovie_2": 2248,
      "Cardcaptor_Sakura_M": 2249,
      "t_Hardly_W": 2250,
      "Beautiful_But": 2251,
      "del_sol": 2252,
      "Calcutta_71": 2253,
      "ternational": 2254,
      "_Jones": 2255,
      "Mauric": 2256,
      "Cinema_of": 2257,
      "includ": 2258,
      "_Massacre": 2259,
      "_Rothwell": 2260,
      "Talbot_Rothwell": 2261,
      "Yamazaki": 2262,
      "Caliber_9": 2263,
      "Caleta_del_sol": 2264,
      "_Mouse_": 2265,
      "illespie": 2266,
      "_The_Time_Bombed": 2267,
      "_The_Sealed_Card": 2268,
      "Cafe_Society_": 2269,
      "Belle_maman": 2270,
      "Joan_Sims": 2271,
      "Cardcaptor_Sakura_Movie_2": 2272,
      "t_Hardly_Wait": 2273,
      "_The_Time_Bombed_Skyscraper": 2274,
      "Ac": 2275,
      "Air": 2276,
      "Dan": 2277,
      "Ka": 2278,
      "Pat": 2279,
      "Smith": 2280,
      "South": 2281,
      "Wall": 2282,
      "cen": 2283,
      "eu": 2284,
      "ij": 2285,
      "last": 2286,
      "loyd": 2287,
      "part": 2288,
      "pants": 2289,
      "sound": 2290,
      "uch": 2291,
      "aru": 2292,
      "ano": 2293,
      "inger": 2294,
      "onz": 2295,
      "reg": 2296,
      "thon": 2297,
      "tertain": 2298,
      "osc": 2299,
      "ose": 2300,
      "ouch": 2301,
      "Capot": 2302,
      "2020": 2303,
      "over": 2304,
      "Clark": 2305,
      "2015": 2306,
      "2017": 2307,
      "Mark": 2308,
      "2006": 2309,
      "2008": 2310,
      "estiny": 2311,
      "aust": 2312,
      "shot": 2313,
      "1992": 2314,
      "assion": 2315,
      "atti": 2316,
      "ideo": 2317,
      "Bellissim": 2318,
      "Island": 2319,
      "Christopher": 2320,
      "India": 2321,
      "Cassid": 2322,
      "Kingdom": 2323,
      "riday": 2324,
      "Underpants": 2325,
      "supporting": 2326,
      "aguchi": 2327,
      "osmos": 2328,
      "At": 2329,
      "Aug": 2330,
      "Corn": 2331,
      "Hay": 2332,
      "Hud": 2333,
      "Hung": 2334,
      "Ik": 2335,
      "Iw": 2336,
      "Ju": 2337,
      "Krist": 2338,
      "Lion": 2339,
      "Mor": 2340,
      "Post": 2341,
      "Prep": 2342,
      "VIII": 2343,
      "_Captured": 2344,
      "aqu": 2345,
      "during": 2346,
      "gu": 2347,
      "my_": 2348,
      "no": 2349,
      "oz": 2350,
      "pse": 2351,
      "ta": 2352,
      "uori": 2353,
      "went": 2354,
      "woman": 2355,
      "yes": 2356,
      "és": 2357,
      "aret": 2358,
      "in_": 2359,
      "ine_L": 2360,
      "ero": 2361,
      "ery": 2362,
      "il_": 2363,
      "e_E": 2364,
      "e_You": 2365,
      "film_": 2366,
      "andra": 2367,
      "als": 2368,
      "al_C": 2369,
      "as_B": 2370,
      "a_Hot": 2371,
      "omin": 2372,
      "_Saf": 2373,
      "olf": 2374,
      "olk": 2375,
      "Capern": 2376,
      "_Ba": 2377,
      "_Mal": 2378,
      "_Mur": 2379,
      "Camino_": 2380,
      "admi": 2381,
      "_Cosmos": 2382,
      "ura_": 2383,
      "ure_film": 2384,
      "Call_of": 2385,
      "_Hop": 2386,
      "Can_Th": 2387,
      "aye": 2388,
      "ayama": 2389,
      "Amma_": 2390,
      "_Regardless": 2391,
      "musician": 2392,
      "odd": 2393,
      "odr": 2394,
      "_Ar": 2395,
      "_At": 2396,
      "_Friday": 2397,
      "Cat_Run": 2398,
      "_Luck": 2399,
      "Camp_": 2400,
      "nie": 2401,
      "_Kh": 2402,
      "Carry_On_Jatt": 2403,
      "Carry_On_Te": 2404,
      "Carry_On_Regardless": 2405,
      "Allen": 2406,
      "Shir": 2407,
      "1962_film": 2408,
      "i_ma_": 2409,
      "_Eyes": 2410,
      "ewell": 2411,
      "athi": 2412,
      "_States": 2413,
      "away": 2414,
      "1993_film": 2415,
      "1991_film": 2416,
      "California": 2417,
      "release": 2418,
      "Brun": 2419,
      "lyn": 2420,
      "Praj": 2421,
      "feature_film": 2422,
      "Captive_Heart": 2423,
      "José": 2424,
      "Cabaret": 2425,
      "Camping_Cosmos": 2426,
      "_in_Her": 2427,
      "_in_Paradi": 2428,
      "other": 2429,
      "1914_film": 2430,
      "e_Dix": 2431,
      "ana_Yamazaki": 2432,
      "Campus_": 2433,
      "_Heroes": 2434,
      "Canadian_Bacon": 2435,
      "Calmi": 2436,
      "urtis": 2437,
      "Queer": 2438,
      "United_States": 2439,
      "Camping_2": 2440,
      "Kenneth_Williams": 2441,
      "_Takayama": 2442,
      "Lauren": 2443,
      "Carnival": 2444,
      "Carry_On_Up_the_Jungle": 2445,
      "...": 2446,
      "Came_a_Hot": 2447,
      "ami_Takayama": 2448,
      "Claude_": 2449,
      "Call_It_Luck": 2450,
      "Akir": 2451,
      "rawn": 2452,
      "Captain_Fracasse_": 2453,
      "1926_feature_film": 2454,
      "Austral": 2455,
      "usbands": 2456,
      "lanca_": 2457,
      "ublic": 2458,
      "_Amb": 2459,
      "i_Og": 2460,
      "distributed": 2461,
      "Minami_Takayama": 2462,
      "Wakana_Yamazaki": 2463,
      "Casablanca_": 2464,
      "Dennis": 2465,
      "docum": 2466,
      "is_Be_Dix": 2467,
      "Poveri_ma_": 2468,
      "assionati": 2469,
      "Bellissima_": 2470,
      "August": 2471,
      "_Captured_in_Her": 2472,
      "Caperna": 2473,
      "Call_of_Heroes": 2474,
      "Can_This_Be_Dix": 2475,
      "Carry_On_Jatta": 2476,
      "Carry_On_Teacher": 2477,
      "Captive_Hearts_": 2478,
      "Came_a_Hot_Friday": 2479,
      "Poveri_ma_ric": 2480,
      "_Captured_in_Her_Eyes": 2481,
      "Can_This_Be_Dixie": 2482,
      "0s": 2483,
      "Apr": 2484,
      "Brawn": 2485,
      "Craz": 2486,
      "Est": 2487,
      "Gr": 2488,
      "Hugh": 2489,
      "Kim": 2490,
      "Lam": 2491,
      "Mes": 2492,
      "Mac": 2493,
      "Mah": 2494,
      "Oct": 2495,
      "Ron": 2496,
      "Sing": 2497,
      "Sal": 2498,
      "Te": 2499,
      "To": 2500,
      "Without": 2501,
      "Xmas": 2502,
      "aby": 2503,
      "blanca": 2504,
      "cinem": 2505,
      "fire": 2506,
      "hu": 2507,
      "iè": 2508,
      "ied": 2509,
      "iev": 2510,
      "ling": 2511,
      "uart": 2512,
      "wee": 2513,
      "wagger": 2514,
      "inst": 2515,
      "arren": 2516,
      "rik": 2517,
      "asil": 2518,
      "atana": 2519,
      "ouds": 2520,
      "olph": 2521,
      "let": 2522,
      "letto": 2523,
      "ird": 2524,
      "chin": 2525,
      "agi": 2526,
      "ota": 2527,
      "otblanca": 2528,
      "Cantin": 2529,
      "ayi": 2530,
      "iving": 2531,
      "Carrotblanca": 2532,
      "Clouds": 2533,
      "2018": 2534,
      "Americath": 2535,
      "2009": 2536,
      "Anthon": 2537,
      "rank": 2538,
      "Alfred": 2539,
      "ttack": 2540,
      "ighatana": 2541,
      "while": 2542,
      "aster": 2543,
      "udd": 2544,
      "Art": 2545,
      "Deb": 2546,
      "Georges": 2547,
      "Kenich": 2548,
      "atsui": 2549,
      "urns": 2550,
      "ussian": 2551,
      "Pratighatana": 2552,
      "appearance": 2553,
      "inkansen": 2554,
      "aunted": 2555,
      "vaders": 2556,
      "Abbayi": 2557,
      "Cageman": 2558,
      "April": 2559,
      "Crazy": 2560,
      "Cantinfl": 2561,
      "Americathon": 2562,
      "Ber": 2563,
      "Bry": 2564,
      "Fl": 2565,
      "Flesh": 2566,
      "Hatt": 2567,
      "Jason": 2568,
      "Kappe": 2569,
      "Mad": 2570,
      "Pun": 2571,
      "Ren": 2572,
      "Tai": 2573,
      "Your": 2574,
      "_54": 2575,
      "bi": 2576,
      "cle": 2577,
      "je": 2578,
      "la_": 2579,
      "life": 2580,
      "mi_": 2581,
      "oore": 2582,
      "pad": 2583,
      "ras": 2584,
      "ross": 2585,
      "s_H": 2586,
      "ty": 2587,
      "ue_": 2588,
      "water": 2589,
      "za": 2590,
      "arou": 2591,
      "aria": 2592,
      "indi": 2593,
      "into": 2594,
      "eration": 2595,
      "on_": 2596,
      "rey": 2597,
      "this": 2598,
      "thro": 2599,
      "rison": 2600,
      "ed_": 2601,
      "and_Girl": 2602,
      "ic_M": 2603,
      "a_F": 2604,
      "a_V": 2605,
      "a_letto": 2606,
      "ise": 2607,
      "y_P": 2608,
      "am_B": 2609,
      "Cal_": 2610,
      "Calvent": 2611,
      "Carth": 2612,
      "Car_Dog": 2613,
      "Car_54": 2614,
      "_Sav": 2615,
      "_Society_": 2616,
      "olo": 2617,
      "_Mor": 2618,
      "_Mount": 2619,
      "_Cop": 2620,
      "_Cuori": 2621,
      "_Husbands": 2622,
      "s_Deadly_": 2623,
      "s_and_Girl": 2624,
      "the_Brawn": 2625,
      "_Rat": 2626,
      "_Roman": 2627,
      "ows": 2628,
      "akes": 2629,
      "_the_Air": 2630,
      "_Gl": 2631,
      "_Gordon": 2632,
      "_Gillespie": 2633,
      "ion_H": 2634,
      "_De": 2635,
      "odarou": 2636,
      "_A_F": 2637,
      "_Again": 2638,
      "_Aadmi": 2639,
      "_Attack": 2640,
      "fore": 2641,
      "ella": 2642,
      "_Wal": 2643,
      "_Wher": 2644,
      "_Wild": 2645,
      "ig_Night": 2646,
      "Captain_P": 2647,
      "Captain_L": 2648,
      "Captain_of_the_": 2649,
      "Captain_of_D": 2650,
      "Captains_of_the_": 2651,
      "2014": 2652,
      "2016_film": 2653,
      "_Pick": 2654,
      "Maria_": 2655,
      "Marines": 2656,
      "_Nem": 2657,
      "umm": 2658,
      "Stan": 2659,
      "State": 2660,
      "oper": 2661,
      "opodarou": 2662,
      "Carry_On_Sp": 2663,
      "Carry_On_Sc": 2664,
      "Carry_On_Cle": 2665,
      "Carry_On_Again": 2666,
      "_Jr": 2667,
      "e_Claus": 2668,
      "Aless": 2669,
      "Candlesh": 2670,
      "Catch_That": 2671,
      "1933_film": 2672,
      "organ": 2673,
      "Pras": 2674,
      "Prod": 2675,
      "oyama": 2676,
      "Call_Me_Claus": 2677,
      "Lee_": 2678,
      "ive_Film": 2679,
      "Café_Society_": 2680,
      "producer": 2681,
      "Call_of_the_Blood": 2682,
      "Call_of_the_Forest": 2683,
      "Call_of_the_Prairie": 2684,
      "anna": 2685,
      "annah": 2686,
      "Charl": 2687,
      "ibara": 2688,
      "Cain_X": 2689,
      "Camere_d": 2690,
      "reams": 2691,
      "Adventure": 2692,
      "ildare": 2693,
      "Caravagg": 2694,
      "1917_film": 2695,
      "_The_First": 2696,
      "Guard_": 2697,
      "Call_Me_Crazy": 2698,
      "Calling_All_Cur": 2699,
      "Calling_All_Husbands": 2700,
      "Calendar_Girls": 2701,
      "Captain_Underpants": 2702,
      "3F_": 2703,
      "Canadian_Mount": 2704,
      "_Invaders": 2705,
      "Camping_3": 2706,
      "Cannonball_": 2707,
      "Sid_James": 2708,
      "Camelot_": 2709,
      "Calendar_Girl_": 2710,
      "005": 2711,
      "Captain_Swagger": 2712,
      "Praktor": 2713,
      "years": 2714,
      "_Boys_and_Girl": 2715,
      "ies_vs": 2716,
      "Ruth": 2717,
      "Came_the_Brawn": 2718,
      "omic_Invaders": 2719,
      "_Roses_": 2720,
      "_of_Dreams": 2721,
      "Andrew": 2722,
      "adaptation": 2723,
      "s_on_the_Sh": 2724,
      "Caravans_": 2725,
      "Wilson": 2726,
      "America_Abbayi": 2727,
      "Caribbean_Roman": 2728,
      "Canvas_": 2729,
      "s_Big_Night": 2730,
      "Practical_Jo": 2731,
      "Bed_of_Roses_": 2732,
      "_Appassionati": 2733,
      "friends": 2734,
      "e_Are_You": 2735,
      "_Doctor": 2736,
      "_Epic_M": 2737,
      "i_Yamaguchi": 2738,
      "_Christmas": 2739,
      "Capote_": 2740,
      "Hudson": 2741,
      "_Atomic_Invaders": 2742,
      "Calmi_Cuori": 2743,
      "Queer_Boys_and_Girl": 2744,
      "Capernaum_": 2745,
      "aunted_Christmas": 2746,
      "Cantinflas_": 2747,
      "Kappei_Yamaguchi": 2748,
      "padre": 2749,
      "s_Haunted_Christmas": 2750,
      "Car_Dogs": 2751,
      "s_Deadly_Xmas": 2752,
      "_A_Five_Film": 2753,
      "_Where_Are_You": 2754,
      "Captain_of_the_Guard_": 2755,
      "Captain_of_Destiny": 2756,
      "Captains_of_the_Clouds": 2757,
      "Carry_On_Spying": 2758,
      "Carry_On_Screaming": 2759,
      "Carry_On_Cleo": 2760,
      "Carry_On_Again_Doctor": 2761,
      "Candleshoe": 2762,
      "Catch_That_Kid": 2763,
      "Call_of_the_Blood_": 2764,
      "Call_of_the_Forest_": 2765,
      "Cain_XVIII": 2766,
      "Camere_da_letto": 2767,
      "Caravaggio": 2768,
      "_The_First_Epic_M": 2769,
      "Calling_All_Curs": 2770,
      "Canadian_Mounties_vs": 2771,
      "s_on_the_Shinkansen": 2772,
      "Caribbean_Romance": 2773,
      "Practical_Jokers": 2774,
      "Calmi_Cuori_Appassionati": 2775,
      "Queer_Boys_and_Girls_on_the_Shinkansen": 2776,
      "_The_First_Epic_Movie": 2777,
      "),": 2778,
      "44": 2779,
      "Bett": 2780,
      "Bren": 2781,
      "Bert": 2782,
      "Fer": 2783,
      "Fox": 2784,
      "Hindi": 2785,
      "Kh": 2786,
      "Mat": 2787,
      "Nan": 2788,
      "Sak": 2789,
      "Viv": 2790,
      "ble": 2791,
      "been": 2792,
      "brand": 2793,
      "compos": 2794,
      "ih": 2795,
      "ired": 2796,
      "jo": 2797,
      "jee": 2798,
      "low": 2799,
      "law": 2800,
      "med": 2801,
      "par": 2802,
      "pocket": 2803,
      "sopodarou": 2804,
      "tan": 2805,
      "tell": 2806,
      "uv": 2807,
      "vey": 2808,
      "aril": 2809,
      "ilbert": 2810,
      "orth": 2811,
      "only": 2812,
      "enant": 2813,
      "ctive": 2814,
      "dit": 2815,
      "asc": 2816,
      "osely": 2817,
      "Care": 2818,
      "cher": 2819,
      "chos": 2820,
      "etto": 2821,
      "angath": 2822,
      "entary": 2823,
      "raight": 2824,
      "utthro": 2825,
      "Ont": 2826,
      "Chuck": 2827,
      "Straight": 2828,
      "rant": 2829,
      "ocas": 2830,
      "rysopodarou": 2831,
      "antas": 2832,
      "Catchfire": 2833,
      "1942": 2834,
      "herit": 2835,
      "plot": 2836,
      "France": 2837,
      "Cannot": 2838,
      "Heat": 2839,
      "Entertain": 2840,
      "ipp": 2841,
      "Cameraman": 2842,
      "ynch": 2843,
      "Carlos": 2844,
      "before": 2845,
      "clone": 2846,
      "ambabu": 2847,
      "German": 2848,
      "arner": 2849,
      "aledetto": 2850,
      "Oliver": 2851,
      "Praktan": 2852,
      "Herbert": 2853,
      "loosely": 2854,
      "itchell": 2855,
      "Gabriel": 2856,
      "Raymond": 2857,
      "Telugu": 2858,
      "Cyclone": 2859,
      "Republic": 2860,
      "wenty": 2861,
      "documentary": 2862,
      "utthroats": 2863,
      "Entertainment": 2864,
      "30": 2865,
      "52": 2866,
      "Bal": 2867,
      "Bur": 2868,
      "Cec": 2869,
      "Glor": 2870,
      "Lloyd": 2871,
      "Sar": 2872,
      "Time": 2873,
      "Todd": 2874,
      "Us_": 2875,
      "Wat": 2876,
      "_il_": 2877,
      "_enant": 2878,
      "cember": 2879,
      "dy": 2880,
      "foot": 2881,
      "gi": 2882,
      "him": 2883,
      "host": 2884,
      "idi": 2885,
      "loc": 2886,
      "later": 2887,
      "na": 2888,
      "nomin": 2889,
      "ober": 2890,
      "pittor": 2891,
      "rat": 2892,
      "side": 2893,
      "tani": 2894,
      "uz": 2895,
      "uy_M": 2896,
      "ves": 2897,
      "vol": 2898,
      "vill": 2899,
      "war": 2900,
      "young": 2901,
      "inging": 2902,
      "ility": 2903,
      "e_54": 2904,
      "filmed": 2905,
      "ree_": 2906,
      "reak": 2907,
      "andy": 2908,
      "alact": 2909,
      "a_H": 2910,
      "am_": 2911,
      "oman_": 2912,
      "osp": 2913,
      "Caras_": 2914,
      "Car_9": 2915,
      "_Saal": 2916,
      "ita_": 2917,
      "_Bh": 2918,
      "_Bocas": 2919,
      "_Me": 2920,
      "_Movie_": 2921,
      "adu": 2922,
      "ural": 2923,
      "Call_J": 2924,
      "Calle_54": 2925,
      "_Hor": 2926,
      "Canada_": 2927,
      "s_R": 2928,
      "s_Island": 2929,
      "_Raj": 2930,
      "_Rome": 2931,
      "_the_Marines": 2932,
      "_Gangath": 2933,
      "ardo_": 2934,
      "anger": 2935,
      "idan": 2936,
      "_Day": 2937,
      "ods": 2938,
      "_A_New": 2939,
      "ular": 2940,
      "_Fer": 2941,
      "_Fle": 2942,
      "_Fish": 2943,
      "Joel": 2944,
      "_Woman_": 2945,
      "iva_": 2946,
      "2013": 2947,
      "Cat_V": 2948,
      "Cat_Ball": 2949,
      "Mary_": 2950,
      "ution": 2951,
      "ut_the_Marines": 2952,
      "_Lang": 2953,
      "_Live_": 2954,
      "umber": 2955,
      "Studi": 2956,
      "oph": 2957,
      "Carry_On_Jack": 2958,
      "Carry_On_Henry": 2959,
      "Carry_On_Pick": 2960,
      "1988_film": 2961,
      "ocaly": 2962,
      "Casta_D": 2963,
      "1963_film": 2964,
      "_Ev": 2965,
      "quite": 2966,
      "1951": 2967,
      "1958": 2968,
      "1954_film": 2969,
      "1950_film": 2970,
      "ourself": 2971,
      "International": 2972,
      "comedian": 2973,
      "Ray_": 2974,
      "Cage_of": 2975,
      "Calling_Wild": 2976,
      "Brad": 2977,
      "_Young": 2978,
      "_Yourself": 2979,
      "obb": 2980,
      "ashibara": 2981,
      "December": 2982,
      "e_Love_": 2983,
      "oko_M": 2984,
      "upp": 2985,
      "Cabin": 2986,
      "geria": 2987,
      "s_of_Rome": 2988,
      "Cardinal": 2989,
      "clar": 2990,
      "Carefree_": 2991,
      "Career_Woman_": 2992,
      "Calling_All_Mar": 2993,
      "s_Cutthroats": 2994,
      "es_005": 2995,
      "Canyon_Amb": 2996,
      "Harry_": 2997,
      "Calm_Yourself": 2998,
      "_Parade": 2999,
      "ussell": 3000,
      "Di_Fl": 3001,
      "Catch_Us_": 3002,
      "Paris": 3003,
      "_Takagi": 3004,
      "Care_Bears_Movie_": 3005,
      "Camel_Saf": 3006,
      "e_maledetto": 3007,
      "Calendar_Girls_": 3008,
      "Calendar_Girl_Mur": 3009,
      "Call_Girls_of_Rome": 3010,
      "Noah": 3011,
      "rough": 3012,
      "Yukiko_": 3013,
      "o_Rambabu": 3014,
      "leader": 3015,
      "Carson_City_Cyclone": 3016,
      "Cardcaptor_Sakura": 3017,
      "Elliott": 3018,
      "umi_Hay": 3019,
      "Naoko_M": 3020,
      "s_on_Parade": 3021,
      "Cadets_on_Parade": 3022,
      "Casa_de_mi_": 3023,
      "Murray": 3024,
      "moon": 3025,
      "t_Buy_M": 3026,
      "o_Files": 3027,
      "California_Dreamin": 3028,
      "Before_the_Post": 3029,
      "Megumi_Hay": 3030,
      "Bees_Saal": 3031,
      "Call_Out_the_Marines": 3032,
      "_Generation": 3033,
      "Cannes_Man": 3034,
      "aru_Takagi": 3035,
      "2020_film": 3036,
      "Ikue_": 3037,
      "Iwai": 3038,
      "Lionel": 3039,
      "_Baad_": 3040,
      "i_Ogata_": 3041,
      "Mesquite": 3042,
      "Without_You": 3043,
      "Kenichi_Ogata_": 3044,
      "Calvento_Files": 3045,
      "ion_Hrysopodarou": 3046,
      "Praktores_005": 3047,
      "Cannot_Live_": 3048,
      "Cameraman_Gangath": 3049,
      "Wataru_Takagi": 3050,
      "_il_pittor": 3051,
      "_enantion_Hrysopodarou": 3052,
      "alactic": 3053,
      "Car_99": 3054,
      "Call_Jane": 3055,
      "Canada_Di_Fl": 3056,
      "_A_New_Generation": 3057,
      "Cat_Vs": 3058,
      "Cat_Ballou": 3059,
      "Carry_On_Pickpocket": 3060,
      "Casta_Diva_": 3061,
      "Cage_of_Gold": 3062,
      "Calling_Wild_Bill_Elliott": 3063,
      "Calling_All_Marines": 3064,
      "Canyon_Ambush": 3065,
      "Catch_Us_If_You_Can_": 3066,
      "Care_Bears_Movie_II": 3067,
      "Camel_Safari": 3068,
      "Calendar_Girl_Murders": 3069,
      "Yukiko_Iwai": 3070,
      "Naoko_Matsui": 3071,
      "Casa_de_mi_padre": 3072,
      "t_Buy_Me_Love_": 3073,
      "Before_the_Postman": 3074,
      "Megumi_Hayashibara": 3075,
      "Bees_Saal_Baad_": 3076,
      "Mesquiteers": 3077,
      "Praktores_005_enantion_Hrysopodarou": 3078,
      "Cannot_Live_Without_You": 3079,
      "Cameraman_Gangatho_Rambabu": 3080,
      "_il_pittore_maledetto": 3081,
      "Canada_Di_Flight": 3082,
      "80": 3083,
      "Cries": 3084,
      "Dis": 3085,
      "Dev": 3086,
      "Douglas": 3087,
      "Feb": 3088,
      "Gl": 3089,
      "Hil": 3090,
      "Hong": 3091,
      "Ir": 3092,
      "Ice": 3093,
      "Jer": 3094,
      "Jas": 3095,
      "Kat": 3096,
      "Kell": 3097,
      "Lot": 3098,
      "Mé": 3099,
      "Mail": 3100,
      "Nov": 3101,
      "Right": 3102,
      "Spe": 3103,
      "Tak": 3104,
      "burn": 3105,
      "comp": 3106,
      "cons": 3107,
      "des": 3108,
      "iç": 3109,
      "key": 3110,
      "li": 3111,
      "lel": 3112,
      "love": 3113,
      "mark": 3114,
      "millon": 3115,
      "oh": 3116,
      "por": 3117,
      "sch": 3118,
      "vers": 3119,
      "yll": 3120,
      "ée": 3121,
      "Cather": 3122,
      "Caiç": 3123,
      "orter": 3124,
      "anda": 3125,
      "andir": 3126,
      "anders": 3127,
      "die": 3128,
      "elyn": 3129,
      "isabeth": 3130,
      "atter": 3131,
      "Carandir": 3132,
      "ito": 3133,
      "lett": 3134,
      "irc": 3135,
      "chez": 3136,
      "Camille": 3137,
      "agh": 3138,
      "Amour": 3139,
      "Captiv": 3140,
      "avy": 3141,
      "ida": 3142,
      "Beat": 3143,
      "Carroll": 3144,
      "raham": 3145,
      "Campfield": 3146,
      "apathi": 3147,
      "abaki": 3148,
      "Stewart": 3149,
      "Stuart": 3150,
      "ophy": 3151,
      "ocaust": 3152,
      "Candlel": 3153,
      "score": 3154,
      "olly": 3155,
      "ollerb": 3156,
      "ugen": 3157,
      "Lee": 3158,
      "Leigh": 3159,
      "Declar": 3160,
      "road": 3161,
      "Elisabeth": 3162,
      "ruary": 3163,
      "Tony": 3164,
      "work": 3165,
      "Columb": 3166,
      "orsese": 3167,
      "Keep": 3168,
      "aiting": 3169,
      "black": 3170,
      "Underwater": 3171,
      "Caprichos": 3172,
      "oneymoon": 3173,
      "777": 3174,
      "ymore": 3175,
      "original": 3176,
      "oulders": 3177,
      "ánchez": 3178,
      "Prajapathi": 3179,
      "abys": 3180,
      "chinos": 3181,
      "February": 3182,
      "millonaria": 3183,
      "Candlelight": 3184,
      "ollerbabes": 3185,
      "\",": 3186,
      "13": 3187,
      "Ay": 3188,
      "Com": 3189,
      "Cur": 3190,
      "Cind": 3191,
      "Eugen": 3192,
      "Gé": 3193,
      "Key": 3194,
      "Lis": 3195,
      "Long": 3196,
      "Love": 3197,
      "Rit": 3198,
      "Rod": 3199,
      "Rick": 3200,
      "Set": 3201,
      "Sai": 3202,
      "Ver": 3203,
      "Way": 3204,
      "Young": 3205,
      "_Capri": 3206,
      "came": 3207,
      "cio_": 3208,
      "cana_": 3209,
      "du": 3210,
      "eant": 3211,
      "eck": 3212,
      "father": 3213,
      "gent": 3214,
      "i_F": 3215,
      "i_K": 3216,
      "jit": 3217,
      "kins": 3218,
      "oos": 3219,
      "p_S": 3220,
      "prev": 3221,
      "ront": 3222,
      "round": 3223,
      "side_": 3224,
      "tim": 3225,
      "ues": 3226,
      "won": 3227,
      "zma": 3228,
      "ar_Sh": 3229,
      "in_Fl": 3230,
      "erl": 3231,
      "str": 3232,
      "arrett": 3233,
      "e_V": 3234,
      "e_and_S": 3235,
      "on_the_": 3236,
      "ence": 3237,
      "edu": 3238,
      "edle": 3239,
      "anda_": 3240,
      "and_the_": 3241,
      "alv": 3242,
      "a_y_": 3243,
      "y_K": 3244,
      "ams": 3245,
      "ame_": 3246,
      "am_Kh": 3247,
      "ative": 3248,
      "osophy": 3249,
      "Cala": 3250,
      "Car_B": 3251,
      "_Sr": 3252,
      "_Saw": 3253,
      "_Soft": 3254,
      "Thunder": 3255,
      "o_H": 3256,
      "o_and_the_": 3257,
      "Capcana_": 3258,
      "lez": 3259,
      "_Bar_": 3260,
      "_Banks": 3261,
      "_Mou": 3262,
      "irk": 3263,
      "adam_": 3264,
      "etr": 3265,
      "ets": 3266,
      "eturns": 3267,
      "_City": 3268,
      "Call_the_": 3269,
      "Call_N": 3270,
      "_Hugh": 3271,
      "_Honeymoon": 3272,
      "oto": 3273,
      "Can_": 3274,
      "s_Ey": 3275,
      "aylor": 3276,
      "the_Flesh": 3277,
      "_Rollerbabes": 3278,
      "accar": 3279,
      "ow_": 3280,
      "_Dav": 3281,
      "_Dub": 3282,
      "_Ahe": 3283,
      "berto": 3284,
      "_Wave": 3285,
      "_Waiting": 3286,
      "ived": 3287,
      "Captain_Nem": 3288,
      "_Pere": 3289,
      "Margar": 3290,
      "Chen": 3291,
      "_Name_": 3292,
      "ops": 3293,
      "emy": 3294,
      "evol": 3295,
      "_Jam": 3296,
      "John_L": 3297,
      "1985_film": 3298,
      "aux": 3299,
      "epp": 3300,
      "_Stone": 3301,
      "_Stewart": 3302,
      "1946_film": 3303,
      "1950": 3304,
      "1959_film": 3305,
      "ights": 3306,
      "1934_film": 3307,
      "1930_film": 3308,
      "ie_S": 3309,
      "pli": 3310,
      "_Shoulders": 3311,
      "California_Straight": 3312,
      "Robert_D": 3313,
      "ton_": 3314,
      "Argent": 3315,
      "ession": 3316,
      "1925_film": 3317,
      "1921_film": 3318,
      "lane": 3319,
      "Call_of_the_Canyon": 3320,
      "Call_of_the_Ice": 3321,
      "Casino_Jack": 3322,
      "Casino_Raiders": 3323,
      "Camille_2000": 3324,
      "_a_Day": 3325,
      "_a_Lot": 3326,
      "areedu": 3327,
      "Captive_Wild": 3328,
      "Captive_Women": 3329,
      "Captive_State": 3330,
      "resslaw": 3331,
      "Cannibal_Hol": 3332,
      "Cannibal_Fer": 3333,
      "Cannibal_Rollerbabes": 3334,
      "Josh": 3335,
      "ynn": 3336,
      "1975_film": 3337,
      "Cabiri": 3338,
      "Castle_Keep": 3339,
      "Castle_on_the_": 3340,
      "_in_Al": 3341,
      "_in_the_S": 3342,
      "_in_Capri": 3343,
      "mercen": 3344,
      "being": 3345,
      "_Love": 3346,
      "Jane_and_S": 3347,
      "Guy": 3348,
      "by_Your": 3349,
      "Campus_Honeymoon": 3350,
      "Call_Me_Elisabeth": 3351,
      "Call_Me_by_Your": 3352,
      "Belins": 3353,
      "Connor": 3354,
      "Captain_America_": 3355,
      "Cairo_Declar": 3356,
      "e_Bear_Sh": 3357,
      "Philosophy": 3358,
      "Harry": 3359,
      "Calamity_Jane_and_S": 3360,
      "Carbon_Cop": 3361,
      "worth": 3362,
      "Kenneth_Con": 3363,
      "orses": 3364,
      "_Scott": 3365,
      "Capone_Cries": 3366,
      "Café_de_chinos": 3367,
      "y_Soul": 3368,
      "los_b": 3369,
      "_Kids": 3370,
      "year": 3371,
      "Beauties_in_Capri": 3372,
      "_to_the_Flesh": 3373,
      "Casual_Day": 3374,
      "Catch_My_Soul": 3375,
      "Philipp": 3376,
      "Cat_and_Du": 3377,
      "Call_It_a_Day": 3378,
      "rigan": 3379,
      "Doroth": 3380,
      "age_in_Fl": 3381,
      "Casa_de_los_b": 3382,
      "Jessic": 3383,
      "Virgini": 3384,
      "Calypso_Joe": 3385,
      "Calypso_Heat": 3386,
      "polit": 3387,
      "ous_Adventure": 3388,
      "Camp_Rock_2": 3389,
      "Cappy_Ricks": 3390,
      "y_of_Bar_": 3391,
      "American_Born": 3392,
      "Call_Me_Madam_": 3393,
      "Fernando_": 3394,
      "Ivan": 3395,
      "_Share_Bear_Sh": 3396,
      "_The_Final_Jam": 3397,
      "Pierre_": 3398,
      "Careless_Lady": 3399,
      "etective": 3400,
      "_Farewell": 3401,
      "Cassidy_of_Bar_": 3402,
      "am_Bass": 3403,
      "Carthage_in_Fl": 3404,
      "arilor": 3405,
      "orthside_": 3406,
      "Studios": 3407,
      "Cabin_in_the_S": 3408,
      "Disney": 3409,
      "November": 3410,
      "Caiçara_": 3411,
      "atterjee": 3412,
      "Amourous_Adventure": 3413,
      "Captivity_": 3414,
      "Columbia": 3415,
      "Underwater_City": 3416,
      "Caprichosa_y_": 3417,
      "Candlelight_in_Al": 3418,
      "previous": 3419,
      "Car_Babes": 3420,
      "_Soft_Shoulders": 3421,
      "o_and_the_Underwater_City": 3422,
      "Capcana_mercen": 3423,
      "Call_the_Mesquiteers": 3424,
      "Call_Northside_": 3425,
      "s_Eye_": 3426,
      "_Ahead_": 3427,
      "Captain_Nemo_and_the_Underwater_City": 3428,
      "California_Straight_Ahead_": 3429,
      "Captive_Wild_Woman": 3430,
      "Cannibal_Holocaust": 3431,
      "Cannibal_Ferox": 3432,
      "Cabiria": 3433,
      "Castle_on_the_Hudson": 3434,
      "Call_Me_by_Your_Name_": 3435,
      "Cairo_Declaration_": 3436,
      "Calamity_Jane_and_Sam_Bass": 3437,
      "Carbon_Copy_": 3438,
      "Kenneth_Connor": 3439,
      "Capone_Cries_a_Lot": 3440,
      "Cat_and_Dupli": 3441,
      "Casa_de_los_babys": 3442,
      "Calypso_Heat_Wave": 3443,
      "_Share_Bear_Shines": 3444,
      "_Farewell_to_the_Flesh": 3445,
      "Cassidy_of_Bar_20": 3446,
      "Carthage_in_Flames": 3447,
      "Cabin_in_the_Sky_": 3448,
      "Caprichosa_y_millonaria": 3449,
      "Candlelight_in_Algeria": 3450,
      "Capcana_mercenarilor": 3451,
      "Call_Northside_777": 3452,
      "16": 3453,
      "219": 3454,
      "31": 3455,
      "Af": 3456,
      "Bh": 3457,
      "Benn": 3458,
      "Cost": 3459,
      "Dom": 3460,
      "Fel": 3461,
      "Gill": 3462,
      "Gilbert": 3463,
      "Hu": 3464,
      "Han": 3465,
      "Hop": 3466,
      "Kent": 3467,
      "Kurt": 3468,
      "Lesl": 3469,
      "Mil": 3470,
      "Miss": 3471,
      "Mont": 3472,
      "Nad": 3473,
      "Nanc": 3474,
      "Ob": 3475,
      "Pri": 3476,
      "Passage": 3477,
      "Ric": 3478,
      "Tam": 3479,
      "Tamil": 3480,
      "Wong": 3481,
      "Winds": 3482,
      "ax": 3483,
      "ban": 3484,
      "cont": 3485,
      "don": 3486,
      "ft": 3487,
      "four": 3488,
      "gn": 3489,
      "jab": 3490,
      "kar": 3491,
      "led": 3492,
      "lights": 3493,
      "mon": 3494,
      "mur": 3495,
      "mund": 3496,
      "prison": 3497,
      "sut": 3498,
      "sub": 3499,
      "time": 3500,
      "uy": 3501,
      "wen": 3502,
      "wal": 3503,
      "wani": 3504,
      "wok": 3505,
      "wana": 3506,
      "yst": 3507,
      "ze": 3508,
      "ález": 3509,
      "arc": 3510,
      "aro": 3511,
      "aray": 3512,
      "anu": 3513,
      "sthan": 3514,
      "onition": 3515,
      "rell": 3516,
      "three": 3517,
      "enient": 3518,
      "cted": 3519,
      "icy": 3520,
      "1919": 3521,
      "ata": 3522,
      "ouse": 3523,
      "chn": 3524,
      "adent": 3525,
      "oviet": 3526,
      "illion": 3527,
      "unn": 3528,
      "Canast": 3529,
      "expl": 3530,
      "idn": 3531,
      "idwani": 3532,
      "ento": 3533,
      "ima": 3534,
      "Catal": 3535,
      "Marv": 3536,
      "Marion": 3537,
      "song": 3538,
      "Andr": 3539,
      "Roger": 3540,
      "Store": 3541,
      "opole": 3542,
      "emm": 3543,
      "Johnson": 3544,
      "endent": 3545,
      "Shar": 3546,
      "ependent": 3547,
      "lesque": 3548,
      "peri": 3549,
      "1943": 3550,
      "1995": 3551,
      "1952": 3552,
      "ikos": 3553,
      "ahto": 3554,
      "Bro": 3555,
      "obe": 3556,
      "obility": 3557,
      "pewriter": 3558,
      "orea": 3559,
      "oke": 3560,
      "upper": 3561,
      "Philli": 3562,
      "izabeth": 3563,
      "Kenji": 3564,
      "featuring": 3565,
      "played": 3566,
      "Casaneg": 3567,
      "irebrand": 3568,
      "ific": 3569,
      "Elizabeth": 3570,
      "Jane": 3571,
      "Spell": 3572,
      "Belov": 3573,
      "Believ": 3574,
      "Potahto": 3575,
      "Povert": 3576,
      "Calmos": 3577,
      "world": 3578,
      "Cassandra": 3579,
      "Carolyn": 3580,
      "iya": 3581,
      "Direct": 3582,
      "Premsut": 3583,
      "Premonition": 3584,
      "Neil": 3585,
      "Needle": 3586,
      "ootlights": 3587,
      "Pratidwani": 3588,
      "ience": 3589,
      "zze": 3590,
      "Alexand": 3591,
      "Henry": 3592,
      "itzer": 3593,
      "amily": 3594,
      "Suja": 3595,
      "asseter": 3596,
      "Prancer": 3597,
      "Monic": 3598,
      "Angel": 3599,
      "Vincent": 3600,
      "Nicholas": 3601,
      "onzález": 3602,
      "October": 3603,
      "Punjab": 3604,
      "biograph": 3605,
      "Alessandr": 3606,
      "Prassthan": 3607,
      "Ontenient": 3608,
      "Cecil": 3609,
      "Sarah": 3610,
      "ocalypse": 3611,
      "Cinders": 3612,
      "etropole": 3613,
      "Margaret": 3614,
      "Obsc": 3615,
      "Windsor": 3616,
      "adentro": 3617,
      "Premsutra": 3618,
      "Prassthanam": 3619,
      "Onteniente": 3620,
      "Bon": 3621,
      "Cr": 3622,
      "Den": 3623,
      "Dow": 3624,
      "Dere": 3625,
      "Ele": 3626,
      "Fe": 3627,
      "Giving": 3628,
      "Ji": 3629,
      "Jam": 3630,
      "Ko": 3631,
      "Kath": 3632,
      "Leg": 3633,
      "Mer": 3634,
      "Mam": 3635,
      "Mouth": 3636,
      "Night_": 3637,
      "Oh": 3638,
      "Pal": 3639,
      "Red": 3640,
      "Reg": 3641,
      "Rud": 3642,
      "Revol": 3643,
      "Sw": 3644,
      "Son": 3645,
      "Sag": 3646,
      "Soul": 3647,
      "Soviet": 3648,
      "Vaccar": 3649,
      "_or": 3650,
      "_Camp": 3651,
      "_Cast": 3652,
      "_with": 3653,
      "_Cain": 3654,
      "_One": 3655,
      "_vs": 3656,
      "br": 3657,
      "bey": 3658,
      "both": 3659,
      "ful": 3660,
      "fantas": 3661,
      "gatti": 3662,
      "hi": 3663,
      "hard": 3664,
      "hann": 3665,
      "i_H": 3666,
      "iary": 3667,
      "ien_": 3668,
      "kov": 3669,
      "nell": 3670,
      "oine": 3671,
      "ozze": 3672,
      "ry_": 3673,
      "ram": 3674,
      "s_M": 3675,
      "uth": 3676,
      "ving": 3677,
      "inter": 3678,
      "init": 3679,
      "in_Bur": 3680,
      "an_N": 3681,
      "an_J": 3682,
      "Cav": 3683,
      "Cach": 3684,
      "starred": 3685,
      "e_It": 3686,
      "e_He": 3687,
      "e_Heaven": 3688,
      "e_gatti": 3689,
      "onog": 3690,
      "third": 3691,
      "edy": 3692,
      "and_N": 3693,
      "elson": 3694,
      "elp_S": 3695,
      "a_adentro": 3696,
      "y_and_N": 3697,
      "amento": 3698,
      "at_N": 3699,
      "at_You": 3700,
      "_Set": 3701,
      "_Sex": 3702,
      "_Serg": 3703,
      "them": 3704,
      "theart": 3705,
      "o_N": 3706,
      "_Benn": 3707,
      "_My_D": 3708,
      "Cas_and": 3709,
      "Casey": 3710,
      "Casqu": 3711,
      "ira": 3712,
      "irate": 3713,
      "child": 3714,
      "Cam_": 3715,
      "Cama_adentro": 3716,
      "_Can": 3717,
      "_Code": 3718,
      "agn": 3719,
      "oven": 3720,
      "Calle_M": 3721,
      "_Hu": 3722,
      "_Hell": 3723,
      "_Horses": 3724,
      "Can_W": 3725,
      "Cani_": 3726,
      "s_Kingdom": 3727,
      "s_Philosophy": 3728,
      "ayor_": 3729,
      "Amrit": 3730,
      "_Ron": 3731,
      "acific": 3732,
      "_the_Ey": 3733,
      "_the_Right": 3734,
      "_Gu": 3735,
      "_Go_": 3736,
      "_Green": 3737,
      "aved": 3738,
      "_Dan": 3739,
      "_Der": 3740,
      "_Des": 3741,
      "odor": 3742,
      "odent": 3743,
      "_Farr": 3744,
      "_Fire": 3745,
      "_For_": 3746,
      "_Foster": 3747,
      "berlane": 3748,
      "Beach": 3749,
      "_Thorn": 3750,
      "_Through": 3751,
      "_War": 3752,
      "_Ward": 3753,
      "_Wish": 3754,
      "raff": 3755,
      "Captains_C": 3756,
      "Captain_Ron": 3757,
      "Cats": 3758,
      "_Pa": 3759,
      "_Pocket": 3760,
      "_Passage": 3761,
      "uti": 3762,
      "Camp_Saw": 3763,
      "_of_N": 3764,
      "able": 3765,
      "American_Lov": 3766,
      "_Not_": 3767,
      "allone": 3768,
      "Robin": 3769,
      "_Ko": 3770,
      "_Kesar": 3771,
      "_Kelly": 3772,
      "rice": 3773,
      "nest": 3774,
      "Carry_On_Kesar": 3775,
      "ranch": 3776,
      "osed_Shut": 3777,
      "John_S": 3778,
      "John_H": 3779,
      "John_G": 3780,
      "All": 3781,
      "ighter": 3782,
      "ernon": 3783,
      "Shaw": 3784,
      "art_": 3785,
      "Castel": 3786,
      "Castle": 3787,
      "1963": 3788,
      "Candles_": 3789,
      "_El": 3790,
      "_Ex": 3791,
      "Catch_Can_": 3792,
      "Catch_the_F": 3793,
      "1944_film": 3794,
      "1992_film": 3795,
      "1936": 3796,
      "1938": 3797,
      "1937_film": 3798,
      "_of_the_Night_": 3799,
      "California_Gold": 3800,
      "California_Joe_": 3801,
      "California_Mail": 3802,
      "Cage_W": 3803,
      "indows": 3804,
      "etta": 3805,
      "etti": 3806,
      "oyle": 3807,
      "Call_Me_B": 3808,
      "Canne_m": 3809,
      "ashi": 3810,
      "ists": 3811,
      "Camilla_": 3812,
      "Café_Paradi": 3813,
      "Call_of_the_Rock": 3814,
      "David_S": 3815,
      "a_Mail": 3816,
      "Phyll": 3817,
      "untamento": 3818,
      "ubi": 3819,
      "Cain_vs": 3820,
      "_a_Key": 3821,
      "_a_Needle": 3822,
      "insp": 3823,
      "Caged_He": 3824,
      "Cannibal_Girls": 3825,
      "Cannibal_Ap": 3826,
      "Edmund": 3827,
      "Richard_B": 3828,
      "1979_film": 3829,
      "e_For": 3830,
      "Capriccio_": 3831,
      "Italy": 3832,
      "Power_": 3833,
      "Carma_": 3834,
      "Casper_": 3835,
      "Janet": 3836,
      "Screen": 3837,
      "as_Catch_Can_": 3838,
      "aire_": 3839,
      "air_One": 3840,
      "Campus_Code": 3841,
      "Sea": 3842,
      "e_Gun": 3843,
      "_Hero_": 3844,
      "Career_of_N": 3845,
      "Calling_All_Pol": 3846,
      "Calling_All_Kids": 3847,
      "s_Crime": 3848,
      "Conan": 3849,
      "Potato_": 3850,
      "ra_Suja": 3851,
      "Cairo_Time": 3852,
      "Barney_": 3853,
      "Timberlane": 3854,
      "Cake": 3855,
      "e_of_a_Needle": 3856,
      "Canyon_Passage": 3857,
      "Careful_": 3858,
      "Careful_Wh": 3859,
      "Julie_": 3860,
      "ethods": 3861,
      "Calm_with": 3862,
      "Aleks": 3863,
      "_In_the_Right": 3864,
      "_Wilson": 3865,
      "Casanova_in_Bur": 3866,
      "French_language": 3867,
      "ances": 3868,
      "_on_Fire": 3869,
      "Walters": 3870,
      "Carolina_": 3871,
      "Catch_as_Catch_Can_": 3872,
      "_Blue_": 3873,
      "Camel_Through": 3874,
      "Before_You": 3875,
      "Behind_Cl": 3876,
      "Behind_the_F": 3877,
      "Calcutta_Mail": 3878,
      "ice_Cars": 3879,
      "Castle_of_Ev": 3880,
      "Carnage_": 3881,
      "Captain_Sánchez": 3882,
      "Captain_Salv": 3883,
      "appearances": 3884,
      "Powder_Blue_": 3885,
      "Beauties_of_the_Night_": 3886,
      "Alberto_": 3887,
      "If_You_Can": 3888,
      "Calvaire_": 3889,
      "Casual_Sex": 3890,
      "Pournam": 3891,
      "ake_a_Jo": 3892,
      "Cat_and_Mouse_": 3893,
      "ummer_Camp": 3894,
      "Caligula": 3895,
      "Giov": 3896,
      "t_Help_S": 3897,
      "adapted": 3898,
      "_Carry_": 3899,
      "_the_Galactic": 3900,
      "_the_Ground": 3901,
      "s_Summer_Camp": 3902,
      "e_Take_a_Jo": 3903,
      "Cast_a_Deadly_": 3904,
      "Among_the_Cinders": 3905,
      "ithout_a_Key": 3906,
      "Cafe_Metropole": 3907,
      "Cadet_Kelly": 3908,
      "Virgin": 3909,
      "World_Set": 3910,
      "t_Be_Heaven": 3911,
      "_Dylan": 3912,
      "_Dyzma": 3913,
      "California_Dreaming_": 3914,
      "Before_the_World_Set": 3915,
      "Pranam_Kh": 3916,
      "Cappy_Ricks_R": 3917,
      "arshini": 3918,
      "Pound_": 3919,
      "_Martin": 3920,
      "Camera_Store": 3921,
      "Camera_Obsc": 3922,
      "alongside": 3923,
      "ourageous_": 3924,
      "Canned_Fish": 3925,
      "Castle_in_the_Ground": 3926,
      "Cash_and_Carry_": 3927,
      "Premium_": 3928,
      "Catch_Me_If_You_Can": 3929,
      "Cannery_Rodent": 3930,
      "Larry_": 3931,
      "Slit": 3932,
      "Case_219": 3933,
      "_Rush_": 3934,
      "appuntamento": 3935,
      "California_Firebrand": 3936,
      "Spanish_language": 3937,
      "ucho": 3938,
      "aquina": 3939,
      "film_director": 3940,
      "olkonog": 3941,
      "weetheart": 3942,
      "Taiwan": 3943,
      "_Savage": 3944,
      "Charlott": 3945,
      "composed": 3946,
      "Gloria": 3947,
      "Cardinals_": 3948,
      "Mérit": 3949,
      "Carandiru_": 3950,
      "Belinsky_": 3951,
      "Canastra_Suja": 3952,
      "ikos_Dyzma": 3953,
      "Casanegra_": 3954,
      "Beloved_": 3955,
      "Believe_It": 3956,
      "Poverty_and_N": 3957,
      "Premonition_": 3958,
      "Prancer_": 3959,
      "Derek": 3960,
      "Mouthed": 3961,
      "Revolution": 3962,
      "Vaccarè": 3963,
      "_or_Not_": 3964,
      "fantasy": 3965,
      "at_Nine": 3966,
      "at_You_Wish": 3967,
      "_Sergeant": 3968,
      "_My_Dog": 3969,
      "Cas_and_Dylan": 3970,
      "Casque_d": 3971,
      "Calle_Mayor_": 3972,
      "Can_We_Take_a_Jo": 3973,
      "Cani_e_gatti": 3974,
      "_the_Eye_of_a_Needle": 3975,
      "Captains_Courageous_": 3976,
      "Camp_Sawi": 3977,
      "American_Love_": 3978,
      "osed_Shutters": 3979,
      "Candles_at_Nine": 3980,
      "Catch_the_Fair_One": 3981,
      "California_Gold_Rush_": 3982,
      "Cage_Without_a_Key": 3983,
      "Call_Me_Bwana": 3984,
      "Canne_mozze": 3985,
      "Café_Paradis": 3986,
      "Call_of_the_Rockies_": 3987,
      "Phyllis": 3988,
      "Caged_Heat": 3989,
      "Cannibal_Apocalypse": 3990,
      "Career_of_Nikos_Dyzma": 3991,
      "Calling_All_Police_Cars": 3992,
      "Potato_Potahto": 3993,
      "Barney_Bear": 3994,
      "Careful_What_You_Wish": 3995,
      "Calm_with_Horses": 3996,
      "Aleksandr": 3997,
      "_In_the_Right_Pocket": 3998,
      "Casanova_in_Burlesque": 3999,
      "Camel_Through_the_Eye_of_a_Needle": 4000,
      "Before_You_Go_": 4001,
      "Behind_Closed_Shutters": 4002,
      "Behind_the_Footlights": 4003,
      "Castle_of_Evil": 4004,
      "Captain_Salvation_": 4005,
      "Pournami_": 4006,
      "t_Help_Singing": 4007,
      "_the_Galactic_Hero_": 4008,
      "s_Summer_Camp_Massacre": 4009,
      "Cast_a_Deadly_Spell": 4010,
      "Before_the_World_Set_on_Fire": 4011,
      "Pranam_Khareedu": 4012,
      "Cappy_Ricks_Returns": 4013,
      "Camera_Obscura_": 4014,
      "Canned_Fishing": 4015,
      "olkonogov": 4016,
      "Believe_It_or_Not_": 4017,
      "Poverty_and_Nobility": 4018,
      "Can_We_Take_a_Joke": 4019,
      "Careful_What_You_Wish_For_": 4020,
      "25": 4021,
      "Aaron": 4022,
      "Buck": 4023,
      "Brazil": 4024,
      "Basil": 4025,
      "Curtis": 4026,
      "Detective": 4027,
      "Hill": 4028,
      "Horn": 4029,
      "Kong": 4030,
      "Korea": 4031,
      "Liz": 4032,
      "Mass": 4033,
      "Madh": 4034,
      "Nik": 4035,
      "Nathan": 4036,
      "Pill": 4037,
      "Ran": 4038,
      "Roland": 4039,
      "Tin": 4040,
      "Tor": 4041,
      "Trac": 4042,
      "Um": 4043,
      "bah": 4044,
      "cles": 4045,
      "dam": 4046,
      "hav": 4047,
      "have": 4048,
      "lv": 4049,
      "mort": 4050,
      "nubi": 4051,
      "ois": 4052,
      "press": 4053,
      "sb": 4054,
      "sky": 4055,
      "siè": 4056,
      "tik": 4057,
      "wick": 4058,
      "inz": 4059,
      "invol": 4060,
      "anth": 4061,
      "erk": 4062,
      "stein": 4063,
      "oris": 4064,
      "orrel": 4065,
      "orussian": 4066,
      "cts": 4067,
      "alk": 4068,
      "eling": 4069,
      "elop": 4070,
      "ator": 4071,
      "atural": 4072,
      "Calim": 4073,
      "Caltik": 4074,
      "Caree": 4075,
      "Carved": 4076,
      "they": 4077,
      "theatric": 4078,
      "Capul": 4079,
      "itri": 4080,
      "leg": 4081,
      "Casbah": 4082,
      "chissim": 4083,
      "Camor": 4084,
      "Camion": 4085,
      "ader": 4086,
      "adine": 4087,
      "adhy": 4088,
      "etz": 4089,
      "ago": 4090,
      "illa": 4091,
      "Cant": 4092,
      "Capturing": 4093,
      "acc": 4094,
      "acomb": 4095,
      "owhere": 4096,
      "avier": 4097,
      "angers": 4098,
      "odama": 4099,
      "Beg": 4100,
      "Bears": 4101,
      "Beau": 4102,
      "Beef": 4103,
      "Beeth": 4104,
      "ivas": 4105,
      "raig": 4106,
      "aped": 4107,
      "aperson": 4108,
      "allment": 4109,
      "Strat": 4110,
      "ople": 4111,
      "optim": 4112,
      "opadhy": 4113,
      "Alb": 4114,
      "1989": 4115,
      "anti": 4116,
      "where": 4117,
      "1944": 4118,
      "Inter": 4119,
      "ations": 4120,
      "scaped": 4121,
      "plage": 4122,
      "ollide": 4123,
      "efighter": 4124,
      "ugbo": 4125,
      "Davis": 4126,
      "Rach": 4127,
      "Cagefighter": 4128,
      "Geoff": 4129,
      "lyers": 4130,
      "ostess": 4131,
      "ized": 4132,
      "Cameraperson": 4133,
      "remake": 4134,
      "omanto": 4135,
      "certo": 4136,
      "eeing": 4137,
      "Films": 4138,
      "Carla": 4139,
      "ruth": 4140,
      "hane": 4141,
      "rishn": 4142,
      "Belorussian": 4143,
      "Blues": 4144,
      "box": 4145,
      "Potters": 4146,
      "Potomanto": 4147,
      "Bellman": 4148,
      "Isobe": 4149,
      "Quinn": 4150,
      "olaescu": 4151,
      "randma": 4152,
      "portun": 4153,
      "Yukon": 4154,
      "adhik": 4155,
      "umbher": 4156,
      "blower": 4157,
      "omicide": 4158,
      "Immort": 4159,
      "Sergiu": 4160,
      "Ernest": 4161,
      "June": 4162,
      "Awards": 4163,
      "miral": 4164,
      "unicula": 4165,
      "smoke": 4166,
      "Cartouch": 4167,
      "Juan": 4168,
      "Toons": 4169,
      "cinemat": 4170,
      "installment": 4171,
      "Vivian": 4172,
      "tells": 4173,
      "nominated": 4174,
      "osphere": 4175,
      "uppies": 4176,
      "Speed": 4177,
      "murder": 4178,
      "icycles": 4179,
      "Kathle": 4180,
      "Legend": 4181,
      "Souls": 4182,
      "beyans": 4183,
      "Caché": 4184,
      "Hornblower": 4185,
      "Pillai": 4186,
      "siècle": 4187,
      "Calimucho": 4188,
      "Careebeyans": 4189,
      "chissimi": 4190,
      "Beefc": 4191,
      "Beethoven": 4192,
      "Stratosphere": 4193,
      "opadhyay": 4194,
      "ugboat": 4195,
      "Immortal": 4196,
      "\".": 4197,
      ".,": 4198,
      "17": 4199,
      "39": 4200,
      "Av": 4201,
      "But": 4202,
      "Based": 4203,
      "Be_S": 4204,
      "Baz": 4205,
      "Cre": 4206,
      "Du": 4207,
      "Dal": 4208,
      "Dian": 4209,
      "Gary_": 4210,
      "Hug": 4211,
      "Hawtre": 4212,
      "Kann": 4213,
      "Lester": 4214,
      "Owen": 4215,
      "Porter": 4216,
      "Rand": 4217,
      "Ris": 4218,
      "Rangers": 4219,
      "Sil": 4220,
      "Sab": 4221,
      "Terry_": 4222,
      "We": 4223,
      "Warner": 4224,
      "Xe_": 4225,
      "Yosh": 4226,
      "Yvon": 4227,
      "_l": 4228,
      "_o": 4229,
      "_Car": 4230,
      "_le_": 4231,
      "_Up": 4232,
      "ay_of": 4233,
      "bb": 4234,
      "bro": 4235,
      "bolt": 4236,
      "da": 4237,
      "din": 4238,
      "den": 4239,
      "dall": 4240,
      "eaut": 4241,
      "fel": 4242,
      "fession": 4243,
      "family": 4244,
      "hol": 4245,
      "hart": 4246,
      "iol": 4247,
      "lav": 4248,
      "met": 4249,
      "most": 4250,
      "nold": 4251,
      "oes_": 4252,
      "pre": 4253,
      "path": 4254,
      "ro_": 4255,
      "rard": 4256,
      "s_Shadow": 4257,
      "succ": 4258,
      "singer": 4259,
      "ties": 4260,
      "told": 4261,
      "uit": 4262,
      "uary": 4263,
      "vel_": 4264,
      "ws": 4265,
      "xpress": 4266,
      "Ōtani": 4267,
      "arth": 4268,
      "ar_You": 4269,
      "anni": 4270,
      "ily": 4271,
      "e_K": 4272,
      "e_Jo": 4273,
      "e_au": 4274,
      "e_Campfield": 4275,
      "e_nubi": 4276,
      "e_Isobe": 4277,
      "or_B": 4278,
      "ories": 4279,
      "orah": 4280,
      "onster": 4281,
      "rez": 4282,
      "rie": 4283,
      "ritt": 4284,
      "en_B": 4285,
      "andh": 4286,
      "anding_": 4287,
      "ic_For": 4288,
      "ess_of": 4289,
      "die_": 4290,
      "aska": 4291,
      "isc": 4292,
      "y_Allen": 4293,
      "am_Sr": 4294,
      "amiya": 4295,
      "atio_": 4296,
      "Cars_of_the_": 4297,
      "_Summer": 4298,
      "oug": 4299,
      "ou_l": 4300,
      "oldb": 4301,
      "o_K": 4302,
      "o_T": 4303,
      "o_de_": 4304,
      "o_dall": 4305,
      "Cape_of_the_": 4306,
      "lex": 4307,
      "_Bart": 4308,
      "_Brazil": 4309,
      "_Bicycles": 4310,
      "_Mul": 4311,
      "_Mary": 4312,
      "_Master": 4313,
      "_Moore": 4314,
      "_Myst": 4315,
      "_Methods": 4316,
      "_Monster": 4317,
      "2019": 4318,
      "Cass_": 4319,
      "Casino": 4320,
      "Camila_": 4321,
      "Caminit": 4322,
      "ade_": 4323,
      "ademy": 4324,
      "_Crim": 4325,
      "_Company": 4326,
      "_Courage": 4327,
      "_Cross": 4328,
      "again": 4329,
      "urin": 4330,
      "Call_Her": 4331,
      "_Har": 4332,
      "_Harr": 4333,
      "_Hill": 4334,
      "_He_M": 4335,
      "_Hal_C": 4336,
      "_Homicide": 4337,
      "unris": 4338,
      "ota_Jo": 4339,
      "Canal": 4340,
      "Can_Ell": 4341,
      "s_J": 4342,
      "aya": 4343,
      "Amster": 4344,
      "_Ry": 4345,
      "_Ram": 4346,
      "ow_W": 4347,
      "_the_Dead": 4348,
      "_the_Screen": 4349,
      "_the_Legend": 4350,
      "_Grant": 4351,
      "_Grandma": 4352,
      "ange": 4353,
      "_Dumb": 4354,
      "_Diary": 4355,
      "_Day_of": 4356,
      "entry": 4357,
      "_Festival": 4358,
      "_Father": 4359,
      "_Frank": 4360,
      "_Flyers": 4361,
      "_World": 4362,
      "ives": 4363,
      "ivers": 4364,
      "ig_P": 4365,
      "Captain_Mar": 4366,
      "Captain_Hor": 4367,
      "Clif": 4368,
      "Cat_Run_": 4369,
      "_Poll": 4370,
      "_Parker": 4371,
      "_Puppies": 4372,
      "Mara": 4373,
      "Mary": 4374,
      "Marian": 4375,
      "_Lee": 4376,
      "Camp_N": 4377,
      "Camp_Tak": 4378,
      "Camp_X": 4379,
      "Camp_Hell": 4380,
      "Chaf": 4381,
      "ers_Myst": 4382,
      "2005": 4383,
      "_of_Courage": 4384,
      "_The_Giving": 4385,
      "_The_Sag": 4386,
      "_The_Slit": 4387,
      "_The_Immortal": 4388,
      "American_He": 4389,
      "American_Blu": 4390,
      "American_Boy": 4391,
      "American_Methods": 4392,
      "American_Crim": 4393,
      "American_Flyers": 4394,
      "_No": 4395,
      "_No_M": 4396,
      "Road_": 4397,
      "Star": 4398,
      "_King": 4399,
      "_Kent": 4400,
      "_Kildare": 4401,
      "_Kodama": 4402,
      "Carry_On_Ad": 4403,
      "emi": 4404,
      "eming": 4405,
      "_True": 4406,
      "berto_": 4407,
      "1985": 4408,
      "1987": 4409,
      "ernatural": 4410,
      "Castles": 4411,
      "Candide_": 4412,
      "Cafe_F": 4413,
      "Cafe_H": 4414,
      "Cafe_No": 4415,
      "Cafe_Isobe": 4416,
      "_Ed": 4417,
      "_Est": 4418,
      "_Ewok": 4419,
      "_Escaped": 4420,
      "ewis": 4421,
      "when": 4422,
      "_and_the_Legend": 4423,
      "_and_True": 4424,
      "_Station": 4425,
      "perfor": 4426,
      "que_": 4427,
      "1948": 4428,
      "1990": 4429,
      "1997": 4430,
      "1999": 4431,
      "ourney": 4432,
      "ight_He": 4433,
      "1935": 4434,
      "1939": 4435,
      "1935_film": 4436,
      "_of_the_Stratosphere": 4437,
      "science": 4438,
      "ceived": 4439,
      "_Show_W": 4440,
      "California_Girl": 4441,
      "California_Passage": 4442,
      "California_or_B": 4443,
      "Franck": 4444,
      "ino_to_": 4445,
      "Dave_Campfield": 4446,
      "Calling_Homicide": 4447,
      "independent": 4448,
      "_Op": 4449,
      "_Or": 4450,
      "_Oops": 4451,
      "ister_": 4452,
      "1929_film": 4453,
      "e_Lester": 4454,
      "e_Mc": 4455,
      "Café_": 4456,
      "Café_Der": 4457,
      "Café_Ex": 4458,
      "e_Saved": 4459,
      "e_Sunris": 4460,
      "Call_of_the_Wild": 4461,
      "Call_of_the_South": 4462,
      "Call_of_the_Yukon": 4463,
      "anner": 4464,
      "a_Man": 4465,
      "ustin": 4466,
      "Paul_L": 4467,
      "from_Cast": 4468,
      "Caged_in_Paradi": 4469,
      "Caged_No_M": 4470,
      "azu": 4471,
      "Captive_Souls": 4472,
      "1978": 4473,
      "Adel": 4474,
      "Peck": 4475,
      "Calamity": 4476,
      "1918_film": 4477,
      "_McG": 4478,
      "Carlito": 4479,
      "Carlota_Jo": 4480,
      "Cado_dall": 4481,
      "Carbide_": 4482,
      "Italian_language": 4483,
      "aff": 4484,
      "Campus_Man": 4485,
      "Campus_Diary": 4486,
      "Billie_": 4487,
      "_Heroine": 4488,
      "Cars_Toons": 4489,
      "ina_Speed": 4490,
      "e_Note": 4491,
      "book": 4492,
      "s_Collide": 4493,
      "ler_": 4494,
      "Conn": 4495,
      "Captain_from_Cast": 4496,
      "Pot_o": 4497,
      "Cairo_Road_": 4498,
      "to_Vaccarè": 4499,
      "Before_Sunris": 4500,
      "Andy_": 4501,
      "titles": 4502,
      "_Newman_": 4503,
      "Prairie_R": 4504,
      "Prairie_Gun": 4505,
      "Carbon_": 4506,
      "Jones": 4507,
      "a_Kumbher": 4508,
      "a_Kamiya": 4509,
      "Cassino_to_": 4510,
      "_An_Ewok": 4511,
      "Casanova_Brown": 4512,
      "_on_Bicycles": 4513,
      "Carol_I": 4514,
      "Luig": 4515,
      "_Gold_": 4516,
      "Power_Rangers_Myst": 4517,
      "iya_": 4518,
      "leng": 4519,
      "incess_of": 4520,
      "Behind_the_Screen": 4521,
      "Behind_Show_W": 4522,
      "followed": 4523,
      "ootpath": 4524,
      "Caravan_to_Vaccarè": 4525,
      "eban": 4526,
      "y_Does_": 4527,
      "_Concerto": 4528,
      "Café_de_Flor": 4529,
      "Café_de_la_": 4530,
      "Castle_of_Blood": 4531,
      "Louise_Lester": 4532,
      "roub": 4533,
      "Barbara": 4534,
      "_XXe_": 4535,
      "Dark_Shadow": 4536,
      "Beauties_on_Bicycles": 4537,
      "_Sandhane": 4538,
      "Candyman_3": 4539,
      "Carson_City_Raiders": 4540,
      "y_González": 4541,
      "_of_Big_P": 4542,
      "characters": 4543,
      "Pour_le_": 4544,
      "Evelyn": 4545,
      "supernatural": 4546,
      "_the_Sky": 4547,
      "Caravan_of_Courage": 4548,
      "Cadillac_Girls": 4549,
      "Cadillac_Man": 4550,
      "Cooper": 4551,
      "s_Sweetheart": 4552,
      "a_of_Hal_C": 4553,
      "_Adventure": 4554,
      "Cast_a_Dark_Shadow": 4555,
      "Among_the_Miss": 4556,
      "isme_au": 4557,
      "y_Friend": 4558,
      "Antonio_": 4559,
      "Tyco": 4560,
      "Typewriter": 4561,
      "s_Beaut": 4562,
      "and_Sorrel": 4563,
      "Bed_of_Thorn": 4564,
      "press_": 4565,
      "Armand": 4566,
      "Gregory_": 4567,
      "Pound_Puppies": 4568,
      "_Princess_of": 4569,
      "American_Bet": 4570,
      "Call_Me_Mister_": 4571,
      "Being_Hu": 4572,
      "Woody_Allen": 4573,
      "_Seas": 4574,
      "uniculi_F": 4575,
      "Because_of_the_": 4576,
      "Because_He": 4577,
      "_Shut_Up": 4578,
      "Castle_in_the_Sky": 4579,
      "Cash_and_Company": 4580,
      "Capital_": 4581,
      "Premium": 4582,
      "Catch_Me_If_You_Can_": 4583,
      "Cannery_Row_": 4584,
      "Be_Careful": 4585,
      "Be_Beautiful_But": 4586,
      "Fabien_": 4587,
      "Captain_Video": 4588,
      "Captain_Volkonogov": 4589,
      "Beautiful_But_Dumb": 4590,
      "Academy": 4591,
      "guez": 4592,
      "ine_Labaki": 4593,
      "Amma_Pillai": 4594,
      "Shirle": 4595,
      "Akira_Kamiya": 4596,
      "Poveri_ma_ricchissimi": 4597,
      "Lamar": 4598,
      "Deborah": 4599,
      "Bryan": 4600,
      "_Death": 4601,
      "heritance": 4602,
      "ville_": 4603,
      "Ikue_Ōtani": 4604,
      "ircuit": 4605,
      "Gérard": 4606,
      "rontier": 4607,
      "_Dubosc": 4608,
      "political": 4609,
      "Nadine_Labaki": 4610,
      "chnic": 4611,
      "period": 4612,
      "Kenji_Kodama": 4613,
      "s_My_Friend": 4614,
      "Amrita_Kumbher": 4615,
      "inspired": 4616,
      "Carolina_Blues": 4617,
      "Giovanni": 4618,
      "Mérite_": 4619,
      "Mouthed_Woman": 4620,
      "Caltiki_": 4621,
      "Capulina_Speed": 4622,
      "Casbah_": 4623,
      "Camorra_": 4624,
      "Capturing_Mary": 4625,
      "Beau_Pere": 4626,
      "optimisme_au": 4627,
      "eeing_You": 4628,
      "Belorussian_Station": 4629,
      "Pottersville_": 4630,
      "Bellman_and_True": 4631,
      "Cartouche_": 4632,
      "Caché_": 4633,
      "Beefcake_": 4634,
      "Beethoven_Concerto": 4635,
      "Be_Seeing_You": 4636,
      "Hawtrey": 4637,
      "success": 4638,
      "ar_You_": 4639,
      "en_Be_Saved": 4640,
      "ic_Force": 4641,
      "atio_Hornblower": 4642,
      "Cars_of_the_Revolution": 4643,
      "o_de_Gloria": 4644,
      "Cape_of_the_North": 4645,
      "_Master_of_the_Stratosphere": 4646,
      "Cass_Timberlane": 4647,
      "Caminito_de_Gloria": 4648,
      "against": 4649,
      "Call_Her_Savage": 4650,
      "_He_Might_He": 4651,
      "Can_Ellen_Be_Saved": 4652,
      "Amsterdam": 4653,
      "_Day_of_the_Dead": 4654,
      "_Worlds_Collide": 4655,
      "Captain_Marvel_": 4656,
      "Captain_Horatio_Hornblower": 4657,
      "Cat_Run_2": 4658,
      "Camp_Nowhere": 4659,
      "Camp_Takota": 4660,
      "Chafurin": 4661,
      "_The_Giving_Festival": 4662,
      "_The_Saga_of_Hal_C": 4663,
      "_The_Immortal_Monster": 4664,
      "American_Heart_": 4665,
      "American_Blue_Note": 4666,
      "American_Boyfriends": 4667,
      "American_Crime_": 4668,
      "Carry_On_Admiral": 4669,
      "Candide_ou_l": 4670,
      "Cafe_Funiculi_F": 4671,
      "Cafe_Hostess": 4672,
      "Cafe_Noir": 4673,
      "_and_the_Legend_of_Big_P": 4674,
      "California_Girls_": 4675,
      "California_or_Bust": 4676,
      "Franck_Dubosc": 4677,
      "_Oopsy_Does_": 4678,
      "Café_Derby": 4679,
      "Café_Express_": 4680,
      "Call_of_the_Wild_": 4681,
      "Call_of_the_South_Seas": 4682,
      "Caged_in_Paradiso": 4683,
      "Caged_No_More": 4684,
      "Carlota_Joaquina": 4685,
      "Cado_dalle_nubi": 4686,
      "Carbide_and_Sorrel": 4687,
      "Captain_from_Castile": 4688,
      "Before_Sunrise_": 4689,
      "Prairie_Rustlers": 4690,
      "Prairie_Gunsmoke": 4691,
      "Cassino_to_Korea": 4692,
      "_An_Ewok_Adventure": 4693,
      "Carol_I_": 4694,
      "Power_Rangers_Mystic_Force": 4695,
      "Behind_Show_Windows": 4696,
      "Caravan_to_Vaccarès_": 4697,
      "Café_de_Flore_": 4698,
      "Café_de_la_plage": 4699,
      "_XXe_siècle": 4700,
      "Pour_le_Mérite_": 4701,
      "Among_the_Missing_": 4702,
      "s_Beauty": 4703,
      "Bed_of_Thorns": 4704,
      "Pound_Puppies_and_the_Legend_of_Big_P": 4705,
      "_Princess_of_Brazil": 4706,
      "Being_Human_": 4707,
      "Because_of_the_Cats": 4708,
      "Be_Beautiful_But_Shut_Up": 4709,
      "Fabien_Onteniente": 4710,
      "Captain_Volkonogov_Escaped": 4711,
      "Amrita_Kumbher_Sandhane": 4712,
      "Capulina_Speedy_González": 4713,
      "optimisme_au_XXe_siècle": 4714,
      "_He_Might_Hear_You_": 4715,
      "Cafe_Funiculi_Funicula": 4716,
      "_Oopsy_Does_It": 4717,
      "Pound_Puppies_and_the_Legend_of_Big_Paw": 4718,
      "12": 4719,
      "Ap": 4720,
      "Bre": 4721,
      "Bat": 4722,
      "Bhar": 4723,
      "DV": 4724,
      "Dim": 4725,
      "Dann": 4726,
      "Erik": 4727,
      "Far": 4728,
      "Freak": 4729,
      "Green": 4730,
      "Hé": 4731,
      "Hir": 4732,
      "Jorg": 4733,
      "Kō": 4734,
      "Kather": 4735,
      "Karl": 4736,
      "Li": 4737,
      "Lin": 4738,
      "Led": 4739,
      "Lind": 4740,
      "Mas": 4741,
      "Mex": 4742,
      "Mort": 4743,
      "Mille": 4744,
      "Nas": 4745,
      "Pott": 4746,
      "Poll": 4747,
      "Pines": 4748,
      "Potti": 4749,
      "Ry": 4750,
      "Rew": 4751,
      "San": 4752,
      "Sor": 4753,
      "Sto": 4754,
      "Sme": 4755,
      "Solo": 4756,
      "Tr": 4757,
      "Tab": 4758,
      "Vl": 4759,
      "Vic": 4760,
      "Warren": 4761,
      "Yuri": 4762,
      "aim": 4763,
      "ba": 4764,
      "can": 4765,
      "ces": 4766,
      "del": 4767,
      "dos": 4768,
      "day": 4769,
      "eele": 4770,
      "get": 4771,
      "grou": 4772,
      "jan": 4773,
      "jack": 4774,
      "kill": 4775,
      "kuk": 4776,
      "muv": 4777,
      "now": 4778,
      "ool": 4779,
      "oob": 4780,
      "rin": 4781,
      "sk": 4782,
      "sur": 4783,
      "spe": 4784,
      "sever": 4785,
      "ven": 4786,
      "wyn": 4787,
      "western": 4788,
      "íguez": 4789,
      "arp": 4790,
      "arin": 4791,
      "arian": 4792,
      "araj": 4793,
      "around": 4794,
      "inod": 4795,
      "inama": 4796,
      "inally": 4797,
      "dboard": 4798,
      "anaka": 4799,
      "rise": 4800,
      "riff": 4801,
      "alas": 4802,
      "eli": 4803,
      "elle": 4804,
      "elman": 4805,
      "wright": 4806,
      "amount": 4807,
      "Calab": 4808,
      "Carom": 4809,
      "Carcer": 4810,
      "Carthy": 4811,
      "Cardboard": 4812,
      "ouins": 4813,
      "olor": 4814,
      "Caper": 4815,
      "lejack": 4816,
      "20th": 4817,
      "iran": 4818,
      "ovic": 4819,
      "Canar": 4820,
      "Ameer": 4821,
      "Amruth": 4822,
      "Ammuv": 4823,
      "aver": 4824,
      "arde": 4825,
      "ardo": 4826,
      "ident": 4827,
      "igel": 4828,
      "2011": 4829,
      "Catacomb": 4830,
      "Mario": 4831,
      "tool": 4832,
      "2002": 4833,
      "actors": 4834,
      "ucqu": 4835,
      "umas": 4836,
      "Stri": 4837,
      "new": 4838,
      "opat": 4839,
      "evi": 4840,
      "resi": 4841,
      "1983": 4842,
      "augh": 4843,
      "Sherman": 4844,
      "Sharon": 4845,
      "shack": 4846,
      "1960": 4847,
      "1965": 4848,
      "Cafund": 4849,
      "Catching": 4850,
      "quest": 4851,
      "1955": 4852,
      "ightfoot": 4853,
      "Ind": 4854,
      "Inheritance": 4855,
      "scen": 4856,
      "place": 4857,
      "effe": 4858,
      "ickman": 4859,
      "ugrue": 4860,
      "ugadu": 4861,
      "Raoul": 4862,
      "Pros": 4863,
      "Unwritten": 4864,
      "Untold": 4865,
      "asham": 4866,
      "Paí": 4867,
      "uki": 4868,
      "rojo": 4869,
      "ibandh": 4870,
      "Praha": 4871,
      "Prathy": 4872,
      "Camerier": 4873,
      "azir": 4874,
      "Cannibalism": 4875,
      "Capricious": 4876,
      "January": 4877,
      "Caddy": 4878,
      "Spain": 4879,
      "offresi": 4880,
      "CandyFl": 4881,
      "Blak": 4882,
      "Conquest": 4883,
      "ankar": 4884,
      "Potugadu": 4885,
      "Juli": 4886,
      "head": 4887,
      "Tonight": 4888,
      "ussain": 4889,
      "Benazir": 4890,
      "Malcol": 4891,
      "psy": 4892,
      "oxer": 4893,
      "ittle": 4894,
      "Paramount": 4895,
      "Louise": 4896,
      "Bedouins": 4897,
      "erais": 4898,
      "Pratibandh": 4899,
      "Sims": 4900,
      "Vanity": 4901,
      "Emman": 4902,
      "184": 4903,
      "Corpor": 4904,
      "Ruins": 4905,
      "Casualties": 4906,
      "Ellen": 4907,
      "Pourasham": 4908,
      "Naan": 4909,
      "Valer": 4910,
      "Rajinama": 4911,
      "uctions": 4912,
      "Antonio": 4913,
      "named": 4914,
      "Girls": 4915,
      "presenz": 4916,
      "myster": 4917,
      "Scheming": 4918,
      "Syd": 4919,
      "edding": 4920,
      "igned": 4921,
      "including": 4922,
      "oscow": 4923,
      "Corners": 4924,
      "Kristen": 4925,
      "odríguez": 4926,
      "Australian": 4927,
      "Australia": 4928,
      "Ronald": 4929,
      "Productions": 4930,
      "Brend": 4931,
      "Ferdin": 4932,
      "ascot": 4933,
      "hosts": 4934,
      "version": 4935,
      "roads": 4936,
      "arayana": 4937,
      "biographical": 4938,
      "Massim": 4939,
      "portunit": 4940,
      "Kathleen": 4941,
      "Bazoob": 4942,
      "fessions": 4943,
      "DVD": 4944,
      "Mexic": 4945,
      "Rewinds": 4946,
      "Smeep": 4947,
      "Vladi": 4948,
      "Vicent": 4949,
      "several": 4950,
      "Ammuvag": 4951,
      "Cafundó": 4952,
      "Prahaar": 4953,
      "Caddyshack": 4954,
      "CandyFlip": 4955,
      "Malcolm": 4956,
      "Corporation": 4957,
      "Bazooband": 4958,
      "21": 4959,
      "Ari": 4960,
      "Bu": 4961,
      "Baker": 4962,
      "Binn": 4963,
      "Dale": 4964,
      "Doug": 4965,
      "Eth": 4966,
      "Fri": 4967,
      "Fire_": 4968,
      "Gian": 4969,
      "Grac": 4970,
      "I_W": 4971,
      "Izz": 4972,
      "Jud": 4973,
      "Kal": 4974,
      "Kay": 4975,
      "Len": 4976,
      "Lenn": 4977,
      "Lynn": 4978,
      "Pre": 4979,
      "Penn": 4980,
      "Run": 4981,
      "Rik": 4982,
      "Rip": 4983,
      "Ryan": 4984,
      "Russell": 4985,
      "Sat": 4986,
      "Tre": 4987,
      "Tri": 4988,
      "Taylor": 4989,
      "Vall": 4990,
      "Vernon": 4991,
      "Yū": 4992,
      "Yor": 4993,
      "Zo": 4994,
      "_actor": 4995,
      "_John": 4996,
      "_by_": 4997,
      "_13": 4998,
      "ao": 4999,
      "aas": 5000,
      "aan_N": 5001,
      "ci": 5002,
      "co_": 5003,
      "call": 5004,
      "cial": 5005,
      "company": 5006,
      "d_and": 5007,
      "ear": 5008,
      "eal": 5009,
      "fem": 5010,
      "final": 5011,
      "fire_": 5012,
      "go": 5013,
      "ges": 5014,
      "hit": 5015,
      "hilli": 5016,
      "i_S": 5017,
      "i_P": 5018,
      "ju": 5019,
      "lè": 5020,
      "makes": 5021,
      "no_": 5022,
      "ne_D": 5023,
      "o_S": 5024,
      "ps_": 5025,
      "pop": 5026,
      "pher": 5027,
      "sin": 5028,
      "sat": 5029,
      "six": 5030,
      "ski": 5031,
      "wife": 5032,
      "yatt": 5033,
      "zi": 5034,
      "ãe_Jo": 5035,
      "èle_": 5036,
      "ël": 5037,
      "ón": 5038,
      "arō": 5039,
      "ine_D": 5040,
      "errigan": 5041,
      "stage": 5042,
      "stant": 5043,
      "ils": 5044,
      "e_Z": 5045,
      "e_and": 5046,
      "e_Par": 5047,
      "e_Thunder": 5048,
      "on_Par": 5049,
      "rew": 5050,
      "real": 5051,
      "received": 5052,
      "rian": 5053,
      "rich": 5054,
      "ris_": 5055,
      "ript": 5056,
      "andopadhyay": 5057,
      "icolaescu": 5058,
      "esse": 5059,
      "asu": 5060,
      "a_C": 5061,
      "a_N": 5062,
      "a_St": 5063,
      "a_bell": 5064,
      "a_Jay": 5065,
      "a_offresi": 5066,
      "a_presenz": 5067,
      "terworth": 5068,
      "is_Le": 5069,
      "y_at": 5070,
      "y_Ch": 5071,
      "y_on_Par": 5072,
      "190": 5073,
      "ature": 5074,
      "om_": 5075,
      "Car_T": 5076,
      "Care_of": 5077,
      "Car_of_Dreams": 5078,
      "_Sk": 5079,
      "_Sin": 5080,
      "_Sal": 5081,
      "_Supper": 5082,
      "directorial": 5083,
      "o_C": 5084,
      "o_G": 5085,
      "o_Ben": 5086,
      "uses": 5087,
      "itel": 5088,
      "_Ber": 5089,
      "_Based": 5090,
      "_Brand": 5091,
      "_Bresslaw": 5092,
      "_Boxer": 5093,
      "_Bandopadhyay": 5094,
      "_Mer": 5095,
      "_Mir": 5096,
      "_Morgan": 5097,
      "_Midn": 5098,
      "Casa_Man": 5099,
      "chang": 5100,
      "_Cut": 5101,
      "_Craig": 5102,
      "uro": 5103,
      "urp": 5104,
      "urton": 5105,
      "ov_": 5106,
      "ovo": 5107,
      "Calls_": 5108,
      "Callawa": 5109,
      "Call_Est": 5110,
      "_Hip": 5111,
      "uno": 5112,
      "Can_You": 5113,
      "s_Way": 5114,
      "s_dos": 5115,
      "s_Inheritance": 5116,
      "s_Vanity": 5117,
      "aye_Par": 5118,
      "Amanda_": 5119,
      "_Rich": 5120,
      "_River": 5121,
      "_Rustlers": 5122,
      "akrishn": 5123,
      "_the_Bat": 5124,
      "_the_Unwritten": 5125,
      "_Gr": 5126,
      "_Ghar": 5127,
      "_Goldb": 5128,
      "aves": 5129,
      "arden": 5130,
      "anga": 5131,
      "iders_": 5132,
      "_Dant": 5133,
      "_Dream": 5134,
      "_Duck": 5135,
      "_Dale": 5136,
      "_Dwan": 5137,
      "ent_That": 5138,
      "_A_W": 5139,
      "_Away": 5140,
      "_A_Hip": 5141,
      "imation": 5142,
      "uller": 5143,
      "_Fre": 5144,
      "_Fall": 5145,
      "_Forg": 5146,
      "_Fland": 5147,
      "_Flesh": 5148,
      "_Footpath": 5149,
      "Johann": 5150,
      "for_T": 5151,
      "eller": 5152,
      "_Well": 5153,
      "_West": 5154,
      "_Wood": 5155,
      "Carrie_": 5156,
      "raj": 5157,
      "Captain_T": 5158,
      "Captain_J": 5159,
      "Captain_Ch": 5160,
      "Captain_Kid": 5161,
      "Captain_App": 5162,
      "Captain_Mag": 5163,
      "Captain_Midn": 5164,
      "Clar": 5165,
      "2013_film": 5166,
      "Cat_": 5167,
      "_Pep": 5168,
      "_Power": 5169,
      "_Pleader": 5170,
      "_Pacific": 5171,
      "Mari": 5172,
      "Marie_": 5173,
      "_Life": 5174,
      "_Landing_": 5175,
      "Campfire_": 5176,
      "2003": 5177,
      "_of_He": 5178,
      "_of_War": 5179,
      "abell": 5180,
      "ucas": 5181,
      "_The_Ris": 5182,
      "_The_Untold": 5183,
      "American_V": 5184,
      "_Number": 5185,
      "_Nicolaescu": 5186,
      "alla": 5187,
      "umar_": 5188,
      "_Kar": 5189,
      "_Kumar_": 5190,
      "emble": 5191,
      "_Ter": 5192,
      "_Twenty": 5193,
      "John_B": 5194,
      "John_Carr": 5195,
      "e_Clau": 5196,
      "Alice": 5197,
      "1984": 5198,
      "1981_film": 5199,
      "erner": 5200,
      "Shin": 5201,
      "she": 5202,
      "ship": 5203,
      "arty": 5204,
      "Castles_": 5205,
      "Cast_No": 5206,
      "Cast_Away": 5207,
      "1969": 5208,
      "ack_Duck": 5209,
      "i_language": 5210,
      "_Ever": 5211,
      "ished": 5212,
      "white": 5213,
      "_and_Pep": 5214,
      "_Story_": 5215,
      "Catch_a_": 5216,
      "eyder": 5217,
      "pers_": 5218,
      "1949": 5219,
      "1949_film": 5220,
      "1943_film": 5221,
      "1991": 5222,
      "1993": 5223,
      "1996_film": 5224,
      "1990_film": 5225,
      "1953": 5226,
      "1954": 5227,
      "_of_the_Corners": 5228,
      "ie_F": 5229,
      "ie_Jacques": 5230,
      "scar": 5231,
      "script": 5232,
      "_Shots": 5233,
      "_Shaan_N": 5234,
      "ollins": 5235,
      "California_Typewriter": 5236,
      "California_Solo": 5237,
      "California_Conquest": 5238,
      "California_Scheming": 5239,
      "atton": 5240,
      "Raiders_": 5241,
      "romance": 5242,
      "Calling_the_G": 5243,
      "Calling_the_Sh": 5244,
      "Bros": 5245,
      "Brass": 5246,
      "Brasse": 5247,
      "etty": 5248,
      "etta_": 5249,
      "Call_Me": 5250,
      "ive_Me": 5251,
      "1926_film": 5252,
      "1923_film": 5253,
      "Camille_Clau": 5254,
      "Café_Flesh": 5255,
      "George_B": 5256,
      "uke_": 5257,
      "upt": 5258,
      "Call_of_the_Sea": 5259,
      "a_Mc": 5260,
      "a_Mãe_Jo": 5261,
      "Casino_Tyco": 5262,
      "Casino_Raiders_": 5263,
      "Enric": 5264,
      "ar_e_N": 5265,
      "_Chatterjee": 5266,
      "izuno": 5267,
      "ib_Aadmi": 5268,
      "Camille_Rewinds": 5269,
      "Praan_J": 5270,
      "featured": 5271,
      "io_rojo": 5272,
      "William_H": 5273,
      "Cannibal_Attack": 5274,
      "Edd": 5275,
      "Candy_Stri": 5276,
      "1972_film": 5277,
      "1971_film": 5278,
      "Cab_Number": 5279,
      "Castle_Freak": 5280,
      "_in_the_Air": 5281,
      "_in_Fland": 5282,
      "ifer": 5283,
      "Elmer": 5284,
      "e_Burton": 5285,
      "1915_film": 5286,
      "s_of_Life": 5287,
      "Power_Cut": 5288,
      "_McCall": 5289,
      "Guy_": 5290,
      "by_Sean": 5291,
      "Carbine_": 5292,
      "office": 5293,
      "Cash_McCall": 5294,
      "as_no_": 5295,
      "y_Went_That": 5296,
      "Beauty_on_Par": 5297,
      "Campus_Con": 5298,
      "Peter_B": 5299,
      "e_Girl": 5300,
      "Call_Me_King": 5301,
      "Call_Me_Tonight": 5302,
      "Career_Girls": 5303,
      "Career_Op": 5304,
      "ina_Caper": 5305,
      "Martin_Sc": 5306,
      "ert_": 5307,
      "Pov_Mal": 5308,
      "Cairo_30": 5309,
      "Belle_of": 5310,
      "Canadian_Pacific": 5311,
      "Timoth": 5312,
      "Time_For": 5313,
      "Harve": 5314,
      "Harvey": 5315,
      "ekam_Sr": 5316,
      "Tom_H": 5317,
      "Canyon_Ra": 5318,
      "Canyon_Cross": 5319,
      "Jacob": 5320,
      "_Heavy": 5321,
      "Prairie_E": 5322,
      "Prairie_Thunder": 5323,
      "Queen": 5324,
      "a_Koyama": 5325,
      "_Annie": 5326,
      "_on_the_Unwritten": 5327,
      "well_": 5328,
      "_Robert": 5329,
      "_Room_": 5330,
      "iya_Koyama": 5331,
      "Catch_22": 5332,
      "Marcel": 5333,
      "Abel": 5334,
      "Before_I_W": 5335,
      "ki_K": 5336,
      "short_film": 5337,
      "Bernard_Bresslaw": 5338,
      "Olg": 5339,
      "ly_Pines": 5340,
      "_Alaska": 5341,
      "Café_de_Paris": 5342,
      "Power_Rangers_Time_For": 5343,
      "Patricia_": 5344,
      "Carnal_C": 5345,
      "Captured_by_": 5346,
      "Powder_": 5347,
      "Powder_River": 5348,
      "Powder_Room_": 5349,
      "Carib_Gold": 5350,
      "Alexander": 5351,
      "Corb": 5352,
      "Henri": 5353,
      "Frances": 5354,
      "Francesc": 5355,
      "ver_the_Air": 5356,
      "ensemble": 5357,
      "ampire_": 5358,
      "_Shadow_": 5359,
      "Caesar_and_Cle": 5360,
      "ographer": 5361,
      "Captain_Fury": 5362,
      "Casey_at": 5363,
      "enzel": 5364,
      "_Rosen": 5365,
      "Captain_Thunderbolt": 5366,
      "Cat_and_Dog": 5367,
      "Camp_Cudd": 5368,
      "_Street_": 5369,
      "Reed": 5370,
      "gars_of_Life": 5371,
      "_the_Slav": 5372,
      "_The_Last_Supper": 5373,
      "team": 5374,
      "winder": 5375,
      "Cadillac_Des": 5376,
      "Beautiful_Dream": 5377,
      "s_Song": 5378,
      "_Feat": 5379,
      "_Feud": 5380,
      "_Feeling": 5381,
      "Cast_a_Long": 5382,
      "Among_the_Ruins": 5383,
      "premiere": 5384,
      "Bear_Feat": 5385,
      "Cafe_Moscow": 5386,
      "Cafe_Mascot": 5387,
      "Caribbean_Gold": 5388,
      "Canvas_B": 5389,
      "Practical_Mag": 5390,
      "Barbara_Windsor": 5391,
      "Captain_Fracassa": 5392,
      "1926_short_film": 5393,
      "Bees_in_Paradi": 5394,
      "Allan_Dwan": 5395,
      "held": 5396,
      "Call_Over_the_Air": 5397,
      "_Generais": 5398,
      "Being_Twenty": 5399,
      "_Barrymore": 5400,
      "_Sharma": 5401,
      "Canned_Feud": 5402,
      "_The_Final_Attack": 5403,
      "Capital_I": 5404,
      "Careless_Love_": 5405,
      "Case_39": 5406,
      "California_Frontier": 5407,
      "Casa_da_Mãe_Jo": 5408,
      "Hungarian": 5409,
      "Prep_": 5410,
      "Prep_and_Pep": 5411,
      "as_Bomb": 5412,
      "_Hopera": 5413,
      "Amma_Rajinama": 5414,
      "Cabaret_": 5415,
      "Cabaret_Dan": 5416,
      "Carnival_Story": 5417,
      "Carnival_in_Fland": 5418,
      "Akira_": 5419,
      "Poveri_ma_ricchi": 5420,
      "Alfred_Newman_": 5421,
      "Hattie_Jacques": 5422,
      "a_Varshini": 5423,
      "_Aadmi_Ghar": 5424,
      "_Walker": 5425,
      "Captain_Pirate": 5426,
      "Captain_Philli": 5427,
      "Captain_Lash": 5428,
      "Captain_Lightfoot": 5429,
      "Khaled": 5430,
      "Matthe": 5431,
      "dition": 5432,
      "Baldi": 5433,
      "idi_Fle": 5434,
      "Jaswinder": 5435,
      "Beat_Girl": 5436,
      "ollywood": 5437,
      "oose_": 5438,
      "John_Lasseter": 5439,
      "ie_Sugrue": 5440,
      "previously": 5441,
      "Costa": 5442,
      "anuary_": 5443,
      "1919_film": 5444,
      "Catalina_Caper": 5445,
      "André": 5446,
      "Carolyn_of_the_Corners": 5447,
      "Directed": 5448,
      "elson_Dant": 5449,
      "Beach_of_Dreams": 5450,
      "Castelar_e_N": 5451,
      "Virginia": 5452,
      "Cantata_": 5453,
      "Beggars_of_Life": 5454,
      "adhikkuk": 5455,
      "Sergiu_Nicolaescu": 5456,
      "ugboat_Annie": 5457,
      "Terry_Scott": 5458,
      "Canal_Street_": 5459,
      "s_Journey": 5460,
      "Castles_in_the_Air": 5461,
      "iya_Naan": 5462,
      "rouble_": 5463,
      "Premium_Rush": 5464,
      "chnicolor": 5465,
      "Amsterdam_Heavy": 5466,
      "Pottas_Bomb": 5467,
      "Potti_Pleader": 5468,
      "group": 5469,
      "riffith": 5470,
      "Calaboose_": 5471,
      "Carom_Shots": 5472,
      "Carcerato_": 5473,
      "Cardboard_Boxer": 5474,
      "Canario_rojo": 5475,
      "Ameer_Aadmi_Ghar": 5476,
      "Amrutha_Varshini": 5477,
      "Catacombs_": 5478,
      "tool_Massacre": 5479,
      "opatra_": 5480,
      "Catching_Feeling": 5481,
      "País_dos": 5482,
      "Prathyekam_Sr": 5483,
      "Cameriera_bell": 5484,
      "Capricious_Summer": 5485,
      "Benazir_": 5486,
      "psych": 5487,
      "Casualties_of_War": 5488,
      "mystery": 5489,
      "edding_Story": 5490,
      "portunities_": 5491,
      "Vladimir": 5492,
      "Ammuvagiya_Naan": 5493,
      "Cafundó_": 5494,
      "Rikiya_Koyama": 5495,
      "d_and_the_Slav": 5496,
      "e_and_Fall": 5497,
      "a_Jaye": 5498,
      "a_presenza_offresi": 5499,
      "is_Lea": 5500,
      "Car_Trouble_": 5501,
      "Care_of_Footpath": 5502,
      "_Based_on_the_Unwritten": 5503,
      "Casa_Manana_": 5504,
      "Callaway_Went_That": 5505,
      "Call_Esteban": 5506,
      "Can_You_Ever": 5507,
      "aye_Par_Shaan_N": 5508,
      "_the_Bat_": 5509,
      "_A_Wedding_Story": 5510,
      "_A_Hip_Hopera": 5511,
      "_Forgive_Me": 5512,
      "for_Two": 5513,
      "Captain_Tugboat_Annie": 5514,
      "Captain_January_": 5515,
      "Captain_China": 5516,
      "Captain_Kidd_and_the_Slav": 5517,
      "Captain_Applejack": 5518,
      "Captain_Magal": 5519,
      "Captain_Midnight_": 5520,
      "_Powertool_Massacre": 5521,
      "_of_Heidi_Fle": 5522,
      "_The_Rise_and_Fall": 5523,
      "_The_Untold_Story": 5524,
      "American_Vampire_": 5525,
      "Castles_for_Two": 5526,
      "Cast_No_Shadow_": 5527,
      "_Story_by_Sean": 5528,
      "Catch_a_Fire_": 5529,
      "Calling_the_Ghosts": 5530,
      "Calling_the_Shots": 5531,
      "Brasseur": 5532,
      "Camille_Claudel_": 5533,
      "Casino_Tycoon_": 5534,
      "Casino_Raiders_II": 5535,
      "Praan_Jaye_Par_Shaan_N": 5536,
      "Candy_Stripers_": 5537,
      "Cab_Number_13": 5538,
      "Carbine_Williams": 5539,
      "as_no_País_dos": 5540,
      "Beauty_on_Parade_": 5541,
      "Campus_Confessions": 5542,
      "Career_Opportunities_": 5543,
      "Martin_Scorsese": 5544,
      "Pov_Malis_Lea": 5545,
      "Belle_of_Alaska": 5546,
      "Canadian_Pacific_": 5547,
      "Canyon_Raiders": 5548,
      "Canyon_Crossroads": 5549,
      "Prairie_Express": 5550,
      "Before_I_Wake_": 5551,
      "ly_Pines_Powertool_Massacre": 5552,
      "Café_de_Paris_": 5553,
      "Power_Rangers_Time_Force": 5554,
      "Carnal_Circuit": 5555,
      "Captured_by_Bedouins": 5556,
      "Powder_River_Rustlers": 5557,
      "Caesar_and_Cleopatra_": 5558,
      "Casey_at_the_Bat_": 5559,
      "Captain_Thunderbolt_": 5560,
      "Camp_Cuddly_Pines_Powertool_Massacre": 5561,
      "Cadillac_Desert_": 5562,
      "Beautiful_Dreamers": 5563,
      "Cast_a_Long_Shadow": 5564,
      "Canvas_Back_Duck": 5565,
      "Practical_Magic": 5566,
      "Bees_in_Paradise": 5567,
      "Casa_da_Mãe_Joana": 5568,
      "Cabaret_Dancer": 5569,
      "Carnival_in_Flanders_": 5570,
      "Captain_Phillips_": 5571,
      "elson_Dantas_no_País_dos": 5572,
      "Castelar_e_Nelson_Dantas_no_País_dos": 5573,
      "adhikkukka": 5574,
      "Castles_in_the_Air_": 5575,
      "Ameer_Aadmi_Gharib_Aadmi": 5576,
      "Catching_Feelings_": 5577,
      "Prathyekam_Sradhikkukka": 5578,
      "Cameriera_bella_presenza_offresi": 5579,
      "Care_of_Footpath_2": 5580,
      "_Based_on_the_Unwritten_Story_by_Sean": 5581,
      "Callaway_Went_Thataway": 5582,
      "Can_You_Ever_Forgive_Me": 5583,
      "Captain_Kidd_and_the_Slave_Girl": 5584,
      "_of_Heidi_Fleiss": 5585,
      "_The_Rise_and_Fall_of_Heidi_Fleiss": 5586,
      "Praan_Jaye_Par_Shaan_Na_Jaye": 5587,
      "Castelar_e_Nelson_Dantas_no_País_dos_Generais": 5588,
      "_Based_on_the_Unwritten_Story_by_Seanie_Sugrue": 5589,
      "11": 5590,
      "24": 5591,
      "Aub": 5592,
      "Aidan": 5593,
      "BC": 5594,
      "Bo": 5595,
      "Bow": 5596,
      "Burt": 5597,
      "Cour": 5598,
      "Cold": 5599,
      "Crist": 5600,
      "Cesar": 5601,
      "Dy": 5602,
      "Der": 5603,
      "Des": 5604,
      "Die": 5605,
      "Dines": 5606,
      "Dumas": 5607,
      "East": 5608,
      "Ford": 5609,
      "Gang": 5610,
      "Good": 5611,
      "Gail": 5612,
      "Gipp": 5613,
      "Graham": 5614,
      "Ho": 5615,
      "Hor": 5616,
      "Hol": 5617,
      "Hall": 5618,
      "KO": 5619,
      "Lo": 5620,
      "Lev": 5621,
      "Mand": 5622,
      "Mir": 5623,
      "Muk": 5624,
      "Miller": 5625,
      "Morgan": 5626,
      "Mitchell": 5627,
      "Om": 5628,
      "Our": 5629,
      "Pl": 5630,
      "Ped": 5631,
      "Park": 5632,
      "Parker": 5633,
      "Ross": 5634,
      "RKO": 5635,
      "Sig": 5636,
      "Wolf": 5637,
      "aters": 5638,
      "bel": 5639,
      "crit": 5640,
      "dev": 5641,
      "daugh": 5642,
      "ead": 5643,
      "eung": 5644,
      "fa": 5645,
      "franch": 5646,
      "gang": 5647,
      "goy": 5648,
      "hill": 5649,
      "ior": 5650,
      "kel": 5651,
      "kumar": 5652,
      "marr": 5653,
      "mem": 5654,
      "mour": 5655,
      "miss": 5656,
      "mother": 5657,
      "nan": 5658,
      "nard": 5659,
      "night": 5660,
      "oo": 5661,
      "oir": 5662,
      "ple": 5663,
      "pict": 5664,
      "person": 5665,
      "sev": 5666,
      "tri": 5667,
      "tra": 5668,
      "tran": 5669,
      "uh": 5670,
      "vana": 5671,
      "wa": 5672,
      "wr": 5673,
      "yson": 5674,
      "zh": 5675,
      "zan": 5676,
      "zen": 5677,
      "ardi": 5678,
      "anini": 5679,
      "star": 5680,
      "stud": 5681,
      "stone": 5682,
      "ila": 5683,
      "ora": 5684,
      "oner": 5685,
      "rest": 5686,
      "thor": 5687,
      "enon": 5688,
      "ando": 5689,
      "aley": 5690,
      "alone": 5691,
      "ica": 5692,
      "eson": 5693,
      "dio": 5694,
      "els": 5695,
      "olff": 5696,
      "use": 5697,
      "ital": 5698,
      "aghan": 5699,
      "ovsky": 5700,
      "uni": 5701,
      "exper": 5702,
      "owan": 5703,
      "avert": 5704,
      "ivan": 5705,
      "iven": 5706,
      "iga": 5707,
      "ige": 5708,
      "igg": 5709,
      "igan": 5710,
      "Its": 5711,
      "2001": 5712,
      "2004": 5713,
      "aplin": 5714,
      "apoor": 5715,
      "Rob": 5716,
      "umai": 5717,
      "Stone": 5718,
      "Steele": 5719,
      "opoul": 5720,
      "eves": 5721,
      "Alyson": 5722,
      "1982": 5723,
      "1986": 5724,
      "aud": 5725,
      "Shap": 5726,
      "shi": 5727,
      "1968": 5728,
      "Cafe": 5729,
      "ante": 5730,
      "eymour": 5731,
      "ogen": 5732,
      "1940": 5733,
      "1947": 5734,
      "award": 5735,
      "1959": 5736,
      "Franz": 5737,
      "atta": 5738,
      "Roberts": 5739,
      "Deep": 5740,
      "Michel": 5741,
      "1927": 5742,
      "phy": 5743,
      "aired": 5744,
      "Kenn": 5745,
      "dec": 5746,
      "Jackson": 5747,
      "ynes": 5748,
      "gerald": 5749,
      "others": 5750,
      "ordan": 5751,
      "inese": 5752,
      "Julian": 5753,
      "urtiz": 5754,
      "Grewal": 5755,
      "Cassel": 5756,
      "Colin": 5757,
      "through": 5758,
      "following": 5759,
      "Noel": 5760,
      "Barrie": 5761,
      "Pierre": 5762,
      "Teres": 5763,
      "conc": 5764,
      "voice": 5765,
      "Steve": 5766,
      "ensive": 5767,
      "2021": 5768,
      "Imogen": 5769,
      "itzgerald": 5770,
      "Giorg": 5771,
      "carto": 5772,
      "Asim": 5773,
      "sets": 5774,
      "gross": 5775,
      "originally": 5776,
      "Bruce": 5777,
      "ology": 5778,
      "ological": 5779,
      "ucci": 5780,
      "Sylv": 5781,
      "noir": 5782,
      "Technicolor": 5783,
      "human": 5784,
      "Anthony": 5785,
      "René": 5786,
      "raser": 5787,
      "ummings": 5788,
      "Produc": 5789,
      "Bertrand": 5790,
      "designed": 5791,
      "erlman": 5792,
      "Argentine": 5793,
      "Afric": 5794,
      "Phillips": 5795,
      "theatrical": 5796,
      "performan": 5797,
      "length": 5798,
      "Nasir": 5799,
      "venuti": 5800,
      "Emmanuel": 5801,
      "female": 5802,
      "popular": 5803,
      "Corbucci": 5804,
      "Dinesh": 5805,
      "franchise": 5806,
      "goyan": 5807,
      "averty": 5808,
      "10": 5809,
      "14": 5810,
      "15": 5811,
      "36": 5812,
      "70": 5813,
      "Au": 5814,
      "Bart": 5815,
      "Bog": 5816,
      "Boyd": 5817,
      "Bull": 5818,
      "Bouch": 5819,
      "City": 5820,
      "Code": 5821,
      "De_": 5822,
      "Derm": 5823,
      "Foster": 5824,
      "Gaut": 5825,
      "Gert": 5826,
      "Gurp": 5827,
      "Ham": 5828,
      "Jerry_": 5829,
      "Kob": 5830,
      "Kildare": 5831,
      "Ly": 5832,
      "Lang": 5833,
      "Lanc": 5834,
      "Mag": 5835,
      "Minn": 5836,
      "Magg": 5837,
      "Ned": 5838,
      "Nam": 5839,
      "Night": 5840,
      "Nino_": 5841,
      "Nia_": 5842,
      "Nina_": 5843,
      "Ok": 5844,
      "Pen": 5845,
      "Pad": 5846,
      "Paw": 5847,
      "Port": 5848,
      "Pats": 5849,
      "Rug": 5850,
      "Russian": 5851,
      "Sen": 5852,
      "Sun": 5853,
      "Sud": 5854,
      "Tosh": 5855,
      "Ur": 5856,
      "Vinod": 5857,
      "Win": 5858,
      "Wright": 5859,
      "Xavier": 5860,
      "_Campbell": 5861,
      "bur": 5862,
      "bast": 5863,
      "cent": 5864,
      "coll": 5865,
      "ce_H": 5866,
      "corr": 5867,
      "derson": 5868,
      "eh": 5869,
      "eot": 5870,
      "fre": 5871,
      "fils": 5872,
      "gy": 5873,
      "ho": 5874,
      "hug": 5875,
      "hillon": 5876,
      "husband": 5877,
      "iot": 5878,
      "iang": 5879,
      "kh": 5880,
      "la": 5881,
      "long": 5882,
      "ms": 5883,
      "mä": 5884,
      "ming": 5885,
      "men": 5886,
      "mes": 5887,
      "mel": 5888,
      "mad": 5889,
      "mov": 5890,
      "mont": 5891,
      "make": 5892,
      "million": 5893,
      "manga": 5894,
      "ne_": 5895,
      "oen": 5896,
      "pil": 5897,
      "pir": 5898,
      "power": 5899,
      "rone": 5900,
      "sex": 5901,
      "ting": 5902,
      "tak": 5903,
      "try": 5904,
      "true": 5905,
      "vy": 5906,
      "vis": 5907,
      "women": 5908,
      "yler": 5909,
      "zy": 5910,
      "áz": 5911,
      "är": 5912,
      "éry": 5913,
      "inson": 5914,
      "ine_G": 5915,
      "anime": 5916,
      "erot": 5917,
      "studi": 5918,
      "e_A": 5919,
      "e_C": 5920,
      "e_Car": 5921,
      "e_Mara": 5922,
      "ora_": 5923,
      "ona": 5924,
      "rey_W": 5925,
      "enk": 5926,
      "eda": 5927,
      "alc": 5928,
      "alie_": 5929,
      "ala_S": 5930,
      "altern": 5931,
      "dia_": 5932,
      "asek": 5933,
      "elton": 5934,
      "a_Ch": 5935,
      "a_Sc": 5936,
      "a_Rao": 5937,
      "ised": 5938,
      "y_Sh": 5939,
      "om_E": 5940,
      "osi": 5941,
      "oso": 5942,
      "_Sw": 5943,
      "ouston": 5944,
      "theat": 5945,
      "Thomp": 5946,
      "o_B": 5947,
      "o_P": 5948,
      "o_Bri": 5949,
      "itcom": 5950,
      "_Ben": 5951,
      "_Bel": 5952,
      "_Bab": 5953,
      "_Bern": 5954,
      "_Beer": 5955,
      "_Baker": 5956,
      "_Brid": 5957,
      "_Blanc": 5958,
      "_Beck": 5959,
      "_Bucqu": 5960,
      "_Mil": 5961,
      "_Marsh": 5962,
      "irth": 5963,
      "iraj": 5964,
      "ado": 5965,
      "_Cole": 5966,
      "_Curtis": 5967,
      "_Hy": 5968,
      "_Hart": 5969,
      "_Howard": 5970,
      "illand": 5971,
      "une": 5972,
      "unter": 5973,
      "un_Sh": 5974,
      "oti": 5975,
      "ayer": 5976,
      "the_Cab": 5977,
      "owers": 5978,
      "owler": 5979,
      "akash": 5980,
      "_Good": 5981,
      "_Germ": 5982,
      "_Graham": 5983,
      "_Graff": 5984,
      "avi": 5985,
      "avin": 5986,
      "ione": 5987,
      "ardson_": 5988,
      "ider": 5989,
      "idson": 5990,
      "_Don": 5991,
      "_Dem": 5992,
      "_Dev": 5993,
      "_Dougl": 5994,
      "_As": 5995,
      "_Au": 5996,
      "ima_": 5997,
      "ulf": 5998,
      "_Fran": 5999,
      "_Feyder": 6000,
      "_Fraser": 6001,
      "Joann": 6002,
      "Joe_D": 6003,
      "ello": 6004,
      "ellini": 6005,
      "_Wall": 6006,
      "_Warren": 6007,
      "ively": 6008,
      "Clara_": 6009,
      "_Poland": 6010,
      "Maril": 6011,
      "utch": 6012,
      "_Lewis": 6013,
      "_Lucas": 6014,
      "nie_H": 6015,
      "Chann": 6016,
      "Chiran": 6017,
      "America": 6018,
      "ichael": 6019,
      "abor": 6020,
      "Anup": 6021,
      "Anita_": 6022,
      "_Ne": 6023,
      "_Nol": 6024,
      "Rog": 6025,
      "Stor": 6026,
      "Story": 6027,
      "Street": 6028,
      "_Kay": 6029,
      "_Kang": 6030,
      "_Kerrigan": 6031,
      "neur": 6032,
      "opera": 6033,
      "emong": 6034,
      "empt": 6035,
      "emheld": 6036,
      "_Tom": 6037,
      "_Tol": 6038,
      "_Jing": 6039,
      "John_T": 6040,
      "John_St": 6041,
      "resc": 6042,
      "Alf": 6043,
      "1981": 6044,
      "1988": 6045,
      "itha_St": 6046,
      "Sher": 6047,
      "epis": 6048,
      "1966": 6049,
      "ief": 6050,
      "_Em": 6051,
      "_En": 6052,
      "_Stein": 6053,
      "eynold": 6054,
      "ogan": 6055,
      "1945": 6056,
      "1998": 6057,
      "1957": 6058,
      "1930": 6059,
      "1932": 6060,
      "1934": 6061,
      "hero": 6062,
      "ike": 6063,
      "Franç": 6064,
      "icki": 6065,
      "Dave": 6066,
      "Davies": 6067,
      "Robert_A": 6068,
      "Robert_F": 6069,
      "le_Guy": 6070,
      "Leo": 6071,
      "Arch": 6072,
      "George_S": 6073,
      "George_H": 6074,
      "aire": 6075,
      "ai_S": 6076,
      "oki": 6077,
      "oks": 6078,
      "uke": 6079,
      "Heinz": 6080,
      "David_B": 6081,
      "uston": 6082,
      "until": 6083,
      "Michael_C": 6084,
      "ubh": 6085,
      "_Chan": 6086,
      "ibb": 6087,
      "deMille": 6088,
      "_Blier": 6089,
      "plays": 6090,
      "Eddie_": 6091,
      "1970": 6092,
      "e_Foster": 6093,
      "ia_G": 6094,
      "1913": 6095,
      "Frank_Ry": 6096,
      "Carmine_G": 6097,
      "_McNeil": 6098,
      "Carlo": 6099,
      "Don_": 6100,
      "e_Du": 6101,
      "offman": 6102,
      "y_Wal": 6103,
      "y_Wong": 6104,
      "Norma_": 6105,
      "Seth": 6106,
      "Sebast": 6107,
      "e_Gordon": 6108,
      "Martin_B": 6109,
      "Isa": 6110,
      "Isabel": 6111,
      "Isabell": 6112,
      "lands": 6113,
      "to_Brass": 6114,
      "Christmas": 6115,
      "Jules": 6116,
      "_Wilson_": 6117,
      "Kirby": 6118,
      "_Anderson": 6119,
      "Brid": 6120,
      "_Roemheld": 6121,
      "Walt": 6122,
      "Walker": 6123,
      "o_Miy": 6124,
      "Cole": 6125,
      "Marco_": 6126,
      "Siddi": 6127,
      "e_Wood": 6128,
      "Lauri": 6129,
      "esh_": 6130,
      "_Scarp": 6131,
      "Scott_McNeil": 6132,
      "Maur": 6133,
      "Jimm": 6134,
      "Jimmy_": 6135,
      "Jim_Dale": 6136,
      "Jacques_Feyder": 6137,
      "Wild_Bill_Elliott": 6138,
      "o_Ross": 6139,
      "zzi": 6140,
      "Leonardo_": 6141,
      "Henry_": 6142,
      "Francis": 6143,
      "Victoria_": 6144,
      "arlier": 6145,
      "Laur": 6146,
      "_Whit": 6147,
      "Mike_": 6148,
      "Val_Gu": 6149,
      "_Reed": 6150,
      "_Reis": 6151,
      "_James_Cor": 6152,
      "Rose": 6153,
      "Arthur_H": 6154,
      "Stephen_S": 6155,
      "Genev": 6156,
      "Melv": 6157,
      "Mel_Blanc": 6158,
      "_Brown": 6159,
      "_Hayes": 6160,
      "Doris": 6161,
      "Ian_James_Cor": 6162,
      "u_actor": 6163,
      "Mylè": 6164,
      "Natash": 6165,
      "ando_Baldi": 6166,
      "ada_actor": 6167,
      "Sandra_": 6168,
      "help": 6169,
      "e_Aranda": 6170,
      "_Martin_": 6171,
      "_Clark": 6172,
      "Ashle": 6173,
      "Telugu_actor": 6174,
      "Romanian": 6175,
      "trav": 6176,
      "ultz": 6177,
      "Nichols": 6178,
      "_Trotti": 6179,
      "Johnny_M": 6180,
      "Cornel": 6181,
      "Bruno": 6182,
      "Bruno_": 6183,
      "Hattie": 6184,
      "jeevi": 6185,
      "y_Parker": 6186,
      "_Glickman": 6187,
      "_Walsh": 6188,
      "Chuck_Jones": 6189,
      "5280": 6190,
      "_Bhalla": 6191,
      "Noah_Beer": 6192,
      "Lionel_Barrymore": 6193,
      "Hilary_": 6194,
      "Jerem": 6195,
      "Sai_Kumar_": 6196,
      "cameo": 6197,
      "_Hughes_": 6198,
      "_Scott_": 6199,
      "Leslie_": 6200,
      "Wong_Jing": 6201,
      "Marvel": 6202,
      "Alexandra_": 6203,
      "Punjabi_language": 6204,
      "Bonnie_H": 6205,
      "Dowell": 6206,
      "Larry_the_Cab": 6207,
      "Charlotte_Burton": 6208,
      "Tinto_Brass": 6209,
      "Albright": 6210,
      "Rachel": 6211,
      "Geoffre": 6212,
      "cinematographer": 6213,
      "Kannada_actor": 6214,
      "Owen_Wilson": 6215,
      "Randolph": 6216,
      "feld": 6217,
      "_Harris": 6218,
      "_Edward": 6219,
      "Billie_Thomas": 6220,
      "Andy_Lau": 6221,
      "Lamar_Trotti": 6222,
      "successful": 6223,
      "Mort_Glickman": 6224,
      "Tabitha_St": 6225,
      "rinivas": 6226,
      "effects": 6227,
      "1848": 6228,
      "Ferdinando_Baldi": 6229,
      "Smeep_Kang": 6230,
      "Vicente_Aranda": 6231,
      "Binnu": 6232,
      "Lenny_": 6233,
      "Trey_Parker": 6234,
      "York": 6235,
      "called": 6236,
      "early": 6237,
      "ne_Demong": 6238,
      "o_Benvenuti": 6239,
      "_Richardson_": 6240,
      "akrishna": 6241,
      "Clarenc": 6242,
      "Tom_Hanks": 6243,
      "Jaswinder_Bhalla": 6244,
      "daughter": 6245,
      "picture": 6246,
      "zanar": 6247,
      "Bouchet": 6248,
      "Gurpreet": 6249,
      "Rugger": 6250,
      "corrupt": 6251,
      "huggi": 6252,
      "erotic": 6253,
      "ala_Sat": 6254,
      "Thompson": 6255,
      "_Marshall": 6256,
      "_Germain": 6257,
      "_Douglas_": 6258,
      "_Warren_Kerrigan": 6259,
      "Chiranjeevi": 6260,
      "eynolds": 6261,
      "Frank_Ryan_": 6262,
      "Carmine_Gallone": 6263,
      "Val_Guest": 6264,
      "Ian_James_Corlett": 6265,
      "Mylène_Demong": 6266,
      "Larry_the_Cable_Guy": 6267,
      "Mylène_Demongeot": 6268,
      "26": 6269,
      "29": 6270,
      "40": 6271,
      "Agn": 6272,
      "By": 6273,
      "Bod": 6274,
      "Bud": 6275,
      "Boy": 6276,
      "Bust": 6277,
      "Dar": 6278,
      "Dame": 6279,
      "Esh": 6280,
      "Fil": 6281,
      "Fat": 6282,
      "Fle": 6283,
      "First": 6284,
      "Genn": 6285,
      "Gray": 6286,
      "Had": 6287,
      "Hannah": 6288,
      "Hollywood": 6289,
      "Id": 6290,
      "Il": 6291,
      "Iren": 6292,
      "Judi": 6293,
      "Jordan": 6294,
      "Ky": 6295,
      "Kin": 6296,
      "Kish": 6297,
      "Kazu": 6298,
      "Lv": 6299,
      "Lil": 6300,
      "Los": 6301,
      "Lag": 6302,
      "Lov": 6303,
      "Law": 6304,
      "Lorr": 6305,
      "Laine": 6306,
      "Met": 6307,
      "Mot": 6308,
      "Mell": 6309,
      "Mack": 6310,
      "Nav": 6311,
      "Oscar": 6312,
      "Pand": 6313,
      "Pol": 6314,
      "Pay": 6315,
      "Pamp": 6316,
      "Puri": 6317,
      "Rames": 6318,
      "Rush": 6319,
      "Sm": 6320,
      "Sind": 6321,
      "Suk": 6322,
      "Seymour": 6323,
      "Tru": 6324,
      "Tanner": 6325,
      "US": 6326,
      "Ut": 6327,
      "Vis": 6328,
      "West": 6329,
      "Woman": 6330,
      "Wei": 6331,
      "Yu": 6332,
      "Yann": 6333,
      "aï": 6334,
      "aar": 6335,
      "bed": 6336,
      "back": 6337,
      "beg": 6338,
      "boy": 6339,
      "cr": 6340,
      "cou": 6341,
      "cott": 6342,
      "century": 6343,
      "camp": 6344,
      "det": 6345,
      "desc": 6346,
      "fam": 6347,
      "foc": 6348,
      "girl": 6349,
      "hm": 6350,
      "how": 6351,
      "hail": 6352,
      "kse": 6353,
      "lover": 6354,
      "mü": 6355,
      "main": 6356,
      "more": 6357,
      "nes": 6358,
      "number": 6359,
      "ped": 6360,
      "pal": 6361,
      "pass": 6362,
      "publ": 6363,
      "run": 6364,
      "rne": 6365,
      "sel": 6366,
      "sim": 6367,
      "soc": 6368,
      "sley": 6369,
      "sport": 6370,
      "ti": 6371,
      "ville": 6372,
      "video": 6373,
      "wide": 6374,
      "ão": 6375,
      "ém": 6376,
      "éoph": 6377,
      "éli": 6378,
      "ías": 6379,
      "arza": 6380,
      "stories": 6381,
      "ingo": 6382,
      "Cairo": 6383,
      "ores": 6384,
      "orpe": 6385,
      "onym": 6386,
      "riv": 6387,
      "enj": 6388,
      "edited": 6389,
      "andark": 6390,
      "aldi": 6391,
      "alog": 6392,
      "ics": 6393,
      "ices": 6394,
      "disc": 6395,
      "dialog": 6396,
      "terson": 6397,
      "19th": 6398,
      "atin": 6399,
      "atra": 6400,
      "olina": 6401,
      "Théoph": 6402,
      "usu": 6403,
      "itman": 6404,
      "che": 6405,
      "agher": 6406,
      "ague": 6407,
      "unz": 6408,
      "aking": 6409,
      "avalas": 6410,
      "entin": 6411,
      "enton": 6412,
      "Theodor": 6413,
      "ulars": 6414,
      "many": 6415,
      "igner": 6416,
      "Animation": 6417,
      "Roc": 6418,
      "umbo": 6419,
      "Stef": 6420,
      "open": 6421,
      "ement": 6422,
      "Ali": 6423,
      "ended": 6424,
      "endrick": 6425,
      "auris": 6426,
      "Shr": 6427,
      "Shan": 6428,
      "Shane": 6429,
      "show": 6430,
      "arts": 6431,
      "1967": 6432,
      "iews": 6433,
      "ewitt": 6434,
      "ishra": 6435,
      "perform": 6436,
      "prof": 6437,
      "ller": 6438,
      "1937": 6439,
      "ikawa": 6440,
      "attach": 6441,
      "attempt": 6442,
      "iah": 6443,
      "Robertson": 6444,
      "fee": 6445,
      "ahl": 6446,
      "Brock": 6447,
      "arklow": 6448,
      "Leh": 6449,
      "Univers": 6450,
      "people": 6451,
      "1928": 6452,
      "rimée": 6453,
      "Eddie": 6454,
      "cox": 6455,
      "1971": 6456,
      "1974": 6457,
      "1976": 6458,
      "Adj": 6459,
      "Adri": 6460,
      "ondon": 6461,
      "ift": 6462,
      "Donn": 6463,
      "Donnell": 6464,
      "became": 6465,
      "Scorsese": 6466,
      "class": 6467,
      "offic": 6468,
      "Norbert": 6469,
      "Isra": 6470,
      "Before": 6471,
      "appears": 6472,
      "July": 6473,
      "Alekse": 6474,
      "Jonas": 6475,
      "Kirk": 6476,
      "arnum": 6477,
      "ffer": 6478,
      "Manuel": 6479,
      "Neill": 6480,
      "Noém": 6481,
      "Barrymore": 6482,
      "Vaness": 6483,
      "Terry": 6484,
      "Terren": 6485,
      "conv": 6486,
      "Prakash": 6487,
      "haber": 6488,
      "yanarayana": 6489,
      "Claude": 6490,
      "Imper": 6491,
      "Mikhail": 6492,
      "Evans": 6493,
      "reeman": 6494,
      "Jefferson": 6495,
      "White": 6496,
      "return": 6497,
      "ography": 6498,
      "police": 6499,
      "Moore": 6500,
      "super": 6501,
      "Gregory": 6502,
      "created": 6503,
      "Venice": 6504,
      "colle": 6505,
      "idden": 6506,
      "ronized": 6507,
      "Kaik": 6508,
      "odrama": 6509,
      "Salah": 6510,
      "cinema": 6511,
      "iedell": 6512,
      "Sakura": 6513,
      "parents": 6514,
      "ascal": 6515,
      "ynchronized": 6516,
      "Irving": 6517,
      "Jerry": 6518,
      "Ayres": 6519,
      "Seton": 6520,
      "Argentina": 6521,
      "Bennett": 6522,
      "Milburn": 6523,
      "explores": 6524,
      "Marvin": 6525,
      "Sharma": 6526,
      "Alexandre": 6527,
      "Cros": 6528,
      "Jiř": 6529,
      "hardt": 6530,
      "Cavalc": 6531,
      "agnani": 6532,
      "Brazilian": 6533,
      "murdered": 6534,
      "Duff": 6535,
      "Dalton": 6536,
      "Bharath": 6537,
      "Héctor": 6538,
      "Stock": 6539,
      "cannibal": 6540,
      "Izzo": 6541,
      "Johannes": 6542,
      "Matthew": 6543,
      "married": 6544,
      "wrote": 6545,
      "cartoon": 6546,
      "Produced": 6547,
      "Bullock": 6548,
      "Pawan": 6549,
      "mäki": 6550,
      "Channel": 6551,
      "François": 6552,
      "Sebastian": 6553,
      "Agnes": 6554,
      "Kishan": 6555,
      "Lvovsky": 6556,
      "Laglen": 6557,
      "Metro": 6558,
      "Melliss": 6559,
      "Pampanini": 6560,
      "Ramesh": 6561,
      "müller": 6562,
      "published": 6563,
      "sports": 6564,
      "élias": 6565,
      "andarkar": 6566,
      "aurismäki": 6567,
      "Cavalcanti": 6568,
      "60": 6569,
      "Ag": 6570,
      "Aki_K": 6571,
      "Bos": 6572,
      "Big": 6573,
      "Bank": 6574,
      "Babu": 6575,
      "Bresslaw": 6576,
      "Company": 6577,
      "Da": 6578,
      "Das": 6579,
      "Dud": 6580,
      "Dirk": 6581,
      "Demi": 6582,
      "Dutch": 6583,
      "Ek": 6584,
      "Fun": 6585,
      "Ful": 6586,
      "Fore": 6587,
      "Fair": 6588,
      "Farg": 6589,
      "Friend": 6590,
      "Faust": 6591,
      "GM": 6592,
      "Garr": 6593,
      "Gav": 6594,
      "Gast": 6595,
      "Gara_": 6596,
      "Grant": 6597,
      "Hart": 6598,
      "Ig": 6599,
      "Ire": 6600,
      "Judd": 6601,
      "Justin": 6602,
      "Jatta": 6603,
      "Kl": 6604,
      "Kr": 6605,
      "Ker": 6606,
      "Kor": 6607,
      "Kam": 6608,
      "Kid": 6609,
      "Kirst": 6610,
      "Kumar": 6611,
      "Lan": 6612,
      "Lon": 6613,
      "Les": 6614,
      "Language": 6615,
      "Light": 6616,
      "Ladi": 6617,
      "Lori": 6618,
      "Lane": 6619,
      "Little": 6620,
      "Med": 6621,
      "Math": 6622,
      "Meen": 6623,
      "Mazz": 6624,
      "MGM": 6625,
      "Naz": 6626,
      "Nigel": 6627,
      "Os": 6628,
      "Oy": 6629,
      "Orig": 6630,
      "Oleg": 6631,
      "Per": 6632,
      "Pam": 6633,
      "Peng": 6634,
      "Rele": 6635,
      "Sv": 6636,
      "Sant": 6637,
      "Tō": 6638,
      "Tol": 6639,
      "Tot": 6640,
      "Tell": 6641,
      "UK": 6642,
      "Ull": 6643,
      "Var": 6644,
      "Vittor": 6645,
      "Vij": 6646,
      "Viol": 6647,
      "Wu": 6648,
      "Wash": 6649,
      "Yak": 6650,
      "Yok": 6651,
      "Yoland": 6652,
      "Zac": 6653,
      "Zolt": 6654,
      "Zalone": 6655,
      "Zulf": 6656,
      "_Cap": 6657,
      "_actress": 6658,
      "_Italy": 6659,
      "añ": 6660,
      "aish": 6661,
      "bu": 6662,
      "break": 6663,
      "cur": 6664,
      "cop": 6665,
      "ce_film": 6666,
      "dep": 6667,
      "dale": 6668,
      "ey_M": 6669,
      "earlier": 6670,
      "fi": 6671,
      "few": 6672,
      "gian": 6673,
      "gud": 6674,
      "gherit": 6675,
      "hand": 6676,
      "hal": 6677,
      "hir": 6678,
      "high": 6679,
      "hmed": 6680,
      "house": 6681,
      "i_M": 6682,
      "jad": 6683,
      "jun": 6684,
      "ken": 6685,
      "kawa": 6686,
      "l_H": 6687,
      "line": 6688,
      "lor_": 6689,
      "larg": 6690,
      "lives": 6691,
      "min": 6692,
      "mst": 6693,
      "mol": 6694,
      "mag": 6695,
      "must": 6696,
      "ning": 6697,
      "narr": 6698,
      "nis": 6699,
      "nini": 6700,
      "naux": 6701,
      "po": 6702,
      "py": 6703,
      "pson": 6704,
      "pong": 6705,
      "past": 6706,
      "porn": 6707,
      "rd": 6708,
      "ré": 6709,
      "rod": 6710,
      "roney": 6711,
      "sist": 6712,
      "synchronized": 6713,
      "tz": 6714,
      "takes": 6715,
      "twenty": 6716,
      "vio_": 6717,
      "viol": 6718,
      "wu": 6719,
      "would": 6720,
      "yer": 6721,
      "yne": 6722,
      "yub": 6723,
      "z_": 6724,
      "zeg": 6725,
      "ár": 6726,
      "áv": 6727,
      "ári": 6728,
      "árez": 6729,
      "ég": 6730,
      "én": 6731,
      "ía_": 6732,
      "ță": 6733,
      "arch": 6734,
      "aresh": 6735,
      "aro_N": 6736,
      "inald": 6737,
      "inley": 6738,
      "ine_H": 6739,
      "international": 6740,
      "anor": 6741,
      "anie_": 6742,
      "staff": 6743,
      "Cahill": 6744,
      "ilde_": 6745,
      "e_P": 6746,
      "e_Y": 6747,
      "e_Ch": 6748,
      "e_Le": 6749,
      "or_L": 6750,
      "ones": 6751,
      "onne": 6752,
      "thau": 6753,
      "though": 6754,
      "those": 6755,
      "ria": 6756,
      "enb": 6757,
      "eno": 6758,
      "enter": 6759,
      "enovel": 6760,
      "eder": 6761,
      "andro": 6762,
      "icz": 6763,
      "esem": 6764,
      "dis": 6765,
      "ases": 6766,
      "ela": 6767,
      "el_R": 6768,
      "elander": 6769,
      "a_Cam": 6770,
      "a_Al": 6771,
      "a_De": 6772,
      "a_Izzo": 6773,
      "terling": 6774,
      "iser": 6775,
      "isberg": 6776,
      "isenberg": 6777,
      "y_T": 6778,
      "y_film": 6779,
      "y_Grewal": 6780,
      "writing": 6781,
      "amjit": 6782,
      "ating": 6783,
      "omew": 6784,
      "osar": 6785,
      "_Sil": 6786,
      "_Sor": 6787,
      "_Sen": 6788,
      "_Sab": 6789,
      "_Sung": 6790,
      "_Sale_": 6791,
      "olin": 6792,
      "olomew": 6793,
      "Three": 6794,
      "Capone": 6795,
      "itor": 6796,
      "itter": 6797,
      "ities": 6798,
      "lee": 6799,
      "leton": 6800,
      "leeson": 6801,
      "_Be": 6802,
      "_Bre": 6803,
      "_Bes": 6804,
      "_Bog": 6805,
      "_Bott": 6806,
      "_Bren": 6807,
      "_Britt": 6808,
      "_Basu": 6809,
      "_Barklow": 6810,
      "_Mo": 6811,
      "_Mel": 6812,
      "_Mak": 6813,
      "_Maz": 6814,
      "_Mason": 6815,
      "_Michael": 6816,
      "_Mishra": 6817,
      "irard": 6818,
      "Camélias": 6819,
      "adori": 6820,
      "adway": 6821,
      "eta": 6822,
      "etlan": 6823,
      "etwork": 6824,
      "_Cr": 6825,
      "_Crab": 6826,
      "_Cobb": 6827,
      "agan": 6828,
      "uro_": 6829,
      "urup": 6830,
      "urro": 6831,
      "ovina": 6832,
      "_Han": 6833,
      "_Hal": 6834,
      "_Ham": 6835,
      "_Hat": 6836,
      "_Hall": 6837,
      "_Hussain": 6838,
      "_Hatton": 6839,
      "illy": 6840,
      "unes": 6841,
      "Canutt": 6842,
      "Canals": 6843,
      "ayadian": 6844,
      "aylor_": 6845,
      "Amé": 6846,
      "Amend": 6847,
      "Amato": 6848,
      "Amjad": 6849,
      "Amadori": 6850,
      "exter": 6851,
      "_Rog": 6852,
      "_Rob": 6853,
      "_Robb": 6854,
      "_Reynolds": 6855,
      "_Ritter": 6856,
      "acLaine": 6857,
      "owe": 6858,
      "ompson_": 6859,
      "akawa": 6860,
      "_German": 6861,
      "_Griffith": 6862,
      "_Ghuggi": 6863,
      "avoc": 6864,
      "avatt": 6865,
      "activ": 6866,
      "ardwick": 6867,
      "idt": 6868,
      "idal": 6869,
      "_De_": 6870,
      "_Den": 6871,
      "_De_S": 6872,
      "_Dix": 6873,
      "_Dillon": 6874,
      "_Doyle": 6875,
      "_Dhillon": 6876,
      "oden": 6877,
      "entino": 6878,
      "_Ay": 6879,
      "ulin": 6880,
      "uléry": 6881,
      "Beth": 6882,
      "Beck": 6883,
      "former": 6884,
      "ellani": 6885,
      "_Thompson_": 6886,
      "_Ward_": 6887,
      "_Wright": 6888,
      "rah": 6889,
      "rau": 6890,
      "raush": 6891,
      "_Ph": 6892,
      "_Pl": 6893,
      "_Pan": 6894,
      "_Pal": 6895,
      "_Pay": 6896,
      "_Patric": 6897,
      "_Price": 6898,
      "Marie": 6899,
      "Marlin": 6900,
      "Margherit": 6901,
      "_Lud": 6902,
      "_Loy": 6903,
      "_Lock": 6904,
      "_Lane": 6905,
      "_Lynch": 6906,
      "_Landers": 6907,
      "nier": 6908,
      "toine_D": 6909,
      "Chec": 6910,
      "Chatterjee": 6911,
      "Chris_": 6912,
      "Chief": 6913,
      "ersh": 6914,
      "wash": 6915,
      "icher": 6916,
      "Antoine_D": 6917,
      "American_": 6918,
      "_Nichol": 6919,
      "_Niven": 6920,
      "allas": 6921,
      "ally_": 6922,
      "umiko_": 6923,
      "Starr": 6924,
      "Stoll": 6925,
      "_Ka": 6926,
      "_Kraush": 6927,
      "opez": 6928,
      "iano": 6929,
      "evez": 6930,
      "events": 6931,
      "_Tam": 6932,
      "_Tash": 6933,
      "_Torn": 6934,
      "_Taylor": 6935,
      "_Ja": 6936,
      "_Jen": 6937,
      "John_C": 6938,
      "John_D": 6939,
      "John_F": 6940,
      "John_Cle": 6941,
      "John_En": 6942,
      "e_Clark": 6943,
      "Alic": 6944,
      "Alice_": 6945,
      "Alberto": 6946,
      "endall": 6947,
      "igh_Ball": 6948,
      "Shal": 6949,
      "1964": 6950,
      "season": 6951,
      "comm": 6952,
      "comes": 6953,
      "whose": 6954,
      "_Stoner": 6955,
      "ogram": 6956,
      "ogelman": 6957,
      "proc": 6958,
      "princ": 6959,
      "aw_": 6960,
      "awn": 6961,
      "1994": 6962,
      "ourneur": 6963,
      "ighton": 6964,
      "otty": 6965,
      "assman": 6966,
      "ie_Lvovsky": 6967,
      "Franco": 6968,
      "ino_Gu": 6969,
      "icker": 6970,
      "Ray_L": 6971,
      "astrone": 6972,
      "Robert_W": 6973,
      "Robert_L": 6974,
      "Robert_K": 6975,
      "Robert_E": 6976,
      "eger": 6977,
      "Brand": 6978,
      "oyles": 6979,
      "Leban": 6980,
      "Arlen": 6981,
      "_Ol": 6982,
      "_Osb": 6983,
      "obi": 6984,
      "oble": 6985,
      "ashima": 6986,
      "Paz": 6987,
      "1921": 6988,
      "e_Mitchell": 6989,
      "George_D": 6990,
      "George_Mc": 6991,
      "aiz": 6992,
      "lyric": 6993,
      "lystone": 6994,
      "uka": 6995,
      "upon": 6996,
      "uparn": 6997,
      "upta": 6998,
      "Heath": 6999,
      "Heung": 7000,
      "Heather": 7001,
      "annon": 7002,
      "David_D": 7003,
      "a_Mazz": 7004,
      "a_Moh": 7005,
      "Charan": 7006,
      "Michael_S": 7007,
      "_Char": 7008,
      "_Chong": 7009,
      "Paul_H": 7010,
      "Paul_Ch": 7011,
      "Paul_Sch": 7012,
      "death": 7013,
      "Jack_K": 7014,
      "Jackie_": 7015,
      "James_W": 7016,
      "James_Stewart": 7017,
      "rimpong": 7018,
      "William_C": 7019,
      "William_A": 7020,
      "William_Hen": 7021,
      "_Var": 7022,
      "playing": 7023,
      "playwright": 7024,
      "Edwin": 7025,
      "aryya": 7026,
      "Richards": 7027,
      "Richard_C": 7028,
      "Richard_D": 7029,
      "Richard_Sale_": 7030,
      "Josef": 7031,
      "1975": 7032,
      "Adolf": 7033,
      "Adnan": 7034,
      "People": 7035,
      "e_Fel": 7036,
      "onda": 7037,
      "ondo": 7038,
      "issa_": 7039,
      "irez": 7040,
      "Els": 7041,
      "Frank_B": 7042,
      "_McDonald": 7043,
      "_McDowell": 7044,
      "Carl_Sw": 7045,
      "rude_": 7046,
      "ajor": 7047,
      "ajwa": 7048,
      "ielgud": 7049,
      "_Allen": 7050,
      "io_S": 7051,
      "claim": 7052,
      "offin": 7053,
      "y_We": 7054,
      "y_Wall": 7055,
      "Billy_B": 7056,
      "Seigner": 7057,
      "ontz": 7058,
      "Peter_L": 7059,
      "Peter_But": 7060,
      "y_Re": 7061,
      "Jean_Y": 7062,
      "ina_W": 7063,
      "e_Niro": 7064,
      "Martin_Sh": 7065,
      "uttenberg": 7066,
      "Anne_": 7067,
      "Annett": 7068,
      "Anna_K": 7069,
      "22_Barr": 7070,
      "22Red": 7071,
      "Const": 7072,
      "eki": 7073,
      "ergen": 7074,
      "Samuel": 7075,
      "Andy": 7076,
      "y_MacLaine": 7077,
      "atsu": 7078,
      "ombell": 7079,
      "urnett": 7080,
      "urnette": 7081,
      "Harris": 7082,
      "Harry_R": 7083,
      "Harrison": 7084,
      "ether": 7085,
      "iotta": 7086,
      "ossom": 7087,
      "urturro": 7088,
      "Carbonnaux": 7089,
      "_Wilde": 7090,
      "glish_": 7091,
      "Gret": 7092,
      "Quentin": 7093,
      "works": 7094,
      "anski": 7095,
      "errine": 7096,
      "_Anton": 7097,
      "_Roach": 7098,
      "Walsh": 7099,
      "o_Mc": 7100,
      "Di_Le": 7101,
      "aki_K": 7102,
      "Joseph_C": 7103,
      "Marcos": 7104,
      "Sidney": 7105,
      "Sidney_": 7106,
      "ments_": 7107,
      "King_": 7108,
      "Lew_Landers": 7109,
      "Manish": 7110,
      "Manso": 7111,
      "_Cook": 7112,
      "portray": 7113,
      "Meaghan": 7114,
      "Neal": 7115,
      "shorts": 7116,
      "Bernard_C": 7117,
      "Oliv": 7118,
      "Olmst": 7119,
      "Thomas_Hughes_": 7120,
      "_Conn": 7121,
      "Edward_H": 7122,
      "000": 7123,
      "Barry": 7124,
      "Barrera": 7125,
      "y_Savalas": 7126,
      "o_Rosi": 7127,
      "Terenc": 7128,
      "_Abu": 7129,
      "1852": 7130,
      "Golden": 7131,
      "Goldwyn": 7132,
      "Steven": 7133,
      "Stevens": 7134,
      "Franco_": 7135,
      "Mayer": 7136,
      "_Stock": 7137,
      "Kevin_Poll": 7138,
      "Stephan": 7139,
      "Donald_Britt": 7140,
      "Philippe": 7141,
      "_Elliott_": 7142,
      "Herman": 7143,
      "animator": 7144,
      "Laura": 7145,
      "inke_": 7146,
      "mann_": 7147,
      "_White": 7148,
      "_Whaley": 7149,
      "_Lee_": 7150,
      "Andrei": 7151,
      "y_Ly": 7152,
      "Rajasek": 7153,
      "Rosen": 7154,
      "Rains": 7155,
      "Lewis_R": 7156,
      "Asaka": 7157,
      "_Bruc": 7158,
      "_Butler_": 7159,
      "Drama": 7160,
      "Gordon_Douglas_": 7161,
      "therton": 7162,
      "Norman_S": 7163,
      "_Jonas": 7164,
      "George_Marshall": 7165,
      "Ern": 7166,
      "Gabby": 7167,
      "Jayaraj": 7168,
      "Lucien": 7169,
      "Nataly": 7170,
      "mootty": 7171,
      "_Schultz": 7172,
      "Mario_Amend": 7173,
      "Barbara_Bouchet": 7174,
      "Florenc": 7175,
      "vador": 7176,
      "Allan_Lane": 7177,
      "Karen": 7178,
      "Karamjit": 7179,
      "Mattoli": 7180,
      "Helen_Mir": 7181,
      "helm": 7182,
      "_Doi": 7183,
      "_Prakash": 7184,
      "Angeles": 7185,
      "Dickinson": 7186,
      "Vincenz": 7187,
      "credit": 7188,
      "Shea": 7189,
      "Sheila_": 7190,
      "Jonathan_M": 7191,
      "Simona_Izzo": 7192,
      "Delia_": 7193,
      "Romance_film": 7194,
      "slas": 7195,
      "_Jackson_": 7196,
      "Tony_Todd": 7197,
      "Jaim": 7198,
      "Larry": 7199,
      "oore_": 7200,
      "spirit": 7201,
      "umaran": 7202,
      "Spencer_Gordon": 7203,
      "Loretta_": 7204,
      "_Rao": 7205,
      "_Trumbo": 7206,
      "Johnny": 7207,
      "Adams": 7208,
      "Maurice_R": 7209,
      "Cinema_of_Italy": 7210,
      "includes": 7211,
      "Acc": 7212,
      "Dan_F": 7213,
      "Wallac": 7214,
      "Wallace": 7215,
      "regular": 7216,
      "regulars": 7217,
      "Atom_E": 7218,
      "alsam": 7219,
      "Shirley": 7220,
      "Laurent": 7221,
      "Claude_Brasseur": 7222,
      "Estevez": 7223,
      "Mahesh": 7224,
      "Octav": 7225,
      "Singh": 7226,
      "Toole": 7227,
      "letcher": 7228,
      "Anthony_": 7229,
      "Alfredo_": 7230,
      "Berlin": 7231,
      "ject": 7232,
      "a_Fung": 7233,
      "_Morita": 7234,
      "Stanle": 7235,
      "Lee_Sh": 7236,
      "Andrew_Benn": 7237,
      "Betty_G": 7238,
      "_Young_": 7239,
      "Ikue_Oh": 7240,
      "Takashima": 7241,
      "Eugene_Gordon": 7242,
      "Lisa_": 7243,
      "Rituparn": 7244,
      "Saiju": 7245,
      "duo": 7246,
      "o_Haas": 7247,
      "_Mouret": 7248,
      "_Mouzanar": 7249,
      "Robert_De_Niro": 7250,
      "Dorothy": 7251,
      "Dorothy_": 7252,
      "Virginia_": 7253,
      "Fernando_Di_Le": 7254,
      "Hope": 7255,
      "Kurt_N": 7256,
      "Nancy_": 7257,
      "Tamil_language": 7258,
      "axon": 7259,
      "month": 7260,
      "songs": 7261,
      "Roger_V": 7262,
      "Broadway": 7263,
      "worldwide": 7264,
      "Punjabi": 7265,
      "Alessandro_Benvenuti": 7266,
      "Eleon": 7267,
      "Jamie_": 7268,
      "Mammootty": 7269,
      "Palma": 7270,
      "Reginald": 7271,
      "_Bennet": 7272,
      "_Paige": 7273,
      "John_Huston": 7274,
      "Julie_Walters": 7275,
      "Alberto_Cavalcanti": 7276,
      "Taiwanese": 7277,
      "Buck_Henry": 7278,
      "Nathan_Scott_": 7279,
      "Tracey_M": 7280,
      "Umberto": 7281,
      "Umberto_": 7282,
      "having": 7283,
      "Intertitle": 7284,
      "Intertitles": 7285,
      "Davis_Doi": 7286,
      "Hugo_Haas": 7287,
      "Silv": 7288,
      "bbins": 7289,
      "brook": 7290,
      "met_Walsh": 7291,
      "_Harvey": 7292,
      "Clifton": 7293,
      "_McGowan": 7294,
      "Connor_": 7295,
      "Gregory_Peck": 7296,
      "Shirley_MacLaine": 7297,
      "Deborah_K": 7298,
      "Farland": 7299,
      "Lediga": 7300,
      "special": 7301,
      "avernier": 7302,
      "Raoul_Kraush": 7303,
      "Prosper": 7304,
      "Sydney_": 7305,
      "Kristen_Stewart": 7306,
      "Mexico": 7307,
      "Malcolm_McDowell": 7308,
      "Buzz": 7309,
      "Ethel": 7310,
      "Preston": 7311,
      "Rip_Torn": 7312,
      "Yūk": 7313,
      "Zoë": 7314,
      "co_Zalone": 7315,
      "ealand": 7316,
      "e_Zavatt": 7317,
      "_Skiles": 7318,
      "John_Carradine": 7319,
      "a_McCarthy": 7320,
      "Francesco_Rosi": 7321,
      "_Walker_": 7322,
      "Khaled_Mouzanar": 7323,
      "psychological": 7324,
      "Aubrey_W": 7325,
      "Court": 7326,
      "Cristian": 7327,
      "Cesare_Zavatt": 7328,
      "Deron": 7329,
      "Desmond": 7330,
      "Gippy_Grewal": 7331,
      "Pedro_": 7332,
      "Rossi": 7333,
      "develop": 7334,
      "personal": 7335,
      "tradition": 7336,
      "opoulos": 7337,
      "Teresa_": 7338,
      "Giorgos": 7339,
      "Bertrand_Blier": 7340,
      "performance": 7341,
      "Emmanuel_Mouret": 7342,
      "Gertrude_": 7343,
      "Hammer": 7344,
      "Kobun_Sh": 7345,
      "Maggie_": 7346,
      "Penelop": 7347,
      "Patsy_R": 7348,
      "melodrama": 7349,
      "studio": 7350,
      "alternative": 7351,
      "theatres": 7352,
      "_Bridges": 7353,
      "_Wallace": 7354,
      "Rogers": 7355,
      "_Emmet_Walsh": 7356,
      "Heinz_Roemheld": 7357,
      "Michael_Curtiz": 7358,
      "e_Woodson": 7359,
      "_Scarpelli": 7360,
      "Ashleigh_Ball": 7361,
      "Bruno_Corbucci": 7362,
      "Bonnie_Hunt": 7363,
      "Binnu_Dhillon": 7364,
      "Gurpreet_Ghuggi": 7365,
      "ala_Satyanarayana": 7366,
      "Buster": 7367,
      "Lorrain": 7368,
      "Tanner_Barklow": 7369,
      "couple": 7370,
      "famous": 7371,
      "focuses": 7372,
      "Shane_Woodson": 7373,
      "attacharyya": 7374,
      "Adriana_": 7375,
      "Noémie_Lvovsky": 7376,
      "Imperoli": 7377,
      "Jefferson_Craig": 7378,
      "superhero": 7379,
      "Kaikala_Satyanarayana": 7380,
      "Seton_I": 7381,
      "Dalton_Trumbo": 7382,
      "Mellissa_Fung": 7383,
      "Aki_Kaurismäki": 7384,
      "Ekberg": 7385,
      "Foreign": 7386,
      "Gara_Takashima": 7387,
      "Lightning": 7388,
      "Mathilde_": 7389,
      "Svetlan": 7390,
      "Tōru": 7391,
      "Totò": 7392,
      "Telly_Savalas": 7393,
      "Vittorio_": 7394,
      "réd": 7395,
      "enovela": 7396,
      "esemael": 7397,
      "_Robbins": 7398,
      "_Germany": 7399,
      "_De_Sica": 7400,
      "_Patrick": 7401,
      "Marlin_Skiles": 7402,
      "Margheriti": 7403,
      "Checco_Zalone": 7404,
      "Antoine_Duléry": 7405,
      "John_Clements_": 7406,
      "John_English_": 7407,
      "George_McFarland": 7408,
      "William_Henry_": 7409,
      "Carl_Switzer": 7410,
      "Peter_Butterworth": 7411,
      "22_Barry": 7412,
      "Olmstead": 7413,
      "Kevin_Pollak": 7414,
      "Donald_Brittain": 7415,
      "George_Marshall_": 7416,
      "Mario_Amendola": 7417,
      "Helen_Mirren": 7418,
      "Spencer_Gordon_Bennet": 7419,
      "Loretta_Young": 7420,
      "Atom_Egoyan": 7421,
      "Andrew_Bennison": 7422,
      "Ikue_Ohtani": 7423,
      "Eugene_Gordon_Lee": 7424,
      "Fernando_Di_Leo": 7425,
      "Tracey_Moore": 7426,
      "Raoul_Kraushaar": 7427,
      "Aubrey_Wisberg": 7428,
      "Cesare_Zavattini": 7429,
      "Kobun_Shizuno": 7430,
      "Mathilde_Seigner": 7431,
      "Az": 7432,
      "Aar": 7433,
      "Ast": 7434,
      "ABC": 7435,
      "BS": 7436,
      "Bard": 7437,
      "Bul": 7438,
      "Bab": 7439,
      "Bian": 7440,
      "Blan": 7441,
      "Biz": 7442,
      "Barker": 7443,
      "Baye": 7444,
      "Boris": 7445,
      "Cle": 7446,
      "Cyn": 7447,
      "Cummings": 7448,
      "Dem": 7449,
      "Dog": 7450,
      "Dary": 7451,
      "Dutt": 7452,
      "Darl": 7453,
      "Dwan": 7454,
      "Denzel": 7455,
      "Ef": 7456,
      "Ex": 7457,
      "Ett": 7458,
      "Earl": 7459,
      "Egy": 7460,
      "Fre": 7461,
      "Five": 7462,
      "Gy": 7463,
      "Gar": 7464,
      "Gor": 7465,
      "Gain": 7466,
      "Gary": 7467,
      "Goff": 7468,
      "Grig": 7469,
      "Ginger": 7470,
      "Ghost": 7471,
      "His": 7472,
      "Haw": 7473,
      "Hick": 7474,
      "Hunt": 7475,
      "Hussain": 7476,
      "Ion": 7477,
      "Iran": 7478,
      "Jy": 7479,
      "Jod": 7480,
      "Just": 7481,
      "Javier": 7482,
      "Kon": 7483,
      "Kag": 7484,
      "Kot": 7485,
      "Kang": 7486,
      "Kost": 7487,
      "Kate": 7488,
      "Kali": 7489,
      "Lud": 7490,
      "Loy": 7491,
      "Lorn": 7492,
      "Lenz": 7493,
      "Landers": 7494,
      "Labaki": 7495,
      "Lasseter": 7496,
      "Laverty": 7497,
      "Latin": 7498,
      "Mr": 7499,
      "Mill": 7500,
      "Mani": 7501,
      "Mek": 7502,
      "Metz": 7503,
      "Nath": 7504,
      "Nour": 7505,
      "National": 7506,
      "Navy": 7507,
      "Nunn": 7508,
      "Pan": 7509,
      "Pet": 7510,
      "RJ": 7511,
      "Rat": 7512,
      "Rad": 7513,
      "Row": 7514,
      "Rub": 7515,
      "Riz": 7516,
      "Rhy": 7517,
      "Sa": 7518,
      "Si": 7519,
      "Sur": 7520,
      "Soll": 7521,
      "Sup": 7522,
      "Sky": 7523,
      "Soph": 7524,
      "Tar": 7525,
      "Ted": 7526,
      "Tat": 7527,
      "Tach": 7528,
      "Tris": 7529,
      "Turn": 7530,
      "Terr": 7531,
      "Take": 7532,
      "Trev": 7533,
      "Tunes": 7534,
      "Vent": 7535,
      "Vig": 7536,
      "Vik": 7537,
      "Vald": 7538,
      "Viet": 7539,
      "Vera": 7540,
      "Vasil": 7541,
      "Wri": 7542,
      "Willi": 7543,
      "Ye": 7544,
      "Yas": 7545,
      "Zain": 7546,
      "bir": 7547,
      "banner": 7548,
      "ced": 7549,
      "cover": 7550,
      "dan": 7551,
      "far": 7552,
      "fan": 7553,
      "fac": 7554,
      "fav": 7555,
      "find": 7556,
      "font": 7557,
      "fuss": 7558,
      "grid": 7559,
      "gali": 7560,
      "hra": 7561,
      "hers": 7562,
      "hosp": 7563,
      "iam": 7564,
      "iper": 7565,
      "iari": 7566,
      "jay": 7567,
      "jail": 7568,
      "kos": 7569,
      "kai": 7570,
      "lum": 7571,
      "lings": 7572,
      "litzer": 7573,
      "mp": 7574,
      "mil": 7575,
      "mers": 7576,
      "mess": 7577,
      "member": 7578,
      "male": 7579,
      "mberg": 7580,
      "money": 7581,
      "making": 7582,
      "non": 7583,
      "names": 7584,
      "nink": 7585,
      "oj": 7586,
      "oî": 7587,
      "oit": 7588,
      "pin": 7589,
      "post": 7590,
      "ring": 7591,
      "ril": 7592,
      "roll": 7593,
      "rader": 7594,
      "send": 7595,
      "suk": 7596,
      "sele": 7597,
      "smith": 7598,
      "sati": 7599,
      "ska": 7600,
      "some": 7601,
      "uang": 7602,
      "vor": 7603,
      "vary": 7604,
      "vari": 7605,
      "wig": 7606,
      "xel": 7607,
      "yach": 7608,
      "zl": 7609,
      "Örne": 7610,
      "àto": 7611,
      "än": 7612,
      "éph": 7613,
      "épol": 7614,
      "ín": 7615,
      "írez": 7616,
      "óh": 7617,
      "ös": 7618,
      "ared": 7619,
      "aras": 7620,
      "inv": 7621,
      "ince": 7622,
      "anov": 7623,
      "eri": 7624,
      "erw": 7625,
      "stand": 7626,
      "ingham": 7627,
      "arrow": 7628,
      "arraz": 7629,
      "Caine": 7630,
      "oro": 7631,
      "orel": 7632,
      "orph": 7633,
      "ilmore": 7634,
      "onso": 7635,
      "ref": 7636,
      "reia": 7637,
      "than": 7638,
      "then": 7639,
      "thers": 7640,
      "thart": 7641,
      "there": 7642,
      "rier": 7643,
      "ried": 7644,
      "ribbins": 7645,
      "enth": 7646,
      "enson": 7647,
      "enco": 7648,
      "edar": 7649,
      "alke": 7650,
      "icle": 7651,
      "icated": 7652,
      "icago": 7653,
      "esser": 7654,
      "differ": 7655,
      "asol": 7656,
      "asconc": 7657,
      "elz": 7658,
      "elas": 7659,
      "elos": 7660,
      "terio": 7661,
      "amu": 7662,
      "amoto": 7663,
      "direction": 7664,
      "atic": 7665,
      "omura": 7666,
      "ommers": 7667,
      "osse": 7668,
      "oud": 7669,
      "oux": 7670,
      "olé": 7671,
      "olem": 7672,
      "Thom": 7673,
      "using": 7674,
      "uskin": 7675,
      "Cape": 7676,
      "Capote": 7677,
      "lein": 7678,
      "2022": 7679,
      "Casa": 7680,
      "cho": 7681,
      "chu": 7682,
      "chlow": 7683,
      "etch": 7684,
      "agl": 7685,
      "agy": 7686,
      "agann": 7687,
      "urst": 7688,
      "urati": 7689,
      "urlitzer": 7690,
      "illo": 7691,
      "una": 7692,
      "ains": 7693,
      "ayles": 7694,
      "Amy": 7695,
      "exp": 7696,
      "acom": 7697,
      "acqu": 7698,
      "acchi": 7699,
      "acino": 7700,
      "aku": 7701,
      "akhm": 7702,
      "extensive": 7703,
      "avan": 7704,
      "avelli": 7705,
      "ioni": 7706,
      "acting": 7707,
      "ardin": 7708,
      "ido": 7709,
      "ently": 7710,
      "entire": 7711,
      "imon": 7712,
      "ulo": 7713,
      "ulova": 7714,
      "bera": 7715,
      "berger": 7716,
      "Beery": 7717,
      "Bemberg": 7718,
      "elling": 7719,
      "radio": 7720,
      "Clive": 7721,
      "Clair": 7722,
      "Marj": 7723,
      "Marth": 7724,
      "Maris": 7725,
      "Maria": 7726,
      "Martell": 7727,
      "niston": 7728,
      "erick": 7729,
      "took": 7730,
      "China": 7731,
      "Chase": 7732,
      "Chery": 7733,
      "Cheung": 7734,
      "Chinese": 7735,
      "Chicago": 7736,
      "ichi": 7737,
      "apadi": 7738,
      "aplan": 7739,
      "Anat": 7740,
      "Anita": 7741,
      "Annie": 7742,
      "Anza": 7743,
      "allagher": 7744,
      "Roop": 7745,
      "umia": 7746,
      "Stéph": 7747,
      "neg": 7748,
      "opal": 7749,
      "iante": 7750,
      "ema": 7751,
      "eve": 7752,
      "even": 7753,
      "rani": 7754,
      "Johnston": 7755,
      "Alv": 7756,
      "Alph": 7757,
      "1980": 7758,
      "oca": 7759,
      "auder": 7760,
      "author": 7761,
      "sheng": 7762,
      "ackett": 7763,
      "Candide": 7764,
      "athkumar": 7765,
      "eyer": 7766,
      "pert": 7767,
      "quez": 7768,
      "prov": 7769,
      "1946": 7770,
      "1996": 7771,
      "Ingrid": 7772,
      "ationship": 7773,
      "assi": 7774,
      "herty": 7775,
      "ika": 7776,
      "ikand": 7777,
      "pling": 7778,
      "ollin": 7779,
      "efield": 7780,
      "ugu": 7781,
      "ughan": 7782,
      "Rah": 7783,
      "Rafa": 7784,
      "asterson": 7785,
      "ega": 7786,
      "egan": 7787,
      "romski": 7788,
      "Prates": 7789,
      "Brady": 7790,
      "Brothers": 7791,
      "Broca": 7792,
      "indust": 7793,
      "arkington": 7794,
      "orty": 7795,
      "rens": 7796,
      "oreau": 7797,
      "lyle": 7798,
      "lymp": 7799,
      "okar": 7800,
      "Enri": 7801,
      "ipley": 7802,
      "ibai": 7803,
      "inslee": 7804,
      "achin": 7805,
      "Prab": 7806,
      "arek": 7807,
      "arez": 7808,
      "azaki": 7809,
      "Edgar": 7810,
      "coe": 7811,
      "enner": 7812,
      "Joshu": 7813,
      "1977": 7814,
      "1979": 7815,
      "Elfont": 7816,
      "orda": 7817,
      "Carlin": 7818,
      "Donagh": 7819,
      "Cardona": 7820,
      "ventures": 7821,
      "Janis": 7822,
      "iriya": 7823,
      "hansen": 7824,
      "rises": 7825,
      "Norma": 7826,
      "Peterson": 7827,
      "Blue": 7828,
      "Martino": 7829,
      "Anna": 7830,
      "atesw": 7831,
      "ertmüller": 7832,
      "eke": 7833,
      "ergman": 7834,
      "Samaresh": 7835,
      "ailey": 7836,
      "race": 7837,
      "Jacek": 7838,
      "Juliet": 7839,
      "arnes": 7840,
      "arnett": 7841,
      "Great": 7842,
      "argo": 7843,
      "usselman": 7844,
      "Britt": 7845,
      "Bengali": 7846,
      "Benoî": 7847,
      "Freda": 7848,
      "oriarty": 7849,
      "Daniels": 7850,
      "iyama": 7851,
      "Colbert": 7852,
      "itta": 7853,
      "olloway": 7854,
      "Parv": 7855,
      "Paradi": 7856,
      "Marcus": 7857,
      "Manfre": 7858,
      "Manoj": 7859,
      "Cameo": 7860,
      "Keir": 7861,
      "eba": 7862,
      "Jimmy": 7863,
      "ecut": 7864,
      "mondo": 7865,
      "leading": 7866,
      "Emb": 7867,
      "Emm": 7868,
      "Emil": 7869,
      "Terence": 7870,
      "conne": 7871,
      "voices": 7872,
      "Leonor": 7873,
      "Mayo": 7874,
      "Mayumi": 7875,
      "ampton": 7876,
      "Rupert": 7877,
      "Susannah": 7878,
      "uechang": 7879,
      "reporter": 7880,
      "revol": 7881,
      "reviews": 7882,
      "esterby": 7883,
      "Mike": 7884,
      "Mikael": 7885,
      "meij": 7886,
      "Giul": 7887,
      "Jeffrey": 7888,
      "Rosal": 7889,
      "Serge": 7890,
      "Whip": 7891,
      "Cook": 7892,
      "engupta": 7893,
      "itchum": 7894,
      "Drago": 7895,
      "encoun": 7896,
      "sequently": 7897,
      "Jayas": 7898,
      "grass": 7899,
      "rawford": 7900,
      "ographic": 7901,
      "Maupass": 7902,
      "Tyr": 7903,
      "uellet": 7904,
      "aggero": 7905,
      "auntier": 7906,
      "ptian": 7907,
      "inclair": 7908,
      "relationship": 7909,
      "adda": 7910,
      "addad": 7911,
      "Fernand": 7912,
      "formation": 7913,
      "kinson": 7914,
      "Maxwell": 7915,
      "Upas": 7916,
      "Willis": 7917,
      "small": 7918,
      "iddle": 7919,
      "rable": 7920,
      "fictional": 7921,
      "Cartwright": 7922,
      "included": 7923,
      "euil": 7924,
      "onzo": 7925,
      "Clarke": 7926,
      "Kristel": 7927,
      "ozlan": 7928,
      "ozawa": 7929,
      "Prajesh": 7930,
      "Hughes": 7931,
      "Mahon": 7932,
      "rikanth": 7933,
      "Madele": 7934,
      "reyfuss": 7935,
      "Stanley": 7936,
      "Betti": 7937,
      "Nanni": 7938,
      "Germany": 7939,
      "local": 7940,
      "location": 7941,
      "Devon": 7942,
      "Glory": 7943,
      "Jaspal": 7944,
      "consider": 7945,
      "marks": 7946,
      "Rodrig": 7947,
      "Veron": 7948,
      "Domini": 7949,
      "Gillian": 7950,
      "Leslie": 7951,
      "Nancy": 7952,
      "subsequently": 7953,
      "uytten": 7954,
      "rellana": 7955,
      "exploit": 7956,
      "Monicelli": 7957,
      "Angelo": 7958,
      "Alessandrini": 7959,
      "Eleanor": 7960,
      "Jamie": 7961,
      "Ohkawa": 7962,
      "Shawn": 7963,
      "Madhur": 7964,
      "involved": 7965,
      "anthology": 7966,
      "legend": 7967,
      "Geoffrey": 7968,
      "cinematography": 7969,
      "Avani": 7970,
      "Butler": 7971,
      "Weber": 7972,
      "Yoshit": 7973,
      "holm": 7974,
      "Cliff": 7975,
      "Kōji": 7976,
      "Linda": 7977,
      "kills": 7978,
      "Indovina": 7979,
      "scene": 7980,
      "scenes": 7981,
      "Brendan": 7982,
      "Mexican": 7983,
      "Saty": 7984,
      "Vallés": 7985,
      "Booth": 7986,
      "Dylan": 7987,
      "Mandarin": 7988,
      "zenberger": 7989,
      "student": 7990,
      "Shapiro": 7991,
      "grossed": 7992,
      "African": 7993,
      "Auley": 7994,
      "Dermot": 7995,
      "Sudhir": 7996,
      "collabor": 7997,
      "hoite": 7998,
      "iraja": 7999,
      "Anupam": 8000,
      "rescia": 8001,
      "Sheridan": 8002,
      "episod": 8003,
      "Isaach": 8004,
      "Bridget": 8005,
      "Geneviè": 8006,
      "Melvin": 8007,
      "corruption": 8008,
      "Bodil": 8009,
      "Grayson": 8010,
      "Judith": 8011,
      "Sindhu": 8012,
      "Trueba": 8013,
      "social": 8014,
      "unziante": 8015,
      "attempts": 8016,
      "classic": 8017,
      "Israel": 8018,
      "Jiří": 8019,
      "Bharathiraja": 8020,
      "Bankolé": 8021,
      "DaCosta": 8022,
      "Fargas": 8023,
      "Gavras": 8024,
      "Original": 8025,
      "Tolg": 8026,
      "Vijay": 8027,
      "depict": 8028,
      "pornographic": 8029,
      "zegvary": 8030,
      "égret": 8031,
      "Améris": 8032,
      "princip": 8033,
      "lyrics": 8034,
      "Bardem": 8035,
      "Bizet": 8036,
      "Egyptian": 8037,
      "Goffred": 8038,
      "Jyoti": 8039,
      "Konstant": 8040,
      "Kagis": 8041,
      "Kostas": 8042,
      "Lenzi": 8043,
      "Mekhi": 8044,
      "Viktor": 8045,
      "Written": 8046,
      "Yasm": 8047,
      "herself": 8048,
      "hospital": 8049,
      "members": 8050,
      "ninkmeij": 8051,
      "selected": 8052,
      "various": 8053,
      "Örnek": 8054,
      "épolo": 8055,
      "arrazin": 8056,
      "different": 8057,
      "asolini": 8058,
      "asconcelos": 8059,
      "chlowicz": 8060,
      "agannadh": 8061,
      "akhmari": 8062,
      "entirely": 8063,
      "apadia": 8064,
      "Roopesh": 8065,
      "Rafaël": 8066,
      "lympton": 8067,
      "Benoît": 8068,
      "Manfredi": 8069,
      "Maupassant": 8070,
      "exploitation": 8071,
      "ninkmeijer": 8072,
      "1st": 8073,
      "120": 8074,
      "23": 8075,
      "2n": 8076,
      "340": 8077,
      "50": 8078,
      "5340": 8079,
      "6120": 8080,
      "7th": 8081,
      "85": 8082,
      "8th": 8083,
      "Aut": 8084,
      "Audi": 8085,
      "Aoyama": 8086,
      "Ajit": 8087,
      "Ahmed": 8088,
      "Ba": 8089,
      "Bin": 8090,
      "Bond": 8091,
      "Bhan": 8092,
      "Ben_": 8093,
      "Cic": 8094,
      "Cine": 8095,
      "Comic": 8096,
      "Cobb": 8097,
      "Cze": 8098,
      "Do": 8099,
      "Dino_": 8100,
      "De_M": 8101,
      "Dana_": 8102,
      "Dale_": 8103,
      "Doyle": 8104,
      "Dustin": 8105,
      "Dallas": 8106,
      "Ew": 8107,
      "Ezz": 8108,
      "Ever": 8109,
      "Ebb": 8110,
      "Earth": 8111,
      "FI": 8112,
      "Fa": 8113,
      "Fu": 8114,
      "Fed": 8115,
      "Fion": 8116,
      "Fort": 8117,
      "Fury": 8118,
      "Frac": 8119,
      "Fumi": 8120,
      "Fréd": 8121,
      "Gad": 8122,
      "Gher": 8123,
      "Gino_": 8124,
      "Gina_": 8125,
      "Gosh": 8126,
      "Gillespie": 8127,
      "Go_K": 8128,
      "Griffith": 8129,
      "Hy": 8130,
      "Hon": 8131,
      "How": 8132,
      "Hid": 8133,
      "Hod": 8134,
      "Hum": 8135,
      "Hem": 8136,
      "Hey": 8137,
      "Holl": 8138,
      "Hann": 8139,
      "Hans": 8140,
      "Hanks": 8141,
      "Heller": 8142,
      "Houston": 8143,
      "Hoffman": 8144,
      "Iri": 8145,
      "Iman": 8146,
      "Ish": 8147,
      "Jar": 8148,
      "Jerr": 8149,
      "Jym": 8150,
      "Jarrett": 8151,
      "Jesse": 8152,
      "Kav": 8153,
      "Kul": 8154,
      "Kern": 8155,
      "Kash": 8156,
      "Kib": 8157,
      "Khan": 8158,
      "Kosh": 8159,
      "Kelly": 8160,
      "Kumiko_": 8161,
      "Lol": 8162,
      "Lod": 8163,
      "Loll": 8164,
      "Lib": 8165,
      "Lock": 8166,
      "Lyn": 8167,
      "Lero": 8168,
      "Lynch": 8169,
      "Luke_": 8170,
      "Like": 8171,
      "London": 8172,
      "Lina_W": 8173,
      "Luna": 8174,
      "Marr": 8175,
      "Men": 8176,
      "Ma_": 8177,
      "Mis": 8178,
      "Mos": 8179,
      "Mou": 8180,
      "Maj": 8181,
      "Mason": 8182,
      "Mabel": 8183,
      "Mouse": 8184,
      "Narr": 8185,
      "Nel": 8186,
      "Nog": 8187,
      "Nana_": 8188,
      "Nando_": 8189,
      "Nelson": 8190,
      "Naras": 8191,
      "Of": 8192,
      "Ou": 8193,
      "Otto": 8194,
      "Otak": 8195,
      "Pá": 8196,
      "Pak": 8197,
      "Pall": 8198,
      "Pau": 8199,
      "Pert": 8200,
      "Pix": 8201,
      "Pesc": 8202,
      "Poland": 8203,
      "Pirk": 8204,
      "Pacific": 8205,
      "Price": 8206,
      "Pione": 8207,
      "Perrine": 8208,
      "Rana_": 8209,
      "Rez": 8210,
      "Renz": 8211,
      "Rome": 8212,
      "Redd": 8213,
      "So": 8214,
      "Sr": 8215,
      "Sin": 8216,
      "Sol": 8217,
      "Sir": 8218,
      "Sex": 8219,
      "Sav": 8220,
      "Sent": 8221,
      "Spr": 8222,
      "Song": 8223,
      "Sob": 8224,
      "Sok": 8225,
      "See": 8226,
      "Sara_": 8227,
      "Summer": 8228,
      "Serb": 8229,
      "Sitcom": 8230,
      "Srinivas": 8231,
      "Sterling": 8232,
      "Ta": 8233,
      "Tu": 8234,
      "Tay": 8235,
      "Tran": 8236,
      "Tash": 8237,
      "Tomas": 8238,
      "Two": 8239,
      "Tedd": 8240,
      "Tandy": 8241,
      "Tange": 8242,
      "Tavernier": 8243,
      "Usat": 8244,
      "Vi": 8245,
      "Vel": 8246,
      "Vill": 8247,
      "Vich": 8248,
      "Video": 8249,
      "Váv": 8250,
      "Vyach": 8251,
      "Wa": 8252,
      "Ward": 8253,
      "Wang": 8254,
      "Well": 8255,
      "Wald": 8256,
      "Xia": 8257,
      "Yev": 8258,
      "Zs": 8259,
      "Zealand": 8260,
      "_director": 8261,
      "_Call": 8262,
      "_music": 8263,
      "_Qu": 8264,
      "_compos": 8265,
      "_Cassel": 8266,
      "_deMille": 8267,
      "_cinema": 8268,
      "_Ull": 8269,
      "_Carbonnaux": 8270,
      "ae": 8271,
      "ao_": 8272,
      "aak": 8273,
      "aid": 8274,
      "aison": 8275,
      "ay_H": 8276,
      "ao_Miy": 8277,
      "bie": 8278,
      "bud": 8279,
      "bank": 8280,
      "bury": 8281,
      "basi": 8282,
      "banks": 8283,
      "broad": 8284,
      "billion": 8285,
      "cam": 8286,
      "cow": 8287,
      "cost": 8288,
      "cola": 8289,
      "cardo_": 8290,
      "circ": 8291,
      "d_": 8292,
      "dman": 8293,
      "def": 8294,
      "dub": 8295,
      "dance": 8296,
      "due": 8297,
      "do_F": 8298,
      "eat": 8299,
      "eith": 8300,
      "eorg": 8301,
      "fin": 8302,
      "fen": 8303,
      "fun": 8304,
      "fall": 8305,
      "fight": 8306,
      "free": 8307,
      "gant": 8308,
      "gier": 8309,
      "hl": 8310,
      "hor": 8311,
      "hom": 8312,
      "har_": 8313,
      "hini": 8314,
      "hme": 8315,
      "home": 8316,
      "hiko_": 8317,
      "hala": 8318,
      "hattacharyya": 8319,
      "iest": 8320,
      "iță": 8321,
      "jar": 8322,
      "jam": 8323,
      "jith": 8324,
      "ji_": 8325,
      "jiro": 8326,
      "jös": 8327,
      "kk": 8328,
      "ke_": 8329,
      "ko_": 8330,
      "lov": 8331,
      "lich": 8332,
      "lost": 8333,
      "lines": 8334,
      "late": 8335,
      "lace": 8336,
      "mo_": 8337,
      "mot": 8338,
      "may": 8339,
      "mod": 8340,
      "mall": 8341,
      "mfield": 8342,
      "my_B": 8343,
      "mila_": 8344,
      "muller": 8345,
      "major": 8346,
      "ns": 8347,
      "nin": 8348,
      "na_": 8349,
      "nov": 8350,
      "nay": 8351,
      "nav": 8352,
      "n_Mag": 8353,
      "network": 8354,
      "oom": 8355,
      "oight": 8356,
      "oeb": 8357,
      "pri": 8358,
      "pers": 8359,
      "pine": 8360,
      "pati": 8361,
      "rus": 8362,
      "rak": 8363,
      "rum": 8364,
      "rake": 8365,
      "rmann": 8366,
      "sent": 8367,
      "sia": 8368,
      "sumi": 8369,
      "summer": 8370,
      "singing": 8371,
      "sitcom": 8372,
      "tol": 8373,
      "turn": 8374,
      "tese": 8375,
      "uan": 8376,
      "u_S": 8377,
      "u_H": 8378,
      "u_T": 8379,
      "uya": 8380,
      "u_Chatterjee": 8381,
      "uárez": 8382,
      "vall": 8383,
      "ves_": 8384,
      "vino": 8385,
      "wy": 8386,
      "wen_": 8387,
      "winning": 8388,
      "yel": 8389,
      "yde_": 8390,
      "zom": 8391,
      "z_K": 8392,
      "zina": 8393,
      "zy_B": 8394,
      "Ákos": 8395,
      "Éric": 8396,
      "ák": 8397,
      "ér": 8398,
      "éric": 8399,
      "érimée": 8400,
      "ía": 8401,
      "öhme": 8402,
      "șan": 8403,
      "ara_M": 8404,
      "arías": 8405,
      "arathkumar": 8406,
      "iner": 8407,
      "ini_": 8408,
      "ine_B": 8409,
      "inina": 8410,
      "anv": 8411,
      "anen": 8412,
      "ano_": 8413,
      "aney": 8414,
      "ane_B": 8415,
      "anford": 8416,
      "an_Dy": 8417,
      "eral": 8418,
      "erra": 8419,
      "stock": 8420,
      "stenberg": 8421,
      "arrell": 8422,
      "Cath": 8423,
      "Caio_S": 8424,
      "ili": 8425,
      "ilt": 8426,
      "ilv": 8427,
      "iler": 8428,
      "iley": 8429,
      "ilio_": 8430,
      "ile_G": 8431,
      "ilson_": 8432,
      "ilipp": 8433,
      "ila_McCarthy": 8434,
      "e_El": 8435,
      "e_Carol": 8436,
      "e_Co": 8437,
      "e_Bro": 8438,
      "e_Colbert": 8439,
      "orre": 8440,
      "ored": 8441,
      "order": 8442,
      "ore_S": 8443,
      "ory_B": 8444,
      "filming": 8445,
      "oni": 8446,
      "onet": 8447,
      "onov": 8448,
      "reed": 8449,
      "reid": 8450,
      "repl": 8451,
      "reco": 8452,
      "thi": 8453,
      "rif": 8454,
      "riy": 8455,
      "rie_H": 8456,
      "rizi": 8457,
      "en_K": 8458,
      "entertain": 8459,
      "enjit": 8460,
      "en_Ham": 8461,
      "ede": 8462,
      "eda_": 8463,
      "edger": 8464,
      "edham": 8465,
      "edy_film": 8466,
      "editor": 8467,
      "ctively": 8468,
      "alov": 8469,
      "ali_": 8470,
      "ico": 8471,
      "icar": 8472,
      "esi": 8473,
      "ese_": 8474,
      "dia": 8475,
      "did": 8476,
      "dig": 8477,
      "die_B": 8478,
      "dible": 8479,
      "die_Foster": 8480,
      "ask": 8481,
      "asing": 8482,
      "elv": 8483,
      "elit": 8484,
      "elwyn": 8485,
      "a_O": 8486,
      "a_Mar": 8487,
      "a_Pr": 8488,
      "a_Gu": 8489,
      "a_Martin": 8490,
      "a_Bell": 8491,
      "a_Har": 8492,
      "a_Com": 8493,
      "a_Reed": 8494,
      "a_Bemberg": 8495,
      "a_Örnek": 8496,
      "is_": 8497,
      "isa_": 8498,
      "isakawa": 8499,
      "y_Y": 8500,
      "y_Be": 8501,
      "y_De": 8502,
      "y_Michael": 8503,
      "y_Ke": 8504,
      "y_Jr": 8505,
      "y_Chan": 8506,
      "y_Robin": 8507,
      "amura": 8508,
      "atō": 8509,
      "atcher": 8510,
      "atthau": 8511,
      "oms": 8512,
      "omicki": 8513,
      "os_D": 8514,
      "Cargo": 8515,
      "_Sl": 8516,
      "_Sid": 8517,
      "_Spr": 8518,
      "_Sher": 8519,
      "_Sist": 8520,
      "_Seki": 8521,
      "_Small": 8522,
      "_Suárez": 8523,
      "offee": 8524,
      "theme": 8525,
      "theaters": 8526,
      "ol_N": 8527,
      "older": 8528,
      "oles_": 8529,
      "olo_P": 8530,
      "o_D": 8531,
      "o_Jr": 8532,
      "o_March": 8533,
      "o_Maria_": 8534,
      "o_Cr": 8535,
      "o_Lediga": 8536,
      "o_Betti": 8537,
      "o_Alessandrini": 8538,
      "user": 8539,
      "usive": 8540,
      "itra": 8541,
      "itary": 8542,
      "itosh": 8543,
      "lea": 8544,
      "lect": 8545,
      "leston": 8546,
      "ley_S": 8547,
      "left": 8548,
      "_Bo": 8549,
      "_Buck": 8550,
      "_Brol": 8551,
      "_Babu": 8552,
      "_Boris": 8553,
      "_Bromski": 8554,
      "_Mill": 8555,
      "_Mont": 8556,
      "_Mara": 8557,
      "_Mund": 8558,
      "_Mitchell": 8559,
      "_Max": 8560,
      "_Menzel": 8561,
      "_Mune": 8562,
      "_Mitchum": 8563,
      "_Mérimée": 8564,
      "_Matthau": 8565,
      "irza": 8566,
      "chest": 8567,
      "adv": 8568,
      "adri": 8569,
      "adav": 8570,
      "adice": 8571,
      "adsen": 8572,
      "adult": 8573,
      "adagn": 8574,
      "_Cul": 8575,
      "_Cost": 8576,
      "_Cox": 8577,
      "_Cés": 8578,
      "_Collins": 8579,
      "_Cummings": 8580,
      "_Coffin": 8581,
      "agar": 8582,
      "agen": 8583,
      "agent": 8584,
      "agner": 8585,
      "agidson": 8586,
      "ura_P": 8587,
      "urbin": 8588,
      "urban": 8589,
      "overn": 8590,
      "ovaj": 8591,
      "_Ha": 8592,
      "_Hel": 8593,
      "_Hos": 8594,
      "_Hem": 8595,
      "_Hey": 8596,
      "_Hung": 8597,
      "_Harn": 8598,
      "_Hans": 8599,
      "_Hudi": 8600,
      "_Hynes": 8601,
      "_Hunter": 8602,
      "_Hoffman": 8603,
      "_Hardwick": 8604,
      "_Holloway": 8605,
      "illis": 8606,
      "illy_R": 8607,
      "undi": 8608,
      "Canta": 8609,
      "s_Jr": 8610,
      "aint": 8611,
      "ayed": 8612,
      "aykin": 8613,
      "Amber": 8614,
      "Amarty": 8615,
      "Amico": 8616,
      "execut": 8617,
      "_Rig": 8618,
      "_Rap": 8619,
      "_Rie": 8620,
      "_Roy": 8621,
      "_Rup": 8622,
      "_Ross": 8623,
      "_Ryan": 8624,
      "_Roland": 8625,
      "_Russell": 8626,
      "_Rodríguez": 8627,
      "_Rai_S": 8628,
      "acy": 8629,
      "ace_Mitchell": 8630,
      "owo": 8631,
      "owne": 8632,
      "owden": 8633,
      "aken": 8634,
      "aka_": 8635,
      "akov": 8636,
      "akers": 8637,
      "aksh": 8638,
      "akoff": 8639,
      "_Gar": 8640,
      "_Garr": 8641,
      "_Gil": 8642,
      "_Gill": 8643,
      "_Gab": 8644,
      "_Grim": 8645,
      "_Gance": 8646,
      "_Garner": 8647,
      "_Garrett": 8648,
      "_Garc": 8649,
      "_Gable": 8650,
      "_Gleeson": 8651,
      "_Girard": 8652,
      "_Gilmore": 8653,
      "_Gallagher": 8654,
      "_Gozlan": 8655,
      "_Georg": 8656,
      "_Greco": 8657,
      "ardo_R": 8658,
      "_Del": 8659,
      "_Dres": 8660,
      "_Dey": 8661,
      "_Dick": 8662,
      "_Dai": 8663,
      "_Dein": 8664,
      "_De_Fel": 8665,
      "ody": 8666,
      "odin": 8667,
      "ention": 8668,
      "They": 8669,
      "_Aj": 8670,
      "_Ast": 8671,
      "_Ald": 8672,
      "_Alex": 8673,
      "_Aniston": 8674,
      "_Ainslee": 8675,
      "imp": 8676,
      "imer": 8677,
      "imov": 8678,
      "imper": 8679,
      "imited": 8680,
      "ul_R": 8681,
      "ully": 8682,
      "ulescu": 8683,
      "_Fa": 8684,
      "_Fee": 8685,
      "_Fair": 8686,
      "_Field": 8687,
      "_Fox": 8688,
      "_Falk": 8689,
      "_Firth": 8690,
      "_Farnum": 8691,
      "_Fesser": 8692,
      "_Fumia": 8693,
      "berhardt": 8694,
      "João": 8695,
      "Jodie_Foster": 8696,
      "fora": 8697,
      "fort": 8698,
      "mani": 8699,
      "mans": 8700,
      "mant": 8701,
      "elly_": 8702,
      "elle_L": 8703,
      "ella_L": 8704,
      "ello_March": 8705,
      "_Thorpe": 8706,
      "_Wa": 8707,
      "_Wu": 8708,
      "_Wald": 8709,
      "_Wyatt": 8710,
      "_Wolff": 8711,
      "_Wesemael": 8712,
      "_Welz": 8713,
      "ivac": 8714,
      "igen": 8715,
      "Clive_": 8716,
      "Clara": 8717,
      "Claus": 8718,
      "Clyde_": 8719,
      "_Parr": 8720,
      "_Pil": 8721,
      "_Pab": 8722,
      "_Park": 8723,
      "_Penn": 8724,
      "_Pascal": 8725,
      "_Pastrone": 8726,
      "_Pacino": 8727,
      "_Plympton": 8728,
      "Mary_G": 8729,
      "Margu": 8730,
      "María_": 8731,
      "_La": 8732,
      "_Lo": 8733,
      "_La_": 8734,
      "_Language": 8735,
      "_Lau": 8736,
      "_Lind": 8737,
      "_Lomb": 8738,
      "_Ladd": 8739,
      "_Lidd": 8740,
      "_Lloyd": 8741,
      "_Little": 8742,
      "_Lyub": 8743,
      "_Lowe": 8744,
      "_Ledger": 8745,
      "nia": 8746,
      "nie_B": 8747,
      "nikov": 8748,
      "Ching": 8749,
      "Chie_": 8750,
      "Chester": 8751,
      "Chandr": 8752,
      "ape": 8753,
      "apo": 8754,
      "abdu": 8755,
      "abrizi": 8756,
      "son_Well": 8757,
      "Anit": 8758,
      "_Nas": 8759,
      "_Nib": 8760,
      "_Nair": 8761,
      "_Naka": 8762,
      "_Naray": 8763,
      "allo": 8764,
      "allés": 8765,
      "allée": 8766,
      "Roy_": 8767,
      "Roach": 8768,
      "Roy_D": 8769,
      "umacher": 8770,
      "umi_Og": 8771,
      "Steen": 8772,
      "Stein": 8773,
      "Stahl": 8774,
      "_Kan": 8775,
      "_Kit": 8776,
      "_Kul": 8777,
      "_Kong": 8778,
      "_Khan": 8779,
      "_Kyne": 8780,
      "_Kurup": 8781,
      "rical": 8782,
      "ricker": 8783,
      "rice_Du": 8784,
      "neo": 8785,
      "ney_G": 8786,
      "ope": 8787,
      "iana": 8788,
      "ian_language": 8789,
      "emper": 8790,
      "evine": 8791,
      "_Ty": 8792,
      "_Tor": 8793,
      "_Tuck": 8794,
      "_Trac": 8795,
      "_Trank": 8796,
      "_Tanaka": 8797,
      "_Tosar": 8798,
      "_Taylor_": 8799,
      "_Tourneur": 8800,
      "_Jason": 8801,
      "_Jeff": 8802,
      "_Jagannadh": 8803,
      "John_": 8804,
      "John_R": 8805,
      "John_K": 8806,
      "John_Du": 8807,
      "John_Farr": 8808,
      "John_Mer": 8809,
      "John_Michael": 8810,
      "John_Stock": 8811,
      "respe": 8812,
      "ests": 8813,
      "Alist": 8814,
      "Alison": 8815,
      "Aldo_F": 8816,
      "Al_Pacino": 8817,
      "tte": 8818,
      "occur": 8819,
      "amai": 8820,
      "amauro": 8821,
      "erns": 8822,
      "aught": 8823,
      "audible": 8824,
      "Shy": 8825,
      "Shel": 8826,
      "Shak": 8827,
      "Shadow": 8828,
      "Shankar": 8829,
      "Shetty": 8830,
      "sha": 8831,
      "shown": 8832,
      "epard": 8833,
      "1961": 8834,
      "1962": 8835,
      "1960s": 8836,
      "ack_Brown": 8837,
      "i_Yuk": 8838,
      "sei": 8839,
      "_Eric": 8840,
      "antos_D": 8841,
      "comb": 8842,
      "ewe": 8843,
      "eway": 8844,
      "ishi": 8845,
      "athak": 8846,
      "_Stor": 8847,
      "_Steph": 8848,
      "ogg": 8849,
      "que_S": 8850,
      "quette": 8851,
      "awla": 8852,
      "1956": 8853,
      "ours": 8854,
      "1933": 8855,
      "assy": 8856,
      "ie_H": 8857,
      "ie_Dickinson": 8858,
      "ie_Hammer": 8859,
      "comedic": 8860,
      "iki": 8861,
      "iko": 8862,
      "ikar": 8863,
      "ikov": 8864,
      "ple_K": 8865,
      "_Shira": 8866,
      "_Shetty": 8867,
      "_Shannon": 8868,
      "_Shrikanth": 8869,
      "orgh": 8870,
      "organ_": 8871,
      "oll_Lynch": 8872,
      "Fran_Dres": 8873,
      "de_Maupassant": 8874,
      "ugg": 8875,
      "Dave_Clark": 8876,
      "Ray_M": 8877,
      "Radio": 8878,
      "astwood": 8879,
      "Roberto_": 8880,
      "Robert_Bl": 8881,
      "Robert_Du": 8882,
      "Robert_Car": 8883,
      "Robert_Clark": 8884,
      "Robert_Young_": 8885,
      "Robert_Paige": 8886,
      "Robert_Mitchum": 8887,
      "Cagney": 8888,
      "egger": 8889,
      "romwell_": 8890,
      "ude": 8891,
      "udmila_": 8892,
      "tonen": 8893,
      "ahan": 8894,
      "ahiro": 8895,
      "Brinke_": 8896,
      "ette_L": 8897,
      "etta_M": 8898,
      "arkes": 8899,
      "Lee_L": 8900,
      "Arun": 8901,
      "Arnold": 8902,
      "_Og": 8903,
      "_Ouellet": 8904,
      "_Orellana": 8905,
      "_Owen_": 8906,
      "adim": 8907,
      "obs": 8908,
      "essor": 8909,
      "Michèle_": 8910,
      "isting": 8911,
      "istic": 8912,
      "rent": 8913,
      "1929": 8914,
      "phot": 8915,
      "phron": 8916,
      "e_La": 8917,
      "e_Minn": 8918,
      "e_Moreau": 8919,
      "e_Magidson": 8920,
      "orne_": 8921,
      "George_L": 8922,
      "oko_K": 8923,
      "okazu": 8924,
      "e_Sek": 8925,
      "e_Smith": 8926,
      "ukh": 8927,
      "anning": 8928,
      "David_H": 8929,
      "David_R": 8930,
      "David_G": 8931,
      "David_W": 8932,
      "David_Jo": 8933,
      "David_Farr": 8934,
      "David_Ko": 8935,
      "David_Niven": 8936,
      "David_Butler_": 8937,
      "a_Mor": 8938,
      "a_Merk": 8939,
      "a_Menon": 8940,
      "a_Mirza": 8941,
      "inee": 8942,
      "End": 8943,
      "ristof": 8944,
      "Michael_M": 8945,
      "Michael_L": 8946,
      "Michael_Mal": 8947,
      "Michael_Moore": 8948,
      "Michael_Han": 8949,
      "Michael_Schultz": 8950,
      "Michael_Park": 8951,
      "Michael_Shannon": 8952,
      "ubb": 8953,
      "ubien": 8954,
      "ar_Amadori": 8955,
      "ar_Váv": 8956,
      "_Chand": 8957,
      "_Cheung": 8958,
      "_Chaplin": 8959,
      "_Chinese": 8960,
      "_Chiari": 8961,
      "_Chalke": 8962,
      "izz": 8963,
      "rooks": 8964,
      "Paul_W": 8965,
      "Paul_Newman": 8966,
      "Paul_Roth": 8967,
      "Paul_Bart": 8968,
      "Paul_Bel": 8969,
      "Paulo_Betti": 8970,
      "deals": 8971,
      "debrand": 8972,
      "Jack_H": 8973,
      "Jack_N": 8974,
      "Jack_J": 8975,
      "Jack_Pol": 8976,
      "Jacki_P": 8977,
      "Jack_Richardson_": 8978,
      "achi": 8979,
      "acho": 8980,
      "_Black": 8981,
      "_Blair": 8982,
      "Jameson": 8983,
      "James_H": 8984,
      "James_Ell": 8985,
      "James_Wood": 8986,
      "James_Edward": 8987,
      "James_Bruc": 8988,
      "io_P": 8989,
      "io_T": 8990,
      "io_Porter": 8991,
      "io_Asaka": 8992,
      "io_Bardem": 8993,
      "William_L": 8994,
      "William_Boy": 8995,
      "_Val": 8996,
      "_Voight": 8997,
[...]
