{
  "version": "1.0",
  "truncation": null,
  "padding": null,
  "added_tokens": [
    {
      "id": 0,
      "content": "<unk>",
      "single_word": false,
      "lstrip": false,
      "rstrip": false,
      "normalized": false,
      "special": true
    },
    {
      "id": 1,
      "content": "<pad>",
      "single_word": false,
      "lstrip": false,
      "rstrip": false,
      "normalized": false,
      "special": true
    },
    {
      "id": 2,
      "content": "<SOT>",
      "single_word": false,
      "lstrip": false,
      "rstrip": false,
      "normalized": false,
      "special": true
    },
    {
      "id": 3,
      "content": "<EOT>",
      "single_word": false,
      "lstrip": false,
      "rstrip": false,
      "normalized": false,
      "special": true
    },
    {
      "id": 4,
      "content": "<SUBJ>",
      "single_word": false,
      "lstrip": false,
      "rstrip": false,
      "normalized": false,
      "special": true
    },
    {
      "id": 5,
      "content": "<PRED>",
      "single_word": false,
      "lstrip": false,
      "rstrip": false,
      "normalized": false,
      "special": true
    },
    {
      "id": 6,
      "content": "<OBJ>",
      "single_word": false,
      "lstrip": false,
      "rstrip": false,
      "normalized": false,
      "special": true
    },
    {
      "id": 7,
      "content": "<OBJ_LIST>",
      "single_word": false,
      "lstrip": false,
      "rstrip": false,
      "normalized": false,
      "special": true
    },
    {
      "id": 8,
      "content": "|",
      "single_word": false,
      "lstrip": false,
      "rstrip": false,
      "normalized": false,
      "special": true
    },
    {
      "id": 9,
      "content": "<RDF2Text>",
      "single_word": false,
      "lstrip": false,
      "rstrip": false,
      "normalized": false,
      "special": true
    },
    {
      "id": 10,
      "content": "<Text2RDF>",
      "single_word": false,
      "lstrip": false,
      "rstrip": false,
      "normalized": false,
      "special": true
    },
    {
      "id": 11,
      "content": "<CONTINUERDF>",
      "single_word": false,
      "lstrip": false,
      "rstrip": false,
      "normalized": false,
      "special": true
    },
    {
      "id": 12,
      "content": "<MASK>",
      "single_word": false,
      "lstrip": false,
      "rstrip": false,
      "normalized": false,
      "special": true
    }
  ],
  "normalizer": null,
  "pre_tokenizer": {
    "type": "Whitespace"
  },
  "post_processor": {
    "type": "TemplateProcessing",
    "single": [
      {
        "Sequence": {
          "id": "A",
          "type_id": 0
        }
      }
    ],
    "pair": [
      {
        "Sequence": {
          "id": "A",
          "type_id": 0
        }
      },
      {
        "Sequence": {
          "id": "B",
          "type_id": 1
        }
      }
    ],
    "special_tokens": {
      "<pad>": {
        "id": "<pad>",
        "ids": [
          1
        ],
        "tokens": [
          "<pad>"
        ]
      }
    }
  },
  "decoder": null,
  "model": {
    "type": "BPE",
    "dropout": null,
    "unk_token": "<unk>",
    "continuing_subword_prefix": null,
    "end_of_word_suffix": null,
    "fuse_unk": false,
    "byte_fallback": false,
    "ignore_merges": false,
    "vocab": {
      "<unk>": 0,
      "<pad>": 1,
      "<SOT>": 2,
      "<EOT>": 3,
      "<SUBJ>": 4,
      "<PRED>": 5,
      "<OBJ>": 6,
      "<OBJ_LIST>": 7,
      "|": 8,
      "<RDF2Text>": 9,
      "<Text2RDF>": 10,
      "<CONTINUERDF>": 11,
      "<MASK>": 12,
      "!": 13,
      "\"": 14,
      "#": 15,
      "$": 16,
      "%": 17,
      "&": 18,
      "'": 19,
      "(": 20,
      ")": 21,
      "+": 22,
      ",": 23,
      "-": 24,
      ".": 25,
      "/": 26,
      "0": 27,
      "1": 28,
      "2": 29,
      "3": 30,
      "4": 31,
      "5": 32,
      "6": 33,
      "7": 34,
      "8": 35,
      "9": 36,
      ":": 37,
      ";": 38,
      "<": 39,
      ">": 40,
      "?": 41,
      "A": 42,
      "B": 43,
      "C": 44,
      "D": 45,
      "E": 46,
      "F": 47,
      "G": 48,
      "H": 49,
      "I": 50,
      "J": 51,
      "K": 52,
      "L": 53,
      "M": 54,
      "N": 55,
      "O": 56,
      "P": 57,
      "Q": 58,
      "R": 59,
      "S": 60,
      "T": 61,
      "U": 62,
      "V": 63,
      "W": 64,
      "X": 65,
      "Y": 66,
      "Z": 67,
      "_": 68,
      "a": 69,
      "b": 70,
      "c": 71,
      "d": 72,
      "e": 73,
      "f": 74,
      "g": 75,
      "h": 76,
      "i": 77,
      "j": 78,
      "k": 79,
      "l": 80,
      "m": 81,
      "n": 82,
      "o": 83,
      "p": 84,
      "q": 85,
      "r": 86,
      "s": 87,
      "t": 88,
      "u": 89,
      "v": 90,
      "w": 91,
      "x": 92,
      "y": 93,
      "z": 94,
      "¥": 95,
      "À": 96,
      "Á": 97,
      "Å": 98,
      "É": 99,
      "Ö": 100,
      "à": 101,
      "á": 102,
      "â": 103,
      "ã": 104,
      "ä": 105,
      "å": 106,
      "ç": 107,
      "è": 108,
      "é": 109,
      "ë": 110,
      "í": 111,
      "î": 112,
      "ï": 113,
      "ñ": 114,
      "ò": 115,
      "ó": 116,
      "ô": 117,
      "ö": 118,
      "ø": 119,
      "ú": 120,
      "ü": 121,
      "ā": 122,
      "ă": 123,
      "ć": 124,
      "č": 125,
      "ę": 126,
      "ı": 127,
      "ł": 128,
      "ń": 129,
      "Ō": 130,
      "ō": 131,
      "ş": 132,
      "š": 133,
      "ū": 134,
      "Ż": 135,
      "Ž": 136,
      "ș": 137,
      "Ț": 138,
      "ț": 139,
      "Б": 140,
      "а": 141,
      "б": 142,
      "е": 143,
      "р": 144,
      "т": 145,
      "у": 146,
      "ḥ": 147,
      "–": 148,
      "—": 149,
      "’": 150,
      "“": 151,
      "db": 152,
      "BJ": 153,
      "OT": 154,
      "dbr": 155,
      "ar": 156,
      "in": 157,
      "dbo": 158,
      "PR": 159,
      "PRE": 160,
      "EOT": 161,
      "OBJ": 162,
      "SU": 163,
      "SOT": 164,
      "PRED": 165,
      "SUBJ": 166,
      "an": 167,
      "st": 168,
      "er": 169,
      "ing": 170,
      "arr": 171,
      "il": 172,
      "arring": 173,
      "starring": 174,
      "re": 175,
      "Ca": 176,
      "or": 177,
      "ilm": 178,
      "film": 179,
      "e_": 180,
      "th": 181,
      "on": 182,
      "ct": 183,
      "di": 184,
      "ri": 185,
      "en": 186,
      "al": 187,
      "and": 188,
      "ed": 189,
      "as": 190,
      "ic": 191,
      "es": 192,
      "el": 193,
      "a_": 194,
      "rect": 195,
      "direct": 196,
      "Car": 197,
      "am": 198,
      "is": 199,
      "at": 200,
      "y_": 201,
      "19": 202,
      "om": 203,
      "Cal": 204,
      "director": 205,
      "_film": 206,
      "ter": 207,
      "ol": 208,
      "by": 209,
      "pt": 210,
      "in_": 211,
      "the": 212,
      "wri": 213,
      "ra": 214,
      "_S": 215,
      "ou": 216,
      "os": 217,
      "Capt": 218,
      "of": 219,
      "_M": 220,
      "Th": 221,
      "writer": 222,
      "us": 223,
      "20": 224,
      "un": 225,
      "le": 226,
      "Capta": 227,
      "DF": 228,
      "RDF": 229,
      "it": 230,
      "ir": 231,
      "ad": 232,
      "_B": 233,
      "Am": 234,
      "Captain_": 235,
      "im": 236,
      "Call": 237,
      "tt": 238,
      "ch": 239,
      "_R": 240,
      "Pre": 241,
      "s_": 242,
      "Be": 243,
      "ay": 244,
      "ov": 245,
      "iv": 246,
      "ow": 247,
      "ur": 248,
      "Te": 249,
      "ill": 250,
      "_C": 251,
      "ag": 252,
      "act": 253,
      "id": 254,
      "xt": 255,
      "_G": 256,
      "the_": 257,
      "MA": 258,
      "SK": 259,
      "Text": 260,
      "MASK": 261,
      "The": 262,
      "ck": 263,
      "av": 264,
      "Carr": 265,
      "et": 266,
      "ion": 267,
      "ul": 268,
      "_H": 269,
      "_the_": 270,
      "omp": 271,
      "_A": 272,
      "od": 273,
      "ig": 274,
      "usic": 275,
      "_D": 276,
      "directed": 277,
      "music": 278,
      "ompos": 279,
      "Ch": 280,
      "_P": 281,
      "ard": 282,
      "to": 283,
      "_W": 284,
      "ak": 285,
      "omposer": 286,
      "Prem": 287,
      "ber": 288,
      "Pra": 289,
      "ut": 290,
      "ell": 291,
      "Jo": 292,
      "was": 293,
      "It": 294,
      "Composer": 295,
      "man": 296,
      "musicComposer": 297,
      "201": 298,
      "for": 299,
      "eric": 300,
      "ent": 301,
      "ers": 302,
      "Mar": 303,
      "ang": 304,
      "Americ": 305,
      "actor": 306,
      "ot": 307,
      "On": 308,
      "_F": 309,
      "ev": 310,
      "ne": 311,
      "ha": 312,
      "_L": 313,
      "Carry_": 314,
      "ni": 315,
      "_K": 316,
      "ore": 317,
      "um": 318,
      "ab": 319,
      "ime": 320,
      "Carn": 321,
      "ars": 322,
      "res": 323,
      "ran": 324,
      "unt": 325,
      "_N": 326,
      "op": 327,
      "ath": 328,
      "An": 329,
      "han": 330,
      "Cab": 331,
      "St": 332,
      "Carry_On": 333,
      "ie": 334,
      "runt": 335,
      "200": 336,
      "runtime": 337,
      "ce": 338,
      "_of": 339,
      "CO": 340,
      "NT": 341,
      "2RDF": 342,
      "2Text": 343,
      "ERDF": 344,
      "IN": 345,
      "UERDF": 346,
      "RDF2Text": 347,
      "Text2RDF": 348,
      "CONT": 349,
      "INUERDF": 350,
      "CONTINUERDF": 351,
      "hn": 352,
      "son": 353,
      "_Th": 354,
      "Ro": 355,
      "ased": 356,
      "ap": 357,
      "all": 358,
      "ith": 359,
      "igh": 360,
      "Sh": 361,
      "_J": 362,
      "ian": 363,
      "198": 364,
      "o_": 365,
      "Al": 366,
      "der": 367,
      "ac": 368,
      "our": 369,
      "em": 370,
      "uc": 371,
      "ies": 372,
      "end": 373,
      "est": 374,
      "John": 375,
      "irl": 376,
      "194": 377,
      "American": 378,
      "ie_": 379,
      "bert": 380,
      "pr": 381,
      "se": 382,
      "ich": 383,
      "Caf": 384,
      "193": 385,
      "ival": 386,
      "ud": 387,
      "ant": 388,
      "Cali": 389,
      "199": 390,
      "i_": 391,
      "ik": 392,
      "sh": 393,
      "ack": 394,
      "Cad": 395,
      "ama": 396,
      "ight": 397,
      "Carol": 398,
      "ation": 399,
      "Ra": 400,
      "com": 401,
      "ll": 402,
      "stars": 403,
      "Pow": 404,
      "forni": 405,
      "Californi": 406,
      "co": 407,
      "er_": 408,
      "Pr": 409,
      "ew": 410,
      "art": 411,
      "ind": 412,
      "tten": 413,
      "au": 414,
      "written": 415,
      "wh": 416,
      "ob": 417,
      "e_M": 418,
      "_Girl": 419,
      "ci": 420,
      "ton": 421,
      "dr": 422,
      "io": 423,
      "California_": 424,
      "ep": 425,
      "6_film": 426,
      "7_film": 427,
      "la": 428,
      "arl": 429,
      "Cam": 430,
      "ah": 431,
      "Cag": 432,
      "5_film": 433,
      "In": 434,
      "195": 435,
      "Carnival": 436,
      "ish": 437,
      "ef": 438,
      "ug": 439,
      "prod": 440,
      "ey": 441,
      "ash": 442,
      "qu": 443,
      "ess": 444,
      "att": 445,
      "rele": 446,
      "oun": 447,
      "if": 448,
      "Calling": 449,
      "rom": 450,
      "197": 451,
      "ern": 452,
      "Call_M": 453,
      "illi": 454,
      "edy": 455,
      "ach": 456,
      "og": 457,
      "ser": 458,
      "_E": 459,
      "oll": 460,
      "aw": 461,
      "oy": 462,
      "old": 463,
      "age": 464,
      "drama": 465,
      "her": 466,
      "pl": 467,
      "ong": 468,
      "_of_the_": 469,
      "ress": 470,
      "comedy": 471,
      "Bel": 472,
      "e_F": 473,
      "produc": 474,
      "pe": 475,
      "ure": 476,
      "with": 477,
      "aut": 478,
      "released": 479,
      "ier": 480,
      "ass": 481,
      "ick": 482,
      "9_film": 483,
      "Ed": 484,
      "ames": 485,
      "ann": 486,
      "org": 487,
      "ric": 488,
      "Robert": 489,
      "ok": 490,
      "Le": 491,
      "_St": 492,
      "Captiv": 493,
      "Dav": 494,
      "ict": 495,
      "_T": 496,
      "produced": 497,
      "8_film": 498,
      "ara": 499,
      "ca": 500,
      "up": 501,
      "Fran": 502,
      "Ge": 503,
      "ai": 504,
      "196": 505,
      "_Sh": 506,
      "ain": 507,
      "be": 508,
      "_V": 509,
      "ek": 510,
      "iri": 511,
      "ood": 512,
      "Call_Me_": 513,
      "Se": 514,
      "ort": 515,
      "Carm": 516,
      "Beaut": 517,
      "0_film": 518,
      "oth": 519,
      "ry": 520,
      "_O": 521,
      "de": 522,
      "ory": 523,
      "Captain_Americ": 524,
      "Café": 525,
      "illiam": 526,
      "00": 527,
      "Ar": 528,
      "ild": 529,
      "ost": 530,
      "sc": 531,
      "ust": 532,
      "2_film": 533,
      "_Y": 534,
      "icha": 535,
      "a_M": 536,
      "Call_of_the_": 537,
      "oc": 538,
      "Charl": 539,
      "ist": 540,
      "ub": 541,
      "fe": 542,
      "ichael": 543,
      "dian": 544,
      "_and": 545,
      "based": 546,
      "ine_": 547,
      "Un": 548,
      "Michael": 549,
      "actress": 550,
      "Power": 551,
      "Bl": 552,
      "ini": 553,
      "yn": 554,
      "iss": 555,
      "iel": 556,
      "ark": 557,
      "orn": 558,
      "Carl": 559,
      "oman": 560,
      "Caged": 561,
      "ib": 562,
      "ine": 563,
      "Card": 564,
      "Ad": 565,
      "uk": 566,
      "ren": 567,
      "ald": 568,
      "Camp": 569,
      "Georg": 570,
      "de_": 571,
      "Captain": 572,
      "ovie": 573,
      "De": 574,
      "az": 575,
      "eth": 576,
      "Bri": 577,
      "me": 578,
      "ures": 579,
      "David": 580,
      "aj": 581,
      "har": 582,
      "ina_": 583,
      "e_W": 584,
      "Carry_On_": 585,
      "endar": 586,
      "Charles": 587,
      "rist": 588,
      "Calendar": 589,
      "series": 590,
      "cu": 591,
      "so": 592,
      "red": 593,
      "who": 594,
      "one": 595,
      "William": 596,
      "es_": 597,
      "el_": 598,
      "Prairi": 599,
      "4_film": 600,
      "Jan": 601,
      "ame": 602,
      "umar": 603,
      "Cl": 604,
      "_I": 605,
      "e_B": 606,
      "Pa": 607,
      "ro": 608,
      "ins": 609,
      "ger": 610,
      "ana": 611,
      "angu": 612,
      "fore": 613,
      "hy": 614,
      "ont": 615,
      "irst": 616,
      "Before": 617,
      "cl": 618,
      "uck": 619,
      "James": 620,
      "Pour": 621,
      "ia": 622,
      "ity_": 623,
      "from": 624,
      "iz": 625,
      "reen": 626,
      "anger": 627,
      "Bell": 628,
      "ara_": 629,
      "gh": 630,
      "ru": 631,
      "3_film": 632,
      "aret": 633,
      "or_": 634,
      "Care": 635,
      "ley": 636,
      "_All": 637,
      "Captain_America": 638,
      "his": 639,
      "Carmen": 640,
      "ge": 641,
      "ward": 642,
      "e_S": 643,
      "ris": 644,
      "a_S": 645,
      "Carnival_": 646,
      "El": 647,
      "ast": 648,
      "a_K": 649,
      "play": 650,
      "een": 651,
      "ary": 652,
      "Paul": 653,
      "_Ch": 654,
      "Power_R": 655,
      "ina": 656,
      "ream": 657,
      "Indian": 658,
      "1_film": 659,
      "Pe": 660,
      "rol": 661,
      "Cabaret": 662,
      "anguage": 663,
      "Ken": 664,
      "Pov": 665,
      "ane": 666,
      "onn": 667,
      "an_": 668,
      "e_G": 669,
      "ical": 670,
      "esh": 671,
      "under": 672,
      "Beh": 673,
      "Cabin_": 674,
      "Prat": 675,
      "Pat": 676,
      "lan": 677,
      "ney": 678,
      "Raj": 679,
      "ay_": 680,
      "language": 681,
      "ung": 682,
      "Frank": 683,
      "feat": 684,
      "Behind": 685,
      "dy": 686,
      "ond": 687,
      "Carav": 688,
      "Film": 689,
      "Mal": 690,
      "eg": 691,
      "ock": 692,
      "ari": 693,
      "e_H": 694,
      "e_Be": 695,
      "Jos": 696,
      "Rich": 697,
      "ip": 698,
      "ly": 699,
      "ere": 700,
      "Cair": 701,
      "iller": 702,
      "bo": 703,
      "ert": 704,
      "am_": 705,
      "Calam": 706,
      "ade": 707,
      "Calling_All": 708,
      "Ben": 709,
      "ma": 710,
      "192": 711,
      "ity": 712,
      "ound": 713,
      "Jack": 714,
      "ld": 715,
      "udi": 716,
      "Cars_": 717,
      "Call_": 718,
      "nov": 719,
      "inal": 720,
      "own": 721,
      "Cain_": 722,
      "Don": 723,
      "Ph": 724,
      "Pran": 725,
      "und": 726,
      "Sam": 727,
      "but": 728,
      "ler": 729,
      "ma_": 730,
      "vent": 731,
      "Christ": 732,
      "_You": 733,
      "Calendar_Girl": 734,
      "angers_": 735,
      "Power_Rangers_": 736,
      "Pot": 737,
      "Ann": 738,
      "ez": 739,
      "enc": 740,
      "esar": 741,
      "Carry": 742,
      "Prak": 743,
      "_Lov": 744,
      "ott": 745,
      "out": 746,
      "Richard": 747,
      "Dan": 748,
      "Jay": 749,
      "aur": 750,
      "e_of": 751,
      "hu": 752,
      "sha": 753,
      "ines": 754,
      "ero": 755,
      "ord": 756,
      "enn": 757,
      "off": 758,
      "Gu": 759,
      "ett": 760,
      "ven": 761,
      "are": 762,
      "ide": 763,
      "Prema_": 764,
      "eful": 765,
      "Bar": 766,
      "yan": 767,
      "esp": 768,
      "Careful": 769,
      "omas": 770,
      "Je": 771,
      "Up": 772,
      "story": 773,
      "rit": 774,
      "ated": 775,
      "Powder": 776,
      "ictures": 777,
      "Peter": 778,
      "novel": 779,
      "Bill": 780,
      "alian": 781,
      "athi": 782,
      "aradi": 783,
      "Pictures": 784,
      "he": 785,
      "ire": 786,
      "land": 787,
      "ino": 788,
      "ing_": 789,
      "Cak": 790,
      "also": 791,
      "ive": 792,
      "Ger": 793,
      "II": 794,
      "lin": 795,
      "pre": 796,
      "arth": 797,
      "Carb": 798,
      "ff": 799,
      "has": 800,
      "ial": 801,
      "ia_": 802,
      "ph": 803,
      "anc": 804,
      "y_M": 805,
      "_Mc": 806,
      "_An": 807,
      "Jon": 808,
      "Par": 809,
      "ail": 810,
      "je": 811,
      "Prath": 812,
      "Har": 813,
      "Sid": 814,
      "night": 815,
      "per": 816,
      "Care_Be": 817,
      "_The_M": 818,
      "Care_Bears": 819,
      "Jul": 820,
      "Kid": 821,
      "ate": 822,
      "neth": 823,
      "ield": 824,
      "Kenneth": 825,
      "Harr": 826,
      "Is": 827,
      "kar": 828,
      "rand": 829,
      "inter": 830,
      "any": 831,
      "y_B": 832,
      "rav": 833,
      "s_C": 834,
      "s_of": 835,
      "Carrie_": 836,
      "Carolina_": 837,
      "Captive_": 838,
      "Caged_": 839,
      "oot": 840,
      "cott": 841,
      "upp": 842,
      "venture": 843,
      "80": 844,
      "ale": 845,
      "ray": 846,
      "ad_": 847,
      "_Gold": 848,
      "_The_F": 849,
      "_Jatt": 850,
      "ies_": 851,
      "antic": 852,
      "Café_": 853,
      "screen": 854,
      "Prairie_": 855,
      "60": 856,
      "gg": 857,
      "nam": 858,
      "well": 859,
      "ous": 860,
      "ush": 861,
      "uss": 862,
      "Cadet": 863,
      "Edward": 864,
      "Man": 865,
      "Ne": 866,
      "Qu": 867,
      "mer": 868,
      "mak": 869,
      "ura": 870,
      "wor": 871,
      "arn": 872,
      "an_S": 873,
      "e_L": 874,
      "rime": 875,
      "ats": 876,
      "ada": 877,
      "Captain_C": 878,
      "age_": 879,
      "_He": 880,
      "_De": 881,
      "oung": 882,
      "ham": 883,
      "Mart": 884,
      "romantic": 885,
      "cutt": 886,
      "Ale": 887,
      "Bed": 888,
      "oci": 889,
      "ani": 890,
      "ile": 891,
      "y_D": 892,
      "Captain_N": 893,
      "_Ro": 894,
      "idnight": 895,
      "2017_film": 896,
      "_Le": 897,
      "Carry_on": 898,
      "Carnage_": 899,
      "iott": 900,
      "eph": 901,
      "iful": 902,
      "Beautiful": 903,
      "Mo": 904,
      "Tim": 905,
      "reg": 906,
      "Cap": 907,
      "dit": 908,
      "alk": 909,
      "Calcutt": 910,
      "ite": 911,
      "Italian": 912,
      "Caddy": 913,
      "shack": 914,
      "Jean": 915,
      "Caddyshack": 916,
      "Mad": 917,
      "u_": 918,
      "ree": 919,
      "thr": 920,
      "ele": 921,
      "a_D": 922,
      "y_G": 923,
      "ley_": 924,
      "Captain_F": 925,
      "Call_Girl": 926,
      "uring": 927,
      "_Wh": 928,
      "ever": 929,
      "estival": 930,
      "Pras": 931,
      "Cairo_": 932,
      "Cake_": 933,
      "Carbon": 934,
      "Bern": 935,
      "No": 936,
      "ex": 937,
      "ment": 938,
      "oor": 939,
      "ya": 940,
      "inn": 941,
      "that": 942,
      "ons": 943,
      "ati": 944,
      "Thunder": 945,
      "ows": 946,
      "oward": 947,
      "which": 948,
      "ife": 949,
      "capt": 950,
      "Br": 951,
      "Be_": 952,
      "Tom": 953,
      "_Ca": 954,
      "first": 955,
      "ij": 956,
      "mith": 957,
      "ox": 958,
      "o_M": 959,
      "yst": 960,
      "or_S": 961,
      "Calm": 962,
      "osaur": 963,
      "itt": 964,
      "_Bab": 965,
      "_Ros": 966,
      "agar": 967,
      "_Girls": 968,
      "Blood": 969,
      "Cain_and": 970,
      "Fred": 971,
      "Ram": 972,
      "Van": 973,
      "Wild": 974,
      "gl": 975,
      "uth": 976,
      "inc": 977,
      "Caesar": 978,
      "oul": 979,
      "202": 980,
      "ivil": 981,
      "urt": 982,
      "umb": 983,
      "app": 984,
      "Brit": 985,
      "_Am": 986,
      "air": 987,
      "erg": 988,
      "ed_": 989,
      "a_H": 990,
      "y_S": 991,
      "lead": 992,
      "_Bl": 993,
      "s_J": 994,
      "musical": 995,
      "_War": 996,
      "angal": 997,
      "Caroline_": 998,
      "acher": 999,
      "roles": 1000,
      "_The_Movie": 1001,
      "British": 1002,
      "40": 1003,
      "Em": 1004,
      "bl": 1005,
      "ein": 1006,
      "pp": 1007,
      "ance": 1008,
      "ction": 1009,
      "rick": 1010,
      "anda": 1011,
      "Carg": 1012,
      "Carson": 1013,
      "ters": 1014,
      "ola": 1015,
      "raz": 1016,
      "chi": 1017,
      "Carnosaur": 1018,
      "appe": 1019,
      "lliott": 1020,
      "Cardcapt": 1021,
      "Malay": 1022,
      "ociet": 1023,
      "Ros": 1024,
      "Vict": 1025,
      "West": 1026,
      "s_M": 1027,
      "same": 1028,
      "aram": 1029,
      "ston": 1030,
      "ason": 1031,
      "Carib": 1032,
      "ous_": 1033,
      "Among": 1034,
      "ower": 1035,
      "2015_film": 1036,
      "Marc": 1037,
      "Marv": 1038,
      "And": 1039,
      "1947_film": 1040,
      "rice_": 1041,
      "Carnival_in_": 1042,
      "Calamity_": 1043,
      "_The_First": 1044,
      "Ab": 1045,
      "Jac": 1046,
      "Tal": 1047,
      "ka": 1048,
      "Cact": 1049,
      "rid": 1050,
      "Carel": 1051,
      "Stev": 1052,
      "Career": 1053,
      "Phil": 1054,
      "Malayal": 1055,
      "Cactus": 1056,
      "Cla": 1057,
      "Fren": 1058,
      "Hel": 1059,
      "af": 1060,
      "car": 1061,
      "field": 1062,
      "i_M": 1063,
      "ks": 1064,
      "len": 1065,
      "uch": 1066,
      "ana_": 1067,
      "onse": 1068,
      "as_": 1069,
      "ice": 1070,
      "a_G": 1071,
      "ater": 1072,
      "_Br": 1073,
      "tto": 1074,
      "Beat": 1075,
      "2018_film": 1076,
      "nett": 1077,
      "ather": 1078,
      "_The_": 1079,
      "Rao": 1080,
      "Cabin_F": 1081,
      "Blood_": 1082,
      "Caesar_and": 1083,
      "Cargo_": 1084,
      "ociety_": 1085,
      "54": 1086,
      "Col": 1087,
      "uri": 1088,
      "orld": 1089,
      "ims": 1090,
      "about": 1091,
      "ewman": 1092,
      "serial": 1093,
      "esponse": 1094,
      "Fl": 1095,
      "_9": 1096,
      "ce_": 1097,
      "eed": 1098,
      "i_R": 1099,
      "ky_": 1100,
      "te": 1101,
      "tel": 1102,
      "ens": 1103,
      "a_B": 1104,
      "y_F": 1105,
      "y_L": 1106,
      "omen": 1107,
      "ough": 1108,
      "_Response": 1109,
      "ovie_": 1110,
      "urn": 1111,
      "_Civil": 1112,
      "_Ab": 1113,
      "_Dr": 1114,
      "2010_film": 1115,
      "_Jack": 1116,
      "ember": 1117,
      "1939_film": 1118,
      "Calling_Dr": 1119,
      "Captain_America_": 1120,
      "Under": 1121,
      "Carry_On_Up": 1122,
      "Daniel": 1123,
      "_Jatta_": 1124,
      "Carry_on_Jatta_": 1125,
      "Bernard": 1126,
      "or_Sak": 1127,
      "Cardcaptor_Sak": 1128,
      "Among_the_": 1129,
      "_Civil_War": 1130,
      "Carry_On_Up_the_": 1131,
      "Ol": 1132,
      "Sha": 1133,
      "foll": 1134,
      "tre": 1135,
      "orman": 1136,
      "die": 1137,
      "amil": 1138,
      "athan": 1139,
      "ally": 1140,
      "Blu": 1141,
      "En": 1142,
      "Hen": 1143,
      "Kann": 1144,
      "Lou": 1145,
      "Sp": 1146,
      "Ton": 1147,
      "by_": 1148,
      "ye": 1149,
      "orce": 1150,
      "Calig": 1151,
      "adh": 1152,
      "_But": 1153,
      "ury": 1154,
      "agh": 1155,
      "_the_S": 1156,
      "2016_film": 1157,
      "erson": 1158,
      "1980_film": 1159,
      "1996_film": 1160,
      "istor": 1161,
      "issim": 1162,
      "Carnosaur_": 1163,
      "appear": 1164,
      "Caligul": 1165,
      ").": 1166,
      "Ev": 1167,
      "Tel": 1168,
      "aal": 1169,
      "movie": 1170,
      "tw": 1171,
      "tit": 1172,
      "rim": 1173,
      "Caram": 1174,
      "rac": 1175,
      "Thomas": 1176,
      "adu": 1177,
      "ult": 1178,
      "tore": 1179,
      "ount": 1180,
      "cast": 1181,
      "Pournam": 1182,
      "As": 1183,
      "Lew": 1184,
      "Mc": 1185,
      "Val": 1186,
      "born": 1187,
      "composer": 1188,
      "name": 1189,
      "uel": 1190,
      "films": 1191,
      "e_A": 1192,
      "ctor": 1193,
      "al_": 1194,
      "a_N": 1195,
      "y_W": 1196,
      "191": 1197,
      "oldi": 1198,
      "Bear": 1199,
      "_City_": 1200,
      "_Wash": 1201,
      "berg": 1202,
      "ourney": 1203,
      "ikk": 1204,
      "cia_": 1205,
      "1955_film": 1206,
      "awtre": 1207,
      "_Story": 1208,
      "feature": 1209,
      "Caravan_": 1210,
      "Call_It": 1211,
      "Bed_of": 1212,
      "thriller": 1213,
      "Carson_City_": 1214,
      "Ash": 1215,
      "Bob": 1216,
      "Me": 1217,
      "Mik": 1218,
      "ax": 1219,
      "ait": 1220,
      "gr": 1221,
      "histor": 1222,
      "anth": 1223,
      "anim": 1224,
      "err": 1225,
      "rew": 1226,
      "ctical": 1227,
      "ando": 1228,
      "andr": 1229,
      "escu": 1230,
      "char": 1231,
      "illac": 1232,
      "action": 1233,
      "abel": 1234,
      "hanj": 1235,
      "Shir": 1236,
      "Cadillac": 1237,
      "Western": 1238,
      "Malayalam": 1239,
      "77": 1240,
      "Festival": 1241,
      "Howard": 1242,
      "Jim": 1243,
      "Light": 1244,
      "aas": 1245,
      "compos": 1246,
      "ec": 1247,
      "gu": 1248,
      "la_": 1249,
      "na": 1250,
      "sp": 1251,
      "tes": 1252,
      "utt": 1253,
      "arry": 1254,
      "ors": 1255,
      "e_to": 1256,
      "thon": 1257,
      "alv": 1258,
      "ision": 1259,
      "_Mur": 1260,
      "_Be": 1261,
      "Amma_": 1262,
      "Captain_S": 1263,
      "Captain_of": 1264,
      "ove": 1265,
      "_Cle": 1266,
      "_Wil": 1267,
      "Pray_": 1268,
      "Practical": 1269,
      "elly": 1270,
      "Joe_": 1271,
      "ent_": 1272,
      "Carry_On_S": 1273,
      "_Jon": 1274,
      "Bel_Am": 1275,
      "_Otto": 1276,
      "ynn": 1277,
      "George_": 1278,
      "azir": 1279,
      "Brian": 1280,
      "Williams": 1281,
      "Before_the_": 1282,
      "features": 1283,
      "Donald": 1284,
      "ordon": 1285,
      "Barb": 1286,
      "Gerald": 1287,
      "Victor": 1288,
      "Telug": 1289,
      "Bel_Ami_": 1290,
      "22": 1291,
      "Dick": 1292,
      "Dream": 1293,
      "Hug": 1294,
      "Mur": 1295,
      "Pier": 1296,
      "ix": 1297,
      "ki": 1298,
      "mond": 1299,
      "ans": 1300,
      "ely": 1301,
      "rab": 1302,
      "itz": 1303,
      "itch": 1304,
      "add": 1305,
      "Preeth": 1306,
      "avi": 1307,
      "abeth": 1308,
      "Stan": 1309,
      "ational": 1310,
      "oyd": 1311,
      "Helen": 1312,
      "Der": 1313,
      "Jung": 1314,
      "Lau": 1315,
      "Shan": 1316,
      "lic": 1317,
      "mo": 1318,
      "mon": 1319,
      "made": 1320,
      "ool": 1321,
      "oop": 1322,
      "ts": 1323,
      "andi": 1324,
      "on_P": 1325,
      "ase": 1326,
      "in_the_": 1327,
      "oud": 1328,
      "_Midnight": 1329,
      "ovi": 1330,
      "ury_": 1331,
      "_Hen": 1332,
      "_Al": 1333,
      "_Dream": 1334,
      "_Nation": 1335,
      "2009_film": 1336,
      "_James": 1337,
      "estin": 1338,
      "bean": 1339,
      "Beauty_": 1340,
      "score": 1341,
      "Camping": 1342,
      "Pour_": 1343,
      "Carmen_": 1344,
      "Harold": 1345,
      "Café_de_": 1346,
      "Calcutta_": 1347,
      "Call_Girl_": 1348,
      "Carbon_Nation": 1349,
      "s_Journey": 1350,
      "Caribbean": 1351,
      "Caesar_and_Otto": 1352,
      "Louis": 1353,
      "oldier": 1354,
      "charact": 1355,
      "composed": 1356,
      "adi": 1357,
      "con": 1358,
      "cond": 1359,
      "ders": 1360,
      "uction": 1361,
      "Cast": 1362,
      "ori": 1363,
      "ome": 1364,
      "ito": 1365,
      "adl": 1366,
      "ford": 1367,
      "evision": 1368,
      "Anne": 1369,
      "Cabby": 1370,
      "Caboc": 1371,
      "caus": 1372,
      "screenplay": 1373,
      "French": 1374,
      "Cabocla": 1375,
      "18": 1376,
      "Ber": 1377,
      "Bay": 1378,
      "Gl": 1379,
      "Gold": 1380,
      "Jen": 1381,
      "Luck": 1382,
      "Pound": 1383,
      "Tur": 1384,
      "Wh": 1385,
      "_Jo": 1386,
      "cart": 1387,
      "jun": 1388,
      "ke": 1389,
      "mam": 1390,
      "oz": 1391,
      "ycl": 1392,
      "ary_": 1393,
      "ari_": 1394,
      "ery": 1395,
      "orr": 1396,
      "e_Prem": 1397,
      "e_de_": 1398,
      "thur": 1399,
      "dist": 1400,
      "riend": 1401,
      "ribut": 1402,
      "elf": 1403,
      "a_R": 1404,
      "ates": 1405,
      "their": 1406,
      "_Mhanj": 1407,
      "Captain_Thunder": 1408,
      "_Cl": 1409,
      "ardl": 1410,
      "_Woman": 1411,
      "ake_": 1412,
      "Prem_N": 1413,
      "Pray": 1414,
      "mann": 1415,
      "Anthon": 1416,
      "2008_film": 1417,
      "son_": 1418,
      "ation_": 1419,
      "_Elliott": 1420,
      "Beauties_": 1421,
      "fect": 1422,
      "Carry_On_Cabby": 1423,
      "Calendar_": 1424,
      "Janu": 1425,
      "_II": 1426,
      "clud": 1427,
      "ght": 1428,
      "Career_": 1429,
      "Cabaret_": 1430,
      "Povest": 1431,
      "Christop": 1432,
      "aradis": 1433,
      "inter_S": 1434,
      "television": 1435,
      "born_": 1436,
      "cartier": 1437,
      "_Mhanje_Prem": 1438,
      "Dor": 1439,
      "Dev": 1440,
      "Lu": 1441,
      "Nat": 1442,
      "Night": 1443,
      "Rit": 1444,
      "Scott": 1445,
      "World": 1446,
      "eman": 1447,
      "sid": 1448,
      "ve": 1449,
      "andol": 1450,
      "ison": 1451,
      "Being": 1452,
      "Prab": 1453,
      "Cadenc": 1454,
      "que": 1455,
      "Adam": 1456,
      "Deadl": 1457,
      "Caravan": 1458,
      "Joseph": 1459,
      "Cairo": 1460,
      "Kidd": 1461,
      "after": 1462,
      "Her": 1463,
      "War": 1464,
      "Wal": 1465,
      "_born_": 1466,
      "ain_": 1467,
      "had": 1468,
      "kn": 1469,
      "spe": 1470,
      "vi": 1471,
      "yr": 1472,
      "indi": 1473,
      "into": 1474,
      "includ": 1475,
      "Cas": 1476,
      "film_": 1477,
      "ence": 1478,
      "a_P": 1479,
      "a_V": 1480,
      "Car_Wash": 1481,
      "omb": 1482,
      "_Sch": 1483,
      "osh": 1484,
      "_Mir": 1485,
      "_Raj": 1486,
      "s_L": 1487,
      "Becaus": 1488,
      "_Ad": 1489,
      "_Wild": 1490,
      "angers": 1491,
      "_Fury_": 1492,
      "nif": 1493,
      "Carnal": 1494,
      "hanam": 1495,
      "2002_film": 1496,
      "_The_W": 1497,
      "_Thomas": 1498,
      "1989_film": 1499,
      "Alan": 1500,
      "Albert": 1501,
      "1948_film": 1502,
      "second": 1503,
      "udd": 1504,
      "short": 1505,
      "Leon": 1506,
      "Captive_W": 1507,
      "_Shut": 1508,
      "Arthur": 1509,
      "Union": 1510,
      "Caged_Fury_": 1511,
      "Cars_3": 1512,
      "Caddyshack_II": 1513,
      "two": 1514,
      "title": 1515,
      "on_Par": 1516,
      "Jennif": 1517,
      "e_de_cartier": 1518,
      "Poveste_de_cartier": 1519,
      "inter_Soldier": 1520,
      "Car_Wash_": 1521,
      "_The_Winter_Soldier": 1522,
      "71": 1523,
      "Del": 1524,
      "Eric": 1525,
      "Girl": 1526,
      "Ron": 1527,
      "Sar": 1528,
      "Way": 1529,
      "You": 1530,
      "band": 1531,
      "bot": 1532,
      "crime": 1533,
      "ium": 1534,
      "led": 1535,
      "zz": 1536,
      "orth": 1537,
      "ese": 1538,
      "ato": 1539,
      "Calap": 1540,
      "oura": 1541,
      "unic": 1542,
      "its": 1543,
      "Pred": 1544,
      "Preci": 1545,
      "idw": 1546,
      "Prairie": 1547,
      "role": 1548,
      "onnor": 1549,
      "Pratidw": 1550,
      "venger": 1551,
      "Alex": 1552,
      "distribut": 1553,
      "Bab": 1554,
      "Dr": 1555,
      "Gab": 1556,
      "Greg": 1557,
      "Hindi": 1558,
      "Vir": 1559,
      "br": 1560,
      "kers": 1561,
      "lers": 1562,
      "lud": 1563,
      "life": 1564,
      "mas": 1565,
      "national": 1566,
      "ram": 1567,
      "win": 1568,
      "wag": 1569,
      "were": 1570,
      "aro": 1571,
      "sthanam": 1572,
      "ret": 1573,
      "ali": 1574,
      "ica": 1575,
      "ise": 1576,
      "olf": 1577,
      "oland": 1578,
      "Captain_A": 1579,
      "Captain_H": 1580,
      "Captain_Kidd": 1581,
      "Prelud": 1582,
      "iver": 1583,
      "ull": 1584,
      "_Paradis": 1585,
      "_William": 1586,
      "berto": 1587,
      "ever_": 1588,
      "Carry_On_Girls": 1589,
      "2003_film": 1590,
      "She": 1591,
      "1946_film": 1592,
      "1934_film": 1593,
      "ants": 1594,
      "Call_Me_M": 1595,
      "illip": 1596,
      "_Shar": 1597,
      "debut": 1598,
      "ustlers": 1599,
      "Charles_H": 1600,
      "Pover": 1601,
      "ocket": 1602,
      "e_He": 1603,
      "Calamari_": 1604,
      "Phillip": 1605,
      "_Love_": 1606,
      "jee": 1607,
      "make": 1608,
      "Beautiful_But": 1609,
      "Cain_and_Ab": 1610,
      "Cabin_Fever_": 1611,
      "Gerald_Thomas": 1612,
      "Telugu": 1613,
      "Pierre": 1614,
      "Lucky": 1615,
      "known": 1616,
      "Calapor_": 1617,
      "Calamari_Union": 1618,
      "Cain_and_Abel_": 1619,
      "Award": 1620,
      "Gi": 1621,
      "He": 1622,
      "Ju": 1623,
      "King": 1624,
      "Norman": 1625,
      "Pil": 1626,
      "Ren": 1627,
      "Sim": 1628,
      "Sch": 1629,
      "TV": 1630,
      "go": 1631,
      "gen": 1632,
      "lav": 1633,
      "mier": 1634,
      "oir": 1635,
      "rop": 1636,
      "sen": 1637,
      "uv": 1638,
      "wood": 1639,
      "yle": 1640,
      "aray": 1641,
      "Cain": 1642,
      "ala": 1643,
      "icol": 1644,
      "ougl": 1645,
      "ign": 1646,
      "arsh": 1647,
      "Shar": 1648,
      "Shak": 1649,
      "Cardinal": 1650,
      "Pranam": 1651,
      "Talbot": 1652,
      "follows": 1653,
      "1914": 1654,
      "maman": 1655,
      "ourage": 1656,
      "Aust": 1657,
      "Can": 1658,
      "Cor": 1659,
      "Do": 1660,
      "Er": 1661,
      "Gen": 1662,
      "Hal": 1663,
      "May": 1664,
      "Paradi": 1665,
      "Red": 1666,
      "Sa": 1667,
      "_U": 1668,
      "_on": 1669,
      "_Carl": 1670,
      "_a_K": 1671,
      "mok": 1672,
      "oos": 1673,
      "py": 1674,
      "s_S": 1675,
      "set": 1676,
      "side": 1677,
      "uj": 1678,
      "xp": 1679,
      "il_": 1680,
      "ille": 1681,
      "Cac": 1682,
      "e_and": 1683,
      "e_maman": 1684,
      "die_": 1685,
      "asil": 1686,
      "ess_L": 1687,
      "ator": 1688,
      "y_K": 1689,
      "oli": 1690,
      "_Sand": 1691,
      "ouse": 1692,
      "_Ba": 1693,
      "_Ban": 1694,
      "_Bill": 1695,
      "Captain_M": 1696,
      "Captain_Marv": 1697,
      "Captain_Blood_": 1698,
      "Beef": 1699,
      "_Gu": 1700,
      "_Hero": 1701,
      "_Avenger": 1702,
      "_Per": 1703,
      "Premas": 1704,
      "Premium": 1705,
      "2011_film": 1706,
      "ot_": 1707,
      "ots": 1708,
      "oren": 1709,
      "_New": 1710,
      "Ang": 1711,
      "han_": 1712,
      "2006_film": 1713,
      "Rob": 1714,
      "1986_film": 1715,
      "1935_film": 1716,
      "i_V": 1717,
      "i_ma_": 1718,
      "California_Dream": 1719,
      "1952_film": 1720,
      "Carnival_of": 1721,
      "ques": 1722,
      "Belov": 1723,
      "Captive": 1724,
      "1967_film": 1725,
      "Call_Me_Lucky": 1726,
      "Seal": 1727,
      "other": 1728,
      "George": 1729,
      "Belle_maman": 1730,
      "Christian": 1731,
      "y_Bus": 1732,
      "Captain_Newman": 1733,
      "_Babes": 1734,
      "_Roses_": 1735,
      "_The_First_Avenger": 1736,
      "Careless_L": 1737,
      "Beatrice_": 1738,
      "Blues": 1739,
      "Caligula_": 1740,
      "Caramel_": 1741,
      "awtrey_": 1742,
      "Bed_of_Roses_": 1743,
      "Turbo": 1744,
      "side_": 1745,
      "_born_1914": 1746,
      "Jennifer": 1747,
      "unicul": 1748,
      "Virg": 1749,
      "Prelude_to": 1750,
      "_Williams": 1751,
      "Charles_Hawtrey_": 1752,
      "Poveri_ma_": 1753,
      "_Bill_Elliott": 1754,
      "Captain_Marvel_": 1755,
      "Poveri_ma_ric": 1756,
      "Boy": 1757,
      "Cost": 1758,
      "Din": 1759,
      "Jr": 1760,
      "Jun": 1761,
      "Luc": 1762,
      "Pri": 1763,
      "Vinc": 1764,
      "Wil": 1765,
      "ace": 1766,
      "judi": 1767,
      "pri": 1768,
      "iness": 1769,
      "ank": 1770,
      "erge": 1771,
      "iles": 1772,
      "remake": 1773,
      "along": 1774,
      "asse": 1775,
      "oft": 1776,
      "This": 1777,
      "usband": 1778,
      "ited": 1779,
      "ady": 1780,
      "adventure": 1781,
      "urs": 1782,
      "agg": 1783,
      "akes": 1784,
      "Mari": 1785,
      "Mario": 1786,
      "umm": 1787,
      "ighat": 1788,
      "sequ": 1789,
      "Caliber": 1790,
      "Franc": 1791,
      "Carlito": 1792,
      "Bellissim": 1793,
      "rishn": 1794,
      "premier": 1795,
      "Queen": 1796,
      "Jacques": 1797,
      "historical": 1798,
      "itchell": 1799,
      "Christopher": 1800,
      "Ell": 1801,
      "Fe": 1802,
      "Mel": 1803,
      "Nov": 1804,
      "Park": 1805,
      "Sky_": 1806,
      "during": 1807,
      "hel": 1808,
      "horr": 1809,
      "i_S": 1810,
      "jan": 1811,
      "kin": 1812,
      "mir": 1813,
      "pic": 1814,
      "pol": 1815,
      "sound": 1816,
      "t_": 1817,
      "vo": 1818,
      "én": 1819,
      "int": 1820,
      "an_N": 1821,
      "sta": 1822,
      "ington": 1823,
      "rig": 1824,
      "ander": 1825,
      "at_Midnight": 1826,
      "olog": 1827,
      "in_Paradi": 1828,
      "_Se": 1829,
      "_Smith": 1830,
      "oss": 1831,
      "_Mar": 1832,
      "_Mac": 1833,
      "2019": 1834,
      "ita": 1835,
      "ada_": 1836,
      "Amrit": 1837,
      "_Rob": 1838,
      "_Roth": 1839,
      "_Rush": 1840,
      "Begg": 1841,
      "ayi": 1842,
      "ura_M": 1843,
      "Prem_P": 1844,
      "elli": 1845,
      "Joan_S": 1846,
      "2012_film": 1847,
      "evi": 1848,
      "_Ka": 1849,
      "ore_": 1850,
      "Carry_On_Lov": 1851,
      "2007_film": 1852,
      "Rog": 1853,
      "apoor": 1854,
      "1981_film": 1855,
      "ester": 1856,
      "ichel": 1857,
      "Cafe_M": 1858,
      "Cafe_S": 1859,
      "1933_film": 1860,
      "come": 1861,
      "Prod": 1862,
      "ewart": 1863,
      "California_F": 1864,
      "1975_film": 1865,
      "ogs": 1866,
      "Below": 1867,
      "_and_the_": 1868,
      "Cabin_in_the_": 1869,
      "Behind_the_S": 1870,
      "Power_Rangers_Turbo": 1871,
      "Jonathan": 1872,
      "Prathy": 1873,
      "Carolina_Blues": 1874,
      "adapt": 1875,
      "Martin_": 1876,
      "alkan": 1877,
      "ed_Card": 1878,
      "Caroline_at_Midnight": 1879,
      "_The_Seal": 1880,
      "ovie_2": 1881,
      "Cardcaptor_Sakura_M": 1882,
      "Barbara_": 1883,
      "Jungle": 1884,
      "Berlin": 1885,
      "distributed": 1886,
      "Talbot_Roth": 1887,
      "Caccia_": 1888,
      "Caliber_9": 1889,
      "Bellissima_": 1890,
      "horror": 1891,
      "Joan_Sims": 1892,
      "Carry_On_Loving": 1893,
      "Cafe_Society_": 1894,
      "Cabin_in_the_Sky_": 1895,
      "_The_Sealed_Card": 1896,
      "Cardcaptor_Sakura_Movie_2": 1897,
      "Talbot_Rothwell": 1898,
      "Bal": 1899,
      "Di": 1900,
      "Hol": 1901,
      "Khy": 1902,
      "Lam": 1903,
      "Sou": 1904,
      "Ter": 1905,
      "Ver": 1906,
      "aqu": 1907,
      "cre": 1908,
      "col": 1909,
      "iu": 1910,
      "idi": 1911,
      "more": 1912,
      "ner": 1913,
      "now": 1914,
      "oto": 1915,
      "pants": 1916,
      "sil": 1917,
      "tan": 1918,
      "ue": 1919,
      "uy": 1920,
      "wick": 1921,
      "ano": 1922,
      "erb": 1923,
      "inger": 1924,
      "ilv": 1925,
      "onz": 1926,
      "dic": 1927,
      "Carey": 1928,
      "Caress": 1929,
      "omic": 1930,
      "ould": 1931,
      "Capture": 1932,
      "Preacher": 1933,
      "China": 1934,
      "2015": 1935,
      "Studi": 1936,
      "2007": 1937,
      "Rock": 1938,
      "ours": 1939,
      "1992": 1940,
      "shot": 1941,
      "inds": 1942,
      "Clark": 1943,
      "Pratighat": 1944,
      "Patrick": 1945,
      "Praktan": 1946,
      "Philip": 1947,
      "Underpants": 1948,
      "animated": 1949,
      "estiny": 1950,
      "Virgini": 1951,
      "Beggar": 1952,
      "Khyber": 1953,
      "silent": 1954,
      "Caresses": 1955,
      "Studios": 1956,
      "Pratighatana": 1957,
      "..": 1958,
      "820": 1959,
      "Bh": 1960,
      "Con": 1961,
      "Foot": 1962,
      "Jef": 1963,
      "Lion": 1964,
      "Pott": 1965,
      "Ray": 1966,
      "Reg": 1967,
      "Russ": 1968,
      "Sol": 1969,
      "Tar": 1970,
      "Ven": 1971,
      "Vac": 1972,
      "_1": 1973,
      "dh": 1974,
      "doc": 1975,
      "ied": 1976,
      "low": 1977,
      "oh": 1978,
      "o_B": 1979,
      "pi": 1980,
      "part": 1981,
      "woman": 1982,
      "za": 1983,
      "arou": 1984,
      "ink": 1985,
      "rey": 1986,
      "orig": 1987,
      "e_C": 1988,
      "e_N": 1989,
      "on_": 1990,
      "a_A": 1991,
      "a_L": 1992,
      "Car_D": 1993,
      "amp": 1994,
      "is_M": 1995,
      "atter": 1996,
      "ole": 1997,
      "ptember": 1998,
      "rak": 1999,
      "raham": 2000,
      "_Sav": 2001,
      "_Mabel": 2002,
      "lett": 2003,
      "ition": 2004,
      "_Balkan": 2005,
      "Captain_China": 2006,
      "_Roman": 2007,
      "Prep": 2008,
      "Prejudi": 2009,
      "s_Kid": 2010,
      "Bees": 2011,
      "iving": 2012,
      "ive_F": 2013,
      "Teacher": 2014,
      "illesp": 2015,
      "_Con": 2016,
      "iders": 2017,
      "_Ar": 2018,
      "odarou": 2019,
      "Premak": 2020,
      "Praj": 2021,
      "ange": 2022,
      "America": 2023,
      "_Fe": 2024,
      "ney_": 2025,
      "_Luck": 2026,
      "ument": 2027,
      "Carny_": 2028,
      "opodarou": 2029,
      "Cabez": 2030,
      "2009": 2031,
      "2005_film": 2032,
      "_of_Dream": 2033,
      "ian_St": 2034,
      "1984_film": 2035,
      "Raiders": 2036,
      "cial": 2037,
      "Camel": 2038,
      "production": 2039,
      "1972_film": 2040,
      "Eddie": 2041,
      "September": 2042,
      "005": 2043,
      "Adventure": 2044,
      "ukumar": 2045,
      "Dean": 2046,
      "Carry_On_Camping": 2047,
      "Carmen_Mir": 2048,
      "reaming": 2049,
      "Cabaret_Balkan": 2050,
      "Cars_2": 2051,
      "Pranay": 2052,
      "Powder_R": 2053,
      "Kenneth_Williams": 2054,
      "Cain_and_Mabel": 2055,
      "razil": 2056,
      "Carry_on_Jatta_3": 2057,
      "Carry_On_Up_the_Khyber": 2058,
      "Kannada": 2059,
      "e_Are": 2060,
      "Call_It_Luck": 2061,
      "Shirley_": 2062,
      "Practical_Jo": 2063,
      "Calcutta_71": 2064,
      "character": 2065,
      "Captain_Thunder_": 2066,
      "ardless": 2067,
      "Below_the_": 2068,
      "Jeff": 2069,
      "Car_Dogs": 2070,
      "atterjee": 2071,
      "s_Kid_": 2072,
      "illespie": 2073,
      "_of_Dreams": 2074,
      "Carmen_Miranda": 2075,
      "Practical_Jokers": 2076,
      "City": 2077,
      "Craz": 2078,
      "Fern": 2079,
      "Kumar": 2080,
      "Mau": 2081,
      "Mah": 2082,
      "Ned": 2083,
      "Post": 2084,
      "Papp": 2085,
      "Re": 2086,
      "Ruth": 2087,
      "Sun": 2088,
      "Wall": 2089,
      "Xmas": 2090,
      "cer": 2091,
      "creaming": 2092,
      "fi": 2093,
      "fict": 2094,
      "fred": 2095,
      "gra": 2096,
      "iev": 2097,
      "ja": 2098,
      "ky": 2099,
      "kok": 2100,
      "oby": 2101,
      "ron": 2102,
      "sopodarou": 2103,
      "van": 2104,
      "war": 2105,
      "water": 2106,
      "inem": 2107,
      "anni": 2108,
      "arrington": 2109,
      "Cach": 2110,
      "right": 2111,
      "enant": 2112,
      "idd": 2113,
      "Chris": 2114,
      "aksh": 2115,
      "Joe": 2116,
      "2016": 2117,
      "Mark": 2118,
      "angkok": 2119,
      "nie": 2120,
      "abhar": 2121,
      "rans": 2122,
      "apan": 2123,
      "California": 2124,
      "Cageman": 2125,
      "ugh": 2126,
      "rysopodarou": 2127,
      "Carlos": 2128,
      "rue": 2129,
      "Patri": 2130,
      "lanca": 2131,
      "perfor": 2132,
      "Martin": 2133,
      "ephen": 2134,
      "Emil": 2135,
      "Murray": 2136,
      "Herbert": 2137,
      "Sarah": 2138,
      "ouglas": 2139,
      "Doctor": 2140,
      "usbands": 2141,
      "document": 2142,
      "Crazy": 2143,
      "Pappan": 2144,
      "Caché": 2145,
      "enantion": 2146,
      "0s": 2147,
      "3F": 2148,
      "49": 2149,
      "56": 2150,
      "Barr": 2151,
      "Bhar": 2152,
      "Hay": 2153,
      "Ian": 2154,
      "Ka": 2155,
      "Kat": 2156,
      "Max": 2157,
      "Pen": 2158,
      "Ru": 2159,
      "Ral": 2160,
      "Rag": 2161,
      "Rick": 2162,
      "Sus": 2163,
      "Tamil": 2164,
      "Young": 2165,
      "_2": 2166,
      "_54": 2167,
      "_enantion": 2168,
      "bet": 2169,
      "brand": 2170,
      "comp": 2171,
      "edit": 2172,
      "font": 2173,
      "foot": 2174,
      "gar": 2175,
      "house": 2176,
      "i_C": 2177,
      "i_P": 2178,
      "i_K": 2179,
      "nes": 2180,
      "o_C": 2181,
      "rin": 2182,
      "anas_": 2183,
      "ers_": 2184,
      "eration": 2185,
      "ings": 2186,
      "oro": 2187,
      "ther": 2188,
      "on_B": 2189,
      "rik": 2190,
      "ris_": 2191,
      "ale_": 2192,
      "andran": 2193,
      "a_d": 2194,
      "Car_54": 2195,
      "am_B": 2196,
      "is_": 2197,
      "y_Xmas": 2198,
      "Cal_": 2199,
      "_Sha": 2200,
      "_Ston": 2201,
      "_Society_": 2202,
      "_Saal": 2203,
      "_Mart": 2204,
      "_Movie": 2205,
      "_Makes": 2206,
      "_Bh": 2207,
      "Amor_": 2208,
      "Captain_Janu": 2209,
      "Captain_Underpants": 2210,
      "_Ra": 2211,
      "_Roy": 2212,
      "_Reg": 2213,
      "s_Deadl": 2214,
      "s_Way": 2215,
      "s_005": 2216,
      "ova": 2217,
      "oven": 2218,
      "illai": 2219,
      "_Cop": 2220,
      "_Curs": 2221,
      "_Horn": 2222,
      "_Hrysopodarou": 2223,
      "_Husbands": 2224,
      "_the_R": 2225,
      "_Ag": 2226,
      "_A_F": 2227,
      "_Destiny": 2228,
      "_Pere": 2229,
      "ard_": 2230,
      "_Wher": 2231,
      "ella": 2232,
      "man_": 2233,
      "Marines": 2234,
      "_Land": 2235,
      "_Kelly": 2236,
      "orett": 2237,
      "orell": 2238,
      "ops": 2239,
      "State": 2240,
      "Carry_On_Reg": 2241,
      "cem": 2242,
      "apathi": 2243,
      "1987_film": 2244,
      "1988_film": 2245,
      "acre": 2246,
      "1949_film": 2247,
      "ichol": 2248,
      "Cafe_": 2249,
      "1936_film": 2250,
      "1990_film": 2251,
      "tonio": 2252,
      "law": 2253,
      "Inter": 2254,
      "qui": 2255,
      "Calling_the_": 2256,
      "1976_film": 2257,
      "ogov": 2258,
      "_Epic": 2259,
      "olly": 2260,
      "e_Force": 2261,
      "organ": 2262,
      "Lee": 2263,
      "uper": 2264,
      "Call_Me_Crazy": 2265,
      "Café_Society_": 2266,
      "ildare": 2267,
      "oster": 2268,
      "Call_of_the_Prairie": 2269,
      "ublic": 2270,
      "_and_P": 2271,
      "Carry_On_Teacher": 2272,
      "izabeth": 2273,
      "Elizabeth": 2274,
      "Cabin_Boy": 2275,
      "Calling_All_Curs": 2276,
      "Calling_All_Husbands": 2277,
      "1921_film": 2278,
      "Calendar_Girl_": 2279,
      "Calendar_Girls": 2280,
      "Power_Rangers_Tim": 2281,
      "Praktore": 2282,
      "German": 2283,
      "III": 2284,
      "Jones": 2285,
      "Sid_James": 2286,
      "s_of_the_": 2287,
      "upport": 2288,
      "Capri": 2289,
      "agarjun": 2290,
      "2021_film": 2291,
      "Calamity_Anne": 2292,
      "_The_First_Epic": 2293,
      "Cactus_Makes": 2294,
      "Claus": 2295,
      "Carry_on_Jatta_2": 2296,
      "Carry_On_Up_the_Jungle": 2297,
      "Captain_of_Destiny": 2298,
      "Before_the_Post": 2299,
      "ović": 2300,
      "_Henry": 2301,
      "Pour_la_": 2302,
      "Caribbean_Roman": 2303,
      "Juan": 2304,
      "Austr": 2305,
      "_Baad_": 2306,
      "_Bananas_": 2307,
      "_Perfect": 2308,
      "Angel": 2309,
      "y_Business": 2310,
      "_Robin": 2311,
      "is_My_Business": 2312,
      "Prejudice_": 2313,
      "Bees_Saal": 2314,
      "ive_Film": 2315,
      "e_Are_You": 2316,
      "fiction": 2317,
      "Caché_": 2318,
      "3F_": 2319,
      "Ralph": 2320,
      "_enantion_Hrysopodarou": 2321,
      "Amor_s": 2322,
      "Captain_January_": 2323,
      "s_Deadly_Xmas": 2324,
      "s_005_enantion_Hrysopodarou": 2325,
      "_A_Five_Film": 2326,
      "_Where_Are_You": 2327,
      "orelli": 2328,
      "Carry_On_Regardless": 2329,
      "Power_Rangers_Time_Force": 2330,
      "Praktores_005_enantion_Hrysopodarou": 2331,
      "_The_First_Epic_Movie": 2332,
      "Cactus_Makes_Perfect": 2333,
      "Before_the_Postman": 2334,
      "Caribbean_Romance": 2335,
      "_Bananas_is_My_Business": 2336,
      "Bees_Saal_Baad_": 2337,
      "Ag": 2338,
      "Carrington": 2339,
      "Fland": 2340,
      "Fox": 2341,
      "Jas": 2342,
      "Japan": 2343,
      "Kh": 2344,
      "Mon": 2345,
      "Mes": 2346,
      "Miss": 2347,
      "New": 2348,
      "Pad": 2349,
      "Sm": 2350,
      "Sal": 2351,
      "Sand": 2352,
      "Sud": 2353,
      "Smith": 2354,
      "Your": 2355,
      "blanca": 2356,
      "hard": 2357,
      "iy": 2358,
      "men": 2359,
      "med": 2360,
      "oo": 2361,
      "sol": 2362,
      "support": 2363,
      "ty": 2364,
      "ves": 2365,
      "erd": 2366,
      "ility": 2367,
      "this": 2368,
      "thro": 2369,
      "Cars": 2370,
      "Calet": 2371,
      "lej": 2372,
      "itter": 2373,
      "Amour": 2374,
      "Best": 2375,
      "Carrot": 2376,
      "utthro": 2377,
      "Joan": 2378,
      "wasde": 2379,
      "2010": 2380,
      "March": 2381,
      "Marsh": 2382,
      "orest": 2383,
      "Stra": 2384,
      "Stephen": 2385,
      "Allan": 2386,
      "quite": 2387,
      "release": 2388,
      "assa": 2389,
      "Beauties": 2390,
      "ocas": 2391,
      "Janet": 2392,
      "Cloud": 2393,
      "Island": 2394,
      "Andre": 2395,
      "Careless": 2396,
      "year": 2397,
      "racassa": 2398,
      "Prayikk": 2399,
      "Sawasde": 2400,
      "sequel": 2401,
      "premiered": 2402,
      "comedian": 2403,
      "ourself": 2404,
      "Prajapathi": 2405,
      "documentary": 2406,
      "International": 2407,
      "Mesquite": 2408,
      "Carrotblanca": 2409,
      "utthroats": 2410,
      "Clouds": 2411,
      "Mesquiteers": 2412,
      "30": 2413,
      "300": 2414,
      "5820": 2415,
      "600": 2416,
      "Bert": 2417,
      "Cind": 2418,
      "Cana": 2419,
      "Hatt": 2420,
      "Kev": 2421,
      "Love": 2422,
      "Mor": 2423,
      "Mac": 2424,
      "Nanc": 2425,
      "Or": 2426,
      "Su": 2427,
      "Sre": 2428,
      "VIII": 2429,
      "We": 2430,
      "bast": 2431,
      "des": 2432,
      "four": 2433,
      "fight": 2434,
      "jit": 2435,
      "light": 2436,
      "later": 2437,
      "o_F": 2438,
      "por": 2439,
      "ra_": 2440,
      "sub": 2441,
      "young": 2442,
      "iné": 2443,
      "inst": 2444,
      "erk": 2445,
      "rest": 2446,
      "orat": 2447,
      "or_N": 2448,
      "e_D": 2449,
      "riel": 2450,
      "eneration": 2451,
      "aled": 2452,
      "and_Robin": 2453,
      "asy": 2454,
      "ice_": 2455,
      "elyn": 2456,
      "a_C": 2457,
      "a_F": 2458,
      "a_de_": 2459,
      "Carp": 2460,
      "Caras_": 2461,
      "Car_9": 2462,
      "ami": 2463,
      "am_S": 2464,
      "in_Capri": 2465,
      "_Man": 2466,
      "_Mass": 2467,
      "_Miller": 2468,
      "_Movie_": 2469,
      "iro": 2470,
      "_Bo": 2471,
      "_Bocas": 2472,
      "Call_J": 2473,
      "Call_O": 2474,
      "_Re": 2475,
      "_Rock": 2476,
      "_Rome": 2477,
      "s_on_Par": 2478,
      "aya": 2479,
      "oway": 2480,
      "urnett": 2481,
      "illon": 2482,
      "agl": 2483,
      "_Gillespie": 2484,
      "_Generation": 2485,
      "aver": 2486,
      "avres": 2487,
      "_the_Marines": 2488,
      "_A_New": 2489,
      "_Des": 2490,
      "_Pot": 2491,
      "aka": 2492,
      "ut_the_Marines": 2493,
      "2013": 2494,
      "umber": 2495,
      "_North": 2496,
      "Andr": 2497,
      "hane": 2498,
      "Carry_On_Cle": 2499,
      "Carry_On_Ag": 2500,
      "Carry_On_Henry": 2501,
      "2006": 2502,
      "Roger": 2503,
      "o_V": 2504,
      "o_d": 2505,
      "ourtes": 2506,
      "1942": 2507,
      "1993_film": 2508,
      "i_and_Robin": 2509,
      "Cadavres": 2510,
      "Carol_I": 2511,
      "1950_film": 2512,
      "Carnival_Story": 2513,
      "Calling_Wild": 2514,
      "1974_film": 2515,
      "away": 2516,
      "Belins": 2517,
      "anner": 2518,
      "1963_film": 2519,
      "Call_Me_Claus": 2520,
      "Sebast": 2521,
      "_Young": 2522,
      "_Yourself": 2523,
      "a_Mo": 2524,
      "Call_of_the_Blood_": 2525,
      "ubi": 2526,
      "United": 2527,
      "Captains_of_the_": 2528,
      "Decem": 2529,
      "aje": 2530,
      "el_sol": 2531,
      "Clif": 2532,
      "e_Bangkok": 2533,
      "ara_Pappan": 2534,
      "Povert": 2535,
      "Calling_All_Mar": 2536,
      "Calendar_Girls_": 2537,
      "Calendar_Girl_Mur": 2538,
      "Prakash": 2539,
      "Jayabhar": 2540,
      "Care_Bears_Movie_": 2541,
      "Harry_": 2542,
      "s_Cutthroats": 2543,
      "s_of_Rome": 2544,
      "Carrie_Pil": 2545,
      "Cadet_Girl": 2546,
      "Cadet_Kelly": 2547,
      "Cadets_on_Par": 2548,
      "work": 2549,
      "Captain_Corelli": 2550,
      "Captain_Fracassa": 2551,
      "Call_Girls_of_Rome": 2552,
      "_Whoop": 2553,
      "Calm_Yourself": 2554,
      "agar_": 2555,
      "_Blu": 2556,
      "s_Mandol": 2557,
      "ous_Adventure": 2558,
      "Marvel": 2559,
      "Carnival_in_Cost": 2560,
      "Carnival_in_Fland": 2561,
      "Cardcaptor_Sakura": 2562,
      "Kannada_": 2563,
      "Lewis": 2564,
      "Pray_for": 2565,
      "Pray_TV": 2566,
      "Carry_On_Spy": 2567,
      "Carry_On_Screaming": 2568,
      "_Jones_": 2569,
      "a_Rica": 2570,
      "Prem_Nagar_": 2571,
      "Beauties_in_Capri": 2572,
      "ain_Doctor": 2573,
      "alongside": 2574,
      "South": 2575,
      "Lionel": 2576,
      "Cabeza_de_": 2577,
      "a_del_sol": 2578,
      "supporting": 2579,
      "Caleta_del_sol": 2580,
      "Amourous_Adventure": 2581,
      "Prayikkara_Pappan": 2582,
      "Sawasdee_Bangkok": 2583,
      "Canadian": 2584,
      "oratio": 2585,
      "Car_99": 2586,
      "Call_Jane": 2587,
      "Call_Out_the_Marines": 2588,
      "_A_New_Generation": 2589,
      "Carry_On_Cleo": 2590,
      "Carry_On_Again_Doctor": 2591,
      "Carol_I_": 2592,
      "Calling_Wild_Bill_Elliott": 2593,
      "Captains_of_the_Clouds": 2594,
      "December": 2595,
      "Calling_All_Marines": 2596,
      "Calendar_Girl_Murders": 2597,
      "Jayabharathi": 2598,
      "Care_Bears_Movie_II": 2599,
      "Carrie_Pilby_": 2600,
      "Cadets_on_Parade": 2601,
      "_Whoopi_and_Robin": 2602,
      "s_Mandolin_": 2603,
      "Carnival_in_Costa_Rica": 2604,
      "Carnival_in_Flanders_": 2605,
      "Pray_TV_": 2606,
      "Carry_On_Spying": 2607,
      "Cabeza_de_Vac": 2608,
      "Bry": 2609,
      "Cany": 2610,
      "Cycl": 2611,
      "Denn": 2612,
      "Ke": 2613,
      "Ll": 2614,
      "Mam": 2615,
      "Mail": 2616,
      "Oct": 2617,
      "Pal": 2618,
      "Pillai": 2619,
      "Rep": 2620,
      "Spe": 2621,
      "Sai": 2622,
      "Time": 2623,
      "XVIII": 2624,
      "Yuk": 2625,
      "Zero": 2626,
      "aan": 2627,
      "ban": 2628,
      "ble": 2629,
      "cont": 2630,
      "cats": 2631,
      "earl": 2632,
      "friend": 2633,
      "iç": 2634,
      "not": 2635,
      "oore": 2636,
      "tra": 2637,
      "time": 2638,
      "wan": 2639,
      "wen": 2640,
      "went": 2641,
      "ween": 2642,
      "yd": 2643,
      "yz": 2644,
      "án": 2645,
      "anar": 2646,
      "rev": 2647,
      "Caiç": 2648,
      "dia": 2649,
      "asc": 2650,
      "asak": 2651,
      "ata": 2652,
      "ature": 2653,
      "omin": 2654,
      "ose": 2655,
      "osed": 2656,
      "Predic": 2657,
      "Prefont": 2658,
      "Bett": 2659,
      "Beeth": 2660,
      "ived": 2661,
      "Carroll": 2662,
      "ular": 2663,
      "2012": 2664,
      "ote": 2665,
      "Cabob": 2666,
      "Sher": 2667,
      "Aless": 2668,
      "ucc": 2669,
      "1995": 2670,
      "obility": 2671,
      "ahto": 2672,
      "producer": 2673,
      "aine": 2674,
      "Campfield": 2675,
      "lanco": 2676,
      "Samuel": 2677,
      "Potato": 2678,
      "ancer": 2679,
      "Prathap": 2680,
      "worth": 2681,
      "Prassthanam": 2682,
      "Noah": 2683,
      "yster": 2684,
      "ystic": 2685,
      "Wildcats": 2686,
      "leader": 2687,
      "blower": 2688,
      "pplej": 2689,
      "Underwater": 2690,
      "appearance": 2691,
      "aiting": 2692,
      "777": 2693,
      "Casino": 2694,
      "Pratidwani": 2695,
      "wagger": 2696,
      "oulders": 2697,
      "indsor": 2698,
      "Footlight": 2699,
      "ukumaran": 2700,
      "certo": 2701,
      "between": 2702,
      "Marshall": 2703,
      "Straight": 2704,
      "Cinders": 2705,
      "ourtesy": 2706,
      "Canyon": 2707,
      "Cyclone": 2708,
      "Lloyd": 2709,
      "Predicam": 2710,
      "Beethoven": 2711,
      "Caboblanco": 2712,
      "pplejack": 2713,
      "Footlights": 2714,
      "!!": 2715,
      "),": 2716,
      "55": 2717,
      "Ac": 2718,
      "At": 2719,
      "Corn": 2720,
      "Den": 2721,
      "Gill": 2722,
      "Ham": 2723,
      "Jag": 2724,
      "Jason": 2725,
      "Larr": 2726,
      "Mil": 2727,
      "Mat": 2728,
      "Nicol": 2729,
      "Rames": 2730,
      "Rustlers": 2731,
      "Sing": 2732,
      "Son": 2733,
      "Set": 2734,
      "Sak": 2735,
      "Sco": 2736,
      "Serg": 2737,
      "_Call": 2738,
      "_a_D": 2739,
      "bar": 2740,
      "bef": 2741,
      "cer_": 2742,
      "creen": 2743,
      "du": 2744,
      "eing": 2745,
      "eek": 2746,
      "fant": 2747,
      "famil": 2748,
      "ge_": 2749,
      "gend": 2750,
      "i_F": 2751,
      "kan": 2752,
      "kins": 2753,
      "my": 2754,
      "mund": 2755,
      "nold": 2756,
      "ook": 2757,
      "par": 2758,
      "ple": 2759,
      "phy": 2760,
      "ras": 2761,
      "ranger": 2762,
      "su": 2763,
      "sci": 2764,
      "u_S": 2765,
      "uori": 2766,
      "von": 2767,
      "way_": 2768,
      "yer": 2769,
      "érit": 2770,
      "ar_Sh": 2771,
      "inchi": 2772,
      "Cats": 2773,
      "rie": 2774,
      "riff": 2775,
      "alu": 2776,
      "alis": 2777,
      "al_S": 2778,
      "alek": 2779,
      "and_the_": 2780,
      "and_N": 2781,
      "andro": 2782,
      "edd": 2783,
      "ed_R": 2784,
      "ics": 2785,
      "a_Ch": 2786,
      "ame_": 2787,
      "at_You": 2788,
      "y_and_N": 2789,
      "Cala": 2790,
      "Calven": 2791,
      "oldb": 2792,
      "_Set": 2793,
      "_Soft": 2794,
      "_Sam_B": 2795,
      "_Mystic": 2796,
      "uns": 2797,
      "lez": 2798,
      "ird": 2799,
      "iran": 2800,
      "ircu": 2801,
      "adam_": 2802,
      "Captain_Ron": 2803,
      "Captain_Careless": 2804,
      "Call_the_": 2805,
      "Call_of": 2806,
      "Call_North": 2807,
      "chin": 2808,
      "chise": 2809,
      "over": 2810,
      "_Carr": 2811,
      "_Cor": 2812,
      "_City": 2813,
      "_Connor": 2814,
      "ids": 2815,
      "_Gl": 2816,
      "_Go_": 2817,
      "et_M": 2818,
      "etrop": 2819,
      "ionati": 2820,
      "_Hu": 2821,
      "_Hay": 2822,
      "_Hill": 2823,
      "_the_Gu": 2824,
      "_the_Wildcats": 2825,
      "_the_Footlights": 2826,
      "_Asta": 2827,
      "ode": 2828,
      "_Der": 2829,
      "Chuck": 2830,
      "Chris_": 2831,
      "_Pati": 2832,
      "_Wish": 2833,
      "_Waiting": 2834,
      "Prem_Mhanje_Prem": 2835,
      "uti": 2836,
      "ution": 2837,
      "ello": 2838,
      "2014": 2839,
      "2017": 2840,
      "2014_film": 2841,
      "_For_": 2842,
      "_Fire": 2843,
      "_Force": 2844,
      "haar": 2845,
      "_Khar": 2846,
      "_Kumar": 2847,
      "_Kids": 2848,
      "abh": 2849,
      "_Name_": 2850,
      "Antonio": 2851,
      "Carry_On_Jatt": 2852,
      "Carry_On_Jack": 2853,
      "2008": 2854,
      "ceived": 2855,
      "_Jr": 2856,
      "o_T": 2857,
      "o_and_the_": 2858,
      "emo_and_the_": 2859,
      "John_L": 2860,
      "1943": 2861,
      "ika": 2862,
      "Carol_": 2863,
      "Power_": 2864,
      "indows": 2865,
      "lair": 2866,
      "Cage_of": 2867,
      "Carnival_Rock": 2868,
      "atti": 2869,
      "oyle": 2870,
      "_of_the_Night": 2871,
      "resslaw": 2872,
      "e_Fl": 2873,
      "assionati": 2874,
      "Robert_D": 2875,
      "Lee_": 2876,
      "Captivity_": 2877,
      "_Shoulders": 2878,
      "being": 2879,
      "Call_Me_by_": 2880,
      "Carma_": 2881,
      "others": 2882,
      "ild_Woman": 2883,
      "Call_of_the_Canyon": 2884,
      "_and_the_S": 2885,
      "Cardfight": 2886,
      "Jane_and": 2887,
      "_I_Love_": 2888,
      "anguard": 2889,
      "hya": 2890,
      "Before_You": 2891,
      "Carnival_Queen": 2892,
      "Elis": 2893,
      "played": 2894,
      "Power_Rangers": 2895,
      "Cabaret_Paradis": 2896,
      "e_Girl": 2897,
      "Behind_Cl": 2898,
      "Behind_the_Footlights": 2899,
      "e_Bear_Sh": 2900,
      "1927_film": 2901,
      "Cain_XVIII": 2902,
      "Prancer_": 2903,
      "_Love": 2904,
      "Careful_Wh": 2905,
      "Powder_Blu": 2906,
      "Kenneth_Connor": 2907,
      "Captive_State": 2908,
      "Captain_Courtesy": 2909,
      "Captain_Nemo_and_the_": 2910,
      "Carbon_Cop": 2911,
      "ppassionati": 2912,
      "Calamity_Jane_and": 2913,
      "Career_Woman": 2914,
      "Claud": 2915,
      "Cabin_Fever": 2916,
      "5400": 2917,
      "Columb": 2918,
      "eedu": 2919,
      "Among_the_Cinders": 2920,
      "Henr": 2921,
      "years": 2922,
      "ountain": 2923,
      "Pournami_": 2924,
      "Call_It_a_D": 2925,
      "Carson_City_Cyclone": 2926,
      "arrymore": 2927,
      "Captain_Swagger": 2928,
      "Captain_of_the_Gu": 2929,
      "ent_Zero": 2930,
      "Before_the_World": 2931,
      "Pound_": 2932,
      "_Mhanje_Prem_Asta": 2933,
      "Cadence_": 2934,
      "Captive_Wild_Woman": 2935,
      "_Shutters": 2936,
      "Captain_Applejack": 2937,
      "Captain_Horatio": 2938,
      "Captain_Kidd_and_the_S": 2939,
      "Call_Me_Madam_": 2940,
      "_Share_Bear_Sh": 2941,
      "Simon": 2942,
      "lave_Girl": 2943,
      "_on_Fire": 2944,
      "moke": 2945,
      "_Heroes": 2946,
      "Careless_Lady": 2947,
      "side_777": 2948,
      "Francis": 2949,
      "_Concerto": 2950,
      "_Royale_": 2951,
      "_Hornblower": 2952,
      "Carrington_": 2953,
      "Your_Name_": 2954,
      "Beauties_of_the_Night": 2955,
      "_Potahto": 2956,
      "André": 2957,
      "Belinsky_": 2958,
      "Poverty_and_N": 2959,
      "Pray_for_the_Wildcats": 2960,
      "Cabeza_de_Vaca_": 2961,
      "Caiçara_": 2962,
      "osed_Shutters": 2963,
      "Potato_Potahto": 2964,
      "Underwater_City": 2965,
      "Casino_Royale_": 2966,
      "Predicament_": 2967,
      "Beethoven_Concerto": 2968,
      "Ramesh": 2969,
      "before": 2970,
      "fantasy": 2971,
      "family": 2972,
      "at_You_Wish": 2973,
      "Calvento": 2974,
      "_Set_on_Fire": 2975,
      "_Soft_Shoulders": 2976,
      "_Sam_Bass": 2977,
      "_Mystic_Force": 2978,
      "ircuit": 2979,
      "Call_the_Mesquiteers": 2980,
      "Call_of_Heroes": 2981,
      "Call_Northside_777": 2982,
      "_Patient_Zero": 2983,
      "Prem_Mhanje_Prem_Mhanje_Prem_Asta": 2984,
      "Carry_On_Jatta": 2985,
      "Cage_of_Gold": 2986,
      "Call_Me_by_Your_Name_": 2987,
      "_I_Love_You": 2988,
      "Before_You_Go_": 2989,
      "Carnival_Queen_": 2990,
      "Power_Rangers_Mystic_Force": 2991,
      "Behind_Closed_Shutters": 2992,
      "Careful_What_You_Wish": 2993,
      "Powder_Blue_": 2994,
      "Captain_Nemo_and_the_Underwater_City": 2995,
      "Carbon_Copy_": 2996,
      "Calamity_Jane_and_Sam_Bass": 2997,
      "Career_Woman_": 2998,
      "Call_It_a_Day": 2999,
      "Captain_of_the_Guard_": 3000,
      "Before_the_World_Set_on_Fire": 3001,
      "Captain_Horatio_Hornblower": 3002,
      "Captain_Kidd_and_the_Slave_Girl": 3003,
      "_Share_Bear_Shines": 3004,
      "Beauties_of_the_Night_": 3005,
      "Poverty_and_Nobility": 3006,
      "Careful_What_You_Wish_For_": 3007,
      "31": 3008,
      "Bw": 3009,
      "Ban": 3010,
      "Cand": 3011,
      "Douglas": 3012,
      "EO": 3013,
      "Elliott": 3014,
      "Gh": 3015,
      "Gar": 3016,
      "Ir": 3017,
      "Lor": 3018,
      "Mont": 3019,
      "Pich": 3020,
      "Pupp": 3021,
      "Rod": 3022,
      "Roman": 3023,
      "Sukumaran": 3024,
      "Vol": 3025,
      "Vern": 3026,
      "Vij": 3027,
      "Will": 3028,
      "Windsor": 3029,
      "da": 3030,
      "fran": 3031,
      "ju": 3032,
      "port": 3033,
      "pocket": 3034,
      "sut": 3035,
      "tain": 3036,
      "vill": 3037,
      "wok": 3038,
      "waas": 3039,
      "ález": 3040,
      "anish": 3041,
      "starr": 3042,
      "stiné": 3043,
      "oran": 3044,
      "oruss": 3045,
      "onition": 3046,
      "cted": 3047,
      "riv": 3048,
      "alay": 3049,
      "icycl": 3050,
      "elop": 3051,
      "tertain": 3052,
      "unhouse": 3053,
      "let": 3054,
      "Amor": 3055,
      "chissim": 3056,
      "Beau": 3057,
      "Beach": 3058,
      "ayl": 3059,
      "illa": 3060,
      "agic": 3061,
      "avy": 3062,
      "avan": 3063,
      "Carried": 3064,
      "odu": 3065,
      "usical": 3066,
      "Chan": 3067,
      "Chiran": 3068,
      "tock": 3069,
      "Premsut": 3070,
      "Premonition": 3071,
      "Prayan": 3072,
      "Prawaas": 3073,
      "Johan": 3074,
      "Joaqu": 3075,
      "entury": 3076,
      "Marí": 3077,
      "Americath": 3078,
      "rank": 3079,
      "itha": 3080,
      "Allen": 3081,
      "Alfred": 3082,
      "1935": 3083,
      "antast": 3084,
      "1993": 3085,
      "ikumar": 3086,
      "obstiné": 3087,
      "1950": 3088,
      "1958": 3089,
      "romance": 3090,
      "ollu": 3091,
      "Believ": 3092,
      "Beloruss": 3093,
      "pewriter": 3094,
      "ickpocket": 3095,
      "Legend": 3096,
      "Geeth": 3097,
      "Seeing": 3098,
      "omanto": 3099,
      "clar": 3100,
      "ized": 3101,
      "Bellman": 3102,
      "Potomanto": 3103,
      "encer": 3104,
      "otty": 3105,
      "Jayas": 3106,
      "irebrand": 3107,
      "Juli": 3108,
      "ravind": 3109,
      "glish": 3110,
      "angalu": 3111,
      "Andrew": 3112,
      "Jacob": 3113,
      "Spanish": 3114,
      "escue": 3115,
      "Lightspe": 3116,
      "Lightfoot": 3117,
      "tesoro": 3118,
      "orses": 3119,
      "mootty": 3120,
      "Precious": 3121,
      "Babu": 3122,
      "Gabriel": 3123,
      "Beefc": 3124,
      "Vincent": 3125,
      "November": 3126,
      "Direct": 3127,
      "nowled": 3128,
      "onzález": 3129,
      "Raymond": 3130,
      "Russell": 3131,
      "Tarangalu": 3132,
      "Fernando": 3133,
      "Carpool": 3134,
      "Mammootty": 3135,
      "Republic": 3136,
      "Scooby": 3137,
      "unsmoke": 3138,
      "etropole": 3139,
      "Elisabeth": 3140,
      "Columbia": 3141,
      "Bwana": 3142,
      "Pichollu": 3143,
      "Vernon": 3144,
      "franchise": 3145,
      "icycles": 3146,
      "chissimi": 3147,
      "Chiranje": 3148,
      "Premsutra": 3149,
      "Americathon": 3150,
      "antastic": 3151,
      "obstinées": 3152,
      "52": 3153,
      "Af": 3154,
      "Ay": 3155,
      "Apr": 3156,
      "Baz": 3157,
      "Cesar": 3158,
      "Dis": 3159,
      "Dann": 3160,
      "Ey": 3161,
      "Est": 3162,
      "Exp": 3163,
      "Forest": 3164,
      "Gordon": 3165,
      "Ha": 3166,
      "Les": 3167,
      "Lag": 3168,
      "Lind": 3169,
      "Mass": 3170,
      "Nam": 3171,
      "Nag": 3172,
      "Nick": 3173,
      "Nichol": 3174,
      "Per": 3175,
      "Rav": 3176,
      "Sw": 3177,
      "Ty": 3178,
      "Tug": 3179,
      "_d": 3180,
      "_o": 3181,
      "_John": 3182,
      "_In": 3183,
      "_with": 3184,
      "_Up": 3185,
      "_or_N": 3186,
      "bol": 3187,
      "back": 3188,
      "both": 3189,
      "bro": 3190,
      "burn": 3191,
      "came": 3192,
      "day": 3193,
      "eu": 3194,
      "fl": 3195,
      "hav": 3196,
      "i_A": 3197,
      "kon": 3198,
      "ke_S": 3199,
      "le_M": 3200,
      "love": 3201,
      "main": 3202,
      "ober": 3203,
      "oes_": 3204,
      "pal": 3205,
      "pit": 3206,
      "pach": 3207,
      "te_": 3208,
      "tell": 3209,
      "trans": 3210,
      "won": 3211,
      "ér": 3212,
      "ario": 3213,
      "inod": 3214,
      "arren": 3215,
      "received": 3216,
      "ork": 3217,
      "oris": 3218,
      "ory_": 3219,
      "filmed": 3220,
      "e_It": 3221,
      "thy": 3222,
      "andh": 3223,
      "and_Jack": 3224,
      "asan": 3225,
      "aska": 3226,
      "ela": 3227,
      "a_T": 3228,
      "Car_Babes": 3229,
      "iss_": 3230,
      "ator_": 3231,
      "ative": 3232,
      "y_T": 3233,
      "olution": 3234,
      "they": 3235,
      "theat": 3236,
      "_Soul": 3237,
      "_My_D": 3238,
      "ito_": 3239,
      "adhy": 3240,
      "_Ben": 3241,
      "_Big": 3242,
      "Captain_Eddie": 3243,
      "Captain_Lightfoot": 3244,
      "cher": 3245,
      "s_Island": 3246,
      "iva_": 3247,
      "ow_W": 3248,
      "illand": 3249,
      "_Circuit": 3250,
      "ida": 3251,
      "_Gran": 3252,
      "_Ham": 3253,
      "_Horses": 3254,
      "_the_Cats": 3255,
      "_As": 3256,
      "_Ahe": 3257,
      "_Away_": 3258,
      "_Appassionati": 3259,
      "_Dumb": 3260,
      "_Dancer": 3261,
      "_Paw": 3262,
      "_Park": 3263,
      "_Pupp": 3264,
      "_Pickpocket": 3265,
      "ents": 3266,
      "Mary": 3267,
      "Mary_": 3268,
      "_Fle": 3269,
      "_Festival": 3270,
      "_Father": 3271,
      "_Files": 3272,
      "_Knowled": 3273,
      "ress_": 3274,
      "_Nag": 3275,
      "opadhy": 3276,
      "Anup": 3277,
      "Cabiri": 3278,
      "Cab_Call": 3279,
      "Step": 3280,
      "Stewart": 3281,
      "Carry_On_Pickpocket": 3282,
      "2002": 3283,
      "_of_Big": 3284,
      "_Thorn": 3285,
      "_The_G": 3286,
      "Roy": 3287,
      "ithout": 3288,
      "ighter": 3289,
      "Shr": 3290,
      "1986": 3291,
      "ies_and_the_": 3292,
      "1944_film": 3293,
      "ichele": 3294,
      "1936": 3295,
      "1937_film": 3296,
      "1996": 3297,
      "1998_film": 3298,
      "er_Camp": 3299,
      "California_Joe_": 3300,
      "California_Gold": 3301,
      "California_Mail": 3302,
      "California_Straight": 3303,
      "last": 3304,
      "Carnival_Bo": 3305,
      "_Ed": 3306,
      "hero": 3307,
      "_Style": 3308,
      "Dave_": 3309,
      "_True": 3310,
      "1965_film": 3311,
      "_Show_W": 3312,
      "aine_": 3313,
      "_Vanguard": 3314,
      "Call_Me_Elisabeth": 3315,
      "Call_Me_Bwana": 3316,
      "_Oops": 3317,
      "a_Mail": 3318,
      "Call_of_the_Rock": 3319,
      "_and_True": 3320,
      "Caged_He": 3321,
      "renc": 3322,
      "Camp_Bl": 3323,
      "Georges": 3324,
      "Captains_C": 3325,
      "es_obstinées": 3326,
      "Prairie_G": 3327,
      "Carmen_Jones_": 3328,
      "_Chatterjee": 3329,
      "Cabaret_Dancer": 3330,
      "Behind_Show_W": 3331,
      "Caravagg": 3332,
      "Calling_All_Kids": 3333,
      "Bene": 3334,
      "1925_film": 3335,
      "Power_Rangers_Lightspe": 3336,
      "Pot_o": 3337,
      "e_of_the_Cats": 3338,
      "hu_": 3339,
      "Prema_Tarangalu": 3340,
      "Prema_Pichollu": 3341,
      "Barney_": 3342,
      "Cake": 3343,
      "ances": 3344,
      "y_Mountain": 3345,
      "peri": 3346,
      "_The_Musical": 3347,
      "Julie_": 3348,
      "_Gold_": 3349,
      "Prairie_Rustlers": 3350,
      "Aleks": 3351,
      "y_Does_": 3352,
      "idnight_": 3353,
      "Mohan": 3354,
      "Capul": 3355,
      "Caprice_": 3356,
      "Calcutta_Mail": 3357,
      "Italian_Style": 3358,
      "reeman": 3359,
      "Captain_Fantastic": 3360,
      "Cairo_Time": 3361,
      "Be_Beautiful_But": 3362,
      "Be_Seeing": 3363,
      "_Cast": 3364,
      "Calmi_C": 3365,
      "Calm_with": 3366,
      "_Babu": 3367,
      "urtis": 3368,
      "Caroline_and_Jack": 3369,
      "black": 3370,
      "Ross": 3371,
      "s_My_F": 3372,
      "s_Myster": 3373,
      "Abb": 3374,
      "y_Funhouse": 3375,
      "Among_the_Miss": 3376,
      "follow": 3377,
      "Caligula": 3378,
      "al_tesoro": 3379,
      "Amma_Pillai": 3380,
      "_Jones": 3381,
      "Hugh": 3382,
      "Derek": 3383,
      "oviet": 3384,
      "Pour_le_M": 3385,
      "Glor": 3386,
      "Pound_Pupp": 3387,
      "Prem_Nazir": 3388,
      "Anthony": 3389,
      "Anthony_": 3390,
      "Beauties_on_B": 3391,
      "Doroth": 3392,
      "Luis": 3393,
      "Being_Hu": 3394,
      "Cadences_obstinées": 3395,
      "Caravans_": 3396,
      "Because_He": 3397,
      "Because_of_the_Cats": 3398,
      "Carnal_Circuit": 3399,
      "Carnal_Knowled": 3400,
      "Captive_Women": 3401,
      "_Shut_Up": 3402,
      "zzi": 3403,
      "Predator_": 3404,
      "Precious_": 3405,
      "iver_R": 3406,
      "Beautiful_But_Dumb": 3407,
      "Cardinals_": 3408,
      "Pranam_Khar": 3409,
      "ourageous_": 3410,
      "_a_Kiss_": 3411,
      "s_Summ": 3412,
      "Captain_Midnight_": 3413,
      "Premium_": 3414,
      "California_Dreamin": 3415,
      "Carnival_of_Soul": 3416,
      "Beloved_": 3417,
      "Prelude_to_a_Kiss_": 3418,
      "Poveri_ma_ricchissimi": 3419,
      "Dinesh": 3420,
      "prison": 3421,
      "ergeant": 3422,
      "én_": 3423,
      "_Rush_": 3424,
      "Cafe_Metropole": 3425,
      "California_Firebrand": 3426,
      "Behind_the_Screen": 3427,
      "adaptation": 3428,
      "Caccia_al_tesoro": 3429,
      "_Savage": 3430,
      "iving_Festival": 3431,
      "ian_Station": 3432,
      "Australian": 3433,
      "Japanese": 3434,
      "Suhas": 3435,
      "_Massacre": 3436,
      "aglami": 3437,
      "wenty": 3438,
      "yzma": 3439,
      "Prefontaine_": 3440,
      "science": 3441,
      "uori_Appassionati": 3442,
      "érite_": 3443,
      "ed_Rescue": 3444,
      "Calvento_Files": 3445,
      "Candy_Mountain": 3446,
      "Volkon": 3447,
      "Beau_Pere": 3448,
      "Carried_Away_": 3449,
      "Premonition_": 3450,
      "Prayanam_": 3451,
      "Believe_It": 3452,
      "Belorussian_Station": 3453,
      "Legend_of_Big": 3454,
      "Bellman_and_True": 3455,
      "Beefcake_": 3456,
      "Carpool_": 3457,
      "Chiranjeevi": 3458,
      "April": 3459,
      "Disney": 3460,
      "Express": 3461,
      "_or_Not_": 3462,
      "pache": 3463,
      "_My_Dog": 3464,
      "_Ahead_": 3465,
      "opadhyay": 3466,
      "Cabiria": 3467,
      "Cab_Calloway": 3468,
      "_The_Giving_Festival": 3469,
      "ies_and_the_Legend_of_Big": 3470,
      "er_Camp_Massacre": 3471,
      "California_Gold_Rush_": 3472,
      "California_Straight_Ahead_": 3473,
      "Carnival_Boat": 3474,
      "_Oopsy_Does_": 3475,
      "Call_of_the_Rockies_": 3476,
      "Caged_Heat": 3477,
      "Camp_Blood": 3478,
      "Captains_Courageous_": 3479,
      "Prairie_Gunsmoke": 3480,
      "Behind_Show_Windows": 3481,
      "Caravaggio": 3482,
      "Power_Rangers_Lightspeed_Rescue": 3483,
      "Barney_Bear": 3484,
      "Aleksandr": 3485,
      "Caprice_Italian_Style": 3486,
      "Captain_Fantastic_": 3487,
      "Be_Beautiful_But_Shut_Up": 3488,
      "Be_Seeing_You": 3489,
      "Calmi_Cuori_Appassionati": 3490,
      "Calm_with_Horses": 3491,
      "Caroline_and_Jackie": 3492,
      "s_My_Friend": 3493,
      "s_Mystery_Funhouse": 3494,
      "Among_the_Missing_": 3495,
      "Pour_le_Mérite_": 3496,
      "Pound_Puppies_and_the_Legend_of_Big": 3497,
      "Beauties_on_Bicycles": 3498,
      "Being_Human_": 3499,
      "Carnal_Knowledge_": 3500,
      "Predator_2": 3501,
      "Pranam_Khareedu": 3502,
      "s_Summer_Camp_Massacre": 3503,
      "Carnival_of_Souls_": 3504,
      "Volkonogov": 3505,
      "Believe_It_or_Not_": 3506,
      "_Oopsy_Does_It": 3507,
      "Pound_Puppies_and_the_Legend_of_Big_Paw": 3508,
      "10": 3509,
      "45": 3510,
      "Cec": 3511,
      "Connor": 3512,
      "Ele": 3513,
      "Hu": 3514,
      "Ice": 3515,
      "Ish": 3516,
      "Kath": 3517,
      "Ly": 3518,
      "Mir": 3519,
      "Movie": 3520,
      "Pass": 3521,
      "Puth": 3522,
      "Poz": 3523,
      "Rangers": 3524,
      "Sor": 3525,
      "Silv": 3526,
      "Soviet": 3527,
      "Viv": 3528,
      "ael": 3529,
      "bau": 3530,
      "banner": 3531,
      "cant": 3532,
      "final": 3533,
      "ko": 3534,
      "kumar": 3535,
      "loc": 3536,
      "luch": 3537,
      "mark": 3538,
      "muv": 3539,
      "maled": 3540,
      "nubi": 3541,
      "oob": 3542,
      "ooth": 3543,
      "ront": 3544,
      "sy": 3545,
      "super": 3546,
      "uh": 3547,
      "ui": 3548,
      "ual": 3549,
      "uom": 3550,
      "vs": 3551,
      "xanar": 3552,
      "inama": 3553,
      "inald": 3554,
      "dboard": 3555,
      "anj": 3556,
      "arrett": 3557,
      "rep": 3558,
      "rell": 3559,
      "orne": 3560,
      "eni": 3561,
      "enon": 3562,
      "edown": 3563,
      "ashan": 3564,
      "Carni": 3565,
      "Carandi": 3566,
      "Cardboard": 3567,
      "amash": 3568,
      "Calim": 3569,
      "Capturing": 3570,
      "Thomp": 3571,
      "legg": 3572,
      "adorn": 3573,
      "Amst": 3574,
      "Amru": 3575,
      "Ammuv": 3576,
      "chez": 3577,
      "Preach": 3578,
      "Pregg": 3579,
      "Bears": 3580,
      "ivel": 3581,
      "urric": 3582,
      "agn": 3583,
      "again": 3584,
      "idan": 3585,
      "etz": 3586,
      "odd": 3587,
      "Char": 3588,
      "Choir": 3589,
      "ardo": 3590,
      "aker": 3591,
      "Premedit": 3592,
      "Preminchi": 3593,
      "Premalek": 3594,
      "Premabh": 3595,
      "Prahaar": 3596,
      "2011": 3597,
      "2018": 3598,
      "form": 3599,
      "Mara": 3600,
      "Marg": 3601,
      "Marco": 3602,
      "Carnav": 3603,
      "Carnivel": 3604,
      "song": 3605,
      "aped": 3606,
      "1980": 3607,
      "Alb": 3608,
      "eming": 3609,
      "1932": 3610,
      "1934": 3611,
      "1990": 3612,
      "1999": 3613,
      "ikos": 3614,
      "acklin": 3615,
      "Carolyn": 3616,
      "epp": 3617,
      "Cagef": 3618,
      "ishek": 3619,
      "ugust": 3620,
      "ugadu": 3621,
      "asham": 3622,
      "atty": 3623,
      "1978": 3624,
      "achra": 3625,
      "ollide": 3626,
      "plage": 3627,
      "Edgar": 3628,
      "1963": 3629,
      "been": 3630,
      "oodu": 3631,
      "Sean": 3632,
      "ostess": 3633,
      "scaped": 3634,
      "ubb": 3635,
      "Unadorn": 3636,
      "ynch": 3637,
      "ibandh": 3638,
      "Pourasham": 3639,
      "ruz": 3640,
      "Pratibandh": 3641,
      "Rajinama": 3642,
      "boat": 3643,
      "Benazir": 3644,
      "Potters": 3645,
      "Potugadu": 3646,
      "etto": 3647,
      "Harry": 3648,
      "randma": 3649,
      "oxer": 3650,
      "ouls": 3651,
      "umbher": 3652,
      "Abu": 3653,
      "riday": 3654,
      "ucho": 3655,
      "team": 3656,
      "Spencer": 3657,
      "appearances": 3658,
      "Ashok": 3659,
      "nań": 3660,
      "Hugo": 3661,
      "Walter": 3662,
      "including": 3663,
      "Awards": 3664,
      "arshini": 3665,
      "Shakedown": 3666,
      "ujari": 3667,
      "Premasooth": 3668,
      "unicula": 3669,
      "asseter": 3670,
      "Ellen": 3671,
      "Produc": 3672,
      "omicide": 3673,
      "Reginald": 3674,
      "Sunil": 3675,
      "Ruins": 3676,
      "Yukon": 3677,
      "ánchez": 3678,
      "riffith": 3679,
      "chinos": 3680,
      "starred": 3681,
      "Bazoob": 3682,
      "Tugboat": 3683,
      "pittore": 3684,
      "tells": 3685,
      "Passage": 3686,
      "Poznań": 3687,
      "lucha": 3688,
      "maledetto": 3689,
      "Carandiru": 3690,
      "Calimucho": 3691,
      "Thompson": 3692,
      "Amruth": 3693,
      "Ammuvag": 3694,
      "Preggoland": 3695,
      "urricane": 3696,
      "against": 3697,
      "Premeditated": 3698,
      "Premabhishek": 3699,
      "Cagefighter": 3700,
      "Unadorned": 3701,
      "Premasoothram": 3702,
      "Bazooband": 3703,
      "39": 3704,
      "3D": 3705,
      "51": 3706,
      "6300": 3707,
      "800": 3708,
      "Av": 3709,
      "Ari": 3710,
      "BC": 3711,
      "Brazil": 3712,
      "Century": 3713,
      "Eth": 3714,
      "Fa": 3715,
      "Fel": 3716,
      "Han": 3717,
      "Hung": 3718,
      "Hawtre": 3719,
      "Jay_": 3720,
      "Kent": 3721,
      "Karl": 3722,
      "Kiss": 3723,
      "Krist": 3724,
      "Khan_": 3725,
      "La": 3726,
      "Lo": 3727,
      "Law": 3728,
      "Lorett": 3729,
      "Mort": 3730,
      "Michel": 3731,
      "Nanni": 3732,
      "Owen": 3733,
      "Row": 3734,
      "Roll": 3735,
      "Range": 3736,
      "Sen": 3737,
      "Sat": 3738,
      "Tob": 3739,
      "Terr": 3740,
      "_il_": 3741,
      "_Prem_P": 3742,
      "_maledetto": 3743,
      "aad": 3744,
      "ba": 3745,
      "bb": 3746,
      "bola": 3747,
      "cies": 3748,
      "cons": 3749,
      "cinem": 3750,
      "de_Fl": 3751,
      "gi": 3752,
      "key": 3753,
      "mi": 3754,
      "mil": 3755,
      "napp": 3756,
      "path": 3757,
      "ros": 3758,
      "run": 3759,
      "sal": 3760,
      "sson": 3761,
      "su_": 3762,
      "sever": 3763,
      "try": 3764,
      "uart": 3765,
      "ving": 3766,
      "vers": 3767,
      "way": 3768,
      "yab": 3769,
      "zi": 3770,
      "arg": 3771,
      "iner": 3772,
      "ina_Mo": 3773,
      "anam": 3774,
      "an_J": 3775,
      "anini": 3776,
      "er_Savage": 3777,
      "il_V": 3778,
      "or_B": 3779,
      "filmmak": 3780,
      "e_Par": 3781,
      "e_a_H": 3782,
      "e_nubi": 3783,
      "three": 3784,
      "rich": 3785,
      "aly": 3786,
      "edle": 3787,
      "edy_G": 3788,
      "as_B": 3789,
      "icola": 3790,
      "elson": 3791,
      "a_qui": 3792,
      "Carla": 3793,
      "Caro_M": 3794,
      "ishan": 3795,
      "y_Ch": 3796,
      "om_": 3797,
      "omes": 3798,
      "raj": 3799,
      "radh": 3800,
      "_Sp": 3801,
      "_Sun": 3802,
      "_Sund": 3803,
      "_Sergeant": 3804,
      "osm": 3805,
      "_Mor": 3806,
      "_Mah": 3807,
      "_Mary": 3808,
      "_Magic": 3809,
      "unit": 3810,
      "ite_": 3811,
      "ade_": 3812,
      "adha": 3813,
      "_Ber": 3814,
      "_Band": 3815,
      "_Boxer": 3816,
      "Captain_from": 3817,
      "Captain_Carey": 3818,
      "Captain_EO": 3819,
      "Captain_Volkonogov": 3820,
      "Captain_Khan_": 3821,
      "Call_H": 3822,
      "Calle_M": 3823,
      "ttack": 3824,
      "chn": 3825,
      "_Rog": 3826,
      "s_Hol": 3827,
      "Bees_": 3828,
      "aye": 3829,
      "ayor_": 3830,
      "ivan": 3831,
      "ivers": 3832,
      "illa_": 3833,
      "_Cut": 3834,
      "_Crime": 3835,
      "_Courage": 3836,
      "agni": 3837,
      "iday_": 3838,
      "_Gordon": 3839,
      "_Grandma": 3840,
      "Theod": 3841,
      "_Han": 3842,
      "_Homicide": 3843,
      "_the_Choir": 3844,
      "_Axanar": 3845,
      "_Attack": 3846,
      "_Dev": 3847,
      "_Dyzma": 3848,
      "_Dachra": 3849,
      "_Pa": 3850,
      "_Pr": 3851,
      "_Pol": 3852,
      "to_the_Choir": 3853,
      "_World": 3854,
      "_Wake_": 3855,
      "ake": 3856,
      "Premam": 3857,
      "Premature": 3858,
      "Prem_Prem_P": 3859,
      "ot_F": 3860,
      "_Flow": 3861,
      "eves": 3862,
      "evolution": 3863,
      "_Lew": 3864,
      "_Life": 3865,
      "_Kildare": 3866,
      "able": 3867,
      "_No_M": 3868,
      "_Newman": 3869,
      "_Naray": 3870,
      "_Number": 3871,
      "_Nikos": 3872,
      "athi_V": 3873,
      "hanam_": 3874,
      "hanna": 3875,
      "Cab_Number": 3876,
      "States": 3877,
      "Stuart": 3878,
      "iew": 3879,
      "2003": 3880,
      "_of_Courage": 3881,
      "_of_Nikos": 3882,
      "_Thamash": 3883,
      "alla": 3884,
      "alls": 3885,
      "alle_nubi": 3886,
      "Shots": 3887,
      "1985": 3888,
      "1982_film": 3889,
      "American_Love_": 3890,
      "Cafe_F": 3891,
      "Cafe_H": 3892,
      "udhu": 3893,
      "1998": 3894,
      "1995_film": 3895,
      "1999_film": 3896,
      "ika_": 3897,
      "Cado_d": 3898,
      "Cada_qui": 3899,
      "ations": 3900,
      "er_T": 3901,
      "arts_": 3902,
      "where": 3903,
      "obe": 3904,
      "cia": 3905,
      "California_Girl": 3906,
      "California_Passage": 3907,
      "California_or_B": 3908,
      "ep_K": 3909,
      "Camin": 3910,
      "Came_a_H": 3911,
      "Cage_W": 3912,
      "1959_film": 3913,
      "1954_film": 3914,
      "atta": 3915,
      "attel_": 3916,
      "Calling_Homicide": 3917,
      "1979_film": 3918,
      "erner": 3919,
      "_Exp": 3920,
      "_Ewok": 3921,
      "_Escaped": 3922,
      "Belt_": 3923,
      "anna": 3924,
      "Leigh": 3925,
      "Captive_He": 3926,
      "_Twenty": 3927,
      "1960_film": 3928,
      "ekam_S": 3929,
      "Sea": 3930,
      "orty": 3931,
      "Café_Paradis": 3932,
      "Café_Der": 3933,
      "Café_Exp": 3934,
      "Arm": 3935,
      "Art": 3936,
      "Call_of_the_Wild": 3937,
      "Call_of_the_South": 3938,
      "Call_of_the_Ice": 3939,
      "Call_of_the_Yukon": 3940,
      "ister_": 3941,
      "Unt": 3942,
      "Power_Cut": 3943,
      "Carlot": 3944,
      "Caged_No_M": 3945,
      "ukka": 3946,
      "Camp_Wil": 3947,
      "ina_Spe": 3948,
      "ristian": 3949,
      "_I_Wake_": 3950,
      "Before_Sun": 3951,
      "Before_I_Wake_": 3952,
      "iza": 3953,
      "Belle_of": 3954,
      "ara_L": 3955,
      "rise_": 3956,
      "aster_": 3957,
      "a_Kumbher": 3958,
      "Raju": 3959,
      "Rajesh": 3960,
      "ay_W": 3961,
      "featuring": 3962,
      "José": 3963,
      "ipp": 3964,
      "box": 3965,
      "inal_Attack": 3966,
      "Cain_vs": 3967,
      "ordan": 3968,
      "Powder_": 3969,
      "Powder_Ro": 3970,
      "ing_to_the_Choir": 3971,
      "artha": 3972,
      "_An_Ewok": 3973,
      "Param": 3974,
      "Sidne": 3975,
      "s_Collide": 3976,
      "s_of_Life": 3977,
      "Caged_in_Paradi": 3978,
      "_The_Final_Attack": 3979,
      "Café_de_Fl": 3980,
      "screenwriter": 3981,
      "Prairie_Thunder": 3982,
      "Prairie_Express": 3983,
      "Captain_Clegg": 3984,
      "_Death": 3985,
      "_Declar": 3986,
      "Captain_Nagarjun": 3987,
      "_Robert": 3988,
      "_Road_": 3989,
      "Carnage_Park": 3990,
      "Beautiful_Dream": 3991,
      "a_Diva_": 3992,
      "innu": 3993,
      "Bruc": 3994,
      "Be_Careful": 3995,
      "_Cain": 3996,
      "2022_film": 3997,
      "Steve": 3998,
      "Career_of_Nikos": 3999,
      "Cactus_Flow": 4000,
      "carè": 4001,
      "i_Madu": 4002,
      "Beat_Girl": 4003,
      "i_Ra": 4004,
      "Among_the_Ruins": 4005,
      "adhal": 4006,
      "aalai": 4007,
      "Carambola": 4008,
      "al_fi": 4009,
      "a_Naan": 4010,
      "Bear_Fe": 4011,
      "ikkukka": 4012,
      "Bed_of_Thorn": 4013,
      "historic": 4014,
      "animator": 4015,
      "Cadillac_Girls": 4016,
      "Cadillac_Man": 4017,
      "Jimm": 4018,
      "la_plage": 4019,
      "_Murder": 4020,
      "Amma_Rajinama": 4021,
      "Practical_Magic": 4022,
      "Preethi_Madu": 4023,
      "_Alaska": 4024,
      "Beauty_on_Par": 4025,
      "Beauty_Unadorned": 4026,
      "Café_de_chinos": 4027,
      "Café_de_la_plage": 4028,
      "Casta_Diva_": 4029,
      "Bayou": 4030,
      "January": 4031,
      "Being_Twenty": 4032,
      "Prabha": 4033,
      "Caravan_of_Courage": 4034,
      "Cairo_Declar": 4035,
      "Cairo_Road_": 4036,
      "film_series": 4037,
      "a_Varshini": 4038,
      "_Adventure": 4039,
      "Pratidwandi": 4040,
      "Captain_Apache": 4041,
      "Captain_Hurricane": 4042,
      "Captain_Kidd_": 4043,
      "Call_Me_Mister_": 4044,
      "_a_Key": 4045,
      "_Sandhane": 4046,
      "Captain_Macklin": 4047,
      "Premasathi_V": 4048,
      "California_Dreaming_": 4049,
      "Carnival_of_Crime": 4050,
      "Beloved": 4051,
      "uniculi_F": 4052,
      "Prelude_to_Axanar": 4053,
      "Poveri_ma_ricchi": 4054,
      "Mario_M": 4055,
      "rishna": 4056,
      "polit": 4057,
      "in_Paradise": 4058,
      "_Seas": 4059,
      "Amrita_Kumbher": 4060,
      "Prem_Pujari": 4061,
      "Prathyekam_S": 4062,
      "Lambert": 4063,
      "Captured": 4064,
      "Beggars_of_Life": 4065,
      "_13": 4066,
      "original": 4067,
      "e_Nodu": 4068,
      "Powder_River_R": 4069,
      "Below_the_Belt_": 4070,
      "performan": 4071,
      "i_Kapoor": 4072,
      "_Martin_": 4073,
      "ollywood": 4074,
      "iya_Naan": 4075,
      "erdam": 4076,
      "Kevin_": 4077,
      "urnette": 4078,
      "Sebastian": 4079,
      "Kannada_actor": 4080,
      "Alessandro": 4081,
      "edding": 4082,
      "et_Master_": 4083,
      "Puppet_Master_": 4084,
      "ville_": 4085,
      "alayam": 4086,
      "Beach_of_Dreams": 4087,
      "Joaquina": 4088,
      "Precious_Babes": 4089,
      "Typewriter": 4090,
      "ithout_a_Key": 4091,
      "Dave_Campfield": 4092,
      "Capulina_Spe": 4093,
      "_Castile": 4094,
      "Gloria": 4095,
      "én_su_": 4096,
      "Cecil": 4097,
      "Putham": 4098,
      "Carnies_": 4099,
      "Cardboard_Boxer": 4100,
      "Capturing_Mary": 4101,
      "Amsterdam": 4102,
      "Preaching_to_the_Choir": 4103,
      "Premalekhanam_": 4104,
      "Carnaval_fi": 4105,
      "Benazir_": 4106,
      "Pottersville_": 4107,
      "pittore_maledetto": 4108,
      "Amrutha_Varshini": 4109,
      "Ammuvagiya_Naan": 4110,
      "Premeditated_Murder": 4111,
      "Premabhishekam_": 4112,
      "Hawtrey": 4113,
      "_il_pittore_maledetto": 4114,
      "several": 4115,
      "edy_González": 4116,
      "Caro_Michele": 4117,
      "radhikkukka": 4118,
      "Captain_from_Castile": 4119,
      "Captain_Volkonogov_Escaped": 4120,
      "Call_Her_Savage": 4121,
      "Calle_Mayor_": 4122,
      "Bees_in_Paradise": 4123,
      "_Worlds_Collide": 4124,
      "Prem_Prem_Paglami": 4125,
      "ot_Friday": 4126,
      "Cab_Number_13": 4127,
      "_Thamashe_Nodu": 4128,
      "Cafe_Funiculi_F": 4129,
      "Cafe_Hostess": 4130,
      "Cado_dalle_nubi": 4131,
      "Cada_quién_su_": 4132,
      "California_Girls_": 4133,
      "California_or_Bust": 4134,
      "Came_a_Hot_Friday": 4135,
      "Cage_Without_a_Key": 4136,
      "attel_Te": 4137,
      "Captive_Hearts_": 4138,
      "Café_Derby": 4139,
      "Café_Express_": 4140,
      "Call_of_the_Wild_": 4141,
      "Call_of_the_South_Seas": 4142,
      "Caged_No_More": 4143,
      "Camp_Wilder": 4144,
      "Before_Sunrise_": 4145,
      "Belle_of_Alaska": 4146,
      "Powder_Room_": 4147,
      "_An_Ewok_Adventure": 4148,
      "Caged_in_Paradiso": 4149,
      "Café_de_Flore_": 4150,
      "Captain_Clegg_": 4151,
      "Beautiful_Dreamers": 4152,
      "Career_of_Nikos_Dyzma": 4153,
      "Cactus_Flower_": 4154,
      "Bear_Feat": 4155,
      "Bed_of_Thorns": 4156,
      "Preethi_Madu_Thamashe_Nodu": 4157,
      "Beauty_on_Parade_": 4158,
      "Cairo_Declaration_": 4159,
      "Premasathi_Vattel_Te": 4160,
      "Amrita_Kumbher_Sandhane": 4161,
      "Prathyekam_Sradhikkukka": 4162,
      "Powder_River_Rustlers": 4163,
      "Capulina_Speedy_González": 4164,
      "Carnaval_fi_Dachra": 4165,
      "Cafe_Funiculi_Funicula": 4166,
      "Cada_quién_su_lucha": 4167,
      "21": 4168,
      "64": 4169,
      "70": 4170,
      "Ak": 4171,
      "Bra": 4172,
      "Code": 4173,
      "Dar": 4174,
      "Dom": 4175,
      "Donn": 4176,
      "Eg": 4177,
      "Fau": 4178,
      "Gail": 4179,
      "Graham": 4180,
      "Hill": 4181,
      "Hem": 4182,
      "Im": 4183,
      "Jer": 4184,
      "Jam": 4185,
      "Lash": 4186,
      "Laur": 4187,
      "Lenn": 4188,
      "Lynn": 4189,
      "Ma": 4190,
      "Mr": 4191,
      "Matt": 4192,
      "Meg": 4193,
      "Nath": 4194,
      "Opp": 4195,
      "Poy": 4196,
      "Rub": 4197,
      "Ryan": 4198,
      "Sig": 4199,
      "Sme": 4200,
      "Sims": 4201,
      "Serge": 4202,
      "Srin": 4203,
      "Tor": 4204,
      "Tri": 4205,
      "Trop": 4206,
      "Vagh": 4207,
      "Yudd": 4208,
      "bi": 4209,
      "bug": 4210,
      "bru": 4211,
      "biza": 4212,
      "desh": 4213,
      "ee": 4214,
      "eet": 4215,
      "eele": 4216,
      "father": 4217,
      "hi": 4218,
      "hitha": 4219,
      "ien": 4220,
      "jo": 4221,
      "kies": 4222,
      "ling": 4223,
      "mes": 4224,
      "most": 4225,
      "mugh": 4226,
      "no": 4227,
      "non": 4228,
      "net": 4229,
      "nja": 4230,
      "och": 4231,
      "rough": 4232,
      "sod": 4233,
      "succ": 4234,
      "vah": 4235,
      "wa": 4236,
      "yl": 4237,
      "zo": 4238,
      "aria": 4239,
      "inally": 4240,
      "str": 4241,
      "stant": 4242,
      "ilpi": 4243,
      "ora": 4244,
      "third": 4245,
      "only": 4246,
      "diario": 4247,
      "ries": 4248,
      "rice": 4249,
      "alile": 4250,
      "andor": 4251,
      "andhya": 4252,
      "asandhya": 4253,
      "esandor": 4254,
      "eli": 4255,
      "elathi": 4256,
      "Carom": 4257,
      "amaro": 4258,
      "atam": 4259,
      "ataway": 4260,
      "Calab": 4261,
      "race": 4262,
      "osop": 4263,
      "une": 4264,
      "uno": 4265,
      "irk": 4266,
      "admen": 4267,
      "adanam": 4268,
      "Amig": 4269,
      "Amman": 4270,
      "imon": 4271,
      "chit": 4272,
      "Preah": 4273,
      "Preey": 4274,
      "Prehistoric": 4275,
      "ayn": 4276,
      "illion": 4277,
      "agalu": 4278,
      "ava": 4279,
      "avu": 4280,
      "avarn": 4281,
      "Carrie": 4282,
      "odagalu": 4283,
      "igal": 4284,
      "igel": 4285,
      "igyab": 4286,
      "akal": 4287,
      "Premash": 4288,
      "Premagni": 4289,
      "Prasthanam": 4290,
      "Pradesh": 4291,
      "Pravah": 4292,
      "Joel": 4293,
      "angama": 4294,
      "evill": 4295,
      "new": 4296,
      "nehitha": 4297,
      "nier": 4298,
      "umudi": 4299,
      "opat": 4300,
      "athsal": 4301,
      "athasandhya": 4302,
      "Stranger": 4303,
      "allment": 4304,
      "1983": 4305,
      "1947": 4306,
      "Cafund": 4307,
      "1939": 4308,
      "ikaram": 4309,
      "she": 4310,
      "Powders": 4311,
      "Prarth": 4312,
      "Pralayam": 4313,
      "ewane": 4314,
      "arty": 4315,
      "augh": 4316,
      "iogra": 4317,
      "lace": 4318,
      "arling": 4319,
      "Camion": 4320,
      "ahont": 4321,
      "1951": 4322,
      "acha": 4323,
      "oys": 4324,
      "plot": 4325,
      "ekumar": 4326,
      "ortunit": 4327,
      "osts": 4328,
      "ocahont": 4329,
      "ubur": 4330,
      "Adel": 4331,
      "gerald": 4332,
      "Peck": 4333,
      "Prateek": 4334,
      "Pratigyab": 4335,
      "iper": 4336,
      "Prakadanam": 4337,
      "Jaye": 4338,
      "Jayaram": 4339,
      "arthakal": 4340,
      "Prathij": 4341,
      "Prathikaram": 4342,
      "Isobe": 4343,
      "anyas": 4344,
      "Neil": 4345,
      "Needle": 4346,
      "world": 4347,
      "Bedevill": 4348,
      "Prasaad": 4349,
      "Noir": 4350,
      "appa": 4351,
      "Marcel": 4352,
      "Talagh": 4353,
      "ridge": 4354,
      "Philosop": 4355,
      "Frente": 4356,
      "Flag": 4357,
      "urns": 4358,
      "Oliv": 4359,
      "Shaque": 4360,
      "Entertain": 4361,
      "Tonight": 4362,
      "aasalile": 4363,
      "alvaje": 4364,
      "itzgerald": 4365,
      "Preethsod": 4366,
      "monde": 4367,
      "Prayer": 4368,
      "andolph": 4369,
      "special": 4370,
      "Predestin": 4371,
      "wagatam": 4372,
      "Sheil": 4373,
      "Phillips": 4374,
      "René": 4375,
      "Scheming": 4376,
      "igned": 4377,
      "Pranamam": 4378,
      "Febru": 4379,
      "held": 4380,
      "miral": 4381,
      "Rogers": 4382,
      "Production": 4383,
      "Prathyartha": 4384,
      "erboys": 4385,
      "...": 4386,
      "Solo": 4387,
      "Pranayavarn": 4388,
      "Nedumudi": 4389,
      "hardt": 4390,
      "itterbug": 4391,
      "Bertrand": 4392,
      "installment": 4393,
      "avernier": 4394,
      "Cliff": 4395,
      "Dennis": 4396,
      "October": 4397,
      "ascot": 4398,
      "Corners": 4399,
      "Jagath": 4400,
      "Banana": 4401,
      "Ghosts": 4402,
      "aylor": 4403,
      "tockade": 4404,
      "Geethangal": 4405,
      "Directed": 4406,
      "Lesl": 4407,
      "Laglen": 4408,
      "Beneath": 4409,
      "Abbayi": 4410,
      "Suhasini": 4411,
      "Ishq": 4412,
      "cantando": 4413,
      "rontier": 4414,
      "uomo": 4415,
      "Albright": 4416,
      "Rowland": 4417,
      "Rollerboys": 4418,
      "napping": 4419,
      "osmos": 4420,
      "Premamayi": 4421,
      "Untold": 4422,
      "Paramount": 4423,
      "Prabhaathasandhya": 4424,
      "Opportunit": 4425,
      "Poymugh": 4426,
      "Tropics": 4427,
      "Yuddham": 4428,
      "success": 4429,
      "Calaboos": 4430,
      "Amigos": 4431,
      "Preeyasak": 4432,
      "Premashilpi": 4433,
      "Pravaham": 4434,
      "athsalya": 4435,
      "Cafundó": 4436,
      "ocahontas": 4437,
      "Prateeksha": 4438,
      "Pratigyabadh": 4439,
      "Prathijnja": 4440,
      "Prasaadam": 4441,
      "Philosophy": 4442,
      "Entertainment": 4443,
      "February": 4444,
      "Pranayavarnangal": 4445,
      "Poymughangal": 4446,
      "\",": 4447,
      "24": 4448,
      "25": 4449,
      "But": 4450,
      "Based": 4451,
      "Bust": 4452,
      "Cre": 4453,
      "Core": 4454,
      "Das": 4455,
      "Day": 4456,
      "Dow": 4457,
      "Dutt": 4458,
      "Frim": 4459,
      "Freeman": 4460,
      "Jud": 4461,
      "Judd": 4462,
      "Ko": 4463,
      "Kar": 4464,
      "Kul": 4465,
      "Kong": 4466,
      "Mas": 4467,
      "Miller": 4468,
      "Mitchell": 4469,
      "Pun": 4470,
      "Ris": 4471,
      "Rap": 4472,
      "Sav": 4473,
      "Vla": 4474,
      "Win": 4475,
      "Warn": 4476,
      "Yv": 4477,
      "Yosh": 4478,
      "Zul": 4479,
      "_f": 4480,
      "_p": 4481,
      "_a_": 4482,
      "aid": 4483,
      "aadu": 4484,
      "bel": 4485,
      "ban_S": 4486,
      "biogra": 4487,
      "dev": 4488,
      "du_": 4489,
      "hi_R": 4490,
      "kill": 4491,
      "le_of": 4492,
      "loos": 4493,
      "nan": 4494,
      "oe": 4495,
      "pong": 4496,
      "rí": 4497,
      "rud": 4498,
      "sl": 4499,
      "sch": 4500,
      "sur": 4501,
      "s_Be": 4502,
      "ta": 4503,
      "tz": 4504,
      "t_H": 4505,
      "uff": 4506,
      "vol": 4507,
      "ég": 4508,
      "ép": 4509,
      "ar_You": 4510,
      "stage": 4511,
      "ilavu": 4512,
      "rel": 4513,
      "e_K": 4514,
      "e_di": 4515,
      "e_Range": 4516,
      "onan": 4517,
      "dimir": 4518,
      "rizzi": 4519,
      "en_": 4520,
      "eng": 4521,
      "andy": 4522,
      "ico": 4523,
      "ess_of": 4524,
      "els": 4525,
      "a_St": 4526,
      "a_Joaquina": 4527,
      "a_Jaye": 4528,
      "a_Frente": 4529,
      "a_Abbayi": 4530,
      "Caro_": 4531,
      "Care_of": 4532,
      "Car_of_Dreams": 4533,
      "am_K": 4534,
      "amma": 4535,
      "ise_to": 4536,
      "atton": 4537,
      "atyan": 4538,
      "y_H": 4539,
      "y_Van": 4540,
      "omero": 4541,
      "terworth": 4542,
      "rault": 4543,
      "_Sacha": 4544,
      "_Sanyas": 4545,
      "of_the_R": 4546,
      "_Mul": 4547,
      "_Manth": 4548,
      "_Malis": 4549,
      "use": 4550,
      "uses": 4551,
      "un_f": 4552,
      "leg": 4553,
      "_Bhas": 4554,
      "_Buri": 4555,
      "_Brazil": 4556,
      "_Bresslaw": 4557,
      "Amore_": 4558,
      "Captain_John": 4559,
      "Captain_Bill": 4560,
      "Captain_Calamity_": 4561,
      "Captain_Phillip": 4562,
      "Captain_Abu": 4563,
      "Captain_Tugboat": 4564,
      "Captain_Lash": 4565,
      "Callaw": 4566,
      "_Ram": 4567,
      "_Richel": 4568,
      "_Rise_to": 4569,
      "s_Kiss": 4570,
      "s_Philosophy": 4571,
      "ayer": 4572,
      "aye_Par": 4573,
      "ov_": 4574,
      "ove_": 4575,
      "ovil_V": 4576,
      "iver_": 4577,
      "illo": 4578,
      "_Col": 4579,
      "_Cra": 4580,
      "_Comes": 4581,
      "_Cosmos": 4582,
      "_Green": 4583,
      "_Goldb": 4584,
      "_Gelathi": 4585,
      "the_Tropics": 4586,
      "avil_": 4587,
      "Carrier": 4588,
      "_Hop": 4589,
      "_He_M": 4590,
      "_Hugh": 4591,
      "_the_Blu": 4592,
      "_the_Ey": 4593,
      "_the_Flag": 4594,
      "_A_W": 4595,
      "igg": 4596,
      "iger": 4597,
      "_Di": 4598,
      "_Dav": 4599,
      "_Dale": 4600,
      "_Darling": 4601,
      "_Power": 4602,
      "_Prim": 4603,
      "_Pocket": 4604,
      "_Prak": 4605,
      "_Pudhu": 4606,
      "_Party": 4607,
      "to_V": 4608,
      "_We": 4609,
      "_West": 4610,
      "_Winter": 4611,
      "_Women": 4612,
      "aken": 4613,
      "akrab": 4614,
      "Prema_S": 4615,
      "Premam_": 4616,
      "Prem_De": 4617,
      "Prem_Ka": 4618,
      "Prem_Gran": 4619,
      "Premer_T": 4620,
      "Prem_Sanyas": 4621,
      "Praan_J": 4622,
      "2013_film": 4623,
      "ent_Th": 4624,
      "America_Abbayi": 4625,
      "_Farr": 4626,
      "_Fall": 4627,
      "_Foot": 4628,
      "_Frank": 4629,
      "_Kent": 4630,
      "_Kesar": 4631,
      "_Kaalai": 4632,
      "_Kovil_V": 4633,
      "_Nicola": 4634,
      "hani_": 4635,
      "Cabin": 4636,
      "Star": 4637,
      "Carry_On_Ad": 4638,
      "Carry_On_Kesar": 4639,
      "iett": 4640,
      "ieu_": 4641,
      "_of_He": 4642,
      "_Through": 4643,
      "_Thappa": 4644,
      "apur": 4645,
      "Sheen": 4646,
      "1987": 4647,
      "o_Z": 4648,
      "All": 4649,
      "accarè": 4650,
      "ourt": 4651,
      "John_H": 4652,
      "1948": 4653,
      "1949": 4654,
      "1940_film": 4655,
      "1942_film": 4656,
      "ie_Jacques": 4657,
      "ichandran": 4658,
      "i_O": 4659,
      "ika_V": 4660,
      "Caddie_": 4661,
      "ight_He": 4662,
      "ight_Pocket": 4663,
      "Carolina_Mo": 4664,
      "llis": 4665,
      "Pra_Frente": 4666,
      "audi": 4667,
      "au_d": 4668,
      "while": 4669,
      "obb": 4670,
      "California_Typewriter": 4671,
      "California_Scheming": 4672,
      "California_Solo": 4673,
      "epis": 4674,
      "laigal": 4675,
      "Carnival_Sund": 4676,
      "que_": 4677,
      "1970": 4678,
      "1975": 4679,
      "1979": 4680,
      "1978_film": 4681,
      "Call_Me": 4682,
      "ogra": 4683,
      "_El": 4684,
      "ollins": 4685,
      "award": 4686,
      "_of_the_Corners": 4687,
      "_of_the_Rollerboys": 4688,
      "pecies": 4689,
      "peau_d": 4690,
      "auty": 4691,
      "Eddie_": 4692,
      "Edmund": 4693,
      "_Stewart": 4694,
      "Captive_S": 4695,
      "aired": 4696,
      "_Shots": 4697,
      "_Var": 4698,
      "_Vesandor": 4699,
      "Call_Me_King": 4700,
      "Call_Me_Tonight": 4701,
      "Carmilla_": 4702,
      "dec": 4703,
      "Arch": 4704,
      "Arnold": 4705,
      "a_Mc": 4706,
      "Call_of_the_Forest": 4707,
      "Call_of_the_Sea": 4708,
      "Charlott": 4709,
      "_and_Wild": 4710,
      "ine_G": 4711,
      "ine_Williams": 4712,
      "Michael_S": 4713,
      "Adoor": 4714,
      "uke": 4715,
      "de_Gloria": 4716,
      "Deb": 4717,
      "David_B": 4718,
      "aj_Mah": 4719,
      "e_Walls": 4720,
      "Prairie_B": 4721,
      "_Ibiza": 4722,
      "Before_Midnight": 4723,
      "Before_Winter": 4724,
      "class": 4725,
      "Pour_Sacha": 4726,
      "Belli_M": 4727,
      "_Allen": 4728,
      "e_Subur": 4729,
      "a_Snehitha": 4730,
      "_Choodu": 4731,
      "Pov_Malis": 4732,
      "Behind_Ston": 4733,
      "Films": 4734,
      "ega": 4735,
      "ert_": 4736,
      "Calling_All_Pol": 4737,
      "Cars_of_the_R": 4738,
      "Prana_Snehitha": 4739,
      "ventura": 4740,
      "Anne_": 4741,
      "e_of_a_": 4742,
      "huri": 4743,
      "human": 4744,
      "etti": 4745,
      "Prema_Rag": 4746,
      "Prema_Geethangal": 4747,
      "Prema_Ishq": 4748,
      "Prema_Yuddham": 4749,
      "Careful_": 4750,
      "head": 4751,
      "previ": 4752,
      "Carbine_Williams": 4753,
      "_McG": 4754,
      "_Anand": 4755,
      "_Annie": 4756,
      "Paris_": 4757,
      "s_Crime": 4758,
      "Prairie_Raiders": 4759,
      "Prairie_Stranger": 4760,
      "Edward_B": 4761,
      "Manso": 4762,
      "Captain_Conan": 4763,
      "_Heavy": 4764,
      "_Lea": 4765,
      "_Lee": 4766,
      "Beautiful_and_Wild": 4767,
      "Timoth": 4768,
      "through": 4769,
      "Captain_Fly": 4770,
      "Captain_Fury": 4771,
      "Prasad": 4772,
      "Prasad_": 4773,
      "Cairo_30": 4774,
      "Be_Vagh": 4775,
      "Vaness": 4776,
      "incess_of": 4777,
      "a_Haadu": 4778,
      "y_Scott": 4779,
      "s_Jitterbug": 4780,
      "Caroline_in_the_": 4781,
      "Carib_Gold": 4782,
      "Carnival_in_the_Tropics": 4783,
      "Career_Girls": 4784,
      "Cactus_": 4785,
      "_Brasil": 4786,
      "_The_Untold": 4787,
      "_The_Ris": 4788,
      "Caesar_and_Cle": 4789,
      "ce_cantando": 4790,
      "Bernard_Bresslaw": 4791,
      "Enri": 4792,
      "Henry": 4793,
      "Carnosaur_2": 4794,
      "Carnosaur_3": 4795,
      "Evans": 4796,
      "Evelyn": 4797,
      "Pournami_A": 4798,
      "Pournami_Ra": 4799,
      "Valer": 4800,
      "Val_Gu": 4801,
      "a_Nilavu": 4802,
      "y_Wait": 4803,
      "Caravan_to_V": 4804,
      "Carson_City_Raiders": 4805,
      "Mikha": 4806,
      "Cadillac_Des": 4807,
      "alvad": 4808,
      "alvation_": 4809,
      "Captain_Sánchez": 4810,
      "Captain_Salvation_": 4811,
      "_Wilson": 4812,
      "Barbara": 4813,
      "Preethi_V": 4814,
      "Stanley_": 4815,
      "Shankar": 4816,
      "Beauty_No": 4817,
      "Camping_Cosmos": 4818,
      "Café_de_Paris_": 4819,
      "Caribbean_Gold": 4820,
      "characters": 4821,
      "Castle_of": 4822,
      "Bayside_": 4823,
      "_Johan": 4824,
      "Captain_Thunderbol": 4825,
      "_Clark": 4826,
      "ardly_Wait": 4827,
      "Career_Opportunit": 4828,
      "Luig": 4829,
      "Prabhu_": 4830,
      "Deadline_": 4831,
      "includes": 4832,
      "film_director": 4833,
      "Alexander": 4834,
      "Gregory_": 4835,
      "winder": 4836,
      "_Sharma": 4837,
      "arayana": 4838,
      "Cardinal_Richel": 4839,
      "Corpor": 4840,
      "_on_Ibiza": 4841,
      "moke_Range": 4842,
      "s_Song": 4843,
      "e_and_Fall": 4844,
      "Beef_and_the_": 4845,
      "_Heroine": 4846,
      "Premium_Rush": 4847,
      "Careless_Love_": 4848,
      "an_Nair": 4849,
      "an_Na_Jaye": 4850,
      "ology": 4851,
      "_Smith_and_P": 4852,
      "2019_film": 4853,
      "Amrit_Manth": 4854,
      "_Kaadhal": 4855,
      "Roger_": 4856,
      "Cafe_Mascot": 4857,
      "California_Frontier": 4858,
      "Behind_the_Stockade": 4859,
      "Barbara_Windsor": 4860,
      "Caccia_all": 4861,
      "idi_Fle": 4862,
      "Capture_the_Flag": 4863,
      "Potti_P": 4864,
      "Pottas_B": 4865,
      "a_Aventura": 4866,
      "Prep_": 4867,
      "Prep_and_P": 4868,
      "Premaku_S": 4869,
      "Premakke_S": 4870,
      "Camelot_": 4871,
      "Camel_Through": 4872,
      "Pranaya_Nilavu": 4873,
      "Powder_River_": 4874,
      "Below_the_Deadline_": 4875,
      "iddle": 4876,
      "Patricia_": 4877,
      "4920": 4878,
      "4980": 4879,
      "company": 4880,
      "_Shaan_Na_Jaye": 4881,
      "_Stone": 4882,
      "_Raed": 4883,
      "_the_Right_Pocket": 4884,
      "_Landing_": 4885,
      "Cafe_Isobe": 4886,
      "Cafe_Noir": 4887,
      "Calling_the_Shots": 4888,
      "Calling_the_Ghosts": 4889,
      "Pour_la_su": 4890,
      "Pour_la_peau_d": 4891,
      "Amor_salvaje": 4892,
      "Amor_se_di": 4893,
      "Jaswinder": 4894,
      "Sudh": 4895,
      "Hattie_Jacques": 4896,
      "ice_Cars": 4897,
      "_Young_": 4898,
      "Bryan": 4899,
      "Prathap_": 4900,
      "Sergiu": 4901,
      "al_Species": 4902,
      "Lorra": 4903,
      "portray": 4904,
      "Amorina_": 4905,
      "Alfred_Newman": 4906,
      "Massim": 4907,
      "_In_the_Right_Pocket": 4908,
      "te_Talagh": 4909,
      "transl": 4910,
      "ito_de_Gloria": 4911,
      "_Parker": 4912,
      "followed": 4913,
      "superhero": 4914,
      "Preminchi_Choodu": 4915,
      "Carolyn_of_the_Corners": 4916,
      "Shakedown_2": 4917,
      "Produced": 4918,
      "Poznań_": 4919,
      "Carandiru_": 4920,
      "Terry_Scott": 4921,
      "path_2": 4922,
      "filmmaker": 4923,
      "ite_du_": 4924,
      "_Bandopadhyay": 4925,
      "s_Holiday_": 4926,
      "_Princess_of": 4927,
      "Premature_Buri": 4928,
      "Caminito_de_Gloria": 4929,
      "Carlota_Joaquina": 4930,
      "ara_La_Aventura": 4931,
      "ay_Went_Th": 4932,
      "Bayou_": 4933,
      "Beloved_Darling": 4934,
      "edding_Story": 4935,
      "Putham_Pudhu": 4936,
      "Amsterdam_Heavy": 4937,
      "Faust": 4938,
      "Mrinal": 4939,
      "Carom_Shots": 4940,
      "Amman_Kovil_V": 4941,
      "Preah_Vesandor": 4942,
      "Prehistoric_Women": 4943,
      "Pradeshika_V": 4944,
      "opatra_": 4945,
      "Powdersmoke_Range": 4946,
      "Prarthana_": 4947,
      "Bedevilled_": 4948,
      "Preethsod_Thappa": 4949,
      "Prayer_of_the_Rollerboys": 4950,
      "Predestination_": 4951,
      "Beneath_the_Blu": 4952,
      "Calaboose_": 4953,
      "Amigos_p": 4954,
      "Preeyasakhi_R": 4955,
      "Cafundó_": 4956,
      "Frimpong": 4957,
      "Vladimir": 4958,
      "Yvonn": 4959,
      "Zulf": 4960,
      "ban_Skies": 4961,
      "s_Beauty": 4962,
      "t_Hardly_Wait": 4963,
      "ar_You_": 4964,
      "Caro_diario": 4965,
      "Care_of_Foot": 4966,
      "un_flic": 4967,
      "Amore_amaro": 4968,
      "Captain_John_Smith_and_P": 4969,
      "Captain_Phillips_": 4970,
      "Captain_Abu_Raed": 4971,
      "Captain_Tugboat_Annie": 4972,
      "Callaway_Went_Th": 4973,
      "_Rise_to_Power": 4974,
      "aye_Par_Shaan_Na_Jaye": 4975,
      "avil_3D": 4976,
      "Carriers_": 4977,
      "_He_Might_He": 4978,
      "_the_Eye_of_a_": 4979,
      "_A_Wedding_Story": 4980,
      "_Primal_Species": 4981,
      "_Prakash": 4982,
      "akraborty": 4983,
      "Prema_Sangama": 4984,
      "Prem_Deewane": 4985,
      "Prem_Kahani_": 4986,
      "Prem_Granth": 4987,
      "Premer_Taj_Mah": 4988,
      "Praan_Jaye_Par_Shaan_Na_Jaye": 4989,
      "Carry_On_Admiral": 4990,
      "_of_Heidi_Fle": 4991,
      "accarès_": 4992,
      "Carolina_Moon_": 4993,
      "Carnival_Sunday": 4994,
      "Captive_Souls": 4995,
      "Call_of_the_Forest_": 4996,
      "Prairie_Badmen": 4997,
      "Before_Midnight_": 4998,
      "Before_Winter_Comes": 4999,
      "Belli_Modagalu": 5000,
      "e_Suburban_Skies": 5001,
      "Pov_Malis_Lea": 5002,
      "Behind_Stone_Walls": 5003,
      "Calling_All_Police_Cars": 5004,
      "Cars_of_the_Revolution": 5005,
      "Prema_Raga_Haadu": 5006,
      "Prema_Ishq_Kaadhal": 5007,
      "previous": 5008,
      "Beautiful_and_Wild_on_Ibiza": 5009,
      "Be_Vaghte_Talagh": 5010,
      "s_Jitterbug_Party": 5011,
      "Caroline_in_the_City": 5012,
      "_The_Untold_Story": 5013,
      "_The_Rise_and_Fall": 5014,
      "Caesar_and_Cleopatra_": 5015,
      "Pournami_Alaigal": 5016,
      "Pournami_Raavil_3D": 5017,
      "Val_Guest": 5018,
      "Caravan_to_Vaccarès_": 5019,
      "Cadillac_Desert_": 5020,
      "Preethi_Vathsalya": 5021,
      "Castle_of_Sand": 5022,
      "Bayside_Shakedown_2": 5023,
      "Captain_Thunderbolt_": 5024,
      "Career_Opportunities_": 5025,
      "Cardinal_Richelieu_": 5026,
      "Corporation": 5027,
      "Beef_and_the_Banana": 5028,
      "Amrit_Manthan_": 5029,
      "Capture_the_Flag_": 5030,
      "Potti_Pleader": 5031,
      "Pottas_Bomb": 5032,
      "Prep_and_Pep": 5033,
      "Premaku_Swagatam": 5034,
      "Premakke_Sai": 5035,
      "Camel_Through_the_Eye_of_a_": 5036,
      "Pour_la_suite_du_": 5037,
      "Amor_se_dice_cantando": 5038,
      "Alfred_Newman_": 5039,
      "_Princess_of_Brazil": 5040,
      "Premature_Burial_": 5041,
      "Putham_Pudhu_Kaalai": 5042,
      "Amman_Kovil_Vaasalile": 5043,
      "Prehistoric_Women_": 5044,
      "Pradeshika_Varthakal": 5045,
      "Beneath_the_Blue_Suburban_Skies": 5046,
      "Amigos_para_La_Aventura": 5047,
      "Preeyasakhi_Radha": 5048,
      "Care_of_Footpath_2": 5049,
      "Captain_John_Smith_and_Pocahontas": 5050,
      "Callaway_Went_Thataway": 5051,
      "_He_Might_Hear_You_": 5052,
      "Premer_Taj_Mahal": 5053,
      "_of_Heidi_Fleiss": 5054,
      "Prema_Raga_Haadu_Gelathi": 5055,
      "_The_Rise_and_Fall_of_Heidi_Fleiss": 5056,
      "Camel_Through_the_Eye_of_a_Needle": 5057,
      "Pour_la_suite_du_monde": 5058,
      "\".": 5059,
      ".,": 5060,
      "11": 5061,
      "17": 5062,
      "37": 5063,
      "75": 5064,
      "August": 5065,
      "Bon": 5066,
      "Bren": 5067,
      "Bro": 5068,
      "Cle": 5069,
      "Cur": 5070,
      "Cyn": 5071,
      "Cinem": 5072,
      "Curtis": 5073,
      "DV": 5074,
      "Dra": 5075,
      "Dian": 5076,
      "Dale": 5077,
      "For": 5078,
      "Ful": 5079,
      "Gil": 5080,
      "Gur": 5081,
      "Green": 5082,
      "Hall": 5083,
      "Hob": 5084,
      "Holl": 5085,
      "Hein": 5086,
      "Hollywood": 5087,
      "Ja": 5088,
      "Jess": 5089,
      "Jordan": 5090,
      "Ker": 5091,
      "Kavi": 5092,
      "Lis": 5093,
      "Liz": 5094,
      "Mith": 5095,
      "Muk": 5096,
      "Meen": 5097,
      "Mex": 5098,
      "Nazir": 5099,
      "Pl": 5100,
      "Phy": 5101,
      "Ran": 5102,
      "Randolph": 5103,
      "Sk": 5104,
      "Sach": 5105,
      "Sank": 5106,
      "Ur": 5107,
      "Vinod": 5108,
      "Women": 5109,
      "Wolf": 5110,
      "York": 5111,
      "cel": 5112,
      "count": 5113,
      "del": 5114,
      "eal": 5115,
      "fun": 5116,
      "gang": 5117,
      "hal": 5118,
      "him": 5119,
      "ira": 5120,
      "iang": 5121,
      "less": 5122,
      "ms": 5123,
      "marr": 5124,
      "mit": 5125,
      "mad": 5126,
      "ning": 5127,
      "nick": 5128,
      "nomin": 5129,
      "pop": 5130,
      "ril": 5131,
      "sing": 5132,
      "teen": 5133,
      "vet": 5134,
      "vath": 5135,
      "vari": 5136,
      "wr": 5137,
      "wife": 5138,
      "women": 5139,
      "yler": 5140,
      "yoor": 5141,
      "ão": 5142,
      "era": 5143,
      "real": 5144,
      "reat": 5145,
      "reak": 5146,
      "orru": 5147,
      "dis": 5148,
      "enter": 5149,
      "anders": 5150,
      "asu": 5151,
      "asikumar": 5152,
      "eld": 5153,
      "elman": 5154,
      "amy": 5155,
      "isen": 5156,
      "pte": 5157,
      "ouston": 5158,
      "Thom": 5159,
      "20th": 5160,
      "adem": 5161,
      "tton": 5162,
      "ches": 5163,
      "chang": 5164,
      "ayne": 5165,
      "ivas": 5166,
      "ives": 5167,
      "Tem": 5168,
      "avin": 5169,
      "ione": 5170,
      "igan": 5171,
      "Chand": 5172,
      "Prema": 5173,
      "entry": 5174,
      "evez": 5175,
      "nest": 5176,
      "ummer": 5177,
      "rani": 5178,
      "opal": 5179,
      "opra": 5180,
      "opoul": 5181,
      "2001": 5182,
      "Shash": 5183,
      "1989": 5184,
      "Alberto": 5185,
      "acc": 5186,
      "acon": 5187,
      "emi": 5188,
      "emble": 5189,
      "ucqu": 5190,
      "Johnn": 5191,
      "Johnston": 5192,
      "udha": 5193,
      "white": 5194,
      "ashri": 5195,
      "1971": 5196,
      "1974": 5197,
      "oyan": 5198,
      "annah": 5199,
      "Robertson": 5200,
      "arajan": 5201,
      "1960": 5202,
      "ekar": 5203,
      "ekhar": 5204,
      "death": 5205,
      "Arjun": 5206,
      "ists": 5207,
      "ister": 5208,
      "rent": 5209,
      "azz": 5210,
      "Jane": 5211,
      "inspi": 5212,
      "anett": 5213,
      "onnamma": 5214,
      "Rajkumar": 5215,
      "Malcol": 5216,
      "Malashri": 5217,
      "venuti": 5218,
      "ritz": 5219,
      "Parvath": 5220,
      "karni": 5221,
      "makes": 5222,
      "Moham": 5223,
      "expl": 5224,
      "Bros": 5225,
      "ystery": 5226,
      "urtiz": 5227,
      "einer": 5228,
      "ensemble": 5229,
      "Olg": 5230,
      "English": 5231,
      "Tony": 5232,
      "Asim": 5233,
      "featured": 5234,
      "grou": 5235,
      "rewal": 5236,
      "guez": 5237,
      "rabbe": 5238,
      "ooper": 5239,
      "fects": 5240,
      "Girls": 5241,
      "icolor": 5242,
      "Shakt": 5243,
      "sets": 5244,
      "June": 5245,
      "kineni": 5246,
      "adapted": 5247,
      "created": 5248,
      "colle": 5249,
      "originally": 5250,
      "Monic": 5251,
      "Salah": 5252,
      "designed": 5253,
      "friends": 5254,
      "Jayasudha": 5255,
      "performance": 5256,
      "Productions": 5257,
      "Buster": 5258,
      "Dasari": 5259,
      "Warner": 5260,
      "loosely": 5261,
      "Cynth": 5262,
      "DVD": 5263,
      "Hobart": 5264,
      "Kaviyoor": 5265,
      "Mithun": 5266,
      "Sankaradi": 5267,
      "popular": 5268,
      "inspired": 5269,
      "Malcolm": 5270,
      "12": 5271,
      "16": 5272,
      "26": 5273,
      "3600": 5274,
      "4800": 5275,
      "57": 5276,
      "Aar": 5277,
      "Aki": 5278,
      "Bos": 5279,
      "Boyd": 5280,
      "Basil": 5281,
      "Binnu": 5282,
      "Cann": 5283,
      "Cristian": 5284,
      "Dou": 5285,
      "Foster": 5286,
      "Gary_": 5287,
      "Gér": 5288,
      "Had": 5289,
      "Hop": 5290,
      "Ig": 5291,
      "Ivo": 5292,
      "Just": 5293,
      "KO": 5294,
      "Kay": 5295,
      "Kurt": 5296,
      "Kapoor": 5297,
      "Kildare": 5298,
      "Kishan": 5299,
      "Minn": 5300,
      "Nik": 5301,
      "Nia_": 5302,
      "Nathan": 5303,
      "Nagarjun": 5304,
      "Os": 5305,
      "Pand": 5306,
      "Pol": 5307,
      "Ry": 5308,
      "Rud": 5309,
      "Rolf": 5310,
      "Roland": 5311,
      "RKO": 5312,
      "Sc": 5313,
      "Sund": 5314,
      "Scar": 5315,
      "Sandr": 5316,
      "Sriv": 5317,
      "Tol": 5318,
      "Ud": 5319,
      "Var": 5320,
      "Vis": 5321,
      "Wend": 5322,
      "Yu": 5323,
      "Yak": 5324,
      "Yuri": 5325,
      "_Z": 5326,
      "_actor": 5327,
      "_actress": 5328,
      "_de_": 5329,
      "bu": 5330,
      "bie": 5331,
      "boy": 5332,
      "break": 5333,
      "cat": 5334,
      "cent": 5335,
      "crit": 5336,
      "dom": 5337,
      "de_M": 5338,
      "dep": 5339,
      "ead": 5340,
      "ext": 5341,
      "fa": 5342,
      "gali": 5343,
      "gava": 5344,
      "hol": 5345,
      "how": 5346,
      "hill": 5347,
      "hman": 5348,
      "hillon": 5349,
      "kal": 5350,
      "li": 5351,
      "lim": 5352,
      "lyn": 5353,
      "le_G": 5354,
      "min": 5355,
      "ming": 5356,
      "mur": 5357,
      "mystery": 5358,
      "oj": 5359,
      "oom": 5360,
      "pir": 5361,
      "sk": 5362,
      "sar": 5363,
      "sim": 5364,
      "sev": 5365,
      "var": 5366,
      "vio": 5367,
      "ville": 5368,
      "win_": 5369,
      "west": 5370,
      "ya_": 5371,
      "yot": 5372,
      "ze": 5373,
      "zy": 5374,
      "ál": 5375,
      "arv": 5376,
      "arō": 5377,
      "around": 5378,
      "ini_": 5379,
      "an_H": 5380,
      "an_D": 5381,
      "stein": 5382,
      "ingh": 5383,
      "Cather": 5384,
      "orm": 5385,
      "ona": 5386,
      "oni": 5387,
      "on_M": 5388,
      "dio": 5389,
      "disc": 5390,
      "enu": 5391,
      "enz": 5392,
      "enes": 5393,
      "als": 5394,
      "alie_": 5395,
      "anding": 5396,
      "eder": 5397,
      "el_M": 5398,
      "elton": 5399,
      "a_Al": 5400,
      "a_Rao": 5401,
      "is_D": 5402,
      "aters": 5403,
      "atogra": 5404,
      "directorial": 5405,
      "olph": 5406,
      "thew": 5407,
      "_Sol": 5408,
      "_Soman": 5409,
      "_Scott": 5410,
      "_Salvad": 5411,
      "osse": 5412,
      "_Me": 5413,
      "_Maz": 5414,
      "_Moore": 5415,
      "leen": 5416,
      "adine": 5417,
      "_Bar": 5418,
      "_Barr": 5419,
      "_Bur": 5420,
      "_Bart": 5421,
      "_Benn": 5422,
      "_Berg": 5423,
      "_Barrymore": 5424,
      "Amb": 5425,
      "Amand": 5426,
      "Amico": 5427,
      "ima": 5428,
      "child": 5429,
      "_Ryan": 5430,
      "_Ritter": 5431,
      "uro": 5432,
      "ural": 5433,
      "Techn": 5434,
      "illian": 5435,
      "_Cha": 5436,
      "ider": 5437,
      "idya": 5438,
      "_Gr": 5439,
      "_Howard": 5440,
      "_Au": 5441,
      "_Aravind": 5442,
      "_Dan": 5443,
      "_De_": 5444,
      "_Don": 5445,
      "_Dem": 5446,
      "_Dix": 5447,
      "_Doyle": 5448,
      "Chatterjee": 5449,
      "_Pal": 5450,
      "_Pat": 5451,
      "ardhan": 5452,
      "_Wall": 5453,
      "_Walk": 5454,
      "akar": 5455,
      "akam": 5456,
      "akrav": 5457,
      "Joann": 5458,
      "Marie_": 5459,
      "Maria_": 5460,
      "_Fl": 5461,
      "_Lang": 5462,
      "_Lane": 5463,
      "_Kau": 5464,
      "abell": 5465,
      "resent": 5466,
      "until": 5467,
      "oph": 5468,
      "Anand": 5469,
      "Story": 5470,
      "iemann": 5471,
      "1984": 5472,
      "o_Camp": 5473,
      "o_Van": 5474,
      "Ali": 5475,
      "emheld": 5476,
      "endra": 5477,
      "endrick": 5478,
      "John_G": 5479,
      "John_D": 5480,
      "John_T": 5481,
      "1945": 5482,
      "1946": 5483,
      "ie_B": 5484,
      "Cafe": 5485,
      "1937": 5486,
      "1938": 5487,
      "1991": 5488,
      "Ray_M": 5489,
      "e_Mc": 5490,
      "1952": 5491,
      "1954": 5492,
      "1959": 5493,
      "effects": 5494,
      "uggi": 5495,
      "achandran": 5496,
      "_En": 5497,
      "awa": 5498,
      "icki": 5499,
      "ickman": 5500,
      "Leo": 5501,
      "araj": 5502,
      "upon": 5503,
      "Franz": 5504,
      "Franco": 5505,
      "1964": 5506,
      "1969": 5507,
      "became": 5508,
      "_Venu": 5509,
      "_Os": 5510,
      "ubh": 5511,
      "ine_L": 5512,
      "George_B": 5513,
      "George_L": 5514,
      "David_S": 5515,
      "hary": 5516,
      "Charles_K": 5517,
      "William_H": 5518,
      "Clara_": 5519,
      "ucker": 5520,
      "uckley": 5521,
      "Elmer": 5522,
      "a_Kar": 5523,
      "Paul_L": 5524,
      "e_Gordon": 5525,
      "Frankie_": 5526,
      "e_Hunt": 5527,
      "book": 5528,
      "Bengali": 5529,
      "1928": 5530,
      "Jack_N": 5531,
      "Don_": 5532,
      "office": 5533,
      "Peter_G": 5534,
      "Billie_": 5535,
      "preet": 5536,
      "arthy": 5537,
      "_McLaglen": 5538,
      "July": 5539,
      "Isabell": 5540,
      "y_Burnette": 5541,
      "raves": 5542,
      "named": 5543,
      "iley_Burnette": 5544,
      "_Roemheld": 5545,
      "_Leo": 5546,
      "_Lee_": 5547,
      "Madh": 5548,
      "u_actor": 5549,
      "_Ross": 5550,
      "_Rosen": 5551,
      "Fred_K": 5552,
      "Wild_Bill_Elliott": 5553,
      "Stevens": 5554,
      "Malayalam_": 5555,
      "carto": 5556,
      "_Jackson": 5557,
      "Shaw": 5558,
      "Henri": 5559,
      "Tony_": 5560,
      "racy": 5561,
      "ultz": 5562,
      "Lew_Land": 5563,
      "Shirley": 5564,
      "Jim_Dale": 5565,
      "_Beatty": 5566,
      "Victor_McLaglen": 5567,
      "Telugu_actor": 5568,
      "Derm": 5569,
      "Walters": 5570,
      "oshi": 5571,
      "Delon": 5572,
      "Ernest": 5573,
      "Robin": 5574,
      "Wilson": 5575,
      "Frances": 5576,
      "Melv": 5577,
      "police": 5578,
      "rigan": 5579,
      "ological": 5580,
      "Vera": 5581,
      "Philipp": 5582,
      "o_Brizzi": 5583,
      "Shirley_Frimpong": 5584,
      "Mauric": 5585,
      "5640": 5586,
      "Kate_": 5587,
      "Penelop": 5588,
      "_Bhalla": 5589,
      "oretti": 5590,
      "Padm": 5591,
      "Smiley_Burnette": 5592,
      "Hattie": 5593,
      "Lionel_Barrymore": 5594,
      "Sai_Kumar": 5595,
      "early": 5596,
      "earlier": 5597,
      "Noah_Be": 5598,
      "Lloyd_B": 5599,
      "5520": 5600,
      "5580": 5601,
      "Hammer": 5602,
      "Larry_": 5603,
      "_Glickman": 5604,
      "_Hillyer": 5605,
      "John_Lasseter": 5606,
      "Robert_Dow": 5607,
      "Henry_": 5608,
      "Ramesh_Aravind": 5609,
      "Irving": 5610,
      "Vijay": 5611,
      "Johannes": 5612,
      "Fernando_Di": 5613,
      "5220": 5614,
      "Nicholas": 5615,
      "have": 5616,
      "_Edward": 5617,
      "Rossi": 5618,
      "songs": 5619,
      "5100": 5620,
      "Mort_Glickman": 5621,
      "Saty": 5622,
      "cinematogra": 5623,
      "version": 5624,
      "_Lewis": 5625,
      "_Narayana_": 5626,
      "ep_Kang": 5627,
      "_Robertson": 5628,
      "political": 5629,
      "Lambert_Hillyer": 5630,
      "Domini": 5631,
      "Smeep_Kang": 5632,
      "Srinath": 5633,
      "Nedumudi_Venu": 5634,
      "Leslie_": 5635,
      "_Nicolaescu": 5636,
      "Mikhail": 5637,
      "Jaswinder_Bhalla": 5638,
      "Sergiu_Nicolaescu": 5639,
      "Fausto_Brizzi": 5640,
      "Gurpreet": 5641,
      "Heinz": 5642,
      "Phyllis": 5643,
      "group": 5644,
      "Doug": 5645,
      "Gérard": 5646,
      "Srividya": 5647,
      "murder": 5648,
      "western": 5649,
      "yoti": 5650,
      "Technicolor": 5651,
      "akravarthy": 5652,
      "Lew_Landers": 5653,
      "Sai_Kumar_": 5654,
      "Fernando_Di_Leo": 5655,
      "61": 5656,
      "ABC": 5657,
      "Bu": 5658,
      "Bod": 5659,
      "Cra": 5660,
      "Cop": 5661,
      "Cold": 5662,
      "Conn": 5663,
      "Comic": 5664,
      "Des": 5665,
      "Dim": 5666,
      "Dust": 5667,
      "FI": 5668,
      "Fann": 5669,
      "Fever": 5670,
      "Gr": 5671,
      "Genn": 5672,
      "Hil": 5673,
      "Hir": 5674,
      "Hong": 5675,
      "Kon": 5676,
      "Karam": 5677,
      "Len": 5678,
      "Lorn": 5679,
      "Larry": 5680,
      "Lester": 5681,
      "Laksh": 5682,
      "My": 5683,
      "Mig": 5684,
      "Na": 5685,
      "Ni": 5686,
      "Nan": 5687,
      "Nic": 5688,
      "Nino": 5689,
      "National": 5690,
      "Om": 5691,
      "Pall": 5692,
      "Port": 5693,
      "Pamp": 5694,
      "Piper": 5695,
      "Payne": 5696,
      "Ric": 5697,
      "Rat": 5698,
      "Rev": 5699,
      "Rug": 5700,
      "Sel": 5701,
      "Siv": 5702,
      "Sto": 5703,
      "Srid": 5704,
      "Serb": 5705,
      "Tyr": 5706,
      "Vi": 5707,
      "Vik": 5708,
      "Willi": 5709,
      "Wood": 5710,
      "Yann": 5711,
      "bur": 5712,
      "cou": 5713,
      "call": 5714,
      "corru": 5715,
      "ei": 5716,
      "eo": 5717,
      "ft": 5718,
      "ful": 5719,
      "fem": 5720,
      "ga": 5721,
      "gan": 5722,
      "gth": 5723,
      "girl": 5724,
      "hl": 5725,
      "iè": 5726,
      "kse": 5727,
      "les": 5728,
      "mä": 5729,
      "mel": 5730,
      "mem": 5731,
      "maj": 5732,
      "po": 5733,
      "rat": 5734,
      "roc": 5735,
      "ski": 5736,
      "trav": 5737,
      "uz": 5738,
      "vide": 5739,
      "witz": 5740,
      "zel": 5741,
      "zina": 5742,
      "ée": 5743,
      "invol": 5744,
      "erl": 5745,
      "erri": 5746,
      "erot": 5747,
      "ily": 5748,
      "remade": 5749,
      "Cav": 5750,
      "oney": 5751,
      "ried": 5752,
      "rise": 5753,
      "ening": 5754,
      "alton": 5755,
      "aley": 5756,
      "alone": 5757,
      "andark": 5758,
      "ican": 5759,
      "esnick": 5760,
      "amb": 5761,
      "ism": 5762,
      "isch": 5763,
      "ating": 5764,
      "olo": 5765,
      "wright": 5766,
      "rady": 5767,
      "ouz": 5768,
      "Three": 5769,
      "usu": 5770,
      "usz": 5771,
      "2020": 5772,
      "unz": 5773,
      "ities": 5774,
      "itary": 5775,
      "adcast": 5776,
      "imer": 5777,
      "imation": 5778,
      "che": 5779,
      "chet": 5780,
      "ovic": 5781,
      "ills": 5782,
      "agan": 5783,
      "ets": 5784,
      "ety": 5785,
      "ulars": 5786,
      "ige": 5787,
      "Chann": 5788,
      "utes": 5789,
      "utry": 5790,
      "ellman": 5791,
      "entine": 5792,
      "Marian": 5793,
      "actors": 5794,
      "neau": 5795,
      "hab": 5796,
      "abi": 5797,
      "abor": 5798,
      "ople": 5799,
      "Animation": 5800,
      "hant": 5801,
      "Stone": 5802,
      "Steele": 5803,
      "ief": 5804,
      "Roberto": 5805,
      "iani": 5806,
      "1981": 5807,
      "Johnson": 5808,
      "1941": 5809,
      "1944": 5810,
      "1997": 5811,
      "ship": 5812,
      "shown": 5813,
      "ackie": 5814,
      "Raoul": 5815,
      "cox": 5816,
      "Cage": 5817,
      "Ind": 5818,
      "Ing": 5819,
      "India": 5820,
      "1953": 5821,
      "ugen": 5822,
      "ashi": 5823,
      "awd": 5824,
      "rical": 5825,
      "Geoff": 5826,
      "1966": 5827,
      "1967": 5828,
      "Adri": 5829,
      "uka": 5830,
      "uresh": 5831,
      "ruce": 5832,
      "rismä": 5833,
      "plays": 5834,
      "Kenn": 5835,
      "Josh": 5836,
      "Josef": 5837,
      "Calamity": 5838,
      "Bennett": 5839,
      "1927": 5840,
      "Sammo": 5841,
      "otti": 5842,
      "Guy": 5843,
      "etty": 5844,
      "ffer": 5845,
      "ject": 5846,
      "Siddi": 5847,
      "Jules": 5848,
      "Harris": 5849,
      "Harrison": 5850,
      "Isabel": 5851,
      "uppert": 5852,
      "Neal": 5853,
      "works": 5854,
      "Alekse": 5855,
      "Madele": 5856,
      "Madhuri": 5857,
      "experi": 5858,
      "Steven": 5859,
      "length": 5860,
      "Cole": 5861,
      "Oliver": 5862,
      "gross": 5863,
      "anthology": 5864,
      "guest": 5865,
      "adda": 5866,
      "Stanley": 5867,
      "oopi": 5868,
      "White": 5869,
      "Whoopi": 5870,
      "Christoph": 5871,
      "Walt": 5872,
      "Gregory": 5873,
      "brothers": 5874,
      "return": 5875,
      "ullock": 5876,
      "Giov": 5877,
      "Giul": 5878,
      "Reddy": 5879,
      "credit": 5880,
      "Virginia": 5881,
      "Venice": 5882,
      "ronized": 5883,
      "Emily": 5884,
      "Bharathan": 5885,
      "Kaik": 5886,
      "rikanth": 5887,
      "Jaspal": 5888,
      "Palma": 5889,
      "Atom": 5890,
      "Matthew": 5891,
      "Sakura": 5892,
      "raser": 5893,
      "Estevez": 5894,
      "brook": 5895,
      "broadcast": 5896,
      "euil": 5897,
      "Stephan": 5898,
      "period": 5899,
      "Hughes": 5900,
      "Vivian": 5901,
      "agnani": 5902,
      "Margaret": 5903,
      "ynchronized": 5904,
      "Brazilian": 5905,
      "Lawren": 5906,
      "military": 5907,
      "Theodore": 5908,
      "iews": 5909,
      "Akkineni": 5910,
      "Donnell": 5911,
      "Kulkarni": 5912,
      "égret": 5913,
      "Enrico": 5914,
      "Sudhir": 5915,
      "Mexican": 5916,
      "wrote": 5917,
      "Temple": 5918,
      "cinematography": 5919,
      "Konstant": 5920,
      "Pallavi": 5921,
      "Pampanini": 5922,
      "Rugger": 5923,
      "couple": 5924,
      "corrupt": 5925,
      "female": 5926,
      "erotic": 5927,
      "andarkar": 5928,
      "rismäki": 5929,
      "14": 5930,
      "15": 5931,
      "4200": 5932,
      "7200": 5933,
      "Az": 5934,
      "BS": 5935,
      "Ba": 5936,
      "Bre": 5937,
      "Bow": 5938,
      "Bur": 5939,
      "Bhas": 5940,
      "Barry": 5941,
      "Bresslaw": 5942,
      "Cer": 5943,
      "Cel": 5944,
      "Com": 5945,
      "Div": 5946,
      "Dall": 5947,
      "Dillon": 5948,
      "Ezz": 5949,
      "Erik": 5950,
      "Eugen": 5951,
      "Far": 5952,
      "Fil": 5953,
      "Fat": 5954,
      "First": 5955,
      "GM": 5956,
      "Gas": 5957,
      "Gem": 5958,
      "Gaut": 5959,
      "Gast": 5960,
      "Gipp": 5961,
      "Him": 5962,
      "Hav": 5963,
      "Iv": 5964,
      "Ivan": 5965,
      "Jorg": 5966,
      "Jain": 5967,
      "Jerr": 5968,
      "Jatta": 5969,
      "Kam": 5970,
      "Karth": 5971,
      "Kather": 5972,
      "Kelly": 5973,
      "Lon": 5974,
      "Los": 5975,
      "Lang": 5976,
      "Lok": 5977,
      "Ladi": 5978,
      "Laine": 5979,
      "MC": 5980,
      "Mi": 5981,
      "Mer": 5982,
      "Men": 5983,
      "Math": 5984,
      "Midnight": 5985,
      "MGM": 5986,
      "Nas": 5987,
      "Nina_": 5988,
      "Nive": 5989,
      "North": 5990,
      "Nigel": 5991,
      "Ot": 5992,
      "Oleg": 5993,
      "Pam": 5994,
      "Pis": 5995,
      "Pavan": 5996,
      "Pál": 5997,
      "Ri": 5998,
      "Rus": 5999,
      "Rele": 6000,
      "Reed": 6001,
      "Radh": 6002,
      "Ravi": 6003,
      "San": 6004,
      "Sent": 6005,
      "Sab": 6006,
      "Sant": 6007,
      "Syd": 6008,
      "Svet": 6009,
      "Soph": 6010,
      "Tan": 6011,
      "Ted": 6012,
      "Tam": 6013,
      "Tab": 6014,
      "Trace": 6015,
      "Tucker": 6016,
      "Xav": 6017,
      "_Car": 6018,
      "aud": 6019,
      "aff": 6020,
      "bn": 6021,
      "ball": 6022,
      "bie_": 6023,
      "ces": 6024,
      "cle": 6025,
      "cur": 6026,
      "cop": 6027,
      "co_Z": 6028,
      "def": 6029,
      "derson": 6030,
      "dubb": 6031,
      "eung": 6032,
      "fan": 6033,
      "fre": 6034,
      "fac": 6035,
      "free": 6036,
      "frid": 6037,
      "feld": 6038,
      "gom": 6039,
      "goyan": 6040,
      "ho": 6041,
      "hom": 6042,
      "hit": 6043,
      "hers": 6044,
      "hims": 6045,
      "hmed": 6046,
      "huggi": 6047,
      "ias": 6048,
      "ji": 6049,
      "jö": 6050,
      "jš": 6051,
      "kov": 6052,
      "lo": 6053,
      "lin_": 6054,
      "ler_": 6055,
      "line": 6056,
      "lives": 6057,
      "mol": 6058,
      "mov": 6059,
      "mi_": 6060,
      "million": 6061,
      "na_": 6062,
      "nberg": 6063,
      "oi": 6064,
      "oen": 6065,
      "ois": 6066,
      "o_G": 6067,
      "o_D": 6068,
      "pil": 6069,
      "pos": 6070,
      "pers": 6071,
      "post": 6072,
      "past": 6073,
      "psy": 6074,
      "rama": 6075,
      "sm": 6076,
      "ss": 6077,
      "sit": 6078,
      "six": 6079,
      "sky": 6080,
      "synchronized": 6081,
      "t_G": 6082,
      "tkins": 6083,
      "uris": 6084,
      "vino": 6085,
      "wal": 6086,
      "wyn": 6087,
      "wara_": 6088,
      "wide": 6089,
      "wamb": 6090,
      "xter": 6091,
      "ypt": 6092,
      "yub": 6093,
      "yke": 6094,
      "Ál": 6095,
      "áv": 6096,
      "ésar": 6097,
      "ël": 6098,
      "ía": 6099,
      "ín": 6100,
      "ühl": 6101,
      "ță": 6102,
      "ar_": 6103,
      "aresh": 6104,
      "ince": 6105,
      "inson": 6106,
      "inley": 6107,
      "ints": 6108,
      "anor": 6109,
      "ans_": 6110,
      "star": 6111,
      "stud": 6112,
      "ermain": 6113,
      "ilp": 6114,
      "ref": 6115,
      "reekumar": 6116,
      "orst": 6117,
      "ora_": 6118,
      "orah": 6119,
      "orpe": 6120,
      "e_Z": 6121,
      "e_Car": 6122,
      "then": 6123,
      "tham": 6124,
      "one_": 6125,
      "dial": 6126,
      "ript": 6127,
      "rish": 6128,
      "enov": 6129,
      "alini": 6130,
      "alia": 6131,
      "ala_S": 6132,
      "andy_": 6133,
      "and_S": 6134,
      "and_D": 6135,
      "andaram": 6136,
      "eddy": 6137,
      "asi": 6138,
      "asing": 6139,
      "asekhar": 6140,
      "icar": 6141,
      "ices": 6142,
      "esem": 6143,
      "elv": 6144,
      "elath": 6145,
      "a_O": 6146,
      "a_Young": 6147,
      "ams": 6148,
      "iser": 6149,
      "ised": 6150,
      "aton": 6151,
      "atic": 6152,
      "atnam": 6153,
      "y_Jr": 6154,
      "y_Jones": 6155,
      "y_Allen": 6156,
      "omew": 6157,
      "olff": 6158,
      "olomew": 6159,
      "pta": 6160,
      "pton": 6161,
      "them": 6162,
      "raw": 6163,
      "rael": 6164,
      "_Sar": 6165,
      "_Sal": 6166,
      "_Som": 6167,
      "_Sung": 6168,
      "_Sasikumar": 6169,
      "os_V": 6170,
      "_Mo": 6171,
      "_Mal": 6172,
      "_Mel": 6173,
      "_Marsh": 6174,
      "_Mitchell": 6175,
      "_Menon": 6176,
      "_Moretti": 6177,
      "Thikk": 6178,
      "uni": 6179,
      "leigh": 6180,
      "leton": 6181,
      "itri": 6182,
      "ita_M": 6183,
      "ira_": 6184,
      "adav": 6185,
      "_Bre": 6186,
      "_Bol": 6187,
      "_Bos": 6188,
      "_Ball": 6189,
      "_Bark": 6190,
      "_Barry": 6191,
      "_Berk": 6192,
      "_Basu": 6193,
      "_Bucqu": 6194,
      "Amy_": 6195,
      "Amend": 6196,
      "Amato": 6197,
      "imp": 6198,
      "ima_": 6199,
      "cho": 6200,
      "chu": 6201,
      "chi_": 6202,
      "_Rav": 6203,
      "_Russ": 6204,
      "_Rein": 6205,
      "_Reed": 6206,
      "_Romero": 6207,
      "Beth": 6208,
      "ively": 6209,
      "owler": 6210,
      "Tep": 6211,
      "Tevi": 6212,
      "iller_": 6213,
      "_Crom": 6214,
      "_Conn": 6215,
      "_Cole": 6216,
      "_Clair": 6217,
      "_Cobb": 6218,
      "_Curtiz": 6219,
      "_Crabbe": 6220,
      "agi": 6221,
      "ident": 6222,
      "idge": 6223,
      "_Gar": 6224,
      "_Griffith": 6225,
      "_Ghuggi": 6226,
      "_Germain": 6227,
      "the_Cab": 6228,
      "eto": 6229,
      "ions": 6230,
      "_Hy": 6231,
      "_Har": 6232,
      "_Harr": 6233,
      "_Hol": 6234,
      "_Hall": 6235,
      "_Hey": 6236,
      "_Hoff": 6237,
      "_Haas": 6238,
      "_Hutt": 6239,
      "_Hatton": 6240,
      "odandaram": 6241,
      "_Del": 6242,
      "_Dhillon": 6243,
      "musician": 6244,
      "Chev": 6245,
      "Chines": 6246,
      "Chandr": 6247,
      "Chec": 6248,
      "Chester": 6249,
      "Chief": 6250,
      "_Pe": 6251,
      "_Pas": 6252,
      "_Pow": 6253,
      "_Poll": 6254,
      "_Port": 6255,
      "_Puri": 6256,
      "_Payn": 6257,
      "_Ponnamma": 6258,
      "arde": 6259,
      "arden": 6260,
      "ardwick": 6261,
      "aki": 6262,
      "akrishna": 6263,
      "ell_": 6264,
      "wash": 6265,
      "Its": 6266,
      "ersh": 6267,
      "Maris": 6268,
      "Marlin_": 6269,
      "_Fre": 6270,
      "_Ford": 6271,
      "_Foster": 6272,
      "_Fraser": 6273,
      "_Forst": 6274,
      "nez": 6275,
      "_Lau": 6276,
      "_Loy": 6277,
      "_Lynn": 6278,
      "_Ladd": 6279,
      "nie_Hunt": 6280,
      "_Kay": 6281,
      "_Khan_": 6282,
      "_Khanna": 6283,
      "umi": 6284,
      "abaki": 6285,
      "_Nev": 6286,
      "_Nelson": 6287,
      "Anura": 6288,
      "Annett": 6289,
      "Stoll": 6290,
      "cept": 6291,
      "allone": 6292,
      "itha_St": 6293,
      "Shep": 6294,
      "Shib": 6295,
      "Shashan": 6296,
      "Shilp": 6297,
      "_Joshi": 6298,
      "1982": 6299,
      "o_Amend": 6300,
      "Alic": 6301,
      "Alice": 6302,
      "Alain_": 6303,
      "Alumm": 6304,
      "emm": 6305,
      "ucas": 6306,
      "ucci": 6307,
      "endent": 6308,
      "endall": 6309,
      "John_S": 6310,
      "John_M": 6311,
      "John_Cle": 6312,
      "John_En": 6313,
      "proc": 6314,
      "season": 6315,
      "1994": 6316,
      "i_T": 6317,
      "show": 6318,
      "comes": 6319,
      "cock": 6320,
      "ewe": 6321,
      "arts": 6322,
      "when": 6323,
      "ahl": 6324,
      "Ingr": 6325,
      "1956": 6326,
      "attoli": 6327,
      "ifton": 6328,
      "1976": 6329,
      "ogelman": 6330,
      "_Ell": 6331,
      "_Egoyan": 6332,
      "plin": 6333,
      "Belg": 6334,
      "e_Fel": 6335,
      "e_Foster": 6336,
      "people": 6337,
      "ickford": 6338,
      "Edu": 6339,
      "Robert_L": 6340,
      "Robert_Young_": 6341,
      "_Ste": 6342,
      "_Starrett": 6343,
      "Davis_D": 6344,
      "_Ter": 6345,
      "_Tor": 6346,
      "_Tri": 6347,
      "_Tom": 6348,
      "_Tol": 6349,
      "_Taylor": 6350,
      "uparn": 6351,
      "Franç": 6352,
      "France": 6353,
      "1968": 6354,
      "bee": 6355,
      "_Vid": 6356,
      "eki": 6357,
      "oodan": 6358,
      "oodson": 6359,
      "orts": 6360,
      "othiri": 6361,
      "_Ol": 6362,
      "Arlen": 6363,
      "script": 6364,
      "isters": 6365,
      "Unni": 6366,
      "Univers": 6367,
      "Michael_L": 6368,
      "Michael_Curtiz": 6369,
      "Bloom": 6370,
      "issa_": 6371,
      "iele": 6372,
      "ibbee": 6373,
      "Adolf": 6374,
      "George_S": 6375,
      "Dexter": 6376,
      "David_M": 6377,
      "ajwa": 6378,
      "haran": 6379,
      "e_Woodson": 6380,
      "Charles_B": 6381,
      "Charles_Cha": 6382,
      "Charles_Starrett": 6383,
      "social": 6384,
      "William_A": 6385,
      "Janis": 6386,
      "_Is": 6387,
      "onte": 6388,
      "Jameson": 6389,
      "James_Stewart": 6390,
      "ghese": 6391,
      "_Allégret": 6392,
      "a_Sen": 6393,
      "a_Singh": 6394,
      "Eli_R": 6395,
      "playing": 6396,
      "_Chakraborty": 6397,
      "_Chopra": 6398,
      "esh_": 6399,
      "Rajiv": 6400,
      "Frank_R": 6401,
      "e_Howard": 6402,
      "Jose_": 6403,
      "bojš": 6404,
      "boothiri": 6405,
      "erty": 6406,
      "Jackman": 6407,
      "Jackie_": 6408,
      "undaro": 6409,
      "Sam_New": 6410,
      "Anna_M": 6411,
      "ences": 6412,
      "Richards": 6413,
      "Jayanth": 6414,
      "offin": 6415,
      "offic": 6416,
      "Guy_": 6417,
      "Peter_But": 6418,
      "phical": 6419,
      "photo": 6420,
      "y_Moore": 6421,
      "_McDonald": 6422,
      "_McNeil": 6423,
      "_Anderson": 6424,
      "ailey": 6425,
      "Isa": 6426,
      "international": 6427,
      "ravis": 6428,
      "6060": 6429,
      "well_": 6430,
      "Edward_H": 6431,
      "Neill": 6432,
      "Nebojš": 6433,
      "Quinn": 6434,
      "Quaid": 6435,
      "atsu": 6436,
      "y_Drew": 6437,
      "_Roach": 6438,
      "regulars": 6439,
      "dita_": 6440,
      "dition": 6441,
      "alker": 6442,
      "y_Grewal": 6443,
      "_Whit": 6444,
      "ments": 6445,
      "ments_": 6446,
      "Tomm": 6447,
      "iju": 6448,
      "o_Mar": 6449,
      "Fred_Mac": 6450,
      "Ramarajan": 6451,
      "2022": 6452,
      "y_Sr": 6453,
      "y_Sreekumar": 6454,
      "appears": 6455,
      "Rose": 6456,
      "Rosa_": 6457,
      "Victor_S": 6458,
      "Marc_Allégret": 6459,
      "Claire": 6460,
      "5460": 6461,
      "Flor": 6462,
      "telenov": 6463,
      "ensive": 6464,
      "a_Bh": 6465,
      "a_Barr": 6466,
      "Bernard_C": 6467,
      "Shabn": 6468,
      "_Butler_": 6469,
      "Evans_": 6470,
      "torey": 6471,
      "McDonald": 6472,
      "y_Wall": 6473,
      "Ashley_": 6474,
      "Ashleigh": 6475,
      "Mike": 6476,
      "axter": 6477,
      "ecchi_": 6478,
      "gupta": 6479,
      "sports": 6480,
      "_Wilson_": 6481,
      "22Red": 6482,
      "22_Barry": 6483,
      "Dickinson": 6484,
      "oyd_": 6485,
      "Helen_Mir": 6486,
      "Deron": 6487,
      "Lauri": 6488,
      "Laurenc": 6489,
      "Shane_Woodson": 6490,
      "_James_Cor": 6491,
      "Harold_Ram": 6492,
      "adim": 6493,
      "_Clifton": 6494,
      "mann_": 6495,
      "Natas": 6496,
      "Natash": 6497,
      "Rita": 6498,
      "Rita_M": 6499,
      "Rituparn": 6500,
      "Scott_McNeil": 6501,
      "film_producer": 6502,
      "ombell": 6503,
      "_Schultz": 6504,
      "_Raju": 6505,
      "Albert_S": 6506,
      "Arthur_H": 6507,
      "Ronald": 6508,
      "Alexand": 6509,
      "Gabby": 6510,
      "aro_N": 6511,
      "Shea": 6512,
      "Giorg": 6513,
      "Heather": 6514,
      "Simran": 6515,
      "oirala": 6516,
      "Sharma": 6517,
      "Canada": 6518,
      "Canutt": 6519,
      "_Banks": 6520,
      "orent": 6521,
      "y_Busey": 6522,
      "acek": 6523,
      "rishna_": 6524,
      "premiere": 6525,
      "Parker": 6526,
      "voice_": 6527,
      "_MacDonald": 6528,
      "Martin_Freeman": 6529,
      "Lamar": 6530,
      "Terrenc": 6531,
      "Clark_G": 6532,
      "ohler": 6533,
      "reys": 6534,
      "rakumar": 6535,
      "ian_Stan": 6536,
      "Shirley_and_D": 6537,
      "Fernand": 6538,
      "Wallace": 6539,
      "roney": 6540,
      "Carlos_V": 6541,
      "Patrici": 6542,
      "Emily_Van": 6543,
      "Ian_James_Cor": 6544,
      "Suso_C": 6545,
      "rinivas": 6546,
      "therton": 6547,
      "_Shaw": 6548,
      "_Rao": 6549,
      "ogovac": 6550,
      "Germany": 6551,
      "Australia": 6552,
      "Angeles": 6553,
      "Ralph_B": 6554,
      "Khush": 6555,
      "Allan_Lane": 6556,
      "3000": 6557,
      "6000": 6558,
      "Kevin": 6559,
      "Morio": 6560,
      "Nancy": 6561,
      "Sreelath": 6562,
      "Sebastian_Stan": 6563,
      "a_Mohan_": 6564,
      "Prakash_Raj": 6565,
      "Kannada_actress": 6566,
      "ydon": 6567,
      "Samuel_L": 6568,
      "Academ": 6569,
      "Atwell": 6570,
      "Gilles": 6571,
      "Milton": 6572,
      "Milburn": 6573,
      "oldberg": 6574,
      "_Hayes": 6575,
      "Chris_Evans_": 6576,
      "Claude": 6577,
      "Claude_": 6578,
      "Gary_Busey": 6579,
      "glish_": 6580,
      "Andrews": 6581,
      "5280": 6582,
      "Cesar_Romero": 6583,
      "_Benvenuti": 6584,
      "Dorothy_": 6585,
      "4560": 6586,
      "Eleon": 6587,
      "Miranda": 6588,
      "marked": 6589,
      "3900": 6590,
      "Ethel": 6591,
      "Loretta_Young": 6592,
      "Nanni_Moretti": 6593,
      "Owen_Wilson": 6594,
      "Tobias": 6595,
      "_Rogell": 6596,
      "Armand": 6597,
      "Sidney_Drew": 6598,
      "Jimmy_L": 6599,
      "Mario_Mattoli": 6600,
      "Alessandro_Benvenuti": 6601,
      "6420": 6602,
      "7020": 6603,
      "Egypt": 6604,
      "Jamie_": 6605,
      "Nathalie_": 6606,
      "Jagathy_Sreekumar": 6607,
      "successful": 6608,
      "Corey": 6609,
      "Punj": 6610,
      "biographical": 6611,
      "develop": 6612,
      "killed": 6613,
      "ríguez": 6614,
      "atyanarayana": 6615,
      "_Bhasi": 6616,
      "_Craig": 6617,
      "_David": 6618,
      "_Weber": 6619,
      "apurkar": 6620,
      "Archie_": 6621,
      "Adoor_Bhasi": 6622,
      "Edward_Burns": 6623,
      "_Johansson": 6624,
      "Roger_V": 6625,
      "Zulficar": 6626,
      "7560": 6627,
      "Bonnie_Hunt": 6628,
      "Gilbert": 6629,
      "Jessic": 6630,
      "Skiles": 6631,
      "nominated": 6632,
      "various": 6633,
      "entered": 6634,
      "opoulos": 6635,
      "Johnny_M": 6636,
      "Parvathy_": 6637,
      "Buster_Crabbe": 6638,
      "Dasari_Narayana_": 6639,
      "Kaviyoor_Ponnamma": 6640,
      "Mithun_Chakraborty": 6641,
      "Aarathi": 6642,
      "Aki_Kau": 6643,
      "Binnu_Dhillon": 6644,
      "Rolf_H": 6645,
      "Scarlett": 6646,
      "depict": 6647,
      "limited": 6648,
      "le_Guy": 6649,
      "_Salvador": 6650,
      "_Dixit": 6651,
      "akamoto": 6652,
      "o_Vanzina": 6653,
      "Elmer_Clifton": 6654,
      "cartoon": 6655,
      "Lloyd_Bacon": 6656,
      "Larry_the_Cab": 6657,
      "Henry_Jackman": 6658,
      "Gurpreet_Ghuggi": 6659,
      "Heinz_Roemheld": 6660,
      "Buzz": 6661,
      "Comics": 6662,
      "Karamjit": 6663,
      "Miguel": 6664,
      "Willi_Forst": 6665,
      "called": 6666,
      "melod": 6667,
      "video": 6668,
      "Channel": 6669,
      "Madeleine_": 6670,
      "Madhuri_Dixit": 6671,
      "Kaikala_S": 6672,
      "Atom_Egoyan": 6673,
      "Konstantin_": 6674,
      "Gaspar": 6675,
      "Gippy_Grewal": 6676,
      "Havilland": 6677,
      "Lokesh": 6678,
      "Pisith": 6679,
      "Sentai": 6680,
      "Svetlan": 6681,
      "Tabitha_St": 6682,
      "Tracey_Moore": 6683,
      "Xavier": 6684,
      "copy": 6685,
      "co_Zalone": 6686,
      "dubbed": 6687,
      "himself": 6688,
      "jös": 6689,
      "psych": 6690,
      "wara_Rao": 6691,
      "wambharan": 6692,
      "dialog": 6693,
      "esemael": 6694,
      "_Marshall": 6695,
      "Thikkuris": 6696,
      "_Ravichandran": 6697,
      "_Russell": 6698,
      "Chinese": 6699,
      "Chandra_Mohan_": 6700,
      "Checco_Zalone": 6701,
      "_Payne_": 6702,
      "Marlin_Skiles": 6703,
      "Shashank": 6704,
      "o_Amendola": 6705,
      "Alain_Delon": 6706,
      "Alummoodan": 6707,
      "John_Clements_": 6708,
      "John_English_": 6709,
      "Davis_Doi": 6710,
      "Charles_Chaplin": 6711,
      "Eli_Roth": 6712,
      "Sam_Newfield": 6713,
      "Peter_Butterworth": 6714,
      "Fred_MacMurray": 6715,
      "telenovela": 6716,
      "Ashleigh_Ball": 6717,
      "ecchi_d": 6718,
      "Helen_Mirren": 6719,
      "Harold_Ramis": 6720,
      "Shirley_and_Dino": 6721,
      "Emily_VanCamp": 6722,
      "Ian_James_Corlett": 6723,
      "Suso_Cecchi_d": 6724,
      "rinivasa_Rao": 6725,
      "Academy": 6726,
      "Egyptian": 6727,
      "Dasari_Narayana_Rao": 6728,
      "Aki_Kaurismäki": 6729,
      "Larry_the_Cable_Guy": 6730,
      "Kaikala_Satyanarayana": 6731,
      "13": 6732,
      "41": 6733,
      "50": 6734,
      "Ap": 6735,
      "Aur": 6736,
      "Adit": 6737,
      "Aravind": 6738,
      "Bas": 6739,
      "Bes": 6740,
      "Bus": 6741,
      "Big": 6742,
      "Bang": 6743,
      "Bhan": 6744,
      "Bart": 6745,
      "Barrymore": 6746,
      "Boris": 6747,
      "Bruce": 6748,
      "Civil": 6749,
      "Corman": 6750,
      "Court": 6751,
      "Dj": 6752,
      "Dun": 6753,
      "Dur": 6754,
      "Daksh": 6755,
      "Ek": 6756,
      "Edi": 6757,
      "Earl": 6758,
      "Earth": 6759,
      "Farr": 6760,
      "Fle": 6761,
      "Gre": 6762,
      "Gor": 6763,
      "Gang": 6764,
      "Gop": 6765,
      "Gian": 6766,
      "Gib": 6767,
      "Gary": 6768,
      "Gert": 6769,
      "Gray": 6770,
      "Grig": 6771,
      "Goran": 6772,
      "Griffith": 6773,
      "Hé": 6774,
      "Haw": 6775,
      "Hild": 6776,
      "Harsh": 6777,
      "Hannah": 6778,
      "Jenn": 6779,
      "Jyoti": 6780,
      "Kn": 6781,
      "Kav": 6782,
      "Khan": 6783,
      "Kier": 6784,
      "Kost": 6785,
      "Kast": 6786,
      "Kats": 6787,
      "Kirk": 6788,
      "Lin": 6789,
      "Lat": 6790,
      "Lav": 6791,
      "Long": 6792,
      "Lane": 6793,
      "Luch": 6794,
      "Loren": 6795,
      "Lasseter": 6796,
      "Landers": 6797,
      "Lillian": 6798,
      "Mell": 6799,
      "Mot": 6800,
      "Mich": 6801,
      "Mish": 6802,
      "Maj": 6803,
      "Mast": 6804,
      "Mason": 6805,
      "Magg": 6806,
      "Morgan": 6807,
      "Menon": 6808,
      "Nav": 6809,
      "Net": 6810,
      "Nair": 6811,
      "Nando": 6812,
      "Naray": 6813,
      "Ok": 6814,
      "Otto": 6815,
      "Orest": 6816,
      "Pin": 6817,
      "Pine": 6818,
      "Puri": 6819,
      "Poo": 6820,
      "Rom": 6821,
      "Rut": 6822,
      "Rum": 6823,
      "Rie": 6824,
      "Rhy": 6825,
      "Rush": 6826,
      "Ragh": 6827,
      "Sad": 6828,
      "Sul": 6829,
      "Soman": 6830,
      "Sound": 6831,
      "Suth": 6832,
      "Sull": 6833,
      "Sanj": 6834,
      "Syl": 6835,
      "Suresh": 6836,
      "Tinto": 6837,
      "Tanner": 6838,
      "Tavernier": 6839,
      "Taylor": 6840,
      "Ví": 6841,
      "Vic": 6842,
      "Vig": 6843,
      "Vitt": 6844,
      "Wu": 6845,
      "Warren": 6846,
      "Xue": 6847,
      "Yud": 6848,
      "Yvon": 6849,
      "ahn": 6850,
      "bil": 6851,
      "bon": 6852,
      "cr": 6853,
      "cir": 6854,
      "carn": 6855,
      "cady": 6856,
      "cover": 6857,
      "ds": 6858,
      "din": 6859,
      "dem": 6860,
      "dant": 6861,
      "drich": 6862,
      "eer": 6863,
      "fav": 6864,
      "few": 6865,
      "gal": 6866,
      "get": 6867,
      "gentine": 6868,
      "hat": 6869,
      "hra": 6870,
      "high": 6871,
      "ired": 6872,
      "ious": 6873,
      "jad": 6874,
      "jevi": 6875,
      "kos": 6876,
      "lad": 6877,
      "long": 6878,
      "live": 6879,
      "mut": 6880,
      "must": 6881,
      "miss": 6882,
      "mont": 6883,
      "member": 6884,
      "middle": 6885,
      "ny": 6886,
      "noir": 6887,
      "nink": 6888,
      "oq": 6889,
      "oî": 6890,
      "oit": 6891,
      "pin": 6892,
      "pass": 6893,
      "pict": 6894,
      "power": 6895,
      "person": 6896,
      "public": 6897,
      "rov": 6898,
      "rne": 6899,
      "rum": 6900,
      "sister": 6901,
      "tor": 6902,
      "turn": 6903,
      "true": 6904,
      "tega": 6905,
      "ved": 6906,
      "wu": 6907,
      "would": 6908,
      "xel": 6909,
      "yck": 6910,
      "yach": 6911,
      "zal": 6912,
      "zvan": 6913,
      "Örne": 6914,
      "áz": 6915,
      "är": 6916,
      "ädrich": 6917,
      "éris": 6918,
      "ón": 6919,
      "óme": 6920,
      "ôni": 6921,
      "ared": 6922,
      "arian": 6923,
      "argo": 6924,
      "inam": 6925,
      "inci": 6926,
      "anch": 6927,
      "anama": 6928,
      "ster": 6929,
      "stor": 6930,
      "stone": 6931,
      "studi": 6932,
      "erman": 6933,
      "arraz": 6934,
      "tha": 6935,
      "thi": 6936,
      "thw": 6937,
      "than": 6938,
      "though": 6939,
      "thvi": 6940,
      "threat": 6941,
      "onic": 6942,
      "onso": 6943,
      "div": 6944,
      "dict": 6945,
      "rib": 6946,
      "rier": 6947,
      "ribb": 6948,
      "ene": 6949,
      "enth": 6950,
      "ened": 6951,
      "enberg": 6952,
      "alter": 6953,
      "andam": 6954,
      "asm": 6955,
      "ases": 6956,
      "asim": 6957,
      "ascon": 6958,
      "ician": 6959,
      "ically": 6960,
      "esc": 6961,
      "elt": 6962,
      "elas": 6963,
      "eley": 6964,
      "Cart": 6965,
      "Carthy": 6966,
      "amu": 6967,
      "isha": 6968,
      "190": 6969,
      "omura": 6970,
      "oles": 6971,
      "rau": 6972,
      "raff": 6973,
      "radio": 6974,
      "ouri": 6975,
      "osa": 6976,
      "ushan": 6977,
      "unter": 6978,
      "lex": 6979,
      "itive": 6980,
      "irs": 6981,
      "iron": 6982,
      "ado": 6983,
      "adey": 6984,
      "adway": 6985,
      "Amjad": 6986,
      "iman": 6987,
      "tti": 6988,
      "Preston": 6989,
      "ayya": 6990,
      "owan": 6991,
      "urst": 6992,
      "urse": 6993,
      "illator": 6994,
      "ago": 6995,
      "agu": 6996,
      "agher": 6997,
      "agger": 6998,
      "acting": 6999,
      "activ": 7000,
      "idt": 7001,
      "aves": 7002,
      "odor": 7003,
      "odes": 7004,
      "igley": 7005,
      "ardem": 7006,
      "akef": 7007,
      "eller": 7008,
      "elling": 7009,
      "Joy": 7010,
      "many": 7011,
      "former": 7012,
      "erick": 7013,
      "ently": 7014,
      "entire": 7015,
      "Marion": 7016,
      "Marathi": 7017,
      "neg": 7018,
      "haw": 7019,
      "resp": 7020,
      "ope": 7021,
      "opez": 7022,
      "opera": 7023,
      "Anj": 7024,
      "Ant": 7025,
      "Anza": 7026,
      "Stef": 7027,
      "Stép": 7028,
      "2005": 7029,
      "hner": 7030,
      "Roc": 7031,
      "Roth": 7032,
      "apore": 7033,
      "apadi": 7034,
      "allée": 7035,
      "alliani": 7036,
      "Short": 7037,
      "iante": 7038,
      "1988": 7039,
      "empt": 7040,
      "emescu": 7041,
      "endon": 7042,
      "ended": 7043,
      "endran": 7044,
      "1940": 7045,
      "sex": 7046,
      "udson": 7047,
      "ante": 7048,
      "ikar": 7049,
      "Carolina": 7050,
      "Rach": 7051,
      "coming": 7052,
      "Pros": 7053,
      "ewell": 7054,
      "ewitt": 7055,
      "indep": 7056,
      "indust": 7057,
      "Camer": 7058,
      "aheed": 7059,
      "1955": 7060,
      "ished": 7061,
      "ugu": 7062,
      "eyder": 7063,
      "ifer": 7064,
      "1972": 7065,
      "ogy": 7066,
      "ogan": 7067,
      "ogen": 7068,
      "ogalliani": 7069,
      "herjee": 7070,
      "pling": 7071,
      "pect": 7072,
      "assi": 7073,
      "Edd": 7074,
      "rics": 7075,
      "Roberts": 7076,
      "Dave": 7077,
      "araf": 7078,
      "aia": 7079,
      "aiah": 7080,
      "1961": 7081,
      "1962": 7082,
      "1965": 7083,
      "1960s": 7084,
      "ains": 7085,
      "aint": 7086,
      "bec": 7087,
      "eke": 7088,
      "irit": 7089,
      "deep": 7090,
      "Aranda": 7091,
      "Ardant": 7092,
      "Argentine": 7093,
      "uston": 7094,
      "isting": 7095,
      "ubey": 7096,
      "Carlo": 7097,
      "Carlin": 7098,
      "ibai": 7099,
      "Cardona": 7100,
      "Adler": 7101,
      "rens": 7102,
      "Campb": 7103,
      "Brien": 7104,
      "mett": 7105,
      "meij": 7106,
      "Jansen": 7107,
      "playwright": 7108,
      "onnard": 7109,
      "Patton": 7110,
      "Patekar": 7111,
      "Jose": 7112,
      "lyrics": 7113,
      "Benoî": 7114,
      "unders": 7115,
      "Samson": 7116,
      "Samaresh": 7117,
      "Christmas": 7118,
      "ette": 7119,
      "ancini": 7120,
      "Paris": 7121,
      "Sidney": 7122,
      "anya": 7123,
      "screened": 7124,
      "Manoj": 7125,
      "Quigley": 7126,
      "making": 7127,
      "Moon": 7128,
      "Moto": 7129,
      "regular": 7130,
      "alke": 7131,
      "Calcutta": 7132,
      "every": 7133,
      "exec": 7134,
      "oorthy": 7135,
      "inning": 7136,
      "Bruno": 7137,
      "itta": 7138,
      "itti": 7139,
      "Raman": 7140,
      "2021": 7141,
      "Emman": 7142,
      "Emmett": 7143,
      "Cardcaptor": 7144,
      "Jaclyn": 7145,
      "Colbert": 7146,
      "Floren": 7147,
      "Florest": 7148,
      "Daniels": 7149,
      "Shafi": 7150,
      "dieu": 7151,
      "titled": 7152,
      "rimm": 7153,
      "Asrani": 7154,
      "1913": 7155,
      "Media": 7156,
      "Mikael": 7157,
      "spirit": 7158,
      "ansu": 7159,
      "itzer": 7160,
      "Lauren": 7161,
      "Shannon": 7162,
      "oudhary": 7163,
      "Louise": 7164,
      "Glory": 7165,
      "While": 7166,
      "mamagan": 7167,
      "ozlan": 7168,
      "ozints": 7169,
      "Doris": 7170,
      "Ritter": 7171,
      "yrd": 7172,
      "included": 7173,
      "Cassid": 7174,
      "Leonor": 7175,
      "Leonard": 7176,
      "Gius": 7177,
      "uval": 7178,
      "Gene": 7179,
      "asilescu": 7180,
      "oreno": 7181,
      "Dinata": 7182,
      "Prithvi": 7183,
      "Wilhel": 7184,
      "prior": 7185,
      "assett": 7186,
      "often": 7187,
      "help": 7188,
      "janović": 7189,
      "voice": 7190,
      "Terry": 7191,
      "aquin": 7192,
      "ueiro": 7193,
      "Solberg": 7194,
      "Jefferson": 7195,
      "Mahon": 7196,
      "Reeves": 7197,
      "idden": 7198,
      "Patricia": 7199,
      "Maxwell": 7200,
      "Padmamagan": 7201,
      "Ortega": 7202,
      "Sreekumar": 7203,
      "Clifton": 7204,
      "Bryant": 7205,
      "conti": 7206,
      "track": 7207,
      "reviews": 7208,
      "ascal": 7209,
      "Sherman": 7210,
      "Cornel": 7211,
      "Denzel": 7212,
      "Gillian": 7213,
      "Nicolá": 7214,
      "Singeet": 7215,
      "Singapore": 7216,
      "Seton": 7217,
      "duo": 7218,
      "parents": 7219,
      "Romanian": 7220,
      "María": 7221,
      "Afzal": 7222,
      "cameo": 7223,
      "having": 7224,
      "theatrical": 7225,
      "Anupam": 7226,
      "Shroff": 7227,
      "Shruti": 7228,
      "Eleanor": 7229,
      "Kathleen": 7230,
      "rellana": 7231,
      "formation": 7232,
      "Avani": 7233,
      "Fais": 7234,
      "Kristen": 7235,
      "argas": 7236,
      "Imogen": 7237,
      "Jerem": 7238,
      "Jamie": 7239,
      "worldwide": 7240,
      "Jagathy": 7241,
      "Butler": 7242,
      "Dowell": 7243,
      "Downey": 7244,
      "Yoshit": 7245,
      "episodes": 7246,
      "decade": 7247,
      "Deborah": 7248,
      "Broadway": 7249,
      "Fuller": 7250,
      "Lisa": 7251,
      "Ranft": 7252,
      "celos": 7253,
      "country": 7254,
      "married": 7255,
      "rilogy": 7256,
      "singing": 7257,
      "collection": 7258,
      "Cannes": 7259,
      "Nikol": 7260,
      "Vishn": 7261,
      "kaljevi": 7262,
      "ossett": 7263,
      "Madhur": 7264,
      "Dermot": 7265,
      "Francesco": 7266,
      "Bodil": 7267,
      "Serbian": 7268,
      "Cava": 7269,
      "unziante": 7270,
      "Indrans": 7271,
      "Ingrid": 7272,
      "grossing": 7273,
      "Giovanni": 7274,
      "Filip": 7275,
      "Himansu": 7276,
      "Karthik": 7277,
      "affair": 7278,
      "fredi": 7279,
      "Álvar": 7280,
      "process": 7281,
      "François": 7282,
      "photogra": 7283,
      "Alexandre": 7284,
      "Khushbu": 7285,
      "Punjabi": 7286,
      "melodrama": 7287,
      "Banglad": 7288,
      "Dakshinam": 7289,
      "Gertrud": 7290,
      "Grigori": 7291,
      "Kostas": 7292,
      "Laverty": 7293,
      "Melliss": 7294,
      "Sullivan": 7295,
      "Víctor": 7296,
      "Vicent": 7297,
      "Xuechang": 7298,
      "Yvonne": 7299,
      "circ": 7300,
      "members": 7301,
      "ninkmeij": 7302,
      "passant": 7303,
      "picture": 7304,
      "personal": 7305,
      "Örnek": 7306,
      "ómez": 7307,
      "studio": 7308,
      "arrazin": 7309,
      "ribbins": 7310,
      "altern": 7311,
      "asconcelos": 7312,
      "raffin": 7313,
      "adeyar": 7314,
      "illatoro": 7315,
      "akefield": 7316,
      "entirely": 7317,
      "apadia": 7318,
      "independent": 7319,
      "execut": 7320,
      "ozintsev": 7321,
      "Prithviraj": 7322,
      "Wilhelm": 7323,
      "kaljević": 7324,
      "Bangladesh": 7325,
      "Dakshinamoorthy": 7326,
      "ninkmeijer": 7327,
      "23": 7328,
      "29": 7329,
      "240": 7330,
      "320": 7331,
      "380": 7332,
      "440": 7333,
      "4320": 7334,
      "620": 7335,
      "640": 7336,
      "6600": 7337,
      "6240": 7338,
      "7440": 7339,
      "8th": 7340,
      "840": 7341,
      "8820": 7342,
      "8640": 7343,
      "Act": 7344,
      "Ach": 7345,
      "Actor": 7346,
      "Ajit": 7347,
      "Aidan": 7348,
      "Ahmed": 7349,
      "Bo": 7350,
      "Bou": 7351,
      "Bud": 7352,
      "Bog": 7353,
      "Bark": 7354,
      "Biz": 7355,
      "Brand": 7356,
      "Berg": 7357,
      "Budd": 7358,
      "Burnett": 7359,
      "Baker": 7360,
      "Burnette": 7361,
      "Buckley": 7362,
      "Cic": 7363,
      "Crime": 7364,
      "Cox": 7365,
      "Cyr": 7366,
      "Cuy": 7367,
      "César": 7368,
      "Dut": 7369,
      "Die": 7370,
      "Dud": 7371,
      "Dine_": 7372,
      "Dwar": 7373,
      "Duff": 7374,
      "Eri": 7375,
      "East": 7376,
      "Erich": 7377,
      "Fore": 7378,
      "Fab": 7379,
      "Fung": 7380,
      "Fury": 7381,
      "Foran": 7382,
      "Fritz": 7383,
      "Go": 7384,
      "Gan": 7385,
      "Gov": 7386,
      "Gum": 7387,
      "Gran": 7388,
      "Gau": 7389,
      "Gina_": 7390,
      "Grand": 7391,
      "Gillespie": 7392,
      "Goldberg": 7393,
      "Hunt": 7394,
      "Hart": 7395,
      "Hass": 7396,
      "Hale": 7397,
      "Haas": 7398,
      "Il": 7399,
      "Ip": 7400,
      "Iran": 7401,
      "Iren": 7402,
      "Ion_B": 7403,
      "Iwa": 7404,
      "Kl": 7405,
      "Ky": 7406,
      "Kim": 7407,
      "Kell": 7408,
      "Kot": 7409,
      "Kay_": 7410,
      "Kott": 7411,
      "Kate": 7412,
      "Kosh": 7413,
      "Kashan": 7414,
      "Khanna": 7415,
      "Krishna": 7416,
      "Kandy": 7417,
      "Lan": 7418,
      "Lol": 7419,
      "Lun": 7420,
      "Lov": 7421,
      "Lod": 7422,
      "Language": 7423,
      "Lu_": 7424,
      "Ladd": 7425,
      "Linds": 7426,
      "Lerner": 7427,
      "Má": 7428,
      "Mos": 7429,
      "Mag": 7430,
      "Mul": 7431,
      "Music": 7432,
      "Maur": 7433,
      "Mabel": 7434,
      "Nar": 7435,
      "Nin": 7436,
      "Narr": 7437,
      "Nil": 7438,
      "Nad": 7439,
      "Nog": 7440,
      "Nana_": 7441,
      "Nelson": 7442,
      "Nelv": 7443,
      "Our": 7444,
      "Out": 7445,
      "Off": 7446,
      "Orig": 7447,
      "PA": 7448,
      "Po": 7449,
      "Por": 7450,
      "Ped": 7451,
      "Pet": 7452,
      "Pau": 7453,
      "Paz": 7454,
      "Pert": 7455,
      "Pix": 7456,
      "Pione": 7457,
      "Ră": 7458,
      "Rez": 7459,
      "Romero": 7460,
      "Randy_": 7461,
      "Si": 7462,
      "Sr": 7463,
      "Sy": 7464,
      "Sath": 7465,
      "Sall": 7466,
      "Spr": 7467,
      "Sind": 7468,
      "Sey": 7469,
      "Soll": 7470,
      "Syn": 7471,
      "Sib": 7472,
      "Sreen": 7473,
      "Sally": 7474,
      "Super": 7475,
      "Stock": 7476,
      "Tw": 7477,
      "Tre": 7478,
      "Tun": 7479,
      "Tay": 7480,
      "Tot": 7481,
      "Tai": 7482,
      "Tara_": 7483,
      "Tay_": 7484,
      "Tatyan": 7485,
      "Travis": 7486,
      "US": 7487,
      "Uk": 7488,
      "Vid": 7489,
      "Vent": 7490,
      "Vyach": 7491,
      "Wa": 7492,
      "Wand": 7493,
      "Wang": 7494,
      "Wash": 7495,
      "Winter": 7496,
      "Wright": 7497,
      "Werner": 7498,
      "Waters": 7499,
      "Walker": 7500,
      "Xia": 7501,
      "Yev": 7502,
      "Yury_": 7503,
      "Zh": 7504,
      "Zo": 7505,
      "Zs": 7506,
      "Zeal": 7507,
      "_Cal": 7508,
      "_Carson": 7509,
      "_Queen": 7510,
      "_von": 7511,
      "_Campb": 7512,
      "añ": 7513,
      "aunt": 7514,
      "aif": 7515,
      "aunders": 7516,
      "aCava": 7517,
      "bs": 7518,
      "bus": 7519,
      "bir": 7520,
      "bour": 7521,
      "best": 7522,
      "bury": 7523,
      "basi": 7524,
      "can": 7525,
      "cen": 7526,
      "ced": 7527,
      "cra": 7528,
      "cow": 7529,
      "cern": 7530,
      "ce_B": 7531,
      "care": 7532,
      "crim": 7533,
      "dman": 7534,
      "d_St": 7535,
      "dock": 7536,
      "dale": 7537,
      "do_F": 7538,
      "dapurkar": 7539,
      "eat": 7540,
      "eck": 7541,
      "eep": 7542,
      "fus": 7543,
      "fall": 7544,
      "fif": 7545,
      "found": 7546,
      "ges": 7547,
      "ga_": 7548,
      "gant": 7549,
      "gata": 7550,
      "hin": 7551,
      "h_B": 7552,
      "hul": 7553,
      "home": 7554,
      "husband": 7555,
      "iș": 7556,
      "ius": 7557,
      "i_L": 7558,
      "iță": 7559,
      "jed": 7560,
      "ja_": 7561,
      "ji_": 7562,
      "j_Tri": 7563,
      "ja_Bh": 7564,
      "kr": 7565,
      "ked": 7566,
      "ko_": 7567,
      "le_": 7568,
      "ly_": 7569,
      "l_H": 7570,
      "lif": 7571,
      "lost": 7572,
      "lings": 7573,
      "logovac": 7574,
      "lished": 7575,
      "mour": 7576,
      "mult": 7577,
      "mother": 7578,
      "ns": 7579,
      "narr": 7580,
      "nano": 7581,
      "number": 7582,
      "ny_Ch": 7583,
      "oan": 7584,
      "o_S": 7585,
      "o_P": 7586,
      "pra": 7587,
      "por_": 7588,
      "piro": 7589,
      "place": 7590,
      "present": 7591,
      "roll": 7592,
      "rone": 7593,
      "sat": 7594,
      "sy_": 7595,
      "send": 7596,
      "sele": 7597,
      "sy_S": 7598,
      "such": 7599,
      "semi": 7600,
      "se_Mc": 7601,
      "ting": 7602,
      "trilogy": 7603,
      "uang": 7604,
      "u_Se": 7605,
      "u_Chatterjee": 7606,
      "u_Var": 7607,
      "vir": 7608,
      "vey": 7609,
      "vict": 7610,
      "vert": 7611,
      "view": 7612,
      "wyck": 7613,
      "winning": 7614,
      "yel": 7615,
      "yne": 7616,
      "yan_": 7617,
      "ya_P": 7618,
      "z_": 7619,
      "zen": 7620,
      "zom": 7621,
      "zach": 7622,
      "Éric": 7623,
      "än": 7624,
      "èn": 7625,
      "ō_": 7626,
      "arst": 7627,
      "ares": 7628,
      "arina_": 7629,
      "arwell": 7630,
      "arnett": 7631,
      "arza": 7632,
      "inz": 7633,
      "ine_F": 7634,
      "ino_V": 7635,
      "inh_B": 7636,
      "anan": 7637,
      "anie_": 7638,
      "anford": 7639,
      "anović": 7640,
      "ano_V": 7641,
      "steen": 7642,
      "eren": 7643,
      "erland": 7644,
      "errigan": 7645,
      "arrier": 7646,
      "ili": 7647,
      "ilt": 7648,
      "iler": 7649,
      "il_J": 7650,
      "ilton": 7651,
      "iley": 7652,
      "ilika": 7653,
      "rey_": 7654,
      "reton": 7655,
      "reiss": 7656,
      "Cahill": 7657,
      "orch": 7658,
      "or_F": 7659,
      "orio": 7660,
      "orris": 7661,
      "ory_L": 7662,
      "e_Ch": 7663,
      "e_Stevens": 7664,
      "e_Tucker": 7665,
      "e_Andrews": 7666,
      "e_Aranda": 7667,
      "e_Colbert": 7668,
      "thorne": 7669,
      "ony": 7670,
      "ones": 7671,
      "die_B": 7672,
      "differ": 7673,
      "die_Foster": 7674,
      "rix": 7675,
      "ribe": 7676,
      "rizi": 7677,
      "enjit": 7678,
      "entertain": 7679,
      "en_Ham": 7680,
      "enko": 7681,
      "aldi": 7682,
      "alov": 7683,
      "ali_": 7684,
      "alist": 7685,
      "ale_S": 7686,
      "ala_A": 7687,
      "andra": 7688,
      "andrakumar": 7689,
      "asp": 7690,
      "eson": 7691,
      "esse": 7692,
      "eslav": 7693,
      "eswara_Rao": 7694,
      "eling": 7695,
      "ele_": 7696,
      "el_C": 7697,
      "elav": 7698,
      "el_L": 7699,
      "elito": 7700,
      "el_Carr": 7701,
      "a_Sh": 7702,
      "a_Ra": 7703,
      "a_De": 7704,
      "a_Gu": 7705,
      "Caren": 7706,
      "amet": 7707,
      "amboothiri": 7708,
      "isi": 7709,
      "isak": 7710,
      "is_Goldb": 7711,
      "isconti": 7712,
      "atch": 7713,
      "y_Russell": 7714,
      "y_Ardant": 7715,
      "omello": 7716,
      "omicki": 7717,
      "directors": 7718,
      "_film_actor": 7719,
      "terson_": 7720,
      "olberg": 7721,
      "in_F": 7722,
      "in_Frank": 7723,
      "in_Williams": 7724,
      "theme": 7725,
      "rah": 7726,
      "rago": 7727,
      "_Sk": 7728,
      "_Sw": 7729,
      "_Sin": 7730,
      "_Sen": 7731,
      "_Sov": 7732,
      "_Sto": 7733,
      "_Sak": 7734,
      "_Spr": 7735,
      "_Sant": 7736,
      "_Sher": 7737,
      "_Saf": 7738,
      "_Scar": 7739,
      "_Sbar": 7740,
      "_Subb": 7741,
      "_Simon": 7742,
      "_Saraf": 7743,
      "osla": 7744,
      "ofer": 7745,
      "ofess": 7746,
      "_Mi": 7747,
      "_Mas": 7748,
      "_Mos": 7749,
      "_Mak": 7750,
      "_Mack": 7751,
      "_Mish": 7752,
      "_Mara": 7753,
      "_Muk": 7754,
      "_Mont": 7755,
      "_Mock": 7756,
      "_Mush": 7757,
      "_Mani": 7758,
      "_Morgan": 7759,
      "_Metz": 7760,
      "_Mune": 7761,
      "_Menz": 7762,
      "The_S": 7763,
      "usud": 7764,
      "undi": 7765,
      "univers": 7766,
      "lea": 7767,
      "lev": 7768,
      "lect": 7769,
      "ley_M": 7770,
      "ital": 7771,
      "ita_": 7772,
      "it_S": 7773,
      "it_K": 7774,
      "iras": 7775,
      "iros": 7776,
      "ader": 7777,
      "adult": 7778,
      "adori": 7779,
      "adsen": 7780,
      "adagn": 7781,
      "_Bran": 7782,
      "_Bren": 7783,
      "_Beth": 7784,
      "_Bhar": 7785,
      "_Blan": 7786,
      "_Brig": 7787,
      "_Blair": 7788,
      "_Boris": 7789,
      "_Baker": 7790,
      "_Brault": 7791,
      "_Boyd_": 7792,
      "_Belt": 7793,
      "_Bardem": 7794,
      "_Bonnard": 7795,
      "Amy": 7796,
      "Amin_": 7797,
      "Amit": 7798,
      "Amber": 7799,
      "Amy_L": 7800,
      "Amrish": 7801,
      "Ampor_": 7802,
      "Captain_Raju": 7803,
      "imov": 7804,
      "chev": 7805,
      "chron": 7806,
      "_Ren": 7807,
      "_Ray": 7808,
      "_Rod": 7809,
      "_Rath": 7810,
      "_Rich": 7811,
      "_Rai": 7812,
      "_Riemann": 7813,
      "_Resnick": 7814,
      "_Ratnam": 7815,
      "_Rundaro": 7816,
      "Beck": 7817,
      "Beery": 7818,
      "oval": 7819,
      "oved": 7820,
      "iven": 7821,
      "ivasan": 7822,
      "owo": 7823,
      "owdh": 7824,
      "urton": 7825,
      "urup": 7826,
      "urya": 7827,
      "ura_T": 7828,
      "Tej": 7829,
      "illy": 7830,
      "illan_": 7831,
      "_Can": 7832,
      "_Cur": 7833,
      "_Chan": 7834,
      "_Cox": 7835,
      "_Corman": 7836,
      "_Cool": 7837,
      "_Chane": 7838,
      "_Cook": 7839,
      "_Curtis": 7840,
      "agon": 7841,
      "agen": 7842,
      "agid": 7843,
      "agner": 7844,
      "ido": 7845,
      "iddi": 7846,
      "_Ge": 7847,
      "_Gi": 7848,
      "_Garr": 7849,
      "_Gall": 7850,
      "_Grey": 7851,
      "_Graham": 7852,
      "_Gopal": 7853,
      "_Gozlan": 7854,
      "cker": 7855,
      "aving": 7856,
      "avatt": 7857,
      "eta": 7858,
      "eta_S": 7859,
      "ul_R": 7860,
      "_Hel": 7861,
      "_Holl": 7862,
      "_Hung": 7863,
      "_Hudi": 7864,
      "_Huss": 7865,
      "_Houston": 7866,
      "_Hardwick": 7867,
      "_Hudson": 7868,
      "ompson_": 7869,
      "_Ay": 7870,
      "_Ash": 7871,
      "_Atkins": 7872,
      "_Alex": 7873,
      "ody": 7874,
      "_Dres": 7875,
      "_De_S": 7876,
      "_Donn": 7877,
      "_Denn": 7878,
      "_Dutt": 7879,
      "_Dougl": 7880,
      "_Dwan": 7881,
      "_De_Fel": 7882,
      "_Daquin": 7883,
      "_Drago": 7884,
      "Cha": 7885,
      "Chakraborty": 7886,
      "Chakravarthy": 7887,
      "_Pod": 7888,
      "_Pry": 7889,
      "_Past": 7890,
      "_Prab": 7891,
      "_Price": 7892,
      "_Panama": 7893,
      "_Pilika": 7894,
      "ardson_": 7895,
      "_Wal": 7896,
      "_Ward": 7897,
      "_Wong": 7898,
      "_Wein": 7899,
      "_Wester": 7900,
      "_Warren": 7901,
      "_Waters": 7902,
      "_Wellman": 7903,
      "_Wesemael": 7904,
      "_Wadeyar": 7905,
      "akov": 7906,
      "akish": 7907,
      "akoff": 7908,
      "ake_L": 7909,
      "akrishna_": 7910,
      "Prem_Chopra": 7911,
      "bera": 7912,
      "berman": 7913,
      "berhardt": 7914,
      "uteuil": 7915,
      "ellini": 7916,
      "ellamy": 7917,
      "ello_Mar": 7918,
      "João": 7919,
      "Jodie_Foster": 7920,
      "mani": 7921,
      "enton": 7922,
      "Mary_G": 7923,
      "Margu": 7924,
      "One": 7925,
      "_Fir": 7926,
      "_Fran": 7927,
      "_Field": 7928,
      "_Foran": 7929,
      "_Fitzgerald": 7930,
      "_Fogelman": 7931,
      "_Feyder": 7932,
      "_Fargas": 7933,
      "ney_W": 7934,
      "ney_Sr": 7935,
      "_La": 7936,
      "_Lo": 7937,
      "_Lie": 7938,
      "_Lind": 7939,
      "_Law": 7940,
      "_Lyub": 7941,
      "_Lucas": 7942,
      "nie_": 7943,
      "nie_W": 7944,
      "nie_B": 7945,
      "nikov": 7946,
      "_King": 7947,
      "_Kit": 7948,
      "_Kum": 7949,
      "_Kok": 7950,
      "_Knight": 7951,
      "_Kapoor": 7952,
      "_Kodandaram": 7953,
      "_Kozintsev": 7954,
      "_Kerrigan": 7955,
      "ores": 7956,
      "oreau": 7957,
      "ume": 7958,
      "umont": 7959,
      "umi_O": 7960,
      "um_Sov": 7961,
      "abdu": 7962,
      "abrizi": 7963,
      "arshan": 7964,
      "_Nol": 7965,
      "_Neu": 7966,
      "_Nemescu": 7967,
      "opic": 7968,
      "opol": 7969,
      "athak": 7970,
      "athi_": 7971,
      "Anto": 7972,
      "Andy": 7973,
      "Annie": 7974,
      "Anita_": 7975,
      "hana": 7976,
      "hannon": 7977,
      "Stark": 7978,
      "Storm": 7979,
      "iest": 7980,
      "2004": 7981,
      "_Thorpe": 7982,
      "_Thiele": 7983,
      "_Thompson_": 7984,
      "Roy_": 7985,
      "Roch": 7986,
      "aph": 7987,
      "aplin": 7988,
      "Shy": 7989,
      "Shat": 7990,
      "Show": 7991,
      "_Jun": 7992,
      "_Just": 7993,
      "_Jason": 7994,
      "o_E": 7995,
      "o_Val": 7996,
      "o_brothers": 7997,
      "Al_St": 7998,
      "Alist": 7999,
      "Alme": 8000,
      "Aldo_F": 8001,
      "ace_M": 8002,
      "ac_Fl": 8003,
      "acLaine": 8004,
      "ema_": 8005,
      "endr": 8006,
      "endra_": 8007,
      "estyle": 8008,
      "John_C": 8009,
      "John_K": 8010,
      "John_Carr": 8011,
      "John_Farr": 8012,
      "John_Kent": 8013,
      "John_Bol": 8014,
      "John_Payne_": 8015,
      "ie_Hammer": 8016,
      "ie_Dickinson": 8017,
      "sey": 8018,
      "ichi_S": 8019,
      "1930": 8020,
      "1931": 8021,
      "1933": 8022,
      "udmil": 8023,
      "i_U": 8024,
      "ike": 8025,
      "ikov": 8026,
      "ackett": 8027,
      "amai": 8028,
      "amauro": 8029,
      "Caroline": 8030,
      "ationship": 8031,
      "Rae": 8032,
      "Ray_": 8033,
      "Ray_L": 8034,
      "Rahul": 8035,
      "commer": 8036,
      "llman": 8037,
      "eway": 8038,
      "aux": 8039,
      "aught": 8040,
      "aupassant": 8041,
      "whose": 8042,
      "e_Magid": 8043,
      "e_Moreau": 8044,
      "cially": 8045,
      "tonen": 8046,
      "eping": 8047,
      "Cagney": 8048,
      "Insp": 8049,
      "isha_K": 8050,
      "isha_C": 8051,
      "uggl": 8052,
      "attempt": 8053,
      "ouns": 8054,
      "1973": 8055,
      "ernds": 8056,
      "ogg": 8057,
      "serves": 8058,
      "_Ev": 8059,
      "_Est": 8060,
      "_Eric": 8061,
      "_Eason": 8062,
      "awad": 8063,
      "oye": 8064,
      "oyama": 8065,
      "plac": 8066,
      "ple_K": 8067,
      "assist": 8068,
      "icke": 8069,
      "Edmond": 8070,
      "anny": 8071,
      "Robert_": 8072,
      "Robert_C": 8073,
      "Robert_A": 8074,
      "Robert_F": 8075,
      "Robert_Bl": 8076,
      "Robert_Carl": 8077,
      "Robert_Wester": 8078,
      "okh": 8079,
      "okan": 8080,
      "okaz": 8081,
      "Lek": 8082,
      "Lee_L": 8083,
      "Leelav": 8084,
      "_Str": 8085,
      "_Stein": 8086,
      "_Steiner": 8087,
      "_Tal": 8088,
      "_Tavernier": 8089,
      "_Tzach": 8090,
      "upiță": 8091,
      "Fran_Dres": 8092,
      "_Shep": 8093,
      "_Shrikanth": 8094,
      "_Val": 8095,
      "_Vij": 8096,
      "_Van_D": 8097,
      "_Váv": 8098,
      "_Vallée": 8099,
      "_Vasilescu": 8100,
      "Seeth": 8101,
      "Seema_": 8102,
      "Carmi": 8103,
      "Carmine_G": 8104,
      "Beauty": 8105,
      "_Or": 8106,
      "_Orol": 8107,
      "_Owen": 8108,
      "_Orellana": 8109,
      "debrand": 8110,
      "deals": 8111,
      "Arun": 8112,
      "scenes": 8113,
      "scene": 8114,
      "ustín": 8115,
      "_Yadav": 8116,
      "a_Mor": 8117,
      "a_Mir": 8118,
      "ocane": 8119,
      "Charlie": 8120,
      "Michael_M": 8121,
      "Michael_O": 8122,
      "Michael_Gold": 8123,
      "Michael_Han": 8124,
      "Michael_Schultz": 8125,
      "Blyst": 8126,
      "Bloss": 8127,
      "iels": 8128,
      "Carlson": 8129,
      "Carlo_Camp": 8130,
      "Carlo_Vanzina": 8131,
      "ible": 8132,
      "ib_K": 8133,
      "Adnan": 8134,
      "uke_": 8135,
      "uki_M": 8136,
      "aldwin": 8137,
      "George_M": 8138,
      "Georgia_": 8139,
      "George_Gordon": 8140,
      "de_Havilland": 8141,
      "az_": 8142,
      "azi": 8143,
      "ethi": 8144,
      "Brid": 8145,
      "Brien_": 8146,
      "David_W": 8147,
      "David_Farr": 8148,
      "David_Johan": 8149,
      "David_Butler_": 8150,
      "ajoli": 8151,
      "e_Wilton": 8152,
      "Charles_R": 8153,
      "Charles_W": 8154,
      "Charles_T": 8155,
      "ristel": 8156,
      "William_K": 8157,
      "William_Boyd_": 8158,
      "Jane_D": 8159,
      "Clure": 8160,
      "Clara": 8161,
      "Claudi": 8162,
      "e_Bro": 8163,
      "e_Bair": 8164,
      "e_Baxter": 8165,
      "e_Barnett": 8166,
      "e_Burton": 8167,
      "rotti": 8168,
      "James_": 8169,
      "James_G": 8170,
      "James_W": 8171,
      "James_F": 8172,
      "James_Edward": 8173,
      "James_Ell": 8174,
      "Bell_": 8175,
      "a_Sard": 8176,
      "a_Shan": 8177,
      "a_Sawd": 8178,
      "a_Solberg": 8179,
      "Els": 8180,
      "Elen": 8181,
      "Elwood": 8182,
      "Elisha_C": 8183,
      "asterson": 8184,
      "a_Katta": 8185,
      "arya": 8186,
      "Paul_H": 8187,
      "Paul_Ch": 8188,
      "Paul_Martin_": 8189,
      "Paul_Green": 8190,
      "Paul_Cox": 8191,
      "_Christ": 8192,
      "_Christian": 8193,
      "_Chakravarthy": 8194,
      "_Cheung": 8195,
      "_Chalke": 8196,
      "_Chandrakumar": 8197,
      "Pearl": 8198,
      "an_de_": 8199,
      "e_Gr": 8200,
      "esh_Bandopadhyay": 8201,
      "Patsy_": 8202,
      "Rajasekhar": 8203,
      "Frank_Wh": 8204,
      "Frank_Gr": 8205,
      "Mala": 8206,
      "Malvino": 8207,
      "ariw": 8208,
      "e_Hol": 8209,
      "e_Hadd": 8210,
      "Joselito": 8211,
      "ippy": 8212,
      "illermo": 8213,
      "Ben_Queen": 8214,
      "Benny_Ch": 8215,
      "madi": 8216,
      "1921": 8217,
      "Jacki": 8218,
      "Jackson": 8219,
      "Jacki_P": 8220,
      "Jack_Thompson_": 8221,
      "undin": 8222,
      "Anna_K": 8223,
      "Ann_Miller": 8224,
      "Anne_Baxter": 8225,
      "ence_M": 8226,
      "Richard_N": 8227,
      "Richard_Bran": 8228,
      "Daniè": 8229,
      "Dan_Fogelman": 8230,
      "ording": 8231,
      "Jeann": 8232,
      "Upasan": 8233,
      "Peter_O": 8234,
      "Billy_B": 8235,
      "Bill_Owen": 8236,
      "irez": 8237,
      "ino_Gu": 8238,
      "inoche": 8239,
      "Gerard": 8240,
      "artholomew": 8241,
      "ia_de_Havilland": 8242,
      "y_Mackie": 8243,
      "_McC": 8244,
      "_McDowell": 8245,
      "_Anton": 8246,
      "_Antonio": 8247,
      "_Anmol": 8248,
      "Jon_El": 8249,
      "Harve": 8250,
      "Hardie_": 8251,
      "Harvey": 8252,
      "Julia": 8253,
      "Julia_": 8254,
      "Juliett": 8255,
      "Kidman": 8256,
      "Harry_W": 8257,
      "s_Coffin": 8258,
      "cott_": 8259,
      "aleh": 8260,
      "Edwards_": 8261,
      "Edward_L": 8262,
      "Edward_J": 8263,
      "Manj": 8264,
      "Manisha_K": 8265,
      "an_Sim": 8266,
      "an_Silv": 8267,
      "an_Scott_": 8268,
      "e_La": 8269,
      "e_Law": 8270,
      "e_Lester": 8271,
      "_DeC": 8272,
      "Martine_": 8273,
      "Alec": 8274,
      "y_Dale": 8275,
      "_Leigh": 8276,
      "_Leisen": 8277,
      "Moore": 8278,
      "Moe_Howard": 8279,
      "regard": 8280,
      "Jean_Kent": 8281,
      "Madhu_": 8282,
      "eley_": 8283,
      "a_Dev": 8284,
      "a_Douglas": 8285,
      "a_Druz": 8286,
      "ley_Atwell": 8287,
      "_White": 8288,
      "Bernhard": 8289,
      "Noel_M": 8290,
      "innelli": 8291,
      "owski": 8292,
      "Brown": 8293,
      "Brink": 8294,
      "Tom_Han": 8295,
      "Tomokaz": 8296,
      "_Cavan": 8297,
      "o_Macc": 8298,
      "_Baboo": 8299,
      "_Rosi": 8300,
      "Freddie_B": 8301,
      "Ramirez": 8302,
      "uthbert": 8303,
      "_Améris": 8304,
      "airban": 8305,
      "a_Hol": 8306,
      "a_Hisak": 8307,
      "y_Sch": 8308,
      "leading": 8309,
      "_Blier": 8310,
      "4020": 8311,
      "Rosen": 8312,
      "owery_": 8313,
      "Marcello_Mar": 8314,
      "Marc_Vallée": 8315,
      "Abel": 8316,
      "Steve_B": 8317,
      "Phil_Rosen": 8318,
      "Helmond": 8319,
      "i_Mart": 8320,
      "ana_Pampanini": 8321,
      "ana_Nog": 8322,
      "a_Gray": 8323,
      "a_Gabor": 8324,
      "a_Gombell": 8325,
      "a_Glogovac": 8326,
      "_Bros": 8327,
      "_Brass": 8328,
      "_Brown": 8329,
      "_Brothers": 8330,
      "_Bruno": 8331,
      "_Brühl": 8332,
      "Rao_Gopal": 8333,
      "Flynn": 8334,
      "ce_D": 8335,
      "i_Reddy": 8336,
      "techn": 8337,
      "ensen": 8338,
      "a_Bullock": 8339,
      "a_Bassett": 8340,
      "y_Fine": 8341,
      "y_Lynn": 8342,
      "y_Linh_B": 8343,
      "_Abbasi": 8344,
      "_Abu_Se": 8345,
      "_Jackson_": 8346,
      "Daniel_G": 8347,
      "Daniele_D": 8348,
      "Daniel_Brühl": 8349,
      "Shah": 8350,
      "amilton": 8351,
      "adhav": 8352,
      "Thomas_H": 8353,
      "Thomas_F": 8354,
      "Thomas_Hugh": 8355,
      "McG": 8356,
      "borne_": 8357,
      "e_Aud": 8358,
      "e_Autry": 8359,
      "a_Nadda": 8360,
      "a_Namboothiri": 8361,
      "y_Wong": 8362,
      "_Washington": 8363,
      "_Washburn": 8364,
      "Bob_Ste": 8365,
      "Mike_": 8366,
      "Mike_Magid": 8367,
      "ground": 8368,
      "err_": 8369,
      "Shirley_M": 8370,
      "Howard_Bre": 8371,
      "Howard_Jackson_": 8372,
      "Lightning": 8373,
      "spy": 8374,
      "uttolph": 8375,
      "alva": 8376,
      "_Murray": 8377,
      "_Beach": 8378,
      "_Wilcox": 8379,
      "Joe_D": 8380,
      "Joe_Estevez": 8381,
      "George_Marshall": 8382,
      "George_Sherman": 8383,
      "Brian_Fe": 8384,
      "Brian_De_": 8385,
      "Brian_Doyle": 8386,
      "Victoria_": 8387,
      "Victor_Young": 8388,
      "22Gabby": 8389,
      "22_Hayes": 8390,
      "Dick_Foran": 8391,
      "Hugo_d": 8392,
      "Murali": 8393,
      "anski": 8394,
      "Stanwyck": 8395,
      "Helen_Mack": 8396,
      "Helena_Solberg": 8397,
      "Jung_Sung": 8398,
      "Laura": 8399,
      "Shane": 8400,
      "month": 8401,
      "oole": 8402,
      "_Henr": 8403,
      "_Henley": 8404,
      "_Henaine": 8405,
      "_Albert": 8406,
      "_Ali_S": 8407,
      "Harold_S": 8408,
      "Louis_Daquin": 8409,
      "Louise_Lester": 8410,
      "conne": 8411,
      "concern": 8412,
      "Castle": 8413,
      "1800": 8414,
      "Baye": 8415,
      "Golden": 8416,
      "What": 8417,
      "a_Ryan": 8418,
      "a_Reed": 8419,
      "Anthony_Mackie": 8420,
      "Dev_Anand": 8421,
      "Deva_Katta": 8422,
      "ison_": 8423,
      "Prabhu": 8424,
      "Adams_": 8425,
      "Adam_Simon": 8426,
      "Adam_Resnick": 8427,
      "Adam_Christian": 8428,
      "Joseph_K": 8429,
      "Herman": 8430,
      "yra_D": 8431,
      "ombo_": 8432,
      "_Schw": 8433,
      "_Rajkumar": 8434,
      "Alan_H": 8435,
      "Alan_Ladd": 8436,
      "Jennifer_": 8437,
      "7140": 8438,
      "Delia": 8439,
      "Predator": 8440,
      "Baby_": 8441,
      "Gregory_L": 8442,
      "brut": 8443,
      "brother": 8444,
      "Shea_": 8445,
      "Pierre_Per": 8446,
      "Pierre_Améris": 8447,
      "Heart": 8448,
      "Norman_S": 8449,
      "Norman_Hudi": 8450,
      "Norman_Panama": 8451,
      "genre": 8452,
      "geny_": 8453,
      "Sharath": 8454,
      "Sharif": 8455,
      "Austin_": 8456,
      "Erdman": 8457,
      "Gene_Autry": 8458,
      "Hal_Roach": 8459,
      "Mayo": 8460,
      "_Udapurkar": 8461,
      "_Ullman": 8462,
      "y_King_": 8463,
      "oliakoff": 8464,
      "_Sanders": 8465,
      "_Baum": 8466,
      "Angie_Dickinson": 8467,
      "Robbie_": 8468,
      "Robin_Williams": 8469,
      "Christian_Martin_": 8470,
      "Christian_De_S": 8471,
      "Junko_": 8472,
      "Lucian": 8473,
      "Price": 8474,
      "Vince_Barnett": 8475,
      "Wilfred": 8476,
      "Mario_Amendola": 8477,
      "Mario_Bonnard": 8478,
      "Jacques_Feyder": 8479,
      "Christopher_Ham": 8480,
      "Christopher_Lee": 8481,
      "Ellis": 8482,
      "i_Sethi": 8483,
      "kins_": 8484,
      "voices": 8485,
      "_Seitz": 8486,
      "_Kaun": 8487,
      "Jonathan_Dem": 8488,
      "Jonathan_Tzach": 8489,
      "Martin_Sheen": 8490,
      "Balachandran": 8491,
      "idibe": 8492,
      "uying": 8493,
      "ilva": 8494,
      "onzo": 8495,
      "Clarkson": 8496,
      "Philip_Ford": 8497,
      "Virginia_": 8498,
      "Virginia_M": 8499,
      "Bhatti": 8500,
      "Const": 8501,
      "Conchit": 8502,
      "Russo_brothers": 8503,
      "Venk": 8504,
      "Venu": 8505,
      "dha_": 8506,
      "ohen": 8507,
      "partic": 8508,
      "e_Cruz": 8509,
      "e_Collins": 8510,
      "_Ark": 8511,
      "_Arlen": 8512,
      "_Arnold": 8513,
      "_Arcady": 8514,
      "_Fejös": 8515,
      "ney_Jr": 8516,
      "ukumaran_Nair": 8517,
      "Shirley_Temple": 8518,
      "Maurice_": 8519,
      "Maurice": 8520,
      "Ned_Beatty": 8521,
      "Wallis": 8522,
      "Wallac": 8523,
      "Chris_Mul": 8524,
      "akshi": 8525,
      "Carlos_Orellana": 8526,
      "performer": 8527,
      "performed": 8528,
      "Martinelli": 8529,
      "Sarah_Chalke": 8530,
      "Bhargava": 8531,
      "Hayley_Atwell": 8532,
      "Ian_Mune": 8533,
      "Kate_N": 8534,
      "Max_Steiner": 8535,
      "Ragini": 8536,
      "Raghu": 8537,
      "Ricky_": 8538,
      "Susan_": 8539,
      "Tamil_actress": 8540,
      "o_Celi": 8541,
      "o_Croc": 8542,
      "am_Bajwa": 8543,
      "_Shapiro": 8544,
      "_Martin": 8545,
      "_Bhatti": 8546,
      "_Bhandarkar": 8547,
      "_Perez": 8548,
      "Elizabeth_Banks": 8549,
      "Juan_Orol": 8550,
      "Juan_Antonio": 8551,
      "Angela_Douglas": 8552,
      "Agnes": 8553,
      "Agustín": 8554,
      "Khaled": 8555,
      "Smiley": 8556,
      "Stephen_Mc": 8557,
      "Allan_Dwan": 8558,
      "Janet_G": 8559,
      "Andrei": 8560,
      "MacDonald": 8561,
      "MacMurray": 8562,
      "Nancy_": 8563,
      "desc": 8564,
      "fourth": 8565,
      "o_Faria": 8566,
      "subject": 8567,
      "a_Comello": 8568,
      "a_Fung": 8569,
      "a_Field": 8570,
      "am_Srinivasa_Rao": 8571,
      "_Manfredi": 8572,
      "_Reich": 8573,
      "_Reeves": 8574,
      "aglia": 8575,
      "_Desai": 8576,
      "Roger_Corman": 8577,
      "o_Vill": 8578,
      "ubien": 8579,
      "Harry_A": 8580,
      "Harry_Rus": 8581,
      "Octav": 8582,
      "Palito_": 8583,
      "Saiju": 8584,
      "Yukana_Nog": 8585,
      "revol": 8586,
      "asaki": 8587,
      "Betty_G": 8588,
      "Sheridan": 8589,
      "Denis": 8590,
      "Larry_Fine": 8591,
      "Singh": 8592,
      "Sonja_": 8593,
      "Sonam_Bajwa": 8594,
      "Sakura_T": 8595,
      "u_Seki": 8596,
      "al_Saif": 8597,
      "eddy_": 8598,
      "a_Choudhary": 8599,
      "_Corby": 8600,
      "_Glas": 8601,
      "_Hayashi": 8602,
      "Chuck_Wein": 8603,
      "Chris_Elliott": 8604,
      "_Kumar_Desai": 8605,
      "Antonio_Fargas": 8606,
      "o_Trov": 8607,
      "Henry_King_": 8608,
      "Francisco": 8609,
      "Francis_McDonald": 8610,
      "André_H": 8611,
      "Douglas_F": 8612,
      "Monte_Collins": 8613,
      "Willis_Goldb": 8614,
      "María_": 8615,
      "Jayasurya": 8616,
      "Julia_S": 8617,
      "Andrew_Benn": 8618,
      "Jacob_Cheung": 8619,
      "Raymond_Hatton": 8620,
      "Raymond_De_Fel": 8621,
      "After": 8622,
      "Afric": 8623,
      "Aya_Hisak": 8624,
      "Cesare_Z": 8625,
      "Danny_": 8626,
      "Haim": 8627,
      "Linda": 8628,
      "Linda_Bassett": 8629,
      "Nichols": 8630,
      "Ravichandran": 8631,
      "theaters": 8632,
      "_Bennett": 8633,
      "_Grant": 8634,
      "_Asaka": 8635,
      "Mary_Brian": 8636,
      "_Nagy": 8637,
      "_Nageswara_Rao": 8638,
      "Anupam_K": 8639,
      "Georges_Au": 8640,
      "Julie_Walters": 8641,
      "Mohan_Babu": 8642,
      "following": 8643,
      "Anthony_Dexter": 8644,
      "Dorothy": 8645,
      "Dinesh_Baboo": 8646,
      "4500": 8647,
      "Human": 8648,
      "Lytton": 8649,
      "Lyudmil": 8650,
      "Mirren": 8651,
      "Silvana_Pampanini": 8652,
      "Vivien": 8653,
      "ko_Kum": 8654,
      "local": 8655,
      "location": 8656,
      "uhl": 8657,
      "uhagi": 8658,
      "represent": 8659,
      "oddard": 8660,
      "Charan": 8661,
      "Marco_Weber": 8662,
      "Edgar_Nev": 8663,
      "Spencer_Gordon": 8664,
      "Ashok_Saraf": 8665,
      "Hugo_Haas": 8666,
      "Ellen_Corby": 8667,
      "Reginaldo_Faria": 8668,
      "Sunil_Kumar_Desai": 8669,
      "3960": 8670,
      "5160": 8671,
      "Arie_": 8672,
      "Faison": 8673,
      "Felissa_": 8674,
      "Hungarian": 8675,
      "Kent_Os": 8676,
      "Karl_H": 8677,
      "Karl_Ritter": 8678,
      "Kristoff": 8679,
      "Loretta": 8680,
      "Michel_Brault": 8681,
      "Nanni_Loy": 8682,
      "Toby_Jones": 8683,
      "baum": 8684,
      "consider": 8685,
      "y_Chase": 8686,
      "_Hancock": 8687,
      "_Paul": 8688,
      "_Paige": 8689,
      "Leigh_Jason": 8690,
      "Armie_Hammer": 8691,
      "Rajesh_Khanna": 8692,
      "Bruce_": 8693,
      "Bruce_Bair": 8694,
      "Mario_Monic": 8695,
      "Kevin_Rie": 8696,
      "21st": 8697,
      "6480": 8698,
      "7080": 8699,
      "Brahman": 8700,
      "Gail_Russell": 8701,
      "Hillyer": 8702,
      "Hema_Choudhary": 8703,
      "Lenny_Van": 8704,
      "Megumi_O": 8705,
      "Nathan_Scott_": 8706,
      "Ruba_Nadda": 8707,
      "Sergej_Tri": 8708,
      "Tris_Coffin": 8709,
      "biopic": 8710,
      "network": 8711,
      "ochana_": 8712,
      "strong": 8713,
      "aughton": 8714,
      "Olivia_de_Havilland": 8715,
      "Sheila_Mc": 8716,
      "Sheila_Ryan": 8717,
      "René_Clair": 8718,
      "Bertrand_Tavernier": 8719,
      "Bertrand_Blier": 8720,
      "Suhasini_Mani": 8721,
      "Rowlands": 8722,
      "Rowland_V": 8723,
      "Butterworth": 8724,
      "Corey_": 8725,
      "Judd_Lynn": 8726,
      "Koichi_S": 8727,
      "Mitchell_Leisen": 8728,
      "Winston": 8729,
      "biography": 8730,
      "school": 8731,
      "relationship": 8732,
      "_Mulroney": 8733,
      "_Bhaskar": 8734,
      "_Colombo_": 8735,
      "_Craven": 8736,
      "_Goldberg": 8737,
      "_Hughes": 8738,
      "o_Zac": 8739,
      "audible": 8740,
      "episode": 8741,
      "que_Cardona": 8742,
      "awards": 8743,
      "Charlotte_Burton": 8744,
      "ine_Gary": 8745,
      "Michael_Sarrazin": 8746,
      "Michael_Shannon": 8747,
      "Debraj": 8748,
      "David_Buttolph": 8749,
      "classic": 8750,
      "_McGowan": 8751,
      "Edward_Bernds": 8752,
      "Timothy_Linh_B": 8753,
      "Valerie_": 8754,
      "Shankar_Nag": 8755,
      "Alexander_S": 8756,
      "Gregory_Peck": 8757,
      "Patricia_Clarkson": 8758,
      "Lorraine_": 8759,
      "Lorraine_Gary": 8760,
      "portrayed": 8761,
      "Mrinal_Dev": 8762,
      "Yvonne_": 8763,
      "Zulfikar": 8764,
      "3720": 8765,
      "3780": 8766,
      "Brend": 8767,
      "Curly_": 8768,
      "Cinematic": 8769,
      "Diann": 8770,
      "Forrest": 8771,
      "Fulvio": 8772,
      "Holly_Dale": 8773,
      "Liz_Fraser": 8774,
      "Mukesh_": 8775,
      "Randolph_Scott": 8776,
      "Sachin": 8777,
      "Sachin_": 8778,
      "Urgant": 8779,
      "Wolf_M": 8780,
      "funović": 8781,
      "Thom_Fitzgerald": 8782,
      "chesi": 8783,
      "Shashi_Kapoor": 8784,
      "Alberto_Colombo_": 8785,
      "Arjun_Sar": 8786,
      "azzari": 8787,
      "azzamauro": 8788,
      "Mohamed": 8789,
      "Mohammad": 8790,
      "Asim_Abbasi": 8791,
      "Shakti_Kapoor": 8792,
      "Salah_Abu_Se": 8793,
      "Cynthia_": 8794,
      "Malcolm_McDowell": 8795,
      "5700": 8796,
      "5760": 8797,
      "Bosni": 8798,
      "Cristian_Nemescu": 8799,
      "Haden": 8800,
      "Igor": 8801,
      "Justin_": 8802,
      "Kurt_Neu": 8803,
      "Kishan_Shrikanth": 8804,
      "Minna_Gombell": 8805,
      "Nia_Dinata": 8806,
      "Nagarjuna_": 8807,
      "Polish": 8808,
      "Sandra_Bullock": 8809,
      "Tolga_": 8810,
      "Yakima_": 8811,
      "Yuri_Lyub": 8812,
      "critic": 8813,
      "de_Maupassant": 8814,
      "extensive": 8815,
      "pirate": 8816,
      "skaya": 8817,
      "Catherine_": 8818,
      "_Mazhar": 8819,
      "_Barton_": 8820,
      "_Bennet": 8821,
      "_Bergen": 8822,
      "Ambika_": 8823,
      "Amanda_Barr": 8824,
      "_Daniels": 8825,
      "_Donald": 8826,
      "_Patrick": 8827,
      "_Wallace": 8828,
      "_Walker_": 8829,
      "akar_Váv": 8830,
      "_Flynn": 8831,
      "Ray_Milland": 8832,
      "ine_Labaki": 8833,
      "George_Loan": 8834,
      "Charles_Kerr_": 8835,
      "Frankie_Faison": 8836,
      "Jack_Neo": 8837,
      "Peter_Graves": 8838,
      "Billie_Thomas": 8839,
      "_Lee_Thompson": 8840,
      "_Rossi_": 8841,
      "Fred_Kohler": 8842,
      "Malayalam_actor": 8843,
      "Malayalam_actress": 8844,
      "Melvin_Frank": 8845,
      "Kate_Mara": 8846,
      "Penelope_Wilton": 8847,
      "Noah_Beer": 8848,
      "Noah_Beery": 8849,
      "Robert_Downey_Sr": 8850,
      "Robert_Downey_Jr": 8851,
      "Johannes_Riemann": 8852,
      "_Edwards": 8853,
      "Rossi_Drago": 8854,
      "Dominique_Cardona": 8855,
      "Phyllis_Nagy": 8856,
      "Gérard_D": 8857,
      "6180": 8858,
      "Coldeway": 8859,
      "Dimple_K": 8860,
      "Fanny_Ardant": 8861,
      "Gennaro_N": 8862,
      "Leno": 8863,
      "Lorna_Gray": 8864,
      "Lakshmi_": 8865,
      "Nino_Manfredi": 8866,
      "Om_Prakash": 8867,
      "Portugu": 8868,
      "Ricardo": 8869,
      "Ratoff": 8870,
      "Sridhar": 8871,
      "Tyrone_": 8872,
      "Viol": 8873,
      "Vikram": 8874,
      "Woody_Allen": 8875,
      "Yann_Gozlan": 8876,
      "major": 8877,
      "erlman": 8878,
      "usuf": 8879,
      "ovica_Comello": 8880,
      "Geoffrey_": 8881,
      "Adriana_": 8882,
      "Kennedy": 8883,
      "Sammo_Hung": 8884,
      "Siddique_": 8885,
      "uppertz": 8886,
      "Steven_W": 8887,
      "Whoopi_Goldberg": 8888,
      "Jaspal_Bhatti": 8889,
      "Stephan_Bren": 8890,
      "Lawrence_D": 8891,
      "Akkineni_Nageswara_Rao": 8892,
      "Enrico_Brig": 8893,
      "Sudhir_Mish": 8894,
      "Ruggero_Macc": 8895,
      "corruption": 8896,
      "Aziz": 8897,
      "Baby": 8898,
      "Bhasi": 8899,
      "Dallas": 8900,
      "Ezz_El": 8901,
      "Faten_Ham": 8902,
      "Gemma_": 8903,
      "Lon_Chane": 8904,
      "MCU": 8905,
      "Matheson": 8906,
      "Nina_Urgant": 8907,
      "Nivedita_": 8908,
      "Otakar_Váv": 8909,
      "Pamel": 8910,
      "Pavan_Wadeyar": 8911,
      "Pál_Fejös": 8912,
      "Releasing": 8913,
      "gomery": 8914,
      "herself": 8915,
      "positive": 8916,
      "sitcom": 8917,
      "t_Graffin": 8918,
      "ora_Rossi_Drago": 8919,
      "and_Sagar": 8920,
      "_Modi": 8921,
      "_Mitchell_": 8922,
      "_Barklow": 8923,
      "_Bucquet": 8924,
      "Amy_Irving": 8925,
      "Tep_Rundaro": 8926,
      "_Cromwell_": 8927,
      "_Connelly": 8928,
      "_Harrison": 8929,
      "_Holbrook": 8930,
      "_Hutton": 8931,
      "Chevy_Chase": 8932,
      "_Paskaljević": 8933,
      "_Pollard": 8934,
      "Anuradha_": 8935,
      "Alice_F": 8936,
      "Ingram": 8937,
      "Eduardo": 8938,
      "Robert_Lowery_": 8939,
      "_Vidal": 8940,
      "_Oliver": 8941,
      "Universe": 8942,
      "Adolfo_Celi": 8943,
      "George_Sanders": 8944,
      "Janis_Cole": 8945,
      "_Israel": 8946,
      "a_Sengupta": 8947,
      "Frank_Ryan_": 8948,
      "Jose_Prakash": 8949,
      "Jackie_Shroff": 8950,
      "Anna_Mazzamauro": 8951,
      "Jayanthi_": 8952,
      "Guy_de_Maupassant": 8953,
      "Isaac_Fl": 8954,
      "Nebojša_Glogovac": 8955,
      "Tommy_": 8956,
      "Victor_Salva": 8957,
      "Bernard_Cribbins": 8958,
      "y_Waller": 8959,
      "Ashley_Judd": 8960,
      "Deron_Miller": 8961,
[...]
