{
  "version": "1.0",
  "truncation": null,
  "padding": null,
  "added_tokens": [
    {
      "id": 0,
      "content": "<unk>",
      "single_word": false,
      "lstrip": false,
      "rstrip": false,
      "normalized": false,
      "special": true
    },
    {
      "id": 1,
      "content": "<pad>",
      "single_word": false,
      "lstrip": false,
      "rstrip": false,
      "normalized": false,
      "special": true
    },
    {
      "id": 2,
      "content": "<SOT>",
      "single_word": false,
      "lstrip": false,
      "rstrip": false,
      "normalized": false,
      "special": true
    },
    {
      "id": 3,
      "content": "<EOT>",
      "single_word": false,
      "lstrip": false,
      "rstrip": false,
      "normalized": false,
      "special": true
    },
    {
      "id": 4,
      "content": "<SUBJ>",
      "single_word": false,
      "lstrip": false,
      "rstrip": false,
      "normalized": false,
      "special": true
    },
    {
      "id": 5,
      "content": "<PRED>",
      "single_word": false,
      "lstrip": false,
      "rstrip": false,
      "normalized": false,
      "special": true
    },
    {
      "id": 6,
      "content": "<OBJ>",
      "single_word": false,
      "lstrip": false,
      "rstrip": false,
      "normalized": false,
      "special": true
    },
    {
      "id": 7,
      "content": "<OBJ_LIST>",
      "single_word": false,
      "lstrip": false,
      "rstrip": false,
      "normalized": false,
      "special": true
    },
    {
      "id": 8,
      "content": "|",
      "single_word": false,
      "lstrip": false,
      "rstrip": false,
      "normalized": false,
      "special": true
    },
    {
      "id": 9,
      "content": "<RDF2Text>",
      "single_word": false,
      "lstrip": false,
      "rstrip": false,
      "normalized": false,
      "special": true
    },
    {
      "id": 10,
      "content": "<Text2RDF>",
      "single_word": false,
      "lstrip": false,
      "rstrip": false,
      "normalized": false,
      "special": true
    },
    {
      "id": 11,
      "content": "<CONTINUERDF>",
      "single_word": false,
      "lstrip": false,
      "rstrip": false,
      "normalized": false,
      "special": true
    },
    {
      "id": 12,
      "content": "<MASK>",
      "single_word": false,
      "lstrip": false,
      "rstrip": false,
      "normalized": false,
      "special": true
    }
  ],
  "normalizer": null,
  "pre_tokenizer": {
    "type": "Whitespace"
  },
  "post_processor": {
    "type": "TemplateProcessing",
    "single": [
      {
        "Sequence": {
          "id": "A",
          "type_id": 0
        }
      }
    ],
    "pair": [
      {
        "Sequence": {
          "id": "A",
          "type_id": 0
        }
      },
      {
        "Sequence": {
          "id": "B",
          "type_id": 1
        }
      }
    ],
    "special_tokens": {
      "<pad>": {
        "id": "<pad>",
        "ids": [
          1
        ],
        "tokens": [
          "<pad>"
        ]
      }
    }
  },
  "decoder": null,
  "model": {
    "type": "BPE",
    "dropout": null,
    "unk_token": "<unk>",
    "continuing_subword_prefix": null,
    "end_of_word_suffix": null,
    "fuse_unk": false,
    "byte_fallback": false,
    "ignore_merges": false,
    "vocab": {
      "<unk>": 0,
      "<pad>": 1,
      "<SOT>": 2,
      "<EOT>": 3,
      "<SUBJ>": 4,
      "<PRED>": 5,
      "<OBJ>": 6,
      "<OBJ_LIST>": 7,
      "|": 8,
      "<RDF2Text>": 9,
      "<Text2RDF>": 10,
      "<CONTINUERDF>": 11,
      "<MASK>": 12,
      "!": 13,
      "\"": 14,
      "$": 15,
      "%": 16,
      "&": 17,
      "'": 18,
      "(": 19,
      ")": 20,
      "+": 21,
      ",": 22,
      "-": 23,
      ".": 24,
      "/": 25,
      "0": 26,
      "1": 27,
      "2": 28,
      "3": 29,
      "4": 30,
      "5": 31,
      "6": 32,
      "7": 33,
      "8": 34,
      "9": 35,
      ":": 36,
      ";": 37,
      "<": 38,
      ">": 39,
      "?": 40,
      "A": 41,
      "B": 42,
      "C": 43,
      "D": 44,
      "E": 45,
      "F": 46,
      "G": 47,
      "H": 48,
      "I": 49,
      "J": 50,
      "K": 51,
      "L": 52,
      "M": 53,
      "N": 54,
      "O": 55,
      "P": 56,
      "Q": 57,
      "R": 58,
      "S": 59,
      "T": 60,
      "U": 61,
      "V": 62,
      "W": 63,
      "X": 64,
      "Y": 65,
      "Z": 66,
      "_": 67,
      "a": 68,
      "b": 69,
      "c": 70,
      "d": 71,
      "e": 72,
      "f": 73,
      "g": 74,
      "h": 75,
      "i": 76,
      "j": 77,
      "k": 78,
      "l": 79,
      "m": 80,
      "n": 81,
      "o": 82,
      "p": 83,
      "q": 84,
      "r": 85,
      "s": 86,
      "t": 87,
      "u": 88,
      "v": 89,
      "w": 90,
      "x": 91,
      "y": 92,
      "z": 93,
      "¥": 94,
      "½": 95,
      "À": 96,
      "Á": 97,
      "É": 98,
      "Ö": 99,
      "à": 100,
      "á": 101,
      "â": 102,
      "ã": 103,
      "ä": 104,
      "ç": 105,
      "è": 106,
      "é": 107,
      "ë": 108,
      "í": 109,
      "î": 110,
      "ï": 111,
      "ñ": 112,
      "ò": 113,
      "ó": 114,
      "ô": 115,
      "õ": 116,
      "ö": 117,
      "ø": 118,
      "ù": 119,
      "ú": 120,
      "ü": 121,
      "ā": 122,
      "ă": 123,
      "ć": 124,
      "č": 125,
      "ę": 126,
      "ě": 127,
      "ł": 128,
      "ń": 129,
      "Ō": 130,
      "ō": 131,
      "ř": 132,
      "ş": 133,
      "Š": 134,
      "š": 135,
      "ū": 136,
      "Ż": 137,
      "Ž": 138,
      "ș": 139,
      "Ț": 140,
      "ț": 141,
      "Б": 142,
      "а": 143,
      "б": 144,
      "е": 145,
      "р": 146,
      "т": 147,
      "у": 148,
      "ḥ": 149,
      "–": 150,
      "—": 151,
      "’": 152,
      "“": 153,
      "あ": 154,
      "た": 155,
      "な": 156,
      "に": 157,
      "の": 158,
      "は": 159,
      "る": 160,
      "世": 161,
      "界": 162,
      "色": 163,
      "db": 164,
      "BJ": 165,
      "OT": 166,
      "dbr": 167,
      "ar": 168,
      "in": 169,
      "dbo": 170,
      "PR": 171,
      "PRE": 172,
      "EOT": 173,
      "OBJ": 174,
      "SU": 175,
      "SOT": 176,
      "PRED": 177,
      "SUBJ": 178,
      "st": 179,
      "an": 180,
      "ing": 181,
      "arr": 182,
      "er": 183,
      "arring": 184,
      "starring": 185,
      "il": 186,
      "Ca": 187,
      "re": 188,
      "ilm": 189,
      "e_": 190,
      "film": 191,
      "or": 192,
      "th": 193,
      "on": 194,
      "en": 195,
      "ct": 196,
      "ed": 197,
      "al": 198,
      "di": 199,
      "a_": 200,
      "and": 201,
      "as": 202,
      "es": 203,
      "ri": 204,
      "Car": 205,
      "am": 206,
      "is": 207,
      "Cal": 208,
      "at": 209,
      "ic": 210,
      "rect": 211,
      "y_": 212,
      "direct": 213,
      "19": 214,
      "el": 215,
      "_film": 216,
      "un": 217,
      "om": 218,
      "the": 219,
      "Th": 220,
      "20": 221,
      "by": 222,
      "os": 223,
      "ol": 224,
      "director": 225,
      "ra": 226,
      "im": 227,
      "of": 228,
      "_S": 229,
      "l_": 230,
      "et": 231,
      "s_": 232,
      "le": 233,
      "Cam": 234,
      "ir": 235,
      "it": 236,
      "rit": 237,
      "DF": 238,
      "RDF": 239,
      "ur": 240,
      "_B": 241,
      "unt": 242,
      "ad": 243,
      "o_": 244,
      "writ": 245,
      "ime": 246,
      "ay": 247,
      "Pre": 248,
      "us": 249,
      "ch": 250,
      "runt": 251,
      "runtime": 252,
      "ov": 253,
      "ow": 254,
      "ni": 255,
      "Carr": 256,
      "Te": 257,
      "ill": 258,
      "_M": 259,
      "_R": 260,
      "The": 261,
      "Call_": 262,
      "xt": 263,
      "Cas": 264,
      "ag": 265,
      "AS": 266,
      "MAS": 267,
      "Text": 268,
      "MASK": 269,
      "ck": 270,
      "writer": 271,
      "ak": 272,
      "act": 273,
      "Ch": 274,
      "od": 275,
      "201": 276,
      "_H": 277,
      "the_": 278,
      "Pra": 279,
      "av": 280,
      "id": 281,
      "for": 282,
      "_A": 283,
      "ion": 284,
      "Jo": 285,
      "directed": 286,
      "_G": 287,
      "ot": 288,
      "ard": 289,
      "_Th": 290,
      "Camp": 291,
      "ig": 292,
      "200": 293,
      "ent": 294,
      "_D": 295,
      "Prem": 296,
      "On": 297,
      "_C": 298,
      "ap": 299,
      "ou": 300,
      "ber": 301,
      "_the_": 302,
      "Carry_": 303,
      "ers": 304,
      "Cl": 305,
      "to": 306,
      "ang": 307,
      "It": 308,
      "_W": 309,
      "was": 310,
      "ev": 311,
      "actor": 312,
      "_F": 313,
      "ab": 314,
      "ars": 315,
      "usic": 316,
      "_P": 317,
      "Cab": 318,
      "Can": 319,
      "Mar": 320,
      "ul": 321,
      "omp": 322,
      "_The_": 323,
      "um": 324,
      "Carry_On": 325,
      "ich": 326,
      "ce": 327,
      "Call": 328,
      "i_": 329,
      "ut": 330,
      "ie": 331,
      "res": 332,
      "ath": 333,
      "ran": 334,
      "Am": 335,
      "music": 336,
      "ell": 337,
      "_L": 338,
      "ased": 339,
      "ompos": 340,
      "_N": 341,
      "iv": 342,
      "man": 343,
      "Caf": 344,
      "ne": 345,
      "An": 346,
      "Clos": 347,
      "rele": 348,
      "Ro": 349,
      "son": 350,
      "198": 351,
      "sh": 352,
      "_J": 353,
      "CO": 354,
      "NT": 355,
      "2RDF": 356,
      "2Text": 357,
      "ERDF": 358,
      "IN": 359,
      "UERDF": 360,
      "RDF2Text": 361,
      "Text2RDF": 362,
      "CONT": 363,
      "INUERDF": 364,
      "CONTINUERDF": 365,
      "ac": 366,
      "Cali": 367,
      "han": 368,
      "op": 369,
      "St": 370,
      "omposer": 371,
      "ith": 372,
      "Closed": 373,
      "uc": 374,
      "est": 375,
      "ik": 376,
      "forni": 377,
      "Californi": 378,
      "Cad": 379,
      "au": 380,
      "00": 381,
      "ie_": 382,
      "194": 383,
      "Case_": 384,
      "Sh": 385,
      "_K": 386,
      "er_": 387,
      "all": 388,
      "ies": 389,
      "ht": 390,
      "ama": 391,
      "Case_Closed": 392,
      "Carm": 393,
      "Composer": 394,
      "ten": 395,
      "musicComposer": 396,
      "em": 397,
      "hn": 398,
      "California_": 399,
      "Calling": 400,
      "Al": 401,
      "eric": 402,
      "199": 403,
      "ian": 404,
      "ore": 405,
      "e_B": 406,
      "Care": 407,
      "ack": 408,
      "Americ": 409,
      "of_the_": 410,
      "pr": 411,
      "American": 412,
      "ern": 413,
      "Cag": 414,
      "com": 415,
      "John": 416,
      "att": 417,
      "stars": 418,
      "Pr": 419,
      "aw": 420,
      "193": 421,
      "6_film": 422,
      "Carni": 423,
      "Carol": 424,
      "end": 425,
      "ey": 426,
      "Pow": 427,
      "written": 428,
      "Ra": 429,
      "In": 430,
      "de_": 431,
      "art": 432,
      "ess": 433,
      "ep": 434,
      "val": 435,
      "7_film": 436,
      "Carmen": 437,
      "wh": 438,
      "qu": 439,
      "Call_M": 440,
      "El": 441,
      "ci": 442,
      "bert": 443,
      "197": 444,
      "ish": 445,
      "5_film": 446,
      "pl": 447,
      "ett": 448,
      "Carnival": 449,
      "der": 450,
      "ob": 451,
      "Call_of_the_": 452,
      "fe": 453,
      "Carn": 454,
      "og": 455,
      "rom": 456,
      "ton": 457,
      "comed": 458,
      "ant": 459,
      "released": 460,
      "dr": 461,
      "age": 462,
      "sc": 463,
      "ear": 464,
      "ight": 465,
      "4_film": 466,
      "ain": 467,
      "oy": 468,
      "old": 469,
      "oll": 470,
      "ott": 471,
      "60": 472,
      "ation": 473,
      "Call_Me_": 474,
      "be": 475,
      "les": 476,
      "ara": 477,
      "irl": 478,
      "8_film": 479,
      "ers_": 480,
      "Café": 481,
      "prod": 482,
      "se": 483,
      "ort": 484,
      "_T": 485,
      "dian": 486,
      "ser": 487,
      "ek": 488,
      "uk": 489,
      "org": 490,
      "app": 491,
      "drama": 492,
      "comedy": 493,
      "ew": 494,
      "ug": 495,
      "iri": 496,
      "ach": 497,
      "ud": 498,
      "ate": 499,
      "Caged": 500,
      "ash": 501,
      "ress": 502,
      "ah": 503,
      "ass": 504,
      "Card": 505,
      "ist": 506,
      "ure": 507,
      "Ge": 508,
      "ry": 509,
      "ast": 510,
      "har": 511,
      "ames": 512,
      "her": 513,
      "ro": 514,
      "illi": 515,
      "ann": 516,
      "eg": 517,
      "us_": 518,
      "ong": 519,
      "ick": 520,
      "produc": 521,
      "inal": 522,
      "ier": 523,
      "ric": 524,
      "ood": 525,
      "ase": 526,
      "_Al": 527,
      "ust": 528,
      "with": 529,
      "196": 530,
      "0_film": 531,
      "_and": 532,
      "Cain": 533,
      "series": 534,
      "80": 535,
      "Carl": 536,
      "Carolin": 537,
      "Ar": 538,
      "ib": 539,
      "ark": 540,
      "_St": 541,
      "Fran": 542,
      "ia": 543,
      "lan": 544,
      "ory": 545,
      "a_M": 546,
      "based": 547,
      "9_film": 548,
      "De": 549,
      "Robert": 550,
      "illiam": 551,
      "Ed": 552,
      "ai": 553,
      "ict": 554,
      "produced": 555,
      "Dav": 556,
      "een": 557,
      "a_S": 558,
      "ille_": 559,
      "ont": 560,
      "ung": 561,
      "release": 562,
      "2_film": 563,
      "co": 564,
      "ild": 565,
      "our": 566,
      "Prairi": 567,
      "Power": 568,
      "ok": 569,
      "Carnival_": 570,
      "Georg": 571,
      "ter": 572,
      "ovie": 573,
      "cl": 574,
      "iel": 575,
      "e_M": 576,
      "Carry_On_": 577,
      "endar": 578,
      "Le": 579,
      "ael": 580,
      "ren": 581,
      "Calendar": 582,
      "per": 583,
      "own": 584,
      "40": 585,
      "lu": 586,
      "ald": 587,
      "Ken": 588,
      "ost": 589,
      "ine": 590,
      "e_S": 591,
      "ame": 592,
      "und": 593,
      "_Sh": 594,
      "Cabin": 595,
      "oman": 596,
      "_V": 597,
      "ff": 598,
      "_Girl": 599,
      "Jan": 600,
      "li": 601,
      "195": 602,
      "Char": 603,
      "_O": 604,
      "ub": 605,
      "aret": 606,
      "rim": 607,
      "Camille_": 608,
      "play": 609,
      "ears": 610,
      "iz": 611,
      "actress": 612,
      "Mich": 613,
      "de": 614,
      "so": 615,
      "eth": 616,
      "up": 617,
      "192": 618,
      "Chri": 619,
      "a_K": 620,
      "Calling_Al": 621,
      "Carmen_": 622,
      "who": 623,
      "feat": 624,
      "Calling_All_": 625,
      "Cand": 626,
      "az": 627,
      "ez": 628,
      "ures": 629,
      "Cabaret": 630,
      "Date": 631,
      "II": 632,
      "ock": 633,
      "e_F": 634,
      "Camping": 635,
      "angu": 636,
      "releaseDate": 637,
      "ly": 638,
      "Cair": 639,
      "reen": 640,
      "ond": 641,
      "3_film": 642,
      "Ad": 643,
      "from": 644,
      "io": 645,
      "to_": 646,
      "e_L": 647,
      "a_B": 648,
      "1_film": 649,
      "ical": 650,
      "apt": 651,
      "aj": 652,
      "ha": 653,
      "his": 654,
      "ary": 655,
      "umar": 656,
      "He": 657,
      "by_": 658,
      "hy": 659,
      "oth": 660,
      "Care_B": 661,
      "Camer": 662,
      "Cairo_": 663,
      "Se": 664,
      "William": 665,
      "ire": 666,
      "Michael": 667,
      "James": 668,
      "am_": 669,
      "Don": 670,
      "Jos": 671,
      "len": 672,
      "191": 673,
      "are": 674,
      "ins": 675,
      "ero": 676,
      "Prak": 677,
      "dy": 678,
      "uck": 679,
      "ara_": 680,
      "one": 681,
      "Cars_": 682,
      "y_B": 683,
      "utt": 684,
      "Café_": 685,
      "Charles": 686,
      "ward": 687,
      "ana": 688,
      "esar": 689,
      "Caref": 690,
      "or_": 691,
      "iss": 692,
      "y_M": 693,
      "anguage": 694,
      "Pran": 695,
      "Rich": 696,
      "ee": 697,
      "ind": 698,
      "esh": 699,
      "Prat": 700,
      "es_": 701,
      "irl_": 702,
      "ity_": 703,
      "Campus_": 704,
      "Indian": 705,
      "Carry": 706,
      "Con": 707,
      "ino_": 708,
      "story": 709,
      "_The_F": 710,
      "_Lov": 711,
      "Caged_": 712,
      "David": 713,
      "ley": 714,
      "language": 715,
      "pe": 716,
      "yan": 717,
      "e_H": 718,
      "enn": 719,
      "oug": 720,
      "_The_M": 721,
      "Prairie_": 722,
      "Jack": 723,
      "adian": 724,
      "ma": 725,
      "red": 726,
      "Calam": 727,
      "iller": 728,
      "Canadian": 729,
      "Film": 730,
      "Jay": 731,
      "Pov": 732,
      "aur": 733,
      "ders": 734,
      "yn": 735,
      "ari": 736,
      "ite": 737,
      "_Rang": 738,
      "Prema_": 739,
      "Power_Rang": 740,
      "_Girls": 741,
      "Power_Rangers_": 742,
      "ade": 743,
      "ive": 744,
      "Richard": 745,
      "En": 746,
      "_Y": 747,
      "af": 748,
      "el_": 749,
      "Br": 750,
      "Mal": 751,
      "ip": 752,
      "oc": 753,
      "ph": 754,
      "ines": 755,
      "Calm": 756,
      "Frank": 757,
      "Pat": 758,
      "nov": 759,
      "p_the_": 760,
      "ord": 761,
      "ated": 762,
      "Christ": 763,
      "Di": 764,
      "Je": 765,
      "ount": 766,
      "pre": 767,
      "rol": 768,
      "enc": 769,
      "Cash": 770,
      "Ger": 771,
      "Mad": 772,
      "but": 773,
      "go_": 774,
      "omas": 775,
      "screen": 776,
      "ho": 777,
      "ke": 778,
      "Prath": 779,
      "Cadet": 780,
      "_Ch": 781,
      "ay_": 782,
      "ini": 783,
      "ance": 784,
      "erg": 785,
      "orn": 786,
      "also": 787,
      "age_": 788,
      "2017_film": 789,
      "_De": 790,
      "out": 791,
      "ever": 792,
      "_Jatt": 793,
      "Nor": 794,
      "ght": 795,
      "Caesar": 796,
      "Calv": 797,
      "Casan": 798,
      "Harr": 799,
      "Pet": 800,
      "Tim": 801,
      "_2": 802,
      "off": 803,
      "ity": 804,
      "igh": 805,
      "athi": 806,
      "eed": 807,
      "udi": 808,
      "ani": 809,
      "ide": 810,
      "Mart": 811,
      "Mur": 812,
      "ail": 813,
      "ger": 814,
      "ke_": 815,
      "ment": 816,
      "ana_": 817,
      "Carry_on": 818,
      "bo": 819,
      "he": 820,
      "kan": 821,
      "ino": 822,
      "ason": 823,
      "ney": 824,
      "Har": 825,
      "cott": 826,
      "u_": 827,
      "on_": 828,
      "ale": 829,
      "Cargo_": 830,
      "raz": 831,
      "_Rock": 832,
      "2006_film": 833,
      "Ann": 834,
      "ies_": 835,
      "Career_": 836,
      "Caesar_and": 837,
      "54": 838,
      "Man": 839,
      "port": 840,
      "ya": 841,
      "oul": 842,
      "antic": 843,
      "novel": 844,
      "cutt": 845,
      "mak": 846,
      "wor": 847,
      "arg": 848,
      "ream": 849,
      "a_H": 850,
      "of_B": 851,
      "Raj": 852,
      "Carnage_": 853,
      "aradi": 854,
      "Care_Bears": 855,
      "Café_de_": 856,
      "oci": 857,
      "anc": 858,
      "amm": 859,
      "Calcutt": 860,
      "Camel": 861,
      "neth": 862,
      "ictures": 863,
      "ield": 864,
      "Kenneth": 865,
      "Eric": 866,
      "Sid": 867,
      "TV": 868,
      "capt": 869,
      "na": 870,
      "arth": 871,
      "ina": 872,
      "a_de_": 873,
      "esp": 874,
      "ray": 875,
      "irst": 876,
      "Carrie_": 877,
      "_Mc": 878,
      "Call_G": 879,
      "musical": 880,
      "_The_Movie": 881,
      "Dan": 882,
      "Jon": 883,
      "Par": 884,
      "Pictures": 885,
      "Ram": 886,
      "ank": 887,
      "oss": 888,
      "urn": 889,
      "shack": 890,
      "Caddy": 891,
      "eph": 892,
      "Elli": 893,
      "romantic": 894,
      "Cardcapt": 895,
      "ociet": 896,
      "Caddyshack": 897,
      "Elliott": 898,
      "Cardcaptor": 899,
      "air": 900,
      "br": 901,
      "if": 902,
      "tom": 903,
      "Cake_": 904,
      "ats": 905,
      "Casanov": 906,
      "Mo": 907,
      "Wild": 908,
      "ps": 909,
      "uri": 910,
      "ura": 911,
      "Cact": 912,
      "Carib": 913,
      "which": 914,
      "Edward": 915,
      "feature": 916,
      "Bri": 917,
      "Jul": 918,
      "King": 919,
      "_in": 920,
      "ait": 921,
      "first": 922,
      "low": 923,
      "pt": 924,
      "an_": 925,
      "ere": 926,
      "ill_": 927,
      "a_G": 928,
      "y_S": 929,
      "osaur": 930,
      "ovie_": 931,
      "angal": 932,
      "_Wil": 933,
      "Cain_and": 934,
      "Caroline_": 935,
      "ociety_": 936,
      "Bar": 937,
      "Em": 938,
      "Kir": 939,
      "Pa": 940,
      "ler": 941,
      "ury": 942,
      "Joan": 943,
      "3F": 944,
      "57": 945,
      "Bl": 946,
      "No": 947,
      "Qu": 948,
      "Tak": 949,
      "land": 950,
      "ly_": 951,
      "same": 952,
      "ert": 953,
      "e_of": 954,
      "ese": 955,
      "under": 956,
      "_Sak": 957,
      "ush": 958,
      "chi": 959,
      "_Ab": 960,
      "_Gold": 961,
      "_Dr": 962,
      "Stev": 963,
      "1947_film": 964,
      "ember": 965,
      "acher": 966,
      "_Jatta_": 967,
      "Peter": 968,
      "Martin": 969,
      "Carry_on_Jatta_": 970,
      "Cardcaptor_Sak": 971,
      "Cactus_": 972,
      "Hel": 973,
      "Kid": 974,
      "Wal": 975,
      "con": 976,
      "tel": 977,
      "reet": 978,
      "that": 979,
      "rick": 980,
      "Carson": 981,
      "Mari": 982,
      "Carnosaur": 983,
      "appear": 984,
      "18": 985,
      "Be": 986,
      "Un": 987,
      "Wh": 988,
      "ec": 989,
      "ex": 990,
      "field": 991,
      "movie": 992,
      "ane": 993,
      "err": 994,
      "e_G": 995,
      "a_N": 996,
      "a_R": 997,
      "ati": 998,
      "itt": 999,
      "2010_film": 1000,
      "_Cle": 1001,
      "arsh": 1002,
      "1984_film": 1003,
      "Calling_Dr": 1004,
      "Cabin_F": 1005,
      "TV_": 1006,
      "Brit": 1007,
      "Is": 1008,
      "Ph": 1009,
      "West": 1010,
      "cu": 1011,
      "kar": 1012,
      "mer": 1013,
      "tto": 1014,
      "arn": 1015,
      "rid": 1016,
      "ome": 1017,
      "ival": 1018,
      "ally": 1019,
      "Powder": 1020,
      "ollow": 1021,
      "Cur": 1022,
      "Fren": 1023,
      "Up_the_": 1024,
      "_b": 1025,
      "_of_B": 1026,
      "ham": 1027,
      "sel": 1028,
      "any": 1029,
      "e_D": 1030,
      "anda": 1031,
      "y_D": 1032,
      "of_H": 1033,
      "oward": 1034,
      "2016_film": 1035,
      "_Girl_": 1036,
      "athan": 1037,
      "estival": 1038,
      "aul_": 1039,
      "Cage": 1040,
      "Pras": 1041,
      "Cardinal": 1042,
      "Carry_On_Up_the_": 1043,
      "Calendar_Girl_": 1044,
      "roles": 1045,
      "Ey": 1046,
      "Jap": 1047,
      "Tom": 1048,
      "ky": 1049,
      "mith": 1050,
      "ox": 1051,
      "tre": 1052,
      "inn": 1053,
      "orr": 1054,
      "asi": 1055,
      "ice": 1056,
      "ited": 1057,
      "And": 1058,
      "ikk": 1059,
      "rime": 1060,
      "Malay": 1061,
      "Japan": 1062,
      "Bern": 1063,
      "Paul_": 1064,
      "Sp": 1065,
      "_Z": 1066,
      "_In": 1067,
      "follow": 1068,
      "ma_": 1069,
      "ra_": 1070,
      "s_S": 1071,
      "an_R": 1072,
      "ree": 1073,
      "reg": 1074,
      "ors": 1075,
      "thr": 1076,
      "a_d": 1077,
      "as_": 1078,
      "ess_": 1079,
      "ice_": 1080,
      "s_C": 1081,
      "_Br": 1082,
      "ad_": 1083,
      "2014_film": 1084,
      "2003_film": 1085,
      "berg": 1086,
      "_Fur": 1087,
      "_Paradi": 1088,
      "Rock": 1089,
      "Donald": 1090,
      "5400": 1091,
      "British": 1092,
      "Malayal": 1093,
      "22": 1094,
      "Fred": 1095,
      "Lau": 1096,
      "hi": 1097,
      "ij": 1098,
      "oor": 1099,
      "oung": 1100,
      "uj": 1101,
      "vo": 1102,
      "aram": 1103,
      "ction": 1104,
      "ates": 1105,
      "Barb": 1106,
      "Dev": 1107,
      "My": 1108,
      "composer": 1109,
      "me": 1110,
      "te": 1111,
      "ary_": 1112,
      "e_W": 1113,
      "al_": 1114,
      "Calig": 1115,
      "omb": 1116,
      "Came": 1117,
      "Came_": 1118,
      "Call_It": 1119,
      "Casino_": 1120,
      "aven": 1121,
      "Camp_Rock": 1122,
      "2008_film": 1123,
      "tore": 1124,
      "abu": 1125,
      "Marines": 1126,
      "1980_film": 1127,
      "awtre": 1128,
      "annad": 1129,
      "_Otto": 1130,
      "Calamity_": 1131,
      "Cash_": 1132,
      "Gerald": 1133,
      "Caesar_and_Otto": 1134,
      "Daniel": 1135,
      "Caligul": 1136,
      "Ale": 1137,
      "Barr": 1138,
      "Her": 1139,
      "Jac": 1140,
      "Yuk": 1141,
      "ans": 1142,
      "ctical": 1143,
      "ision": 1144,
      "ole": 1145,
      "rav": 1146,
      "ims": 1147,
      "illac": 1148,
      "entury": 1149,
      "elly": 1150,
      "Cadillac": 1151,
      "Heaven": 1152,
      "Caribbe": 1153,
      "Paul": 1154,
      "Bernard": 1155,
      "Ak": 1156,
      "Bill": 1157,
      "Jim": 1158,
      "Lov": 1159,
      "Sam": 1160,
      "Van": 1161,
      "_Jo": 1162,
      "lin": 1163,
      "made": 1164,
      "rin": 1165,
      "tit": 1166,
      "ing_": 1167,
      "alian": 1168,
      "Practical": 1169,
      "Camp_": 1170,
      "_Dy": 1171,
      "_City_": 1172,
      "ber_": 1173,
      "_James": 1174,
      "hanj": 1175,
      "Jean": 1176,
      "screenplay": 1177,
      "Helen": 1178,
      "telev": 1179,
      "Carson_City_": 1180,
      "fight": 1181,
      "hist": 1182,
      "ied": 1183,
      "led": 1184,
      "ue": 1185,
      "win": 1186,
      "ston": 1187,
      "rew": 1188,
      "ori": 1189,
      "orce": 1190,
      "uring": 1191,
      "Preeth": 1192,
      "aker": 1193,
      "about": 1194,
      "Cabez": 1195,
      "short": 1196,
      "Career": 1197,
      "lanc": 1198,
      "ordon": 1199,
      "television": 1200,
      "77": 1201,
      "As": 1202,
      "Century": 1203,
      "Jung": 1204,
      "Kannad": 1205,
      "Lou": 1206,
      "Mc": 1207,
      "Me": 1208,
      "Meg": 1209,
      "Ton": 1210,
      "_Ca": 1211,
      "cast": 1212,
      "ge": 1213,
      "kn": 1214,
      "mond": 1215,
      "ner": 1216,
      "nor": 1217,
      "tw": 1218,
      "teen": 1219,
      "ari_": 1220,
      "ille": 1221,
      "films": 1222,
      "ons": 1223,
      "ele": 1224,
      "ely": 1225,
      "ley_": 1226,
      "_Bl": 1227,
      "add": 1228,
      "2015_film": 1229,
      "Pray_": 1230,
      "iders": 1231,
      "_Thomas": 1232,
      "_William": 1233,
      "evin": 1234,
      "Carry_On_S": 1235,
      "_Night": 1236,
      "Cafe_M": 1237,
      "1948_film": 1238,
      "Raiders": 1239,
      "_Street": 1240,
      "Candy_": 1241,
      "Careful": 1242,
      "ough": 1243,
      "Calcutta_": 1244,
      "Call_Girl_": 1245,
      "Western": 1246,
      "May": 1247,
      "Way": 1248,
      "aad": 1249,
      "lo": 1250,
      "name": 1251,
      "ris": 1252,
      "ise": 1253,
      "une": 1254,
      "202": 1255,
      "night": 1256,
      "Joe": 1257,
      "Marc": 1258,
      "Cadenc": 1259,
      "sec": 1260,
      "known": 1261,
      "300": 1262,
      "49": 1263,
      "600": 1264,
      "Gi": 1265,
      "Gold": 1266,
      "Kevin": 1267,
      "Rit": 1268,
      "t_B": 1269,
      "t_H": 1270,
      "ul_": 1271,
      "vs": 1272,
      "e_and": 1273,
      "e_Prem": 1274,
      "enry": 1275,
      "ctor": 1276,
      "a_D": 1277,
      "a_P": 1278,
      "a_Jo": 1279,
      "ami": 1280,
      "ament": 1281,
      "Caly": 1282,
      "y_G": 1283,
      "lead": 1284,
      "o_M": 1285,
      "o_Kir": 1286,
      "_Mhanj": 1287,
      "_Rog": 1288,
      "Pray": 1289,
      "2005_film": 1290,
      "2009_film": 1291,
      "2002_film": 1292,
      "_Do": 1293,
      "Prem_N": 1294,
      "erson": 1295,
      "umi": 1296,
      "ather": 1297,
      "_New": 1298,
      "_Jon": 1299,
      "_Jack": 1300,
      "Calling_the_": 1301,
      "Call_of_the_F": 1302,
      "Carnal": 1303,
      "ears_": 1304,
      "Caged_Fur": 1305,
      "Carnival_of": 1306,
      "Camping_": 1307,
      "Care_Bears_": 1308,
      "_The_Final": 1309,
      "orn_": 1310,
      "Harold": 1311,
      "Casanova_": 1312,
      "Brian": 1313,
      "Cain_and_Ab": 1314,
      "Malayalam": 1315,
      "Cameo_Kir": 1316,
      "histor": 1317,
      "_Mhanje_Prem": 1318,
      "Caged_Fury_": 1319,
      "Cain_and_Abel_": 1320,
      "Cameo_Kirby_": 1321,
      ").": 1322,
      "56": 1323,
      "Dream": 1324,
      "Est": 1325,
      "Fl": 1326,
      "Luc": 1327,
      "Ne": 1328,
      "Ray": 1329,
      "Val": 1330,
      "ace": 1331,
      "compos": 1332,
      "ld": 1333,
      "tt": 1334,
      "ens": 1335,
      "amil": 1336,
      "adapt": 1337,
      "Case": 1338,
      "2016": 1339,
      "Anne": 1340,
      "Ellen": 1341,
      "Prairie": 1342,
      "French": 1343,
      "12": 1344,
      "Award": 1345,
      "Ben": 1346,
      "Luck": 1347,
      "Music": 1348,
      "Scott": 1349,
      "Uni": 1350,
      "fer": 1351,
      "less": 1352,
      "ery": 1353,
      "ilip": 1354,
      "aled": 1355,
      "Carel": 1356,
      "Thomas": 1357,
      "iranda": 1358,
      "ito": 1359,
      "_Bal": 1360,
      "agar": 1361,
      "action": 1362,
      "2010": 1363,
      "2011_film": 1364,
      "_An": 1365,
      "Joe_": 1366,
      "Canad": 1367,
      "Carry_On_A": 1368,
      "i_K": 1369,
      "hanam": 1370,
      "Stan": 1371,
      "1996_film": 1372,
      "score": 1373,
      "irls_": 1374,
      "Cain_": 1375,
      "Carolina_": 1376,
      "features": 1377,
      "Joseph": 1378,
      "Careful_": 1379,
      "_You": 1380,
      "pso_": 1381,
      "_born_": 1382,
      "Calypso_": 1383,
      "composed": 1384,
      "55": 1385,
      "71": 1386,
      "Ash": 1387,
      "Bob": 1388,
      "Ev": 1389,
      "Howard": 1390,
      "Re": 1391,
      "Vict": 1392,
      "ix": 1393,
      "lers": 1394,
      "mas": 1395,
      "ram": 1396,
      "wan": 1397,
      "rist": 1398,
      "icol": 1399,
      "icul": 1400,
      "Preci": 1401,
      "ode": 1402,
      "abel": 1403,
      "abeth": 1404,
      "ette": 1405,
      "oyd": 1406,
      "Carlito": 1407,
      "Candles": 1408,
      "1914": 1409,
      "Pratid": 1410,
      "second": 1411,
      "58": 1412,
      "Crim": 1413,
      "Dor": 1414,
      "Jen": 1415,
      "Mik": 1416,
      "Park": 1417,
      "Ros": 1418,
      "Tel": 1419,
      "_II": 1420,
      "aus": 1421,
      "gu": 1422,
      "has": 1423,
      "ić": 1424,
      "i_M": 1425,
      "wood": 1426,
      "sthanam": 1427,
      "anim": 1428,
      "ile": 1429,
      "oney": 1430,
      "ener": 1431,
      "their": 1432,
      "This": 1433,
      "raw": 1434,
      "_Sto": 1435,
      "Pred": 1436,
      "_Raj": 1437,
      "Call_O": 1438,
      "Casa_de_": 1439,
      "_Hay": 1440,
      "forc": 1441,
      "ever_": 1442,
      "_Per": 1443,
      "Can_": 1444,
      "umm": 1445,
      "1986_film": 1446,
      "California_Dream": 1447,
      "1995_film": 1448,
      "ogra": 1449,
      "_Tak": 1450,
      "ugh": 1451,
      "ustlers": 1452,
      "debut": 1453,
      "Cabaret_": 1454,
      "Sealed": 1455,
      "Charles_H": 1456,
      "work": 1457,
      "Caddyshack_II": 1458,
      "Carnosaur_": 1459,
      "Cabin_Fever_": 1460,
      "thriller": 1461,
      "_Paradis": 1462,
      "Gerald_Thomas": 1463,
      "title": 1464,
      "_Williams": 1465,
      "Union": 1466,
      "Careless_": 1467,
      "..": 1468,
      "52": 1469,
      "61": 1470,
      "Bh": 1471,
      "Cor": 1472,
      "Festival": 1473,
      "Gu": 1474,
      "Gab": 1475,
      "Mel": 1476,
      "Mak": 1477,
      "Ol": 1478,
      "Reg": 1479,
      "Tur": 1480,
      "ect": 1481,
      "horr": 1482,
      "uction": 1483,
      "vent": 1484,
      "wa": 1485,
      "incl": 1486,
      "ence": 1487,
      "among": 1488,
      "oland": 1489,
      "mann": 1490,
      "Rob": 1491,
      "acon": 1492,
      "erno": 1493,
      "Rao": 1494,
      "cla": 1495,
      "Cameron": 1496,
      "Pranam": 1497,
      "Christop": 1498,
      "Christian": 1499,
      "Jonathan": 1500,
      "Telug": 1501,
      "horror": 1502,
      "48": 1503,
      "Col": 1504,
      "Dark": 1505,
      "Ex": 1506,
      "La": 1507,
      "Larr": 1508,
      "New": 1509,
      "Phan": 1510,
      "Rang": 1511,
      "Ter": 1512,
      "_Card": 1513,
      "band": 1514,
      "ei": 1515,
      "ia_": 1516,
      "mok": 1517,
      "oz": 1518,
      "ool": 1519,
      "oot": 1520,
      "sid": 1521,
      "iness": 1522,
      "ings": 1523,
      "era": 1524,
      "iles": 1525,
      "ret": 1526,
      "ther": 1527,
      "en_": 1528,
      "die_": 1529,
      "ica": 1530,
      "unicul": 1531,
      "rad": 1532,
      "_Shar": 1533,
      "its": 1534,
      "ura_M": 1535,
      "_Bh": 1536,
      "_Bur": 1537,
      "_Bill_": 1538,
      "o_F": 1539,
      "Prelu": 1540,
      "nifer": 1541,
      "aki": 1542,
      "ave": 1543,
      "2007_film": 1544,
      "Premas": 1545,
      "ous_": 1546,
      "_Wild": 1547,
      "_Woman": 1548,
      "_The_Sealed": 1549,
      "Carry_On_Girls": 1550,
      "i_O": 1551,
      "_Le": 1552,
      "iver": 1553,
      "Cafe_S": 1554,
      "1981_film": 1555,
      "Shir": 1556,
      "California_F": 1557,
      "Alan": 1558,
      "1934_film": 1559,
      "Carol_": 1560,
      "de_to_": 1561,
      "etter": 1562,
      "Call_of_the_Rock": 1563,
      "fect": 1564,
      "ton_": 1565,
      "sequ": 1566,
      "udd": 1567,
      "Carnival_in": 1568,
      "Calendar_": 1569,
      "Prakash": 1570,
      "y_Bus": 1571,
      "Calamari_": 1572,
      "Murders": 1573,
      "razil": 1574,
      "arget": 1575,
      "ovie_2": 1576,
      "Cardcaptor_Sakura_M": 1577,
      "ecil": 1578,
      "TV_series": 1579,
      "voice_": 1580,
      "awtrey_": 1581,
      "Alex": 1582,
      "two": 1583,
      "_Rogers_": 1584,
      "Lucky": 1585,
      "_born_1914": 1586,
      "Precious_": 1587,
      "Jennifer": 1588,
      "forcer": 1589,
      "Charles_Hawtrey_": 1590,
      "Exp": 1591,
      "Phantom": 1592,
      "_Bill_Elliott": 1593,
      "Prelude_to_": 1594,
      "_The_Sealed_Card": 1595,
      "Cafe_Society_": 1596,
      "Call_of_the_Rockies_": 1597,
      "Calamari_Union": 1598,
      "Cardcaptor_Sakura_Movie_2": 1599,
      "Dick": 1600,
      "Ice": 1601,
      "Last": 1602,
      "Pil": 1603,
      "Sep": 1604,
      "Ven": 1605,
      "Wak": 1606,
      "col": 1607,
      "casi": 1608,
      "gat": 1609,
      "judi": 1610,
      "let": 1611,
      "mare": 1612,
      "now": 1613,
      "ocla": 1614,
      "sp": 1615,
      "tan": 1616,
      "tember": 1617,
      "uary": 1618,
      "zz": 1619,
      "sta": 1620,
      "rey": 1621,
      "Caress": 1622,
      "rab": 1623,
      "imon": 1624,
      "ita": 1625,
      "itz": 1626,
      "agu": 1627,
      "Prab": 1628,
      "2009": 1629,
      "Cabby": 1630,
      "Cabocla": 1631,
      "ichol": 1632,
      "ucamong": 1633,
      "orest": 1634,
      "ational": 1635,
      "ourteen": 1636,
      "Jane": 1637,
      "Enforcer": 1638,
      "ighat": 1639,
      "United": 1640,
      "Jacqu": 1641,
      "Crimson": 1642,
      "animated": 1643,
      "includ": 1644,
      "Darkest": 1645,
      "September": 1646,
      "Caresses": 1647,
      "ucamonga": 1648,
      "ourteenth": 1649,
      "51": 1650,
      "Apr": 1651,
      "Code": 1652,
      "Lew": 1653,
      "Ma": 1654,
      "Wil": 1655,
      "Wat": 1656,
      "Yama": 1657,
      "ce_": 1658,
      "cart": 1659,
      "flow": 1660,
      "hal": 1661,
      "hire": 1662,
      "ki": 1663,
      "kin": 1664,
      "lov": 1665,
      "oir": 1666,
      "set": 1667,
      "sup": 1668,
      "tern": 1669,
      "t_Sto": 1670,
      "inst": 1671,
      "e_de_": 1672,
      "on_P": 1673,
      "onse": 1674,
      "all_": 1675,
      "am_B": 1676,
      "raper": 1677,
      "oft": 1678,
      "_Sims": 1679,
      "s_Way": 1680,
      "itch": 1681,
      "_Bacon": 1682,
      "usband": 1683,
      "cha": 1684,
      "char": 1685,
      "Teacher": 1686,
      "_Ro": 1687,
      "Casi_": 1688,
      "2015": 1689,
      "2012_film": 1690,
      "idnight": 1691,
      "ard_": 1692,
      "Camp_C": 1693,
      "Camp_Wil": 1694,
      "Prem_P": 1695,
      "Italian": 1696,
      "usical": 1697,
      "ull": 1698,
      "Carry_On_Lov": 1699,
      "i_V": 1700,
      "Ang": 1701,
      "_Kelly": 1702,
      "California_S": 1703,
      "1939_film": 1704,
      "que": 1705,
      "cia_": 1706,
      "1975_film": 1707,
      "scraper": 1708,
      "ation_": 1709,
      "Call_Me_Lucky": 1710,
      "apphire": 1711,
      "ood_": 1712,
      "1968_film": 1713,
      "_Story": 1714,
      "George_": 1715,
      "Carry_On_Cabby": 1716,
      "life": 1717,
      "ubl": 1718,
      "1926": 1719,
      "1921_film": 1720,
      "ious": 1721,
      "Pover": 1722,
      "Povest": 1723,
      "p_the_Music": 1724,
      "prem": 1725,
      "Prathy": 1726,
      "North": 1727,
      "Calvary_": 1728,
      "make": 1729,
      "Eric_Rogers_": 1730,
      "anks": 1731,
      "Joan_Sims": 1732,
      "5760": 1733,
      "Carry_on_Jatta_3": 1734,
      "What": 1735,
      "Philip": 1736,
      "self": 1737,
      "kyscraper": 1738,
      "an_Roman": 1739,
      "ombed": 1740,
      "Jungle": 1741,
      "_Doctor": 1742,
      "Victor": 1743,
      "eneration": 1744,
      "April": 1745,
      "cartier": 1746,
      "t_Stop_the_Music": 1747,
      "Casi_casi": 1748,
      "Camp_Cucamonga": 1749,
      "Camp_Wilder": 1750,
      "Carry_On_Loving": 1751,
      "10": 1752,
      "Hin": 1753,
      "Khy": 1754,
      "Lu": 1755,
      "Sou": 1756,
      "Vin": 1757,
      "Vir": 1758,
      "Xmas": 1759,
      "crime": 1760,
      "down": 1761,
      "eb": 1762,
      "eat": 1763,
      "ferno": 1764,
      "gr": 1765,
      "gain": 1766,
      "iy": 1767,
      "ja": 1768,
      "jee": 1769,
      "ka": 1770,
      "kers": 1771,
      "part": 1772,
      "ying": 1773,
      "én": 1774,
      "stin": 1775,
      "anj": 1776,
      "Cach": 1777,
      "orld": 1778,
      "rish": 1779,
      "Calap": 1780,
      "unflow": 1781,
      "ose": 1782,
      "agi": 1783,
      "2014": 1784,
      "ompany": 1785,
      "Closet": 1786,
      "ured": 1787,
      "Franc": 1788,
      "Dead": 1789,
      "aire": 1790,
      "azir": 1791,
      "Praktan": 1792,
      "Pratighat": 1793,
      "after": 1794,
      "Madh": 1795,
      "esponse": 1796,
      "Queen": 1797,
      "Curs": 1798,
      "Cageman": 1799,
      "Japanese": 1800,
      "follows": 1801,
      "Louis": 1802,
      "Makes": 1803,
      "Jacques": 1804,
      "Khyber": 1805,
      "Caché": 1806,
      "Pratighatana": 1807,
      "City": 1808,
      "Im": 1809,
      "Jess": 1810,
      "Mes": 1811,
      "Movie_": 1812,
      "Nat": 1813,
      "Nov": 1814,
      "Red": 1815,
      "Rick": 1816,
      "Tar": 1817,
      "Vac": 1818,
      "Wall": 1819,
      "Your": 1820,
      "_E": 1821,
      "bet": 1822,
      "dom": 1823,
      "mo": 1824,
      "mi_": 1825,
      "pp": 1826,
      "sl": 1827,
      "ver": 1828,
      "vad": 1829,
      "yon": 1830,
      "zaki": 1831,
      "arou": 1832,
      "ine_": 1833,
      "anan": 1834,
      "ero_": 1835,
      "thro": 1836,
      "along": 1837,
      "Cars": 1838,
      "amp": 1839,
      "ison": 1840,
      "at_M": 1841,
      "y_L": 1842,
      "_Sav": 1843,
      "_Society_": 1844,
      "_Skyscraper": 1845,
      "s_Closet": 1846,
      "s_Dead": 1847,
      "Camino_": 1848,
      "_Boy": 1849,
      "advent": 1850,
      "Prejudi": 1851,
      "illesp": 1852,
      "_Miranda": 1853,
      "_Response": 1854,
      "agh": 1855,
      "odarou": 1856,
      "2018_film": 1857,
      "the_Enforcer": 1858,
      "_A_New": 1859,
      "_Generation": 1860,
      "ardless": 1861,
      "Premak": 1862,
      "Clau": 1863,
      "Claus": 1864,
      "_Wiz": 1865,
      "abhar": 1866,
      "_The_Tim": 1867,
      "_The_Phantom": 1868,
      "_The_Last": 1869,
      "_The_Crimson": 1870,
      "_The_Darkest": 1871,
      "cem": 1872,
      "i_Y": 1873,
      "i_ma_": 1874,
      "_Luck": 1875,
      "Cafe_": 1876,
      "opodarou": 1877,
      "iko_": 1878,
      "California": 1879,
      "005": 1880,
      "1992": 1881,
      "1995": 1882,
      "e_Bombed": 1883,
      "of_the_Century": 1884,
      "1935_film": 1885,
      "Carmen_Miranda": 1886,
      "Call_of_the_Prairie": 1887,
      "Café_Society_": 1888,
      "_Target": 1889,
      "rys": 1890,
      "1965_film": 1891,
      "ontain": 1892,
      "George": 1893,
      "Carry_On_Camping": 1894,
      "Carry_On_Teacher": 1895,
      "perfor": 1896,
      "oster": 1897,
      "Calling_All_Curs": 1898,
      "Cabaret_Bal": 1899,
      "e_Letter": 1900,
      "Cars_3": 1901,
      "Pranay": 1902,
      "_The_Fourteenth": 1903,
      "_Love_Letter": 1904,
      "Dix": 1905,
      "ountdown": 1906,
      "role": 1907,
      "Cash_and": 1908,
      "Cadet_Kelly": 1909,
      "ana_Yama": 1910,
      "reaming": 1911,
      "Kenneth_Williams": 1912,
      "ptured": 1913,
      "Caroline_at_M": 1914,
      "5700": 1915,
      "ly_Xmas": 1916,
      "Carry_on_Jatta_2": 1917,
      "Cactus_Makes": 1918,
      "_of_Baker": 1919,
      "Carry_On_Up_the_Khyber": 1920,
      "Calendar_Girl_Murders": 1921,
      "Eyes": 1922,
      "_Zero_": 1923,
      "Call_It_Luck": 1924,
      "Caligula_": 1925,
      "Caribbean_Roman": 1926,
      "_Jokers": 1927,
      "Practical_Jokers": 1928,
      "_Nightmare": 1929,
      "Calcutta_71": 1930,
      "4980": 1931,
      "Care_Bears_Movie_": 1932,
      "rawn": 1933,
      "_Perfect": 1934,
      "Turbo": 1935,
      "Christopher": 1936,
      "i_Ogat": 1937,
      "voice_actor": 1938,
      "Wakana_Yama": 1939,
      "e_de_cartier": 1940,
      "charact": 1941,
      "ard_of_the_Century": 1942,
      "Poveri_ma_": 1943,
      "Poveste_de_cartier": 1944,
      "premier": 1945,
      "Virg": 1946,
      "Calapor_": 1947,
      "Caché_": 1948,
      "s_Deadly_Xmas": 1949,
      "illespie": 1950,
      "_A_New_Generation": 1951,
      "_Wizard_of_the_Century": 1952,
      "_The_Time_Bombed": 1953,
      "_The_Phantom_of_Baker": 1954,
      "_The_Last_Wizard_of_the_Century": 1955,
      "_The_Crimson_Love_Letter": 1956,
      "_The_Darkest_Nightmare": 1957,
      "Cabaret_Balkan": 1958,
      "_The_Fourteenth_Target": 1959,
      "Caroline_at_Midnight": 1960,
      "Cactus_Makes_Perfect": 1961,
      "_Zero_the_Enforcer": 1962,
      "Caribbean_Romance": 1963,
      "Care_Bears_Movie_II": 1964,
      "Wakana_Yamazaki": 1965,
      "Poveri_ma_ric": 1966,
      "_The_Time_Bombed_Skyscraper": 1967,
      "_The_Phantom_of_Baker_Street": 1968,
      "09": 1969,
      "Aust": 1970,
      "Bal": 1971,
      "Bab": 1972,
      "Brawn": 1973,
      "Craz": 1974,
      "Dr": 1975,
      "Husband": 1976,
      "Ian": 1977,
      "Lak": 1978,
      "Lion": 1979,
      "Mat": 1980,
      "Nan": 1981,
      "Pier": 1982,
      "Rep": 1983,
      "Time": 1984,
      "War": 1985,
      "Wait": 1986,
      "aut": 1987,
      "bi": 1988,
      "cre": 1989,
      "creaming": 1990,
      "pol": 1991,
      "ru": 1992,
      "sol": 1993,
      "vi": 1994,
      "were": 1995,
      "za": 1996,
      "aru": 1997,
      "orig": 1998,
      "enant": 1999,
      "dic": 2000,
      "asil": 2001,
      "Calet": 2002,
      "olph": 2003,
      "ady": 2004,
      "Preacher": 2005,
      "cho": 2006,
      "2000": 2007,
      "utthro": 2008,
      "iving": 2009,
      "Anton": 2010,
      "Stra": 2011,
      "Allan": 2012,
      "away": 2013,
      "Georges": 2014,
      "José": 2015,
      "hoop": 2016,
      "oulders": 2017,
      "arshall": 2018,
      "lanca": 2019,
      "historical": 2020,
      "Telugu": 2021,
      "aguchi": 2022,
      "support": 2023,
      "rysopodarou": 2024,
      "Crazy": 2025,
      "Husbands": 2026,
      "enantion": 2027,
      "utthroats": 2028,
      "13": 2029,
      "Ab": 2030,
      "Co": 2031,
      "Cy": 2032,
      "Der": 2033,
      "Gh": 2034,
      "Gra": 2035,
      "Hal": 2036,
      "Hatt": 2037,
      "Kat": 2038,
      "Kapp": 2039,
      "Lady": 2040,
      "Ned": 2041,
      "Pri": 2042,
      "Sk": 2043,
      "Shan": 2044,
      "Ty": 2045,
      "_Carl": 2046,
      "_to_": 2047,
      "_enantion": 2048,
      "aqu": 2049,
      "doc": 2050,
      "ei_Y": 2051,
      "men": 2052,
      "med": 2053,
      "u_S": 2054,
      "ween": 2055,
      "woman": 2056,
      "ym": 2057,
      "zma": 2058,
      "aro": 2059,
      "arade": 2060,
      "iner": 2061,
      "an_G": 2062,
      "an_N": 2063,
      "rel": 2064,
      "e_N": 2065,
      "film_": 2066,
      "this": 2067,
      "edit": 2068,
      "a_L": 2069,
      "right": 2070,
      "amaguchi": 2071,
      "is_": 2072,
      "is_M": 2073,
      "Cal_": 2074,
      "y_H": 2075,
      "2019": 2076,
      "of_In": 2077,
      "_Smith": 2078,
      "_Soft": 2079,
      "_Sunflow": 2080,
      "s_Kid": 2081,
      "s_on_P": 2082,
      "s_005": 2083,
      "_Barr": 2084,
      "_Banan": 2085,
      "o_V": 2086,
      "_Reg": 2087,
      "_Her_": 2088,
      "_Henry": 2089,
      "_Hrysopodarou": 2090,
      "the_Brawn": 2091,
      "avres": 2092,
      "_A_F": 2093,
      "ot_": 2094,
      "Camp_Bl": 2095,
      "2008": 2096,
      "_Countdown": 2097,
      "anger": 2098,
      "_Wish": 2099,
      "_Wait": 2100,
      "_For_": 2101,
      "Canal": 2102,
      "umb": 2103,
      "Carry_On_Reg": 2104,
      "ive_F": 2105,
      "ney_": 2106,
      "_Jam": 2107,
      "acre": 2108,
      "Caliber_": 2109,
      "States": 2110,
      "Cadavres": 2111,
      "1949_film": 2112,
      "She": 2113,
      "1990": 2114,
      "oren": 2115,
      "of_the_R": 2116,
      "1936": 2117,
      "cial": 2118,
      "1976_film": 2119,
      "Call_of_the_Bl": 2120,
      "Carny_": 2121,
      "Call_Me_Claus": 2122,
      "Call_Me_Crazy": 2123,
      "ers_of_In": 2124,
      "production": 2125,
      "ist_of_B": 2126,
      "Decem": 2127,
      "ildare": 2128,
      "Calendar_Girls": 2129,
      "lue_S": 2130,
      "_Shoulders": 2131,
      "Cabin_Boy": 2132,
      "Calling_All_Husbands": 2133,
      "Williams": 2134,
      "Praktore": 2135,
      "ara_P": 2136,
      "inds": 2137,
      "_The_Fist_of_B": 2138,
      "_The_Musical": 2139,
      "Canadian_Bacon": 2140,
      "Power_Rangers_Turbo": 2141,
      "el_sol": 2142,
      "Cadets_on_P": 2143,
      "Norman": 2144,
      "Murray": 2145,
      "Sid_James": 2146,
      "a_de_Vac": 2147,
      "_in_Her_": 2148,
      "Cardcaptor_Sakura": 2149,
      "appearance": 2150,
      "riday": 2151,
      "Carry_On_Up_the_Jungle": 2152,
      "a_del_sol": 2153,
      "as_is_M": 2154,
      "s_Cutthroats": 2155,
      "Came_the_Brawn": 2156,
      "Camp_Rock_2": 2157,
      "Calamity_Anne": 2158,
      "Cabeza_de_Vac": 2159,
      "_Captured": 2160,
      "6000": 2161,
      "_Jones_": 2162,
      "Call_of_the_Forest": 2163,
      "_The_Final_Jam": 2164,
      "Raymond": 2165,
      "Canada": 2166,
      "Carry_On_Again": 2167,
      "Careful_What": 2168,
      "_You_Wish": 2169,
      "5580": 2170,
      "sequel": 2171,
      "y_Business": 2172,
      "1926_": 2173,
      "between": 2174,
      "Prejudice_": 2175,
      "Caleta_del_sol": 2176,
      "Kappei_Y": 2177,
      "_to_Heaven": 2178,
      "_enantion_Hrysopodarou": 2179,
      "_Soft_Shoulders": 2180,
      "_Sunflowers_of_In": 2181,
      "s_Kid_": 2182,
      "s_005_enantion_Hrysopodarou": 2183,
      "_Bananas_is_M": 2184,
      "_A_Five_F": 2185,
      "Camp_Blood": 2186,
      "_Countdown_to_Heaven": 2187,
      "Carry_On_Regardless": 2188,
      "Caliber_9": 2189,
      "Call_of_the_Blood_": 2190,
      "December": 2191,
      "lue_Sapphire": 2192,
      "Praktores_005_enantion_Hrysopodarou": 2193,
      "_The_Fist_of_Blue_Sapphire": 2194,
      "Cadets_on_Parade": 2195,
      "_in_Her_Eyes": 2196,
      "_Captured_in_Her_Eyes": 2197,
      "Call_of_the_Forest_": 2198,
      "Carry_On_Again_Doctor": 2199,
      "Careful_What_You_Wish": 2200,
      "Kappei_Yamaguchi": 2201,
      "_Sunflowers_of_Inferno": 2202,
      "_Bananas_is_My_Business": 2203,
      "_A_Five_Film": 2204,
      "Careful_What_You_Wish_For_": 2205,
      "37": 2206,
      "Best": 2207,
      "Bry": 2208,
      "Bears": 2209,
      "Carring": 2210,
      "Er": 2211,
      "Jas": 2212,
      "Jason": 2213,
      "Mor": 2214,
      "Or": 2215,
      "Ral": 2216,
      "Sun": 2217,
      "Sus": 2218,
      "Simon": 2219,
      "aby": 2220,
      "during": 2221,
      "eev": 2222,
      "gi": 2223,
      "gen": 2224,
      "had": 2225,
      "ial": 2226,
      "iet": 2227,
      "jap": 2228,
      "lor": 2229,
      "my": 2230,
      "pri": 2231,
      "uth": 2232,
      "uel": 2233,
      "aron": 2234,
      "andr": 2235,
      "asc": 2236,
      "ature": 2237,
      "urder": 2238,
      "chin": 2239,
      "agl": 2240,
      "Prajap": 2241,
      "ign": 2242,
      "2006": 2243,
      "abi": 2244,
      "Marí": 2245,
      "ument": 2246,
      "elli": 2247,
      "ops": 2248,
      "opat": 2249,
      "ikos": 2250,
      "awa": 2251,
      "quite": 2252,
      "araj": 2253,
      "appan": 2254,
      "Janet": 2255,
      "III": 2256,
      "Adam": 2257,
      "eroes": 2258,
      "ougl": 2259,
      "ephen": 2260,
      "Walter": 2261,
      "Myst": 2262,
      "Prayikk": 2263,
      "ublic": 2264,
      "Hindi": 2265,
      "Mesquite": 2266,
      "adventure": 2267,
      "Dixie": 2268,
      "Pierre": 2269,
      "Straight": 2270,
      "Ralph": 2271,
      "Prajapathi": 2272,
      "Mesquiteers": 2273,
      "Fox": 2274,
      "Gen": 2275,
      "Gun": 2276,
      "Hen": 2277,
      "Hann": 2278,
      "Kumar": 2279,
      "Rand": 2280,
      "Rav": 2281,
      "Serg": 2282,
      "VIII": 2283,
      "boy": 2284,
      "ebr": 2285,
      "fri": 2286,
      "fict": 2287,
      "ias": 2288,
      "law": 2289,
      "oos": 2290,
      "pad": 2291,
      "ras": 2292,
      "tz": 2293,
      "uy": 2294,
      "uy_M": 2295,
      "uori": 2296,
      "var": 2297,
      "ving": 2298,
      "yd": 2299,
      "ina_": 2300,
      "ington": 2301,
      "erjee": 2302,
      "remake": 2303,
      "e_Tak": 2304,
      "e_a_Jo": 2305,
      "e_Dixie": 2306,
      "thon": 2307,
      "thur": 2308,
      "onn": 2309,
      "dist": 2310,
      "a_O": 2311,
      "a_V": 2312,
      "eson": 2313,
      "rie": 2314,
      "ribut": 2315,
      "ame_": 2316,
      "is_B": 2317,
      "y_Ch": 2318,
      "osm": 2319,
      "rack": 2320,
      "of_R": 2321,
      "of_N": 2322,
      "_Sam_B": 2323,
      "urney": 2324,
      "_Bo": 2325,
      "adh": 2326,
      "use": 2327,
      "uss": 2328,
      "ove_": 2329,
      "_Mass": 2330,
      "_Rob": 2331,
      "Call_of_H": 2332,
      "Call_Jane": 2333,
      "Casab": 2334,
      "2012": 2335,
      "2013": 2336,
      "2017": 2337,
      "ionati": 2338,
      "Journey": 2339,
      "_Gillespie": 2340,
      "ot_F": 2341,
      "ardly_": 2342,
      "_This_B": 2343,
      "2002": 2344,
      "_Des": 2345,
      "_the_Marines": 2346,
      "_the_Sk": 2347,
      "_We_Tak": 2348,
      "Can_This_B": 2349,
      "Can_We_Tak": 2350,
      "Carry_On_Cle": 2351,
      "Carry_On_Henry": 2352,
      "ichi_Ogat": 2353,
      "ut_the_Marines": 2354,
      "ranch": 2355,
      "_Name_": 2356,
      "son_": 2357,
      "1989_film": 2358,
      "Sher": 2359,
      "Carma_": 2360,
      "Calling_Wild": 2361,
      "Albert": 2362,
      "Ray_": 2363,
      "qui": 2364,
      "Ell": 2365,
      "1974_film": 2366,
      "1972_film": 2367,
      "comedian": 2368,
      "6060": 2369,
      "Call_Me_by_": 2370,
      "ukumar": 2371,
      "ashib": 2372,
      "assionati": 2373,
      "astr": 2374,
      "1963_film": 2375,
      "Arm": 2376,
      "ourself": 2377,
      "lues": 2378,
      "Kenichi_Ogat": 2379,
      "Cabin_in": 2380,
      "Jane_and": 2381,
      "1950_film": 2382,
      "1927_film": 2383,
      "Chris_": 2384,
      "Calling_All_Marines": 2385,
      "e_Love_": 2386,
      "1917_film": 2387,
      "_Love": 2388,
      "Jayabhar": 2389,
      "_Yourself": 2390,
      "Calmi": 2391,
      "Calm_Yourself": 2392,
      "Patrick": 2393,
      "hoe": 2394,
      "Cadet_Girl": 2395,
      "Career_of_N": 2396,
      "Caesar_and_Cle": 2397,
      "worth": 2398,
      "a_Hot_F": 2399,
      "ammo": 2400,
      "Camelot_": 2401,
      "Carrie_Pil": 2402,
      "Call_Girls_": 2403,
      "Ramb": 2404,
      "Casanova": 2405,
      "Kingdom": 2406,
      "Barbara_": 2407,
      "Came_a_Hot_F": 2408,
      "Calamity_Jane_and": 2409,
      "_Dyzma": 2410,
      "Kannada_": 2411,
      "Megumi": 2412,
      "Pray_TV_": 2413,
      "Carry_On_Screaming": 2414,
      "t_Buy_M": 2415,
      "t_Hardly_": 2416,
      "Prem_Nagar": 2417,
      "5640": 2418,
      "Candleshoe": 2419,
      "Call_Out_the_Marines": 2420,
      "_Hayashib": 2421,
      "_Takagi": 2422,
      "Careless_Lady": 2423,
      "Wataru": 2424,
      "South": 2425,
      "Your_Name_": 2426,
      "ppassionati": 2427,
      "Austr": 2428,
      "Lionel": 2429,
      "supporting": 2430,
      "document": 2431,
      "_Waiting": 2432,
      "ara_Pappan": 2433,
      "Cabeza_de_Vaca_": 2434,
      "opatra_": 2435,
      "ikos_Dyzma": 2436,
      "Prayikkara_Pappan": 2437,
      "padre": 2438,
      "e_a_Joke": 2439,
      "of_Rome": 2440,
      "_Sam_Bass": 2441,
      "Call_of_Heroes": 2442,
      "_the_Sky_": 2443,
      "Can_This_Be_Dixie": 2444,
      "Can_We_Take_a_Joke": 2445,
      "Carry_On_Cleo": 2446,
      "Calling_Wild_Bill_Elliott": 2447,
      "Call_Me_by_Your_Name_": 2448,
      "Kenichi_Ogata_": 2449,
      "Cabin_in_the_Sky_": 2450,
      "Jayabharathi": 2451,
      "Career_of_Nikos_Dyzma": 2452,
      "Caesar_and_Cleopatra_": 2453,
      "Carrie_Pilby_": 2454,
      "Call_Girls_of_Rome": 2455,
      "Came_a_Hot_Friday": 2456,
      "Calamity_Jane_and_Sam_Bass": 2457,
      "Megumi_Hayashib": 2458,
      "t_Buy_Me_Love_": 2459,
      "t_Hardly_Wait": 2460,
      "Prem_Nagar_": 2461,
      "Wataru_Takagi": 2462,
      "Megumi_Hayashibara": 2463,
      "16": 2464,
      "30": 2465,
      "Big": 2466,
      "Bhar": 2467,
      "Fel": 2468,
      "Greg": 2469,
      "Gordon": 2470,
      "Hay": 2471,
      "Ju": 2472,
      "Jag": 2473,
      "Mac": 2474,
      "Mau": 2475,
      "Mail": 2476,
      "Nicol": 2477,
      "Nichol": 2478,
      "Ow": 2479,
      "Oct": 2480,
      "Pol": 2481,
      "Sal": 2482,
      "Sak": 2483,
      "Sara": 2484,
      "Sud": 2485,
      "To": 2486,
      "Tay": 2487,
      "XVIII": 2488,
      "blanca": 2489,
      "cats": 2490,
      "des": 2491,
      "fontain": 2492,
      "gl": 2493,
      "iu": 2494,
      "iç": 2495,
      "nes": 2496,
      "oore": 2497,
      "rough": 2498,
      "sen": 2499,
      "tain": 2500,
      "wana": 2501,
      "wani": 2502,
      "years": 2503,
      "ées": 2504,
      "ster": 2505,
      "anam": 2506,
      "ilp": 2507,
      "Caiç": 2508,
      "rest": 2509,
      "oran": 2510,
      "thy": 2511,
      "alia": 2512,
      "die": 2513,
      "dit": 2514,
      "andran": 2515,
      "Carp": 2516,
      "ato": 2517,
      "osc": 2518,
      "olo": 2519,
      "ircu": 2520,
      "urt": 2521,
      "Predic": 2522,
      "Prefontain": 2523,
      "Carrot": 2524,
      "Carried": 2525,
      "illa": 2526,
      "aka": 2527,
      "aved": 2528,
      "ford": 2529,
      "Campfield": 2530,
      "Clark": 2531,
      "Cabob": 2532,
      "Canyon": 2533,
      "Stephen": 2534,
      "ester": 2535,
      "allment": 2536,
      "1993": 2537,
      "atterjee": 2538,
      "awi": 2539,
      "obstin": 2540,
      "lanco": 2541,
      "clone": 2542,
      "Leon": 2543,
      "izet": 2544,
      "Heat": 2545,
      "Pranc": 2546,
      "pewriter": 2547,
      "afari": 2548,
      "Patri": 2549,
      "Prathap": 2550,
      "eedle": 2551,
      "tomic": 2552,
      "Wildcats": 2553,
      "Kids": 2554,
      "Prassthanam": 2555,
      "777": 2556,
      "adaptation": 2557,
      "Pratidwani": 2558,
      "Predat": 2559,
      "ograp": 2560,
      "ternational": 2561,
      "installment": 2562,
      "Angel": 2563,
      "vaders": 2564,
      "premiered": 2565,
      "Cyclone": 2566,
      "Mystic": 2567,
      "documentary": 2568,
      "ircuit": 2569,
      "Predicament": 2570,
      "Carrotblanca": 2571,
      "Caboblanco": 2572,
      "obstinées": 2573,
      "!!": 2574,
      "04": 2575,
      "39": 2576,
      "7200": 2577,
      "Bett": 2578,
      "Dar": 2579,
      "Febr": 2580,
      "Giving": 2581,
      "Kar": 2582,
      "Pal": 2583,
      "Rustlers": 2584,
      "Sre": 2585,
      "Smith": 2586,
      "Tra": 2587,
      "Viv": 2588,
      "_Cain": 2589,
      "_a_N": 2590,
      "_a_D": 2591,
      "cent": 2592,
      "da_": 2593,
      "franch": 2594,
      "go": 2595,
      "ge_": 2596,
      "i_D": 2597,
      "jit": 2598,
      "kumar": 2599,
      "la_": 2600,
      "last": 2601,
      "nold": 2602,
      "oh": 2603,
      "o_B": 2604,
      "path": 2605,
      "pying": 2606,
      "ront": 2607,
      "ss": 2608,
      "side": 2609,
      "tes": 2610,
      "tell": 2611,
      "ve": 2612,
      "ves": 2613,
      "vers": 2614,
      "way_": 2615,
      "year": 2616,
      "str": 2617,
      "inging": 2618,
      "e_777": 2619,
      "filmmak": 2620,
      "ala": 2621,
      "alis": 2622,
      "alek": 2623,
      "anders": 2624,
      "rig": 2625,
      "Carav": 2626,
      "ise_": 2627,
      "Cala": 2628,
      "elop": 2629,
      "theat": 2630,
      "Thunder": 2631,
      "osh": 2632,
      "raj": 2633,
      "_Se": 2634,
      "_Soul": 2635,
      "_Sawi": 2636,
      "etect": 2637,
      "s_Journey": 2638,
      "Cam_": 2639,
      "ura_": 2640,
      "_Be": 2641,
      "_Be_S": 2642,
      "_Banks": 2643,
      "ower": 2644,
      "illon": 2645,
      "_Mac": 2646,
      "_Mart": 2647,
      "_Miller": 2648,
      "_Mount": 2649,
      "_Mabel": 2650,
      "_Rush": 2651,
      "Call_the_": 2652,
      "Call_North": 2653,
      "for_the_": 2654,
      "_Ahe": 2655,
      "_Asta": 2656,
      "_Appassionati": 2657,
      "_Atomic": 2658,
      "_Away_": 2659,
      "ota": 2660,
      "_Through": 2661,
      "Camp_Mass": 2662,
      "Camp_Sawi": 2663,
      "2007": 2664,
      "ent_Z": 2665,
      "Prem_Mhanje_Prem": 2666,
      "_Cor": 2667,
      "_Cost": 2668,
      "_Crime": 2669,
      "_Cuori": 2670,
      "_Circuit": 2671,
      "_the_Ey": 2672,
      "_Fl": 2673,
      "_Force": 2674,
      "_Pick": 2675,
      "_Pati": 2676,
      "Carry_On_Jatt": 2677,
      "Carry_On_Jack": 2678,
      "i_Ch": 2679,
      "ress_": 2680,
      "ived": 2681,
      "Anthon": 2682,
      "song": 2683,
      "1980": 2684,
      "Str": 2685,
      "itha": 2686,
      "ithout": 2687,
      "1942": 2688,
      "1944_film": 2689,
      "_Khar": 2690,
      "er_Camp_Mass": 2691,
      "California_Gold": 2692,
      "California_Straight": 2693,
      "1998_film": 2694,
      "ore_": 2695,
      "orett": 2696,
      "e_Bear": 2697,
      "e_Bwana": 2698,
      "Cage_of": 2699,
      "atti": 2700,
      "Prod": 2701,
      "1930_film": 2702,
      "Power_": 2703,
      "Carmen_Jones_": 2704,
      "Call_Me_Bwana": 2705,
      "Eliz": 2706,
      "Call_of_the_Canyon": 2707,
      "oyama": 2708,
      "ewart": 2709,
      "resslaw": 2710,
      "Cardfight": 2711,
      "inald": 2712,
      "ustin": 2713,
      "Carolina_B": 2714,
      "Arthur": 2715,
      "Carnival_Queen": 2716,
      "clar": 2717,
      "peri": 2718,
      "_Shines": 2719,
      "Camille_2000": 2720,
      "1925_film": 2721,
      "Calling_All_Kids": 2722,
      "Cabaret_Paradis": 2723,
      "e_Force": 2724,
      "Camping_2": 2725,
      "anguard": 2726,
      "Cairo_Time": 2727,
      "Sean": 2728,
      "1914_film": 2729,
      "Cars_2": 2730,
      "es_obstinées": 2731,
      "Campus_Code": 2732,
      "Connor": 2733,
      "Canadian_Mount": 2734,
      "Power_Rangers_Tim": 2735,
      "Power_Rangers_Mystic": 2736,
      "Bruc": 2737,
      "Jeff": 2738,
      "ountain": 2739,
      "_DeM": 2740,
      "eedu": 2741,
      "ies_vs": 2742,
      "Camel_Through": 2743,
      "Cain_and_Mabel": 2744,
      "Noah": 2745,
      "e_of_a_N": 2746,
      "Cabin_Fever": 2747,
      "Cardinals_": 2748,
      "_Invaders": 2749,
      "s_Summ": 2750,
      "Call_It_a_D": 2751,
      "Caligula": 2752,
      "Carson_City_Cyclone": 2753,
      "Career_Woman": 2754,
      "Kannada": 2755,
      "Pray_for_the_": 2756,
      "Carry_On_Spying": 2757,
      "Cadence_": 2758,
      "Cadences_obstinées": 2759,
      "Carnal_Circuit": 2760,
      "Carnival_of_Soul": 2761,
      "Carnival_of_Crime": 2762,
      "Camping_3": 2763,
      "_Mhanje_Prem_Asta": 2764,
      "Valer": 2765,
      "Ellen_Be_S": 2766,
      "Cain_XVIII": 2767,
      "Calypso_Joe": 2768,
      "5880": 2769,
      "Doroth": 2770,
      "Casa_de_mi_": 2771,
      "Can_Ellen_Be_S": 2772,
      "California_Dreamin": 2773,
      "6120": 2774,
      "Reginald": 2775,
      "Larry_": 2776,
      "moke": 2777,
      "ootpath": 2778,
      "side_777": 2779,
      "_Share_Bear": 2780,
      "Republic": 2781,
      "polit": 2782,
      "ymore": 2783,
      "Carrington_": 2784,
      "friend": 2785,
      "fiction": 2786,
      "distribut": 2787,
      "Calmi_Cuori": 2788,
      "Caiçara_": 2789,
      "Carried_Away_": 2790,
      "Prancer_": 2791,
      "Predicament_": 2792,
      "February": 2793,
      "franchise": 2794,
      "etective": 2795,
      "_Rush_": 2796,
      "Call_the_Mesquiteers": 2797,
      "Call_Northside_777": 2798,
      "_Ahead_": 2799,
      "_Atomic_Invaders": 2800,
      "ent_Zero": 2801,
      "Prem_Mhanje_Prem_Mhanje_Prem_Asta": 2802,
      "_the_Eye_of_a_N": 2803,
      "_Patient_Zero": 2804,
      "Carry_On_Jatta": 2805,
      "er_Camp_Massacre": 2806,
      "California_Gold_Rush_": 2807,
      "California_Straight_Ahead_": 2808,
      "Cage_of_Gold": 2809,
      "Elizabeth": 2810,
      "Carolina_Blues": 2811,
      "Carnival_Queen_": 2812,
      "Canadian_Mounties_vs": 2813,
      "Power_Rangers_Time_Force": 2814,
      "Power_Rangers_Mystic_Force": 2815,
      "Camel_Through_the_Eye_of_a_N": 2816,
      "s_Summer_Camp_Massacre": 2817,
      "Call_It_a_Day": 2818,
      "Career_Woman_": 2819,
      "Pray_for_the_Wildcats": 2820,
      "Carnival_of_Souls_": 2821,
      "Casa_de_mi_padre": 2822,
      "Can_Ellen_Be_Saved": 2823,
      "_Share_Bear_Shines": 2824,
      "Calmi_Cuori_Appassionati": 2825,
      "Camel_Through_the_Eye_of_a_Needle": 2826,
      "),": 2827,
      "11": 2828,
      "17": 2829,
      "31": 2830,
      "45": 2831,
      "50": 2832,
      "Ari": 2833,
      "Del": 2834,
      "Denn": 2835,
      "Eth": 2836,
      "Iv": 2837,
      "Jr": 2838,
      "Jun": 2839,
      "Ke": 2840,
      "Lam": 2841,
      "Lyn": 2842,
      "Mont": 2843,
      "Movie": 2844,
      "Mammo": 2845,
      "Nag": 2846,
      "Nut": 2847,
      "Pich": 2848,
      "Rod": 2849,
      "Young": 2850,
      "bl": 2851,
      "bau": 2852,
      "bro": 2853,
      "cort": 2854,
      "cont": 2855,
      "four": 2856,
      "ker": 2857,
      "la": 2858,
      "loyd": 2859,
      "main": 2860,
      "not": 2861,
      "ober": 2862,
      "ooth": 2863,
      "pock": 2864,
      "smoke": 2865,
      "ucho": 2866,
      "vel": 2867,
      "vious": 2868,
      "yle": 2869,
      "anish": 2870,
      "arrett": 2871,
      "ility": 2872,
      "Cac": 2873,
      "Cap": 2874,
      "rev": 2875,
      "rece": 2876,
      "oro": 2877,
      "only": 2878,
      "andhy": 2879,
      "asak": 2880,
      "escu": 2881,
      "riff": 2882,
      "Calim": 2883,
      "ata": 2884,
      "ater": 2885,
      "elie": 2886,
      "omen": 2887,
      "omic": 2888,
      "2020": 2889,
      "olog": 2890,
      "iranj": 2891,
      "itter": 2892,
      "ović": 2893,
      "illy": 2894,
      "agic": 2895,
      "Chiranj": 2896,
      "2018": 2897,
      "Prayan": 2898,
      "Prawa": 2899,
      "idd": 2900,
      "ots": 2901,
      "Campb": 2902,
      "apoor": 2903,
      "angath": 2904,
      "Mark": 2905,
      "March": 2906,
      "Roger": 2907,
      "eming": 2908,
      "ernon": 2909,
      "plage": 2910,
      "obb": 2911,
      "oyle": 2912,
      "ollu": 2913,
      "ollide": 2914,
      "otty": 2915,
      "Geeth": 2916,
      "here": 2917,
      "oodu": 2918,
      "Carla": 2919,
      "Caroline": 2920,
      "Declar": 2921,
      "renc": 2922,
      "lucha": 2923,
      "ostess": 2924,
      "1958": 2925,
      "played": 2926,
      "featuring": 2927,
      "haar": 2928,
      "Cameram": 2929,
      "irebr": 2930,
      "Calmos": 2931,
      "previous": 2932,
      "encer": 2933,
      "portun": 2934,
      "ancer": 2935,
      "angalu": 2936,
      "Cagefight": 2937,
      "Andrew": 2938,
      "Spanish": 2939,
      "orses": 2940,
      "Caribbean": 2941,
      "amily": 2942,
      "Gabri": 2943,
      "Robin": 2944,
      "Columb": 2945,
      "letto": 2946,
      "nowled": 2947,
      "itchell": 2948,
      "Tarangalu": 2949,
      "Sunil": 2950,
      "chinos": 2951,
      "Gunsmoke": 2952,
      "osmos": 2953,
      "quién": 2954,
      "Rambabu": 2955,
      "Sarah": 2956,
      "Carpool": 2957,
      "tesoro": 2958,
      "filmmaker": 2959,
      "Mammootty": 2960,
      "Pichollu": 2961,
      "pocket": 2962,
      "Calimucho": 2963,
      "Prawaas": 2964,
      "irebrand": 2965,
      "Cagefighter": 2966,
      "4200": 2967,
      "64": 2968,
      "6300": 2969,
      "Ac": 2970,
      "Aug": 2971,
      "Bu": 2972,
      "Bel": 2973,
      "Bill_": 2974,
      "Brazil": 2975,
      "Cecil": 2976,
      "Flow": 2977,
      "Gil": 2978,
      "Gill": 2979,
      "Girl": 2980,
      "Ha": 2981,
      "Hug": 2982,
      "Ir": 2983,
      "Ish": 2984,
      "Ka": 2985,
      "Mah": 2986,
      "Nanc": 2987,
      "Roman": 2988,
      "Sm": 2989,
      "Sw": 2990,
      "Sag": 2991,
      "Will": 2992,
      "Winds": 2993,
      "Yu": 2994,
      "_s": 2995,
      "_with": 2996,
      "_a_K": 2997,
      "ca_": 2998,
      "cies": 2999,
      "eant": 3000,
      "fant": 3001,
      "gg": 3002,
      "ira": 3003,
      "i_R": 3004,
      "i_F": 3005,
      "los": 3006,
      "mark": 3007,
      "oes_": 3008,
      "por": 3009,
      "sil": 3010,
      "tr": 3011,
      "ts": 3012,
      "ty": 3013,
      "young": 3014,
      "ario": 3015,
      "ano": 3016,
      "anth": 3017,
      "an_J": 3018,
      "inger": 3019,
      "ree_": 3020,
      "e_Heaven": 3021,
      "e_da_": 3022,
      "thir": 3023,
      "onster": 3024,
      "ali": 3025,
      "alay": 3026,
      "a_quién": 3027,
      "and_Jack": 3028,
      "and_Rob": 3029,
      "asy": 3030,
      "asan": 3031,
      "rik": 3032,
      "Care_of": 3033,
      "amb": 3034,
      "iss_": 3035,
      "y_R": 3036,
      "y_T": 3037,
      "oldb": 3038,
      "rast": 3039,
      "_Sal": 3040,
      "_Sund": 3041,
      "_Spe": 3042,
      "_Safari": 3043,
      "etr": 3044,
      "eter": 3045,
      "s_K": 3046,
      "leiss": 3047,
      "ita_": 3048,
      "_Blu": 3049,
      "untament": 3050,
      "o_G": 3051,
      "o_Rambabu": 3052,
      "cheming": 3053,
      "illa_": 3054,
      "_Mont": 3055,
      "_My_D": 3056,
      "_Re": 3057,
      "_Rich": 3058,
      "Casa_d": 3059,
      "_Hell": 3060,
      "_Heat": 3061,
      "_Horses": 3062,
      "_Ar": 3063,
      "_Gran": 3064,
      "Camp_Hell": 3065,
      "_Der": 3066,
      "_Con": 3067,
      "_Cosmos": 3068,
      "oud": 3069,
      "_Wh": 3070,
      "_Wave": 3071,
      "_World": 3072,
      "_Whoop": 3073,
      "_Fran": 3074,
      "_Festival": 3075,
      "_Footpath": 3076,
      "abh": 3077,
      "_Prin": 3078,
      "_The_Giving": 3079,
      "ummer": 3080,
      "Carry_On_Pick": 3081,
      "i_and_Rob": 3082,
      "uti": 3083,
      "ution": 3084,
      "iew": 3085,
      "Cafe_H": 3086,
      "Rog": 3087,
      "Road_": 3088,
      "1982_film": 3089,
      "sha": 3090,
      "Caddie_": 3091,
      "Cada_quién": 3092,
      "1943": 3093,
      "1946_film": 3094,
      "_Knowled": 3095,
      "emy": 3096,
      "California_Joe_": 3097,
      "California_Mail": 3098,
      "Allen": 3099,
      "1993_film": 3100,
      "Careers_": 3101,
      "Cage_W": 3102,
      "atta": 3103,
      "Carnival_Rock": 3104,
      "Carnival_Bo": 3105,
      "Call_Me_Mad": 3106,
      "being": 3107,
      "lesh": 3108,
      "organ": 3109,
      "appuntament": 3110,
      "Caged_Heat": 3111,
      "producer": 3112,
      "rice_": 3113,
      "Carlos": 3114,
      "a_Mo": 3115,
      "a_Mail": 3116,
      "a_Store": 3117,
      "George_M": 3118,
      "Leigh": 3119,
      "Calendar_Girl": 3120,
      "_Vanguard": 3121,
      "1959_film": 3122,
      "_Oops": 3123,
      "ubi": 3124,
      "upt": 3125,
      "a_Kiss_": 3126,
      "Candy_M": 3127,
      "azz": 3128,
      "Camping_Cosmos": 3129,
      "other": 3130,
      "Camere_da_": 3131,
      "Camera_Store": 3132,
      "Cairo_Declar": 3133,
      "Cairo_Road_": 3134,
      "Sea": 3135,
      "ired": 3136,
      "or_2": 3137,
      "Conan": 3138,
      "Prairie_Rustlers": 3139,
      "Prairie_Gunsmoke": 3140,
      "Prema_Tarangalu": 3141,
      "Prema_Pichollu": 3142,
      "Engl": 3143,
      "Calm_with": 3144,
      "_Death": 3145,
      "u_lucha": 3146,
      "5460": 3147,
      "Carnage_Park": 3148,
      "Café_de_Fl": 3149,
      "Café_de_la_": 3150,
      "Café_de_chinos": 3151,
      "Calcutta_Mail": 3152,
      "Camel_Safari": 3153,
      "ific": 3154,
      "Mohan": 3155,
      "Caroline_and_Jack": 3156,
      "Walt": 3157,
      "Unt": 3158,
      "a_Rica": 3159,
      "Powder_Blu": 3160,
      "y_Does_": 3161,
      "s_Collide": 3162,
      "team": 3163,
      "al_tesoro": 3164,
      "Casino_Jack": 3165,
      "Jimm": 3166,
      "Love": 3167,
      "Camp_X": 3168,
      "lanca_": 3169,
      "2022_film": 3170,
      "t_Be_Heaven": 3171,
      "Prem_Nazir": 3172,
      "Carnal_Knowled": 3173,
      "Awards": 3174,
      "Cain_vs": 3175,
      "Calypso_Heat": 3176,
      "guez": 3177,
      "Pranam_Khar": 3178,
      "iver_R": 3179,
      "California_Firebrand": 3180,
      "Carnival_in_Cost": 3181,
      "Express": 3182,
      "Prelude_to_a_Kiss_": 3183,
      "Prabh": 3184,
      "5160": 3185,
      "Wilson": 3186,
      "cia_al_tesoro": 3187,
      "Virgini": 3188,
      "Ghost": 3189,
      "Typewriter": 3190,
      "aquina": 3191,
      "an_Gangath": 3192,
      "eevi": 3193,
      "aglami": 3194,
      "Hannah": 3195,
      "Casablanca_": 3196,
      "ukumaran": 3197,
      "Prefontaine_": 3198,
      "Predator_2": 3199,
      "ography": 3200,
      "tells": 3201,
      "Caravan_": 3202,
      "ithout_a_K": 3203,
      "Caccia_al_tesoro": 3204,
      "received": 3205,
      "Chiranjeevi": 3206,
      "Prayanam_": 3207,
      "Cameraman_Gangath": 3208,
      "Gabriel": 3209,
      "Columbia": 3210,
      "Carpool_": 3211,
      "Windsor": 3212,
      "_su_lucha": 3213,
      "fantasy": 3214,
      "silent": 3215,
      "Care_of_Footpath": 3216,
      "_My_Dog": 3217,
      "_Worlds_Collide": 3218,
      "_Whoopi_and_Rob": 3219,
      "_The_Giving_Festival": 3220,
      "Carry_On_Pickpocket": 3221,
      "Cafe_Hostess": 3222,
      "Cada_quién_su_lucha": 3223,
      "Cage_Without_a_K": 3224,
      "Carnival_Boat": 3225,
      "Call_Me_Madam_": 3226,
      "appuntamento": 3227,
      "Calendar_Girls_": 3228,
      "_Oopsy_Does_": 3229,
      "Candy_Mountain": 3230,
      "Camere_da_letto": 3231,
      "Cairo_Declaration_": 3232,
      "English": 3233,
      "Calm_with_Horses": 3234,
      "Café_de_Flore_": 3235,
      "Café_de_la_plage": 3236,
      "Caroline_and_Jackie": 3237,
      "Powder_Blue_": 3238,
      "Carnal_Knowledge_": 3239,
      "Calypso_Heat_Wave": 3240,
      "Pranam_Khareedu": 3241,
      "Carnival_in_Costa_Rica": 3242,
      "Cameraman_Gangatho_Rambabu": 3243,
      "Care_of_Footpath_2": 3244,
      "_Whoopi_and_Robin": 3245,
      "Cage_Without_a_Key": 3246,
      "_Oopsy_Does_It": 3247,
      "01": 3248,
      "03": 3249,
      "Ax": 3250,
      "Ay": 3251,
      "Din": 3252,
      "Detective": 3253,
      "Gl": 3254,
      "Gar": 3255,
      "Holl": 3256,
      "Honey": 3257,
      "Ja": 3258,
      "Kell": 3259,
      "Les": 3260,
      "Laur": 3261,
      "Lloyd": 3262,
      "Mil": 3263,
      "Mist": 3264,
      "Nar": 3265,
      "Op": 3266,
      "Port": 3267,
      "Pass": 3268,
      "Poz": 3269,
      "Ris": 3270,
      "Su": 3271,
      "Terr": 3272,
      "Vernon": 3273,
      "We": 3274,
      "Went": 3275,
      "Wood": 3276,
      "bsc": 3277,
      "crack": 3278,
      "da": 3279,
      "fore": 3280,
      "family": 3281,
      "jo": 3282,
      "mort": 3283,
      "nubi": 3284,
      "rí": 3285,
      "sci": 3286,
      "sub": 3287,
      "time": 3288,
      "tig": 3289,
      "tik": 3290,
      "ven": 3291,
      "wee": 3292,
      "ée": 3293,
      "ink": 3294,
      "into": 3295,
      "anar": 3296,
      "eng": 3297,
      "andh": 3298,
      "Cario": 3299,
      "amash": 3300,
      "isabeth": 3301,
      "Calab": 3302,
      "Caltik": 3303,
      "ative": 3304,
      "ataway": 3305,
      "elp": 3306,
      "omes": 3307,
      "thew": 3308,
      "theart": 3309,
      "olf": 3310,
      "olution": 3311,
      "imi": 3312,
      "Camil": 3313,
      "iro": 3314,
      "adu": 3315,
      "adent": 3316,
      "aya": 3317,
      "Preach": 3318,
      "Pregg": 3319,
      "uses": 3320,
      "chiss": 3321,
      "oway": 3322,
      "owhere": 3323,
      "illion": 3324,
      "Choir": 3325,
      "odu": 3326,
      "Prahaar": 3327,
      "idan": 3328,
      "Premin": 3329,
      "Premedit": 3330,
      "Premalek": 3331,
      "Premabh": 3332,
      "oup": 3333,
      "ular": 3334,
      "Calloway": 3335,
      "1986": 3336,
      "acific": 3337,
      "opole": 3338,
      "Step": 3339,
      "ucc": 3340,
      "estin": 3341,
      "Aless": 3342,
      "1998": 3343,
      "ernand": 3344,
      "Carnivel": 3345,
      "International": 3346,
      "Elisabeth": 3347,
      "1974": 3348,
      "ishek": 3349,
      "etty": 3350,
      "Carnav": 3351,
      "romance": 3352,
      "ations": 3353,
      "been": 3354,
      "lesque": 3355,
      "achra": 3356,
      "ibandh": 3357,
      "Dean": 3358,
      "rimal": 3359,
      "1915": 3360,
      "Pratibandh": 3361,
      "Enter": 3362,
      "ipp": 3363,
      "Calvaire": 3364,
      "Harry": 3365,
      "ances": 3366,
      "nań": 3367,
      "Emil": 3368,
      "Noir": 3369,
      "appearances": 3370,
      "Beat": 3371,
      "Andre": 3372,
      "Spencer": 3373,
      "uja": 3374,
      "ujari": 3375,
      "Yukon": 3376,
      "Tonight": 3377,
      "adapted": 3378,
      "...": 3379,
      "unicula": 3380,
      "Premasooth": 3381,
      "Immort": 3382,
      "November": 3383,
      "moon": 3384,
      "alongside": 3385,
      "Babes": 3386,
      "Sheil": 3387,
      "abys": 3388,
      "ascot": 3389,
      "ouglas": 3390,
      "Taylor": 3391,
      "rontier": 3392,
      "Nutcrack": 3393,
      "andhya": 3394,
      "omicide": 3395,
      "Campbell": 3396,
      "portunit": 3397,
      "Gilbert": 3398,
      "third": 3399,
      "etropole": 3400,
      "Untold": 3401,
      "Ghosts": 3402,
      "Axanar": 3403,
      "Honeymoon": 3404,
      "Opportunit": 3405,
      "Passage": 3406,
      "Poznań": 3407,
      "tigre": 3408,
      "adentro": 3409,
      "Preggoland": 3410,
      "chissimi": 3411,
      "Premeditated": 3412,
      "Premabhishek": 3413,
      "Premasoothram": 3414,
      "Immortal": 3415,
      "Nutcracker": 3416,
      "21": 3417,
      "360": 3418,
      "59": 3419,
      "70": 3420,
      "Ber": 3421,
      "Den": 3422,
      "Dis": 3423,
      "Dutt": 3424,
      "Girls_": 3425,
      "Hem": 3426,
      "Hung": 3427,
      "Hawtre": 3428,
      "Henry": 3429,
      "Iw": 3430,
      "June": 3431,
      "Kent": 3432,
      "Mer": 3433,
      "Na": 3434,
      "Nam": 3435,
      "Nick": 3436,
      "Ped": 3437,
      "Pad": 3438,
      "Ryan": 3439,
      "Ross": 3440,
      "Sa": 3441,
      "Son": 3442,
      "Set": 3443,
      "Sukumaran": 3444,
      "_Carr": 3445,
      "_It": 3446,
      "_Prem_P": 3447,
      "_Calloway": 3448,
      "both": 3449,
      "burn": 3450,
      "cess_": 3451,
      "dall": 3452,
      "final": 3453,
      "fire": 3454,
      "fi_D": 3455,
      "hikk": 3456,
      "iff": 3457,
      "jun": 3458,
      "kins": 3459,
      "ll": 3460,
      "lot": 3461,
      "nom": 3462,
      "sch": 3463,
      "spe": 3464,
      "sever": 3465,
      "tak": 3466,
      "uff": 3467,
      "won": 3468,
      "way": 3469,
      "well": 3470,
      "wick": 3471,
      "yab": 3472,
      "ze": 3473,
      "ér": 3474,
      "inv": 3475,
      "in_M": 3476,
      "in_the_": 3477,
      "in_Paradi": 3478,
      "in_Bur": 3479,
      "ingh": 3480,
      "Cas_": 3481,
      "e_Campfield": 3482,
      "e_nubi": 3483,
      "filmed": 3484,
      "or_B": 3485,
      "enon": 3486,
      "en_Wil": 3487,
      "enberg": 3488,
      "al_C": 3489,
      "di_F": 3490,
      "a_C": 3491,
      "a_of_H": 3492,
      "a_adentro": 3493,
      "andy": 3494,
      "andro": 3495,
      "and_Dy": 3496,
      "ashan": 3497,
      "am_S": 3498,
      "ishan": 3499,
      "y_P": 3500,
      "1960": 3501,
      "ell_": 3502,
      "elyn": 3503,
      "om_": 3504,
      "osely": 3505,
      "ola": 3506,
      "_Su": 3507,
      "_Ston": 3508,
      "_Serg": 3509,
      "etown": 3510,
      "s_Kingdom": 3511,
      "s_Big": 3512,
      "Camille": 3513,
      "Cama_adentro": 3514,
      "iral": 3515,
      "ira_K": 3516,
      "urin": 3517,
      "_Ben": 3518,
      "adow": 3519,
      "o_dall": 3520,
      "aye": 3521,
      "Carroll": 3522,
      "_Man": 3523,
      "_Mah": 3524,
      "_Murder": 3525,
      "_Magic": 3526,
      "_Monster": 3527,
      "_Ram": 3528,
      "_Rise_": 3529,
      "_River_R": 3530,
      "Call_Her": 3531,
      "agn": 3532,
      "Chand": 3533,
      "Chaf": 3534,
      "_Homicide": 3535,
      "the_Choir": 3536,
      "avi": 3537,
      "_Am": 3538,
      "_Att": 3539,
      "Joke": 3540,
      "ota_Jo": 3541,
      "_Thamash": 3542,
      "_Thataway": 3543,
      "Camp_N": 3544,
      "_Dem": 3545,
      "_Dancer": 3546,
      "Premam": 3547,
      "Premature": 3548,
      "Prem_Prem_P": 3549,
      "_Cut": 3550,
      "_Cecil": 3551,
      "_Company": 3552,
      "_Fland": 3553,
      "_Fall_": 3554,
      "_Ph": 3555,
      "_Park": 3556,
      "_Primal": 3557,
      "Cab_N": 3558,
      "Cabiri": 3559,
      "Cab_Calloway": 3560,
      "Canastr": 3561,
      "Mara": 3562,
      "_The_Sag": 3563,
      "_The_Ris": 3564,
      "_The_Untold": 3565,
      "_The_Immortal": 3566,
      "umber_": 3567,
      "Callaw": 3568,
      "athi_V": 3569,
      "_No_M": 3570,
      "Cafe_F": 3571,
      "1984": 3572,
      "shot": 3573,
      "_Jr": 3574,
      "hanam_": 3575,
      "hanna": 3576,
      "ope": 3577,
      "ika": 3578,
      "ikumar": 3579,
      "Cado_dall": 3580,
      "1942_film": 3581,
      "_Kildare": 3582,
      "alla": 3583,
      "emb": 3584,
      "California_Typewriter": 3585,
      "California_Passage": 3586,
      "California_Girls_": 3587,
      "California_or_B": 3588,
      "Calling_Homicide": 3589,
      "erner": 3590,
      "Johnn": 3591,
      "John_M": 3592,
      "John_L": 3593,
      "attel_": 3594,
      "1935": 3595,
      "1936_film": 3596,
      "Carnies_": 3597,
      "Call_Me": 3598,
      "1970": 3599,
      "1979_film": 3600,
      "Carnival_Story": 3601,
      "obe": 3602,
      "Call_of_the_Wild": 3603,
      "Call_of_the_South": 3604,
      "Call_of_the_Sea": 3605,
      "Call_of_the_Yukon": 3606,
      "aine": 3607,
      "Call_Me_Mist": 3608,
      "Call_Me_Elisabeth": 3609,
      "Call_Me_Tonight": 3610,
      "bec": 3611,
      "before": 3612,
      "Café_Paradis": 3613,
      "Café_Der": 3614,
      "ekhar": 3615,
      "ekam_S": 3616,
      "ukka": 3617,
      "Caged_No_M": 3618,
      "Carlota_Jo": 3619,
      "Edm": 3620,
      "Davis": 3621,
      "Dave_Campfield": 3622,
      "a_Suja": 3623,
      "ille_film": 3624,
      "Power_Cut": 3625,
      "Carmen_on_": 3626,
      "Cabaret_Dancer": 3627,
      "to_Power": 3628,
      "to_the_Choir": 3629,
      "Camera_O": 3630,
      "Cairo_30": 3631,
      "James_": 3632,
      "Café_Exp": 3633,
      "Carefree_": 3634,
      "Campus_Man": 3635,
      "Campus_Honeymoon": 3636,
      "Caged_in_Paradi": 3637,
      "Prairie_Thunder": 3638,
      "Prairie_Express": 3639,
      "Direct": 3640,
      "screenwriter": 3641,
      "ay_Went": 3642,
      "evere": 3643,
      "Calvent": 3644,
      "Harris": 3645,
      "geria": 3646,
      "Career_Opportunit": 3647,
      "of_Brazil": 3648,
      "Rajesh": 3649,
      "Café_de_Par": 3650,
      "artha": 3651,
      "urnette": 3652,
      "Caroline_in_the_": 3653,
      "Peter_B": 3654,
      "Cactus_Flow": 3655,
      "Powder_Ro": 3656,
      "Powder_River_R": 3657,
      "_babys": 3658,
      "of_Hei": 3659,
      "Cardinal_Rich": 3660,
      "innu": 3661,
      "s_Song": 3662,
      "s_Swee": 3663,
      "al_fi_D": 3664,
      "Herbert": 3665,
      "Jacob": 3666,
      "Yukiko_": 3667,
      "Cadillac_Girls": 3668,
      "Cadillac_Man": 3669,
      "Akira_K": 3670,
      "Billie_": 3671,
      "Vaness": 3672,
      "_Jour": 3673,
      "ing_to_the_Choir": 3674,
      "Practical_Magic": 3675,
      "Preethi_M": 3676,
      "Career_Girls": 3677,
      "Cafe_Mascot": 3678,
      "Cafe_Metropole": 3679,
      "_Street_": 3680,
      "loosely": 3681,
      "e_and_Fall_": 3682,
      "amiya": 3683,
      "Calling_the_Ghosts": 3684,
      "Call_of_the_Flesh": 3685,
      "_The_Final_Att": 3686,
      "Casanova_in_Bur": 3687,
      "Evans": 3688,
      "wandi": 3689,
      "Pratidwandi": 3690,
      "5820": 3691,
      "Casa_de_los": 3692,
      "California_Dreaming_": 3693,
      "Carnosaur_3": 3694,
      "5280": 3695,
      "4800": 3696,
      "Range": 3697,
      "uniculi_F": 3698,
      "radhikk": 3699,
      "Premasathi_V": 3700,
      "Shirley_": 3701,
      "California_Frontier": 3702,
      "Carnival_in_Fland": 3703,
      "Precious_Babes": 3704,
      "Prelude_to_Axanar": 3705,
      "Lewis": 3706,
      "love": 3707,
      "Prem_Pujari": 3708,
      "California_Solo": 3709,
      "California_Scheming": 3710,
      "Prathyekam_S": 3711,
      "Luis": 3712,
      "_Savage": 3713,
      "Cafe_Noir": 3714,
      "Cash_and_Company": 3715,
      "Poveri_ma_ricchissimi": 3716,
      "Lake": 3717,
      "Matthew": 3718,
      "original": 3719,
      "e_Nodu": 3720,
      "film_director": 3721,
      "Canal_Street_": 3722,
      "oose_": 3723,
      "Kannada_actor": 3724,
      "Australian": 3725,
      "Juan": 3726,
      "October": 3727,
      "tainment": 3728,
      "_Seas": 3729,
      "_Martin": 3730,
      "_DeMille_film": 3731,
      "political": 3732,
      "distributed": 3733,
      "5040": 3734,
      "elieu_": 3735,
      "Caribbean_Gold": 3736,
      "Irving": 3737,
      "ca_tigre": 3738,
      "alayam": 3739,
      "_Species": 3740,
      "_Princess_": 3741,
      "bscura_": 3742,
      "science": 3743,
      "Carioca_tigre": 3744,
      "Calaboose_": 3745,
      "Caltiki_": 3746,
      "adu_Thamash": 3747,
      "Preaching_to_the_Choir": 3748,
      "Premalekhanam_": 3749,
      "Carnaval_fi_D": 3750,
      "1915_Cecil": 3751,
      "Entertainment": 3752,
      "Calvaire_": 3753,
      "Premeditated_Murder": 3754,
      "Premabhishekam_": 3755,
      "5940": 3756,
      "Disney": 3757,
      "Hawtrey": 3758,
      "Iwai": 3759,
      "several": 3760,
      "Cas_and_Dy": 3761,
      "di_Fleiss": 3762,
      "a_of_Hal_C": 3763,
      "_Sergeant": 3764,
      "s_Big_Night": 3765,
      "_Rise_to_Power": 3766,
      "Call_Her_Savage": 3767,
      "Chafurin": 3768,
      "Camp_Nowhere": 3769,
      "Prem_Prem_Paglami": 3770,
      "_Primal_Species": 3771,
      "Cab_Number_": 3772,
      "Cabiria": 3773,
      "Canastra_Suja": 3774,
      "_The_Saga_of_Hal_C": 3775,
      "_The_Rise_and_Fall_": 3776,
      "_The_Untold_Story": 3777,
      "_The_Immortal_Monster": 3778,
      "Callaway_Went": 3779,
      "Cafe_Funiculi_F": 3780,
      "Cado_dalle_nubi": 3781,
      "California_or_Bust": 3782,
      "attel_Te": 3783,
      "Call_of_the_Wild_": 3784,
      "Call_of_the_South_Seas": 3785,
      "Call_Me_Mister_": 3786,
      "Café_Derby": 3787,
      "Caged_No_More": 3788,
      "Carlota_Joaquina": 3789,
      "Carmen_on_Ice": 3790,
      "Camera_Obscura_": 3791,
      "Café_Express_": 3792,
      "Caged_in_Paradiso": 3793,
      "Career_Opportunities_": 3794,
      "Café_de_Paris_": 3795,
      "Caroline_in_the_City": 3796,
      "Cactus_Flower_": 3797,
      "Powder_Room_": 3798,
      "Powder_River_Rustlers": 3799,
      "of_Heidi_Fleiss": 3800,
      "Cardinal_Richelieu_": 3801,
      "s_Sweetheart": 3802,
      "Yukiko_Iwai": 3803,
      "Akira_Kamiya": 3804,
      "Preethi_Madu_Thamash": 3805,
      "_The_Final_Attack": 3806,
      "Casanova_in_Burlesque": 3807,
      "Casa_de_los_babys": 3808,
      "radhikkukka": 3809,
      "Premasathi_Vattel_Te": 3810,
      "Carnival_in_Flanders_": 3811,
      "Prathyekam_Sradhikkukka": 3812,
      "_Princess_of_Brazil": 3813,
      "Carnaval_fi_Dachra": 3814,
      "1915_Cecil_B": 3815,
      "Cas_and_Dylan": 3816,
      "Cab_Number_13": 3817,
      "_The_Rise_and_Fall_of_Heidi_Fleiss": 3818,
      "Callaway_Went_Thataway": 3819,
      "Cafe_Funiculi_Funicula": 3820,
      "Preethi_Madu_Thamashe_Nodu": 3821,
      "25": 3822,
      "29": 3823,
      "219": 3824,
      "Air": 3825,
      "Benn": 3826,
      "Babu": 3827,
      "Cel": 3828,
      "Corn": 3829,
      "Crist": 3830,
      "DV": 3831,
      "Dom": 3832,
      "Dann": 3833,
      "Fabi": 3834,
      "Fernand": 3835,
      "Hamm": 3836,
      "Judd": 3837,
      "Jitter": 3838,
      "Kath": 3839,
      "Lor": 3840,
      "Med": 3841,
      "Ni": 3842,
      "Nav": 3843,
      "Po": 3844,
      "Poy": 3845,
      "Ren": 3846,
      "Rag": 3847,
      "Rub": 3848,
      "Sc": 3849,
      "Ser": 3850,
      "Sund": 3851,
      "Sims": 3852,
      "Srin": 3853,
      "Tal": 3854,
      "Taj": 3855,
      "Tune": 3856,
      "Tamil": 3857,
      "Ud": 3858,
      "Yudd": 3859,
      "bug": 3860,
      "desh": 3861,
      "eal": 3862,
      "fè": 3863,
      "fred": 3864,
      "gar": 3865,
      "hitha": 3866,
      "ien": 3867,
      "iper": 3868,
      "jan": 3869,
      "lel": 3870,
      "loc": 3871,
      "later": 3872,
      "mugh": 3873,
      "miral": 3874,
      "nja": 3875,
      "oj": 3876,
      "pal": 3877,
      "ré": 3878,
      "sal": 3879,
      "sim": 3880,
      "sod": 3881,
      "tra": 3882,
      "tran": 3883,
      "vah": 3884,
      "war": 3885,
      "yl": 3886,
      "dboard": 3887,
      "stage": 3888,
      "anni": 3889,
      "anco": 3890,
      "erboy": 3891,
      "rep": 3892,
      "ora": 3893,
      "ork": 3894,
      "orne": 3895,
      "three": 3896,
      "diario": 3897,
      "ander": 3898,
      "andor": 3899,
      "ask": 3900,
      "asandhya": 3901,
      "esandor": 3902,
      "rib": 3903,
      "Cardboard": 3904,
      "atam": 3905,
      "eld": 3906,
      "elathi": 3907,
      "them": 3908,
      "ets": 3909,
      "adas": 3910,
      "adha": 3911,
      "adhy": 3912,
      "admen": 3913,
      "adanam": 3914,
      "ayi": 3915,
      "Preey": 3916,
      "Preah": 3917,
      "Prehistor": 3918,
      "child": 3919,
      "over": 3920,
      "Carri": 3921,
      "Casey": 3922,
      "agni": 3923,
      "again": 3924,
      "agatam": 3925,
      "akal": 3926,
      "Prasthanam": 3927,
      "Pradesh": 3928,
      "Pravah": 3929,
      "avu": 3930,
      "avarn": 3931,
      "ione": 3932,
      "Campfire": 3933,
      "igyab": 3934,
      "2003": 3935,
      "2004": 3936,
      "Premash": 3937,
      "Premagni": 3938,
      "apur": 3939,
      "angama": 3940,
      "even": 3941,
      "evolution": 3942,
      "ult": 3943,
      "umudi": 3944,
      "athsal": 3945,
      "athasandhya": 3946,
      "ello": 3947,
      "Cafund": 3948,
      "Caffè": 3949,
      "new": 3950,
      "nest": 3951,
      "nehitha": 3952,
      "Andr": 3953,
      "opadhy": 3954,
      "Ste": 3955,
      "ikaram": 3956,
      "Shots": 3957,
      "1996": 3958,
      "1999": 3959,
      "Prate": 3960,
      "Prarth": 3961,
      "Pralayam": 3962,
      "1934": 3963,
      "1939": 3964,
      "Powders": 3965,
      "arty": 3966,
      "essias": 3967,
      "where": 3968,
      "quest": 3969,
      "plot": 3970,
      "obility": 3971,
      "earl": 3972,
      "ollerboy": 3973,
      "ekumar": 3974,
      "eksha": 3975,
      "appa": 3976,
      "ewane": 3977,
      "asseter": 3978,
      "annel": 3979,
      "Lee": 3980,
      "Kenj": 3981,
      "1950": 3982,
      "Charl": 3983,
      "Candlel": 3984,
      "lyn": 3985,
      "haathasandhya": 3986,
      "eroine": 3987,
      "Prakadanam": 3988,
      "Pratigyab": 3989,
      "Conquest": 3990,
      "Jaye": 3991,
      "Jayas": 3992,
      "Povert": 3993,
      "Enric": 3994,
      "Diary": 3995,
      "Prathij": 3996,
      "Prathikaram": 3997,
      "Casaneg": 3998,
      "arthakal": 3999,
      "Emm": 4000,
      "Beaut": 4001,
      "expl": 4002,
      "Isobe": 4003,
      "Frente": 4004,
      "anyas": 4005,
      "Prasaad": 4006,
      "oxer": 4007,
      "orsese": 4008,
      "Barbara": 4009,
      "Preethsod": 4010,
      "aadu": 4011,
      "aadhal": 4012,
      "Estev": 4013,
      "Esteb": 4014,
      "Predestin": 4015,
      "ograph": 4016,
      "Pranamam": 4017,
      "Rangers": 4018,
      "Prabhaathasandhya": 4019,
      "including": 4020,
      "Max": 4021,
      "Prathyartha": 4022,
      "rishn": 4023,
      "Pranayavarn": 4024,
      "character": 4025,
      "Nedumudi": 4026,
      "Jagath": 4027,
      "Toons": 4028,
      "ilpi": 4029,
      "oscow": 4030,
      "Stranger": 4031,
      "cortadas": 4032,
      "Capetown": 4033,
      "asakhi": 4034,
      "Geethangal": 4035,
      "August": 4036,
      "Ishq": 4037,
      "ríguez": 4038,
      "Premamayi": 4039,
      "Edmund": 4040,
      "Directed": 4041,
      "DVD": 4042,
      "Jitterbug": 4043,
      "Poymugh": 4044,
      "Yuddham": 4045,
      "réal": 4046,
      "Preeyasakhi": 4047,
      "Prehistoric": 4048,
      "against": 4049,
      "Pravaham": 4050,
      "Premashilpi": 4051,
      "athsalya": 4052,
      "Cafundó": 4053,
      "opadhyay": 4054,
      "Prateeksha": 4055,
      "ollerboys": 4056,
      "Candlelight": 4057,
      "Pratigyabadh": 4058,
      "Prathijnja": 4059,
      "Beauty": 4060,
      "Prasaadam": 4061,
      "Esteban": 4062,
      "Pranayavarnangal": 4063,
      "Poymughangal": 4064,
      "05": 4065,
      "08": 4066,
      "24": 4067,
      "26": 4068,
      "240": 4069,
      "3300": 4070,
      "660": 4071,
      "Af": 4072,
      "Bust": 4073,
      "Basil": 4074,
      "Cole": 4075,
      "Dem": 4076,
      "Dale": 4077,
      "Green": 4078,
      "Gary_": 4079,
      "Hil": 4080,
      "Hir": 4081,
      "I_": 4082,
      "Kim": 4083,
      "Kav": 4084,
      "Kishan": 4085,
      "Lis": 4086,
      "Lind": 4087,
      "Lenn": 4088,
      "Lorett": 4089,
      "Mr": 4090,
      "Mon": 4091,
      "Nel": 4092,
      "Nun": 4093,
      "Pl": 4094,
      "Pay": 4095,
      "Ric": 4096,
      "Rik": 4097,
      "Rames": 4098,
      "Sat": 4099,
      "Sol": 4100,
      "Sach": 4101,
      "Sank": 4102,
      "Tod": 4103,
      "_at": 4104,
      "_Carry_": 4105,
      "_John": 4106,
      "_by_": 4107,
      "adi": 4108,
      "ahan": 4109,
      "aan_N": 4110,
      "bie": 4111,
      "car": 4112,
      "co_": 4113,
      "comp": 4114,
      "company": 4115,
      "dev": 4116,
      "der_": 4117,
      "dmiral": 4118,
      "gav": 4119,
      "hol": 4120,
      "him": 4121,
      "hir": 4122,
      "ient": 4123,
      "ke_S": 4124,
      "ous": 4125,
      "ook": 4126,
      "rand": 4127,
      "sist": 4128,
      "s_Sh": 4129,
      "ui": 4130,
      "ual": 4131,
      "wagatam": 4132,
      "zo": 4133,
      "és": 4134,
      "aria": 4135,
      "aney": 4136,
      "ilo_V": 4137,
      "ilavu": 4138,
      "Cast": 4139,
      "reat": 4140,
      "e_7": 4141,
      "e_C": 4142,
      "e_K": 4143,
      "e_V": 4144,
      "e_Par": 4145,
      "e_Range": 4146,
      "thers": 4147,
      "onald": 4148,
      "di_T": 4149,
      "a_Ch": 4150,
      "a_Di": 4151,
      "a_Jaye": 4152,
      "a_Frente": 4153,
      "and_N": 4154,
      "esn": 4155,
      "ries": 4156,
      "Caro_": 4157,
      "y_K": 4158,
      "y_and_N": 4159,
      "uno": 4160,
      "omen_": 4161,
      "they": 4162,
      "oshi": 4163,
      "_Sch": 4164,
      "_Scott": 4165,
      "_Singing": 4166,
      "_Sanyas": 4167,
      "s_Jitterbug": 4168,
      "s_Beauty": 4169,
      "irren": 4170,
      "_Ber": 4171,
      "_Benn": 4172,
      "_Buri": 4173,
      "_Babu": 4174,
      "_Bizet": 4175,
      "_Bresslaw": 4176,
      "_Boxer": 4177,
      "ademy": 4178,
      "ayor_": 4179,
      "aye_Par": 4180,
      "chn": 4181,
      "cher": 4182,
      "chang": 4183,
      "chi_Ch": 4184,
      "ova": 4185,
      "ows": 4186,
      "_Mar": 4187,
      "_Malis": 4188,
      "_Messias": 4189,
      "_Ryan": 4190,
      "_Radha": 4191,
      "Call_Esteban": 4192,
      "agg": 4193,
      "2011": 4194,
      "2013_film": 4195,
      "_Hey": 4196,
      "_Hear": 4197,
      "_He_M": 4198,
      "_Home": 4199,
      "_Heroine": 4200,
      "the_Lake": 4201,
      "Praan_J": 4202,
      "avan": 4203,
      "_Gra": 4204,
      "_Gordon": 4205,
      "_Goldb": 4206,
      "_Gelathi": 4207,
      "_Thappa": 4208,
      "Camp_Tak": 4209,
      "ige": 4210,
      "2001": 4211,
      "ents": 4212,
      "entry": 4213,
      "_Dix": 4214,
      "Prem_K": 4215,
      "Premer_": 4216,
      "Prema_S": 4217,
      "Premam_": 4218,
      "Prem_De": 4219,
      "Prem_Gran": 4220,
      "Prem_Sanyas": 4221,
      "_Comes": 4222,
      "berto": 4223,
      "_the_Air": 4224,
      "anga": 4225,
      "_Wal": 4226,
      "_Women_": 4227,
      "_Pa": 4228,
      "_Poll": 4229,
      "_Pacific": 4230,
      "_Party": 4231,
      "Marg": 4232,
      "Marian": 4233,
      "Carry_On_K": 4234,
      "ichandran": 4235,
      "Calls_": 4236,
      "Calle_M": 4237,
      "Calle_7": 4238,
      "utter": 4239,
      "ella": 4240,
      "_Lang": 4241,
      "_Nine": 4242,
      "Anto": 4243,
      "Roy": 4244,
      "1988": 4245,
      "1987_film": 4246,
      "1983_film": 4247,
      "ika_V": 4248,
      "ie_B": 4249,
      "ie_Jacques": 4250,
      "1944": 4251,
      "1946": 4252,
      "1948": 4253,
      "1940_film": 4254,
      "Case_219": 4255,
      "Shr": 4256,
      "Shar": 4257,
      "Shaw": 4258,
      "_Kaadhal": 4259,
      "er_of_the_R": 4260,
      "Carmilla_": 4261,
      "California_Conquest": 4262,
      "Calling_Ph": 4263,
      "All": 4264,
      "e_Badmen": 4265,
      "Pra_Frente": 4266,
      "award": 4267,
      "1932": 4268,
      "1938_film": 4269,
      "Powder_": 4270,
      "Ing": 4271,
      "Carmen_Comes": 4272,
      "cia": 4273,
      "1978_film": 4274,
      "Carnival_Sund": 4275,
      "Call_of_the_Ice": 4276,
      "ight_Hear": 4277,
      "ollins": 4278,
      "Call_Me_King": 4279,
      "anner": 4280,
      "_Algeria": 4281,
      "1967_film": 4282,
      "Carolina_Mo": 4283,
      "Arnold": 4284,
      "_Ste": 4285,
      "aired": 4286,
      "a_Snehitha": 4287,
      "Prairie_Badmen": 4288,
      "4020": 4289,
      "_Shaan_N": 4290,
      "Cabin_by_": 4291,
      "_Ven": 4292,
      "_Vesandor": 4293,
      "1951": 4294,
      "1959": 4295,
      "a_Koyama": 4296,
      "Carmen_di_T": 4297,
      "Calling_All_Cars_": 4298,
      "Calling_All_Pol": 4299,
      "Cabaret_Woman": 4300,
      "Adoor": 4301,
      "to_Joke": 4302,
      "to_Capetown": 4303,
      "a_Barr": 4304,
      "insp": 4305,
      "Cars_of_the_R": 4306,
      "Cars_Toons": 4307,
      "Prana_Snehitha": 4308,
      "Campus_Diary": 4309,
      "Prairie_Raiders": 4310,
      "Prairie_Stranger": 4311,
      "Canadian_Pacific": 4312,
      "Films": 4313,
      "Pov_Malis": 4314,
      "Prema_Rag": 4315,
      "Prema_Geethangal": 4316,
      "Prema_Ishq": 4317,
      "Prema_Yuddham": 4318,
      "_Young": 4319,
      "_Chatterjee": 4320,
      "Calvin_M": 4321,
      "Harry_": 4322,
      "Cargo_to_Capetown": 4323,
      "a_Haadu": 4324,
      "Kenneth_Con": 4325,
      "Carib_Gold": 4326,
      "Edwards": 4327,
      "feature_film": 4328,
      "Julie_": 4329,
      "_in_Algeria": 4330,
      "y_Scott": 4331,
      "ert_": 4332,
      "Steve_": 4333,
      "Carnosaur_2": 4334,
      "a_Nilavu": 4335,
      "arshall_": 4336,
      "Philli": 4337,
      "Prasad_": 4338,
      "Cardinal_Messias": 4339,
      "followed": 4340,
      "through": 4341,
      "as_cortadas": 4342,
      "ice_Cars": 4343,
      "_Brasil": 4344,
      "Casino_Raiders": 4345,
      "Cadillac_Des": 4346,
      "Bernard_Bresslaw": 4347,
      "Love_": 4348,
      "Helen_M": 4349,
      "Carson_City_Raiders": 4350,
      "winder": 4351,
      "Preethi_V": 4352,
      "Cabezas_cortadas": 4353,
      "short_film": 4354,
      "Tony_": 4355,
      "Cafe_Moscow": 4356,
      "2021_film": 4357,
      "4920": 4358,
      "t_Help": 4359,
      "Prayer_of_the_R": 4360,
      "Calling_the_Tune": 4361,
      "Calling_the_Shots": 4362,
      "Care_Bears_Nutcracker": 4363,
      "Canada_Di": 4364,
      "Carry_On_Admiral": 4365,
      "_You_": 4366,
      "Ashok": 4367,
      "Candles_at": 4368,
      "Call_Over": 4369,
      "Careless_Love_": 4370,
      "6180": 4371,
      "moke_Range": 4372,
      "o_Files": 4373,
      "_Lea": 4374,
      "Carol_I_": 4375,
      "5100": 4376,
      "gross": 4377,
      "iya_Koyama": 4378,
      "Francis": 4379,
      "Premaku_S": 4380,
      "Premakke_S": 4381,
      "Cafe_Isobe": 4382,
      "performan": 4383,
      "Pranaya_Nilavu": 4384,
      "Cash_and_Carry_": 4385,
      "Poveri_ma_ricchi": 4386,
      "Nanni": 4387,
      "Georges_Bizet": 4388,
      "Hattie_Jacques": 4389,
      "2019_film": 4390,
      "ney_to_Joke": 4391,
      "1926_feature_film": 4392,
      "1926_short_film": 4393,
      "3780": 4394,
      "Bryan": 4395,
      "Ernest": 4396,
      "Jaswinder": 4397,
      "prison": 4398,
      "Ellis": 4399,
      "Barbara_Windsor": 4400,
      "Nicholas": 4401,
      "Prathap_": 4402,
      "Palma": 4403,
      "version": 4404,
      "_Flight": 4405,
      "songs": 4406,
      "period": 4407,
      "friends": 4408,
      "4560": 4409,
      "riffith": 4410,
      "2020_film": 4411,
      "Academy": 4412,
      "rastevere": 4413,
      "s_Kiss": 4414,
      "_Montréal": 4415,
      "Walters": 4416,
      "Prabhu_": 4417,
      "Lesl": 4418,
      "Terry_Scott": 4419,
      "Camila_": 4420,
      "Preminchi_Ch": 4421,
      "Poznań_": 4422,
      "_Italia": 4423,
      "nomin": 4424,
      "_Suite": 4425,
      "_Mahal": 4426,
      "Premature_Buri": 4427,
      "Calvento_Files": 4428,
      "_Journey_to_Joke": 4429,
      "Taj_Mahal": 4430,
      "Cardboard_Boxer": 4431,
      "Preah_Vesandor": 4432,
      "Carriers_": 4433,
      "Pradeshika_V": 4434,
      "Campfire_": 4435,
      "Caffè_Italia": 4436,
      "Prarthana_": 4437,
      "Powdersmoke_Range": 4438,
      "Poverty_and_N": 4439,
      "Casanegra_": 4440,
      "Preethsod_Thappa": 4441,
      "Predestination_": 4442,
      "Preeyasakhi_Radha": 4443,
      "Prehistoric_Women_": 4444,
      "Cafundó_": 4445,
      "Candlelight_in_Algeria": 4446,
      "Mrinal": 4447,
      "Rikiya_Koyama": 4448,
      "Ramesh": 4449,
      "ahani_": 4450,
      "s_Shadow": 4451,
      "ilo_Vance": 4452,
      "Caro_diario": 4453,
      "s_Jitterbug_Party": 4454,
      "aye_Par_Shaan_N": 4455,
      "_He_Might_Hear": 4456,
      "Praan_Jaye_Par_Shaan_N": 4457,
      "Camp_Takota": 4458,
      "Prem_Kahani_": 4459,
      "Premer_Taj_Mahal": 4460,
      "Prema_Sangama": 4461,
      "Prem_Deewane": 4462,
      "Prem_Granth": 4463,
      "Carry_On_Kesar": 4464,
      "Calle_Mayor_": 4465,
      "utterworth": 4466,
      "Calling_Philo_Vance": 4467,
      "Carmen_Comes_Home": 4468,
      "Carnival_Sunday": 4469,
      "Carolina_Moon_": 4470,
      "Cabin_by_the_Lake": 4471,
      "Carmen_di_Trastevere": 4472,
      "Calling_All_Police_Cars": 4473,
      "Cars_of_the_Revolution": 4474,
      "Canadian_Pacific_": 4475,
      "Pov_Malis_Lea": 4476,
      "Prema_Raga_Haadu": 4477,
      "Prema_Ishq_Kaadhal": 4478,
      "Calvin_Marshall": 4479,
      "Kenneth_Connor": 4480,
      "Cadillac_Desert_": 4481,
      "Preethi_Vathsalya": 4482,
      "t_Help_Singing": 4483,
      "Prayer_of_the_Rollerboys": 4484,
      "Care_Bears_Nutcracker_Suite": 4485,
      "Canada_Di_Flight": 4486,
      "Candles_at_Nine": 4487,
      "Call_Over_the_Air": 4488,
      "Premaku_Swagatam": 4489,
      "Premakke_Sai": 4490,
      "Preminchi_Choodu": 4491,
      "Premature_Burial_": 4492,
      "Pradeshika_Varthakal": 4493,
      "Poverty_and_Nobility": 4494,
      "_He_Might_Hear_You_": 4495,
      "Praan_Jaye_Par_Shaan_Na_Jaye": 4496,
      "Prema_Raga_Haadu_Gelathi": 4497,
      "06": 4498,
      "Ag": 4499,
      "Aut": 4500,
      "Bon": 4501,
      "Based": 4502,
      "Bog": 4503,
      "Bear": 4504,
      "Cyn": 4505,
      "Dy": 4506,
      "Des": 4507,
      "Die": 4508,
      "Dian": 4509,
      "Douglas": 4510,
      "Gipp": 4511,
      "Had": 4512,
      "Hugh": 4513,
      "Ire": 4514,
      "Jam": 4515,
      "Jorg": 4516,
      "Ker": 4517,
      "Kul": 4518,
      "Kather": 4519,
      "Lag": 4520,
      "Mass": 4521,
      "Mason": 4522,
      "Nazir": 4523,
      "Pen": 4524,
      "Pun": 4525,
      "Ragh": 4526,
      "Ruth": 4527,
      "Russ": 4528,
      "Sor": 4529,
      "Sto": 4530,
      "Sme": 4531,
      "Tor": 4532,
      "Ted": 4533,
      "Tab": 4534,
      "Up": 4535,
      "World": 4536,
      "York": 4537,
      "ao": 4538,
      "bur": 4539,
      "back": 4540,
      "day": 4541,
      "ef": 4542,
      "gh": 4543,
      "gent": 4544,
      "girl": 4545,
      "ju": 4546,
      "lim": 4547,
      "ound": 4548,
      "par": 4549,
      "ron": 4550,
      "sit": 4551,
      "sky": 4552,
      "try": 4553,
      "uce": 4554,
      "van": 4555,
      "vath": 4556,
      "west": 4557,
      "yot": 4558,
      "yson": 4559,
      "zen": 4560,
      "Ál": 4561,
      "arv": 4562,
      "inam": 4563,
      "inem": 4564,
      "inally": 4565,
      "starr": 4566,
      "stery": 4567,
      "arren": 4568,
      "erl": 4569,
      "real": 4570,
      "thau": 4571,
      "ened": 4572,
      "aly": 4573,
      "rian": 4574,
      "rikan": 4575,
      "ism": 4576,
      "ela": 4577,
      "20th": 4578,
      "oli": 4579,
      "etwork": 4580,
      "che": 4581,
      "illand": 4582,
      "aghan": 4583,
      "Channel": 4584,
      "odama": 4585,
      "igel": 4586,
      "enton": 4587,
      "Prema": 4588,
      "Onten": 4589,
      "Cliff": 4590,
      "able": 4591,
      "uman": 4592,
      "many": 4593,
      "Cafe": 4594,
      "1983": 4595,
      "1989": 4596,
      "oper": 4597,
      "opal": 4598,
      "opra": 4599,
      "opoul": 4600,
      "ucqu": 4601,
      "aux": 4602,
      "1947": 4603,
      "Shep": 4604,
      "Alyson": 4605,
      "comm": 4606,
      "atton": 4607,
      "1938": 4608,
      "Rach": 4609,
      "epis": 4610,
      "when": 4611,
      "while": 4612,
      "1975": 4613,
      "1976": 4614,
      "1978": 4615,
      "1979": 4616,
      "early": 4617,
      "ekar": 4618,
      "ugen": 4619,
      "udha": 4620,
      "1963": 4621,
      "1969": 4622,
      "Arch": 4623,
      "Argent": 4624,
      "class": 4625,
      "Leo": 4626,
      "January": 4627,
      "Chris": 4628,
      "Josh": 4629,
      "Conn": 4630,
      "Jayaram": 4631,
      "head": 4632,
      "Parvath": 4633,
      "Juli": 4634,
      "July": 4635,
      "Steve": 4636,
      "Steven": 4637,
      "Walker": 4638,
      "Curt": 4639,
      "Lauren": 4640,
      "ravind": 4641,
      "rewal": 4642,
      "Asim": 4643,
      "Tony": 4644,
      "Neil": 4645,
      "Evelyn": 4646,
      "colle": 4647,
      "rabbe": 4648,
      "group": 4649,
      "characters": 4650,
      "Shankar": 4651,
      "mystery": 4652,
      "Armand": 4653,
      "Produc": 4654,
      "Dennis": 4655,
      "Lambert": 4656,
      "illyer": 4657,
      "Brazilian": 4658,
      "Girls": 4659,
      "Dinesh": 4660,
      "venuti": 4661,
      "Stephan": 4662,
      "André": 4663,
      "Jayasudha": 4664,
      "Estevez": 4665,
      "Buster": 4666,
      "Sachin": 4667,
      "Sankaradi": 4668,
      "iente": 4669,
      "Bonni": 4670,
      "Cynth": 4671,
      "Smeep": 4672,
      "rikanth": 4673,
      "Onteniente": 4674,
      "\".": 4675,
      "02": 4676,
      "07": 4677,
      "15": 4678,
      "440": 4679,
      "Av": 4680,
      "Aar": 4681,
      "Al_": 4682,
      "BC": 4683,
      "Bur": 4684,
      "Bro": 4685,
      "Buck": 4686,
      "Bert": 4687,
      "Binnu": 4688,
      "Cle": 4689,
      "Cour": 4690,
      "Dra": 4691,
      "Dow": 4692,
      "Dum": 4693,
      "Doug": 4694,
      "Ele": 4695,
      "Eugen": 4696,
      "Far": 4697,
      "For": 4698,
      "Foster": 4699,
      "Gur": 4700,
      "Gail": 4701,
      "Gray": 4702,
      "Gér": 4703,
      "Ho": 4704,
      "Hol": 4705,
      "Hunt": 4706,
      "Hall": 4707,
      "Hong": 4708,
      "Izz": 4709,
      "Jer": 4710,
      "Kh": 4711,
      "Kong": 4712,
      "Krist": 4713,
      "Kildare": 4714,
      "Liz": 4715,
      "Laine": 4716,
      "Math": 4717,
      "Muk": 4718,
      "Miller": 4719,
      "Nic": 4720,
      "Reed": 4721,
      "Sand": 4722,
      "Sch": 4723,
      "Sav": 4724,
      "Sai": 4725,
      "Vij": 4726,
      "Women": 4727,
      "Yak": 4728,
      "ax": 4729,
      "aum": 4730,
      "aescu": 4731,
      "bu": 4732,
      "bar": 4733,
      "bins": 4734,
      "crit": 4735,
      "call": 4736,
      "dh": 4737,
      "din": 4738,
      "dy_": 4739,
      "de_B": 4740,
      "ext": 4741,
      "ful": 4742,
      "father": 4743,
      "ga": 4744,
      "hl": 4745,
      "hav": 4746,
      "hillon": 4747,
      "idi": 4748,
      "ife": 4749,
      "lè": 4750,
      "lett": 4751,
      "le_G": 4752,
      "ming": 4753,
      "manga": 4754,
      "ning": 4755,
      "ne_": 4756,
      "o_S": 4757,
      "ry_": 4758,
      "run": 4759,
      "ro_": 4760,
      "sat": 4761,
      "succ": 4762,
      "tkins": 4763,
      "uart": 4764,
      "von": 4765,
      "vid": 4766,
      "vana": 4767,
      "we": 4768,
      "ywood": 4769,
      "z_": 4770,
      "ía": 4771,
      "ara_B": 4772,
      "ered": 4773,
      "ils": 4774,
      "Cather": 4775,
      "dia": 4776,
      "andre": 4777,
      "andopadhyay": 4778,
      "ript": 4779,
      "Cart": 4780,
      "ating": 4781,
      "ator": 4782,
      "y_F": 4783,
      "y_W": 4784,
      "y_St": 4785,
      "el_W": 4786,
      "elson": 4787,
      "Thomp": 4788,
      "osen": 4789,
      "ima": 4790,
      "_Sp": 4791,
      "_Soman": 4792,
      "eto": 4793,
      "ley_M": 4794,
      "ities": 4795,
      "urb": 4796,
      "_Berg": 4797,
      "_Bandopadhyay": 4798,
      "o_D": 4799,
      "o_K": 4800,
      "o_P": 4801,
      "ayer": 4802,
      "ayana": 4803,
      "chet": 4804,
      "owland": 4805,
      "Carrie": 4806,
      "ills": 4807,
      "_Moore": 4808,
      "Chan": 4809,
      "Chev": 4810,
      "_Hen": 4811,
      "the_Cab": 4812,
      "ida": 4813,
      "form": 4814,
      "_Ad": 4815,
      "Johan": 4816,
      "_Gar": 4817,
      "_Green": 4818,
      "oto": 4819,
      "igg": 4820,
      "_De_": 4821,
      "_Den": 4822,
      "_Dav": 4823,
      "_Dev": 4824,
      "_Dub": 4825,
      "_Dale": 4826,
      "_Doyle": 4827,
      "_Cl": 4828,
      "_Farr": 4829,
      "abor": 4830,
      "_Pat": 4831,
      "Cann": 4832,
      "Mary": 4833,
      "Amand": 4834,
      "musician": 4835,
      "_Lew": 4836,
      "_Lyn": 4837,
      "_Lane": 4838,
      "_Nag": 4839,
      "ives": 4840,
      "mani": 4841,
      "Anup": 4842,
      "1985": 4843,
      "1987": 4844,
      "she": 4845,
      "han_": 4846,
      "opera": 4847,
      "itha_": 4848,
      "ika_": 4849,
      "aught": 4850,
      "ie_G": 4851,
      "Sharon": 4852,
      "Alb": 4853,
      "Alic": 4854,
      "Alice": 4855,
      "1997": 4856,
      "John_C": 4857,
      "John_T": 4858,
      "1930": 4859,
      "1937": 4860,
      "place": 4861,
      "scen": 4862,
      "script": 4863,
      "beg": 4864,
      "uki_": 4865,
      "uggi": 4866,
      "ashi": 4867,
      "Geoff": 4868,
      "anna": 4869,
      "icki": 4870,
      "_Allen": 4871,
      "_Stewart": 4872,
      "_Starrett": 4873,
      "Franz": 4874,
      "France": 4875,
      "a_Mc": 4876,
      "Deb": 4877,
      "Edwin": 4878,
      "Eddie_": 4879,
      "ffer": 4880,
      "_Os": 4881,
      "dec": 4882,
      "upper": 4883,
      "e_Foster": 4884,
      "a_Bh": 4885,
      "Heather": 4886,
      "y_Burnette": 4887,
      "Charles_Starrett": 4888,
      "e_Hunt": 4889,
      "e_Howard": 4890,
      "Jacki": 4891,
      "Bruce": 4892,
      "Malcol": 4893,
      "Frankie_": 4894,
      "preet": 4895,
      "Norma_": 4896,
      "ailey": 4897,
      "box": 4898,
      "makes": 4899,
      "Wild_Bill_Elliott": 4900,
      "featured": 4901,
      "Takay": 4902,
      "White": 4903,
      "Isabel": 4904,
      "orrupt": 4905,
      "Andy_": 4906,
      "Malayalam_": 4907,
      "Akkin": 4908,
      "Lovato": 4909,
      "Marco_": 4910,
      "Giov": 4911,
      "i_Kodama": 4912,
      "Stanley": 4913,
      "5520": 4914,
      "Ashle": 4915,
      "iley_Burnette": 4916,
      "ummings": 4917,
      "5220": 4918,
      "Corpor": 4919,
      "Melor": 4920,
      "Oliver": 4921,
      "4860": 4922,
      "return": 4923,
      "_Sharma": 4924,
      "_Bhalla": 4925,
      "Prakash_Raj": 4926,
      "Alexandre": 4927,
      "zzi": 4928,
      "includes": 4929,
      "Philipp": 4930,
      "Vincent": 4931,
      "rishna": 4932,
      "Frances": 4933,
      "Waller": 4934,
      "originally": 4935,
      "Antoni": 4936,
      "Derm": 4937,
      "Graham": 4938,
      "Hattie": 4939,
      "an_Nair": 4940,
      "_Barrymore": 4941,
      "3720": 4942,
      "Susan": 4943,
      "Randolph": 4944,
      "Sergiu": 4945,
      "Lionel_Barrymore": 4946,
      "Owen_Wil": 4947,
      "Sakura": 4948,
      "Patricia_": 4949,
      "3900": 4950,
      "Anthony": 4951,
      "Valerie_": 4952,
      "Larry_the_Cab": 4953,
      "black": 4954,
      "6420": 4955,
      "Hugo_": 4956,
      "Smiley_Burnette": 4957,
      "_Frank": 4958,
      "Alessandro": 4959,
      "Padm": 4960,
      "special": 4961,
      "invol": 4962,
      "_Parker": 4963,
      "Cristian": 4964,
      "Kathle": 4965,
      "Srinath": 4966,
      "earlier": 4967,
      "Kenji_Kodama": 4968,
      "lynn": 4969,
      "Nedumudi_Ven": 4970,
      "Nelvana": 4971,
      "Saty": 4972,
      "Todd": 4973,
      "develop": 4974,
      "gava": 4975,
      "inspired": 4976,
      "_Young_": 4977,
      "Jaswinder_Bhalla": 4978,
      "Penelop": 4979,
      "western": 4980,
      "yoti": 4981,
      "Álvar": 4982,
      "starred": 4983,
      "Gurpreet": 4984,
      "Gérard": 4985,
      "lèn": 4986,
      "le_Guy": 4987,
      "success": 4988,
      "Thompson": 4989,
      "Malcolm": 4990,
      "Akkinen": 4991,
      "Corporation": 4992,
      "Owen_Wilson": 4993,
      "Larry_the_Cable_Guy": 4994,
      "Nedumudi_Venu": 4995,
      "\",": 4996,
      ".,": 4997,
      "27": 4998,
      "67": 4999,
      "75": 5000,
      "Ast": 5001,
      "Atom": 5002,
      "Bod": 5003,
      "Bart": 5004,
      "Bizet": 5005,
      "Cesar": 5006,
      "Do": 5007,
      "Dal": 5008,
      "Ear": 5009,
      "East": 5010,
      "Fer": 5011,
      "Fever": 5012,
      "Gor": 5013,
      "Gol": 5014,
      "Gang": 5015,
      "Hard": 5016,
      "Ji": 5017,
      "Kam": 5018,
      "Karam": 5019,
      "Lo": 5020,
      "Lun": 5021,
      "Lav": 5022,
      "Lang": 5023,
      "Law": 5024,
      "Light": 5025,
      "Ladd": 5026,
      "Mam": 5027,
      "Met": 5028,
      "Matt": 5029,
      "Marshall": 5030,
      "Niv": 5031,
      "Night": 5032,
      "Nair": 5033,
      "Pam": 5034,
      "Puri": 5035,
      "Piper": 5036,
      "Ran": 5037,
      "Rap": 5038,
      "Rud": 5039,
      "Rhy": 5040,
      "Sar": 5041,
      "Sig": 5042,
      "Sab": 5043,
      "Seth": 5044,
      "Syd": 5045,
      "Tri": 5046,
      "Tam": 5047,
      "Tang": 5048,
      "Tob": 5049,
      "Ver": 5050,
      "Whoop": 5051,
      "You": 5052,
      "aid": 5053,
      "banner": 5054,
      "cel": 5055,
      "cur": 5056,
      "coll": 5057,
      "cinem": 5058,
      "corrupt": 5059,
      "dan": 5060,
      "del": 5061,
      "eet": 5062,
      "eck": 5063,
      "fl": 5064,
      "fre": 5065,
      "fun": 5066,
      "fils": 5067,
      "gth": 5068,
      "goy": 5069,
      "gali": 5070,
      "high": 5071,
      "have": 5072,
      "iott": 5073,
      "ks": 5074,
      "kel": 5075,
      "ling": 5076,
      "marr": 5077,
      "mez": 5078,
      "murder": 5079,
      "nan": 5080,
      "nam": 5081,
      "pers": 5082,
      "power": 5083,
      "sin": 5084,
      "sur": 5085,
      "ta": 5086,
      "uz": 5087,
      "vin": 5088,
      "ved": 5089,
      "vict": 5090,
      "wr": 5091,
      "wyn": 5092,
      "witz": 5093,
      "women": 5094,
      "án": 5095,
      "ón": 5096,
      "ómez": 5097,
      "inc": 5098,
      "int": 5099,
      "inson": 5100,
      "ste": 5101,
      "anime": 5102,
      "arrier": 5103,
      "eri": 5104,
      "erot": 5105,
      "ily": 5106,
      "alone": 5107,
      "dis": 5108,
      "andark": 5109,
      "rice": 5110,
      "rise": 5111,
      "Carthy": 5112,
      "amma": 5113,
      "amount": 5114,
      "iser": 5115,
      "elm": 5116,
      "omero": 5117,
      "Three": 5118,
      "directorial": 5119,
      "rac": 5120,
      "raig": 5121,
      "imer": 5122,
      "imation": 5123,
      "itary": 5124,
      "usz": 5125,
      "ove": 5126,
      "Theod": 5127,
      "aver": 5128,
      "ote": 5129,
      "2005": 5130,
      "Its": 5131,
      "ulars": 5132,
      "umber": 5133,
      "rani": 5134,
      "ivan": 5135,
      "ivas": 5136,
      "Roth": 5137,
      "Roberto": 5138,
      "Star": 5139,
      "Story": 5140,
      "Studi": 5141,
      "Street": 5142,
      "aust": 5143,
      "1940": 5144,
      "1945": 5145,
      "1949": 5146,
      "Shetty": 5147,
      "emi": 5148,
      "Alon": 5149,
      "1991": 5150,
      "Carey": 5151,
      "coming": 5152,
      "atty": 5153,
      "endrick": 5154,
      "arts": 5155,
      "quette": 5156,
      "1971": 5157,
      "ante": 5158,
      "season": 5159,
      "ukh": 5160,
      "ewitt": 5161,
      "achik": 5162,
      "achandran": 5163,
      "ega": 5164,
      "1962": 5165,
      "1964": 5166,
      "Art": 5167,
      "Arun": 5168,
      "Arjun": 5169,
      "cox": 5170,
      "Kenn": 5171,
      "plays": 5172,
      "death": 5173,
      "Candy": 5174,
      "Cairo": 5175,
      "haber": 5176,
      "length": 5177,
      "ought": 5178,
      "derson": 5179,
      "Madele": 5180,
      "world": 5181,
      "ammad": 5182,
      "Jonas": 5183,
      "Jones": 5184,
      "Paramount": 5185,
      "ifer": 5186,
      "Moh": 5187,
      "Kirby": 5188,
      "following": 5189,
      "Barrera": 5190,
      "Samuel": 5191,
      "iedell": 5192,
      "adda": 5193,
      "Flor": 5194,
      "ensemb": 5195,
      "Bengali": 5196,
      "guest": 5197,
      "Colin": 5198,
      "Newman": 5199,
      "Dickinson": 5200,
      "Vinod": 5201,
      "Madhuri": 5202,
      "Virgin": 5203,
      "created": 5204,
      "around": 5205,
      "Jaspal": 5206,
      "igned": 5207,
      "María": 5208,
      "Bharathan": 5209,
      "Sudhir": 5210,
      "Vivian": 5211,
      "theatric": 5212,
      "Production": 5213,
      "Lynn": 5214,
      "Rodríguez": 5215,
      "Haas": 5216,
      "iews": 5217,
      "Rogers": 5218,
      "Hammer": 5219,
      "Scorsese": 5220,
      "Serb": 5221,
      "transl": 5222,
      "Steele": 5223,
      "esnick": 5224,
      "Phillips": 5225,
      "performance": 5226,
      "Autry": 5227,
      "Punj": 5228,
      "Dumas": 5229,
      "critic": 5230,
      "Whoopi": 5231,
      "goyan": 5232,
      "erotic": 5233,
      "andarkar": 5234,
      "Studios": 5235,
      "ensemble": 5236,
      "14": 5237,
      "23": 5238,
      "260": 5239,
      "3600": 5240,
      "3360": 5241,
      "47": 5242,
      "540": 5243,
      "620": 5244,
      "6600": 5245,
      "6240": 5246,
      "78": 5247,
      "7440": 5248,
      "Aaron": 5249,
      "BS": 5250,
      "Bas": 5251,
      "Bren": 5252,
      "Boyd": 5253,
      "Bresslaw": 5254,
      "Cre": 5255,
      "Core": 5256,
      "Cold": 5257,
      "Day": 5258,
      "Dustin": 5259,
      "Ek": 5260,
      "Eis": 5261,
      "Eason": 5262,
      "Erik": 5263,
      "FI": 5264,
      "Fore": 5265,
      "Fine": 5266,
      "Field": 5267,
      "Filip": 5268,
      "Faust": 5269,
      "Gary": 5270,
      "Gara_": 5271,
      "Gret": 5272,
      "Ginger": 5273,
      "Hu": 5274,
      "Him": 5275,
      "Hob": 5276,
      "Jay_": 5277,
      "Jatta": 5278,
      "Kay": 5279,
      "Kob": 5280,
      "Kee": 5281,
      "Kelly": 5282,
      "Kashan": 5283,
      "Khanna": 5284,
      "Ly": 5285,
      "Len": 5286,
      "Language": 5287,
      "Lane": 5288,
      "Mot": 5289,
      "Mul": 5290,
      "Maur": 5291,
      "Minn": 5292,
      "Mille": 5293,
      "Miranda": 5294,
      "Nino_": 5295,
      "Nana_": 5296,
      "Nathan": 5297,
      "Nagar": 5298,
      "National": 5299,
      "Nigel": 5300,
      "Our": 5301,
      "Per": 5302,
      "Pand": 5303,
      "Pis": 5304,
      "Phy": 5305,
      "Ru": 5306,
      "Rele": 5307,
      "Ronald": 5308,
      "Rowland": 5309,
      "Sri": 5310,
      "Spe": 5311,
      "Srid": 5312,
      "Tw": 5313,
      "Tat": 5314,
      "Tamm": 5315,
      "US": 5316,
      "Um": 5317,
      "Vera": 5318,
      "Wend": 5319,
      "Wah": 5320,
      "Will_": 5321,
      "Wright": 5322,
      "Wolf": 5323,
      "Werner": 5324,
      "Yū": 5325,
      "Zo": 5326,
      "_U": 5327,
      "_de_": 5328,
      "_actress": 5329,
      "_Elliott": 5330,
      "_Prakash": 5331,
      "bal": 5332,
      "bel": 5333,
      "bie_": 5334,
      "ball": 5335,
      "basi": 5336,
      "can": 5337,
      "cal": 5338,
      "cam": 5339,
      "cat": 5340,
      "cle": 5341,
      "came": 5342,
      "camp": 5343,
      "eot": 5344,
      "eep": 5345,
      "ft": 5346,
      "fac": 5347,
      "fem": 5348,
      "feld": 5349,
      "gn": 5350,
      "gom": 5351,
      "gang": 5352,
      "gud": 5353,
      "gro": 5354,
      "how": 5355,
      "hard": 5356,
      "hese": 5357,
      "hmann": 5358,
      "hmed": 5359,
      "human": 5360,
      "huggi": 5361,
      "ih": 5362,
      "i_S": 5363,
      "ia_K": 5364,
      "ji": 5365,
      "jš": 5366,
      "k_": 5367,
      "ku": 5368,
      "k_B": 5369,
      "kill": 5370,
      "key": 5371,
      "long": 5372,
      "line": 5373,
      "mi": 5374,
      "ms": 5375,
      "mon": 5376,
      "mes": 5377,
      "mol": 5378,
      "mad": 5379,
      "must": 5380,
      "most": 5381,
      "miss": 5382,
      "million": 5383,
      "oo": 5384,
      "ois": 5385,
      "pin": 5386,
      "pil": 5387,
      "ros": 5388,
      "rne": 5389,
      "roney": 5390,
      "sk": 5391,
      "sm": 5392,
      "su": 5393,
      "sport": 5394,
      "six": 5395,
      "uo": 5396,
      "va": 5397,
      "vide": 5398,
      "wara_": 5399,
      "wamb": 5400,
      "wife": 5401,
      "ya_": 5402,
      "éry": 5403,
      "éli": 5404,
      "ared": 5405,
      "aro_": 5406,
      "arayana": 5407,
      "ine_L": 5408,
      "inha": 5409,
      "inke_": 5410,
      "ine_D": 5411,
      "stud": 5412,
      "studi": 5413,
      "ingo": 5414,
      "arro": 5415,
      "ermain": 5416,
      "il_": 5417,
      "iler": 5418,
      "ilver": 5419,
      "rether": 5420,
      "reekumar": 5421,
      "e_Co": 5422,
      "e_Mara": 5423,
      "enz": 5424,
      "eda": 5425,
      "eddy": 5426,
      "edger": 5427,
      "edited": 5428,
      "alb": 5429,
      "als": 5430,
      "alent": 5431,
      "altern": 5432,
      "disl": 5433,
      "die_Foster": 5434,
      "a_U": 5435,
      "a_De": 5436,
      "a_Walters": 5437,
      "andan": 5438,
      "and_D": 5439,
      "andaram": 5440,
      "asing": 5441,
      "asikumar": 5442,
      "esem": 5443,
      "am_K": 5444,
      "amond": 5445,
      "ising": 5446,
      "ised": 5447,
      "is_C": 5448,
      "isuk": 5449,
      "atthau": 5450,
      "y_Van": 5451,
      "y_Allen": 5452,
      "elit": 5453,
      "el_M": 5454,
      "elath": 5455,
      "Thikk": 5456,
      "oles": 5457,
      "olff": 5458,
      "rady": 5459,
      "rakumar": 5460,
      "imp": 5461,
      "_Sor": 5462,
      "_Sung": 5463,
      "leeson": 5464,
      "irth": 5465,
      "ira_": 5466,
      "itra": 5467,
      "ition": 5468,
      "uro": 5469,
      "urray": 5470,
      "_Bas": 5471,
      "_Bol": 5472,
      "_Brit": 5473,
      "_Bro": 5474,
      "_Bren": 5475,
      "_Bucqu": 5476,
      "until": 5477,
      "adine": 5478,
      "o_Ca": 5479,
      "o_Van": 5480,
      "ussel": 5481,
      "ovac": 5482,
      "owler": 5483,
      "Tep": 5484,
      "Tevi": 5485,
      "Techn": 5486,
      "_Mor": 5487,
      "_Mal": 5488,
      "_Mul": 5489,
      "_Mason": 5490,
      "_Matthau": 5491,
      "_Rav": 5492,
      "_Rai": 5493,
      "_Ray_": 5494,
      "_Rao": 5495,
      "ck_Dub": 5496,
      "akawa": 5497,
      "Chic": 5498,
      "odes": 5499,
      "odandaram": 5500,
      "_Hy": 5501,
      "_Har": 5502,
      "_Hugh": 5503,
      "_Hillyer": 5504,
      "avin": 5505,
      "avoc": 5506,
      "idge": 5507,
      "_As": 5508,
      "_Ay": 5509,
      "Joe_D": 5510,
      "Jodie_Foster": 5511,
      "_Gall": 5512,
      "_Ghuggi": 5513,
      "_Germain": 5514,
      "arde": 5515,
      "ardhan": 5516,
      "igan": 5517,
      "igen": 5518,
      "_Du": 5519,
      "_Dougl": 5520,
      "_Dhillon": 5521,
      "_Cur": 5522,
      "_Curt": 5523,
      "_Cook": 5524,
      "_Crabbe": 5525,
      "oul_": 5526,
      "ouston": 5527,
      "ouchet": 5528,
      "Clif": 5529,
      "_Whal": 5530,
      "eves": 5531,
      "actors": 5532,
      "_Foster": 5533,
      "_Pil": 5534,
      "_Pal": 5535,
      "_Pay": 5536,
      "_Pow": 5537,
      "Canutt": 5538,
      "Marion": 5539,
      "Marie_": 5540,
      "Mario": 5541,
      "ulin": 5542,
      "uléry": 5543,
      "ichael": 5544,
      "cey_M": 5545,
      "utes": 5546,
      "resent": 5547,
      "Amy": 5548,
      "Amato": 5549,
      "ellman": 5550,
      "_Luc": 5551,
      "_Lau": 5552,
      "_Law": 5553,
      "_Lee": 5554,
      "_Nicol": 5555,
      "_Nichol": 5556,
      "_Nelson": 5557,
      "nez": 5558,
      "Anita_": 5559,
      "ship": 5560,
      "_Je": 5561,
      "acLaine": 5562,
      "ople": 5563,
      "opular": 5564,
      "Stewart": 5565,
      "Stuart": 5566,
      "Shal": 5567,
      "Sheen": 5568,
      "Shilp": 5569,
      "Shashan": 5570,
      "_Kent": 5571,
      "_Kang": 5572,
      "_Kumar": 5573,
      "_Khanna": 5574,
      "tenberg": 5575,
      "emong": 5576,
      "John_": 5577,
      "Johnson": 5578,
      "John_Cle": 5579,
      "John_Carr": 5580,
      "endent": 5581,
      "Rains": 5582,
      "Ray_M": 5583,
      "Ind": 5584,
      "epp": 5585,
      "ependent": 5586,
      "Eli_R": 5587,
      "ished": 5588,
      "plac": 5589,
      "ogovac": 5590,
      "anti": 5591,
      "araf": 5592,
      "sex": 5593,
      "seur": 5594,
      "_Tam": 5595,
      "_Tay": 5596,
      "eki": 5597,
      "orgos": 5598,
      "appears": 5599,
      "ashri": 5600,
      "ashington": 5601,
      "ashima": 5602,
      "assi": 5603,
      "astian": 5604,
      "haran": 5605,
      "herd": 5606,
      "rost": 5607,
      "egan": 5608,
      "oodson": 5609,
      "1965": 5610,
      "Arn": 5611,
      "_Str": 5612,
      "Franck_Dub": 5613,
      "a_Mazz": 5614,
      "Robert_W": 5615,
      "Robert_L": 5616,
      "Robert_Young_": 5617,
      "Davies": 5618,
      "a_Sat": 5619,
      "a_Singh": 5620,
      "onte": 5621,
      "count": 5622,
      "George_S": 5623,
      "ielgud": 5624,
      "e_Mc": 5625,
      "e_Mitchell": 5626,
      "Lee_": 5627,
      "ostas": 5628,
      "undaro": 5629,
      "_Shrikanth": 5630,
      "1957": 5631,
      "ubb": 5632,
      "izuno": 5633,
      "social": 5634,
      "1927": 5635,
      "uresh": 5636,
      "e_Fel": 5637,
      "Adolf": 5638,
      "Adnan": 5639,
      "ajwa": 5640,
      "umar_": 5641,
      "Heath": 5642,
      "othiri": 5643,
      "William_B": 5644,
      "Don_": 5645,
      "Jose_": 5646,
      "esh_": 5647,
      "Conch": 5648,
      "pect": 5649,
      "e_Hol": 5650,
      "Jackie_": 5651,
      "Calamity": 5652,
      "Jayaraj": 5653,
      "Richard_H": 5654,
      "Bros": 5655,
      "Brown": 5656,
      "Malashri": 5657,
      "phot": 5658,
      "Frank_Ryan": 5659,
      "ordan": 5660,
      "screened": 5661,
      "_Chand": 5662,
      "Harrison": 5663,
      "offin": 5664,
      "office": 5665,
      "ani_M": 5666,
      "gerald": 5667,
      "ments_": 5668,
      "bojš": 5669,
      "boothiri": 5670,
      "u_actor": 5671,
      "on_El": 5672,
      "Anna_K": 5673,
      "Manish": 5674,
      "portray": 5675,
      "ould": 5676,
      "making": 5677,
      "arghese": 5678,
      "Rajkumar": 5679,
      "Eric_P": 5680,
      "_McDonald": 5681,
      "_McNeil": 5682,
      "urnett": 5683,
      "Moham": 5684,
      "Moe_Howard": 5685,
      "uriss": 5686,
      "Jules": 5687,
      "y_Sreekumar": 5688,
      "Blak": 5689,
      "Takashima": 5690,
      "ly_Howard": 5691,
      "erty": 5692,
      "Stevens": 5693,
      "Mario_M": 5694,
      "1800": 5695,
      "1848": 5696,
      "errine": 5697,
      "e_Gordon": 5698,
      "a_Reed": 5699,
      "Isa": 5700,
      "Phil": 5701,
      "karni": 5702,
      "Curly_Howard": 5703,
      "e_Demong": 5704,
      "Tomm": 5705,
      "Paul_L": 5706,
      "reeman": 5707,
      "regular": 5708,
      "regulars": 5709,
      "22Red": 5710,
      "22_Barr": 5711,
      "Laurenc": 5712,
      "iju": 5713,
      "Barbara_B": 5714,
      "Mylèn": 5715,
      "e_Woodson": 5716,
      "ombell": 5717,
      "Barry": 5718,
      "Bernard_C": 5719,
      "Jim_Dale": 5720,
      "_James_Cor": 5721,
      "Asaka": 5722,
      "Meaghan": 5723,
      "twent": 5724,
      "_Blier": 5725,
      "Marcos": 5726,
      "3000": 5727,
      "Giorgos": 5728,
      "Kevin_Poll": 5729,
      "Rita": 5730,
      "Ritup": 5731,
      "a_Din": 5732,
      "y_Grewal": 5733,
      "_Doi": 5734,
      "_Newman": 5735,
      "_Jonas": 5736,
      "Harold_Ram": 5737,
      "Nebojš": 5738,
      "Scott_McNeil": 5739,
      "_Anton": 5740,
      "i_Kapoor": 5741,
      "i_Kumar_": 5742,
      "Stanley_": 5743,
      "Joseph_S": 5744,
      "Ashley_": 5745,
      "icolor": 5746,
      "Mike": 5747,
      "Parker": 5748,
      "_Raju": 5749,
      "_Hayes": 5750,
      "works": 5751,
      "Gabby": 5752,
      "Meliss": 5753,
      "Telugu_actor": 5754,
      "Ladisl": 5755,
      "Larry": 5756,
      "Teres": 5757,
      "Terry": 5758,
      "en_Onteniente": 5759,
      "_Bhasi": 5760,
      "Shirley_M": 5761,
      "y_Busey": 5762,
      "Venk": 5763,
      "Venice": 5764,
      "itzgerald": 5765,
      "lover": 5766,
      "oirala": 5767,
      "sets": 5768,
      "iyoor": 5769,
      "Natash": 5770,
      "Wallace": 5771,
      "_Egoyan": 5772,
      "Claude_": 5773,
      "Claude_B": 5774,
      "Ian_James_Cor": 5775,
      "Laksh": 5776,
      "biography": 5777,
      "Antonio": 5778,
      "Allan_Lane": 5779,
      "Deron": 5780,
      "Shane_Woodson": 5781,
      "film_producer": 5782,
      "Canals": 5783,
      "oreno": 5784,
      "Walter_Matthau": 5785,
      "Randy_": 5786,
      "rasseur": 5787,
      "ydon": 5788,
      "onnamma": 5789,
      "Sherman": 5790,
      "astrone": 5791,
      "Kannada_actress": 5792,
      "Australia": 5793,
      "Feliss": 5794,
      "Gregor": 5795,
      "Maurice_": 5796,
      "Salah": 5797,
      "desc": 5798,
      "dition": 5799,
      "Sreelath": 5800,
      "Tracey_M": 5801,
      "ohler": 5802,
      "rigan": 5803,
      "oretti": 5804,
      "Arthur_H": 5805,
      "Bruce_": 5806,
      "Dorothy": 5807,
      "Larry_Fine": 5808,
      "Keisuk": 5809,
      "ology": 5810,
      "ological": 5811,
      "Andrews": 5812,
      "6480": 5813,
      "Buzz": 5814,
      "marked": 5815,
      "true": 5816,
      "_Whit": 5817,
      "_White": 5818,
      "Jimmy_L": 5819,
      "Gary_Busey": 5820,
      "Hollywood": 5821,
      "Suhas": 5822,
      "Beatrice_": 5823,
      "Spencer_Gordon": 5824,
      "7020": 5825,
      "7080": 5826,
      "Pedro_": 5827,
      "Sai_Kumar_": 5828,
      "llis": 5829,
      "_Stone": 5830,
      "_Benvenuti": 5831,
      "agnino": 5832,
      "John_Lasseter": 5833,
      "Davis_Doi": 5834,
      "Peter_Butterworth": 5835,
      "Billie_Thomas": 5836,
      "Shirley_and_D": 5837,
      "Cornel": 5838,
      "Fabien_Onteniente": 5839,
      "Udapur": 5840,
      "ancock": 5841,
      "Emmet": 5842,
      "explo": 5843,
      "Jagathy_Sreekumar": 5844,
      "Edmund_C": 5845,
      "Kaviyoor": 5846,
      "Kishan_Shrikanth": 5847,
      "Loretta_": 5848,
      "Payne": 5849,
      "Ricard": 5850,
      "_Bennet": 5851,
      "_Graff": 5852,
      "_Dixit": 5853,
      "_Paige": 5854,
      "Antoine_D": 5855,
      "Ingrid": 5856,
      "Adoor_Bhasi": 5857,
      "Helen_Mirren": 5858,
      "grossed": 5859,
      "Leslie_": 5860,
      "nominated": 5861,
      "Gippy_Grewal": 5862,
      "Kulkarni": 5863,
      "Laglen": 5864,
      "Massim": 5865,
      "Russell": 5866,
      "Tabitha_": 5867,
      "limited": 5868,
      "sitcom": 5869,
      "erlman": 5870,
      "opoulos": 5871,
      "episodes": 5872,
      "Archie_": 5873,
      "Parvathy_": 5874,
      "Produced": 5875,
      "Lambert_Hillyer": 5876,
      "Buster_Crabbe": 5877,
      "Bonnie_Hunt": 5878,
      "Smeep_Kang": 5879,
      "Aarathi": 5880,
      "Binnu_Dhillon": 5881,
      "Jerem": 5882,
      "Kristen": 5883,
      "called": 5884,
      "satiri": 5885,
      "vidya": 5886,
      "_Denham": 5887,
      "_Clark": 5888,
      "Cannon": 5889,
      "_Lewis": 5890,
      "_Osb": 5891,
      "Ashleigh": 5892,
      "Melora_Walters": 5893,
      "Antonio_": 5894,
      "Sergiu_Nicol": 5895,
      "Hugo_Haas": 5896,
      "Alessandro_Benvenuti": 5897,
      "Satyaj": 5898,
      "Gurpreet_Ghuggi": 5899,
      "6720": 5900,
      "Atom_Egoyan": 5901,
      "Karamjit": 5902,
      "Lightning": 5903,
      "Metro": 5904,
      "Tobias": 5905,
      "Madeleine_": 5906,
      "Madhuri_Dixit": 5907,
      "Virginia": 5908,
      "Productions": 5909,
      "Punjabi": 5910,
      "4740": 5911,
      "Ekberg": 5912,
      "Eisenberg": 5913,
      "Foreign": 5914,
      "Gara_Takashima": 5915,
      "Hobart": 5916,
      "Kobun": 5917,
      "Pisith": 5918,
      "Phyllis": 5919,
      "Srividya": 5920,
      "cameo": 5921,
      "ground": 5922,
      "sports": 5923,
      "wara_Rao": 5924,
      "wambharan": 5925,
      "élias": 5926,
      "studio": 5927,
      "ilverman": 5928,
      "retherton": 5929,
      "esemael": 5930,
      "Thikkuriss": 5931,
      "Technicolor": 5932,
      "_Ravichandran": 5933,
      "_Douglas_": 5934,
      "_Curtis": 5935,
      "_Lucas": 5936,
      "John_Clements_": 5937,
      "Eli_Roth": 5938,
      "Franck_Dubosc": 5939,
      "Frank_Ryan_": 5940,
      "Mohamed": 5941,
      "e_Demongeot": 5942,
      "22_Barry": 5943,
      "Mylène_Demongeot": 5944,
      "Kevin_Pollak": 5945,
      "Harold_Ramis": 5946,
      "Shirley_MacLaine": 5947,
      "Claude_Brasseur": 5948,
      "Ian_James_Corlett": 5949,
      "Tracey_Moore": 5950,
      "Spencer_Gordon_Bennet": 5951,
      "Shirley_and_Dino": 5952,
      "Udapurkar": 5953,
      "Antoine_Duléry": 5954,
      "Tabitha_St": 5955,
      "Sergiu_Nicolaescu": 5956,
      "28": 5957,
      "79": 5958,
      "Az": 5959,
      "Act": 5960,
      "Aidan": 5961,
      "Aravind": 5962,
      "ABC": 5963,
      "Ba": 5964,
      "By": 5965,
      "Bos": 5966,
      "Bus": 5967,
      "Blu": 5968,
      "Berg": 5969,
      "Baker": 5970,
      "Cer": 5971,
      "Cro": 5972,
      "Cox": 5973,
      "Dir": 5974,
      "Dak": 5975,
      "Dame": 5976,
      "Dary": 5977,
      "Esh": 5978,
      "Fa": 5979,
      "Fri": 5980,
      "Fab": 5981,
      "Fann": 5982,
      "Forest": 5983,
      "Glen": 5984,
      "Genn": 5985,
      "Goran": 5986,
      "Hid": 5987,
      "Haw": 5988,
      "Hart": 5989,
      "Hick": 5990,
      "Harsh": 5991,
      "Hope": 5992,
      "Iman": 5993,
      "Jak": 5994,
      "Justin": 5995,
      "Jyoti": 5996,
      "KO": 5997,
      "Kn": 5998,
      "Ky": 5999,
      "Kern": 6000,
      "Kib": 6001,
      "Kurt": 6002,
      "Kapoor": 6003,
      "Kostas": 6004,
      "Lin": 6005,
      "Lan": 6006,
      "Lanc": 6007,
      "Lester": 6008,
      "Lasseter": 6009,
      "Mas": 6010,
      "Morgan": 6011,
      "Nin": 6012,
      "Nas": 6013,
      "Nero": 6014,
      "Network": 6015,
      "Osc": 6016,
      "Otto": 6017,
      "Orest": 6018,
      "Orig": 6019,
      "Pac": 6020,
      "Pall": 6021,
      "Paw": 6022,
      "Pine": 6023,
      "Paz": 6024,
      "Penn": 6025,
      "RJ": 6026,
      "Rat": 6027,
      "Rid": 6028,
      "Rou": 6029,
      "Rhe": 6030,
      "Rush": 6031,
      "Rex": 6032,
      "Roland": 6033,
      "Riedell": 6034,
      "RKO": 6035,
      "Soll": 6036,
      "Soman": 6037,
      "Sanj": 6038,
      "Tr": 6039,
      "Ts": 6040,
      "Tu": 6041,
      "Tan": 6042,
      "Tana": 6043,
      "Tinto": 6044,
      "Tachik": 6045,
      "Vi": 6046,
      "Vall": 6047,
      "Wu": 6048,
      "Wong": 6049,
      "Warn": 6050,
      "Warren": 6051,
      "Xue": 6052,
      "Yann": 6053,
      "aff": 6054,
      "barg": 6055,
      "care": 6056,
      "ds": 6057,
      "dant": 6058,
      "dance": 6059,
      "eu": 6060,
      "eung": 6061,
      "fle": 6062,
      "fig": 6063,
      "fall": 6064,
      "foc": 6065,
      "free": 6066,
      "found": 6067,
      "gy": 6068,
      "ges": 6069,
      "hman": 6070,
      "irit": 6071,
      "jev": 6072,
      "ject": 6073,
      "kow": 6074,
      "lives": 6075,
      "mä": 6076,
      "mil": 6077,
      "mit": 6078,
      "mov": 6079,
      "maj": 6080,
      "member": 6081,
      "midd": 6082,
      "nur": 6083,
      "nink": 6084,
      "number": 6085,
      "oî": 6086,
      "odi": 6087,
      "pos": 6088,
      "post": 6089,
      "pied": 6090,
      "popular": 6091,
      "sw": 6092,
      "sson": 6093,
      "send": 6094,
      "ski": 6095,
      "semi": 6096,
      "trav": 6097,
      "track": 6098,
      "uñ": 6099,
      "uer": 6100,
      "uya": 6101,
      "vey": 6102,
      "ville": 6103,
      "ych": 6104,
      "yman": 6105,
      "yler": 6106,
      "zal": 6107,
      "zian": 6108,
      "zina": 6109,
      "zvan": 6110,
      "ão": 6111,
      "éris": 6112,
      "ôni": 6113,
      "aran": 6114,
      "inter": 6115,
      "stone": 6116,
      "anama": 6117,
      "anci": 6118,
      "anek": 6119,
      "erk": 6120,
      "ilog": 6121,
      "Capt": 6122,
      "rez": 6123,
      "reed": 6124,
      "reak": 6125,
      "replac": 6126,
      "orth": 6127,
      "ories": 6128,
      "thw": 6129,
      "thvi": 6130,
      "threat": 6131,
      "ona": 6132,
      "ena": 6133,
      "eno": 6134,
      "enov": 6135,
      "enfeld": 6136,
      "edy": 6137,
      "eder": 6138,
      "aljev": 6139,
      "ases": 6140,
      "asiles": 6141,
      "asekhar": 6142,
      "rier": 6143,
      "Carter": 6144,
      "amoto": 6145,
      "atra": 6146,
      "aters": 6147,
      "ician": 6148,
      "direction": 6149,
      "elz": 6150,
      "elas": 6151,
      "uni": 6152,
      "2022": 6153,
      "osa": 6154,
      "olina": 6155,
      "rau": 6156,
      "rael": 6157,
      "often": 6158,
      "ofess": 6159,
      "Camélias": 6160,
      "irza": 6161,
      "ital": 6162,
      "itive": 6163,
      "ritz": 6164,
      "ural": 6165,
      "ades": 6166,
      "ayan": 6167,
      "Preston": 6168,
      "user": 6169,
      "ushan": 6170,
      "uskin": 6171,
      "ovic": 6172,
      "niston": 6173,
      "illo": 6174,
      "illai": 6175,
      "Casino": 6176,
      "Cassid": 6177,
      "aga": 6178,
      "ago": 6179,
      "akrav": 6180,
      "Chuck": 6181,
      "Chines": 6182,
      "Chery": 6183,
      "Chatterjee": 6184,
      "aves": 6185,
      "avier": 6186,
      "idt": 6187,
      "ardin": 6188,
      "ardem": 6189,
      "Campos": 6190,
      "Campus": 6191,
      "igner": 6192,
      "berger": 6193,
      "Claire": 6194,
      "Maris": 6195,
      "Maria": 6196,
      "ulian": 6197,
      "cept": 6198,
      "ief": 6199,
      "resp": 6200,
      "rank": 6201,
      "ivil": 6202,
      "ively": 6203,
      "mans": 6204,
      "Ant": 6205,
      "Andy": 6206,
      "Anita": 6207,
      "Anza": 6208,
      "1981": 6209,
      "1982": 6210,
      "show": 6211,
      "shown": 6212,
      "shinam": 6213,
      "acom": 6214,
      "acchi": 6215,
      "opp": 6216,
      "auber": 6217,
      "auris": 6218,
      "000": 6219,
      "Shy": 6220,
      "Shash": 6221,
      "Shib": 6222,
      "Shari": 6223,
      "Shaf": 6224,
      "alli": 6225,
      "emescu": 6226,
      "Ali": 6227,
      "iann": 6228,
      "prov": 6229,
      "comes": 6230,
      "Prin": 6231,
      "ended": 6232,
      "endra": 6233,
      "endran": 6234,
      "India": 6235,
      "eping": 6236,
      "cially": 6237,
      "1972": 6238,
      "ishi": 6239,
      "ishra": 6240,
      "etti": 6241,
      "ogan": 6242,
      "oyer": 6243,
      "ekely": 6244,
      "uka": 6245,
      "ewell": 6246,
      "ude": 6247,
      "ahl": 6248,
      "assett": 6249,
      "ists": 6250,
      "hary": 6251,
      "herjee": 6252,
      "anning": 6253,
      "1966": 6254,
      "1968": 6255,
      "Carlo": 6256,
      "Ardant": 6257,
      "lana": 6258,
      "lanch": 6259,
      "Roberts": 6260,
      "aiah": 6261,
      "coe": 6262,
      "Jansen": 6263,
      "lif": 6264,
      "1952": 6265,
      "1956": 6266,
      "ized": 6267,
      "sound": 6268,
      "azi": 6269,
      "Adrian": 6270,
      "Donagh": 6271,
      "Jose": 6272,
      "independent": 6273,
      "Richards": 6274,
      "Brand": 6275,
      "Pats": 6276,
      "Patekar": 6277,
      "novella": 6278,
      "ences": 6279,
      "Germany": 6280,
      "hoite": 6281,
      "house": 6282,
      "every": 6283,
      "Norma": 6284,
      "Peterson": 6285,
      "Timoth": 6286,
      "Martí": 6287,
      "ments": 6288,
      "book": 6289,
      "Manuel": 6290,
      "Manfre": 6291,
      "Calcutta": 6292,
      "arthy": 6293,
      "espite": 6294,
      "Ramos": 6295,
      "ossett": 6296,
      "ift": 6297,
      "psych": 6298,
      "Brid": 6299,
      "Juliet": 6300,
      "Quinn": 6301,
      "convict": 6302,
      "telenov": 6303,
      "1852": 6304,
      "Whit": 6305,
      "experi": 6306,
      "itta": 6307,
      "Israel": 6308,
      "arnum": 6309,
      "ridge": 6310,
      "Laura": 6311,
      "ijer": 6312,
      "oorthy": 6313,
      "voice": 6314,
      "meijer": 6315,
      "Barrymore": 6316,
      "ansu": 6317,
      "Jimmy": 6318,
      "titled": 6319,
      "Louise": 6320,
      "McDonald": 6321,
      "Mayer": 6322,
      "2021": 6323,
      "Gius": 6324,
      "Goldwyn": 6325,
      "leader": 6326,
      "Lucien": 6327,
      "Neill": 6328,
      "ensive": 6329,
      "Benoî": 6330,
      "Reeves": 6331,
      "Doris": 6332,
      "Corman": 6333,
      "Guy": 6334,
      "Melvin": 6335,
      "Oliv": 6336,
      "Christoph": 6337,
      "ozlan": 6338,
      "Shirley": 6339,
      "spirit": 6340,
      "Madhur": 6341,
      "vador": 6342,
      "ampton": 6343,
      "Claude": 6344,
      "premiere": 6345,
      "biograph": 6346,
      "credit": 6347,
      "Prithvi": 6348,
      "rell": 6349,
      "rellana": 6350,
      "ascal": 6351,
      "Gene": 6352,
      "Ravi": 6353,
      "raser": 6354,
      "various": 6355,
      "Sheridan": 6356,
      "Nicolá": 6357,
      "Nichols": 6358,
      "designed": 6359,
      "Leonard": 6360,
      "Patricia": 6361,
      "Sreekumar": 6362,
      "theaters": 6363,
      "Nages": 6364,
      "reviews": 6365,
      "riffin": 6366,
      "previously": 6367,
      "Romanian": 6368,
      "trilog": 6369,
      "oudhary": 6370,
      "upta": 6371,
      "Glauber": 6372,
      "Milton": 6373,
      "Porter": 6374,
      "Weaver": 6375,
      "engupta": 6376,
      "Alessandr": 6377,
      "Emily": 6378,
      "Sheila": 6379,
      "became": 6380,
      "Celi": 6381,
      "Lorra": 6382,
      "Media": 6383,
      "local": 6384,
      "askaljev": 6385,
      "ribbins": 6386,
      "ographed": 6387,
      "Jagathy": 6388,
      "Nunzian": 6389,
      "Solberg": 6390,
      "holm": 6391,
      "aggero": 6392,
      "Shroff": 6393,
      "Sharma": 6394,
      "Desmond": 6395,
      "Ireland": 6396,
      "zenberger": 6397,
      "Rachel": 6398,
      "Curtis": 6399,
      "Bertrand": 6400,
      "Dowell": 6401,
      "Izzo": 6402,
      "having": 6403,
      "week": 6404,
      "Albright": 6405,
      "scene": 6406,
      "Giovanni": 6407,
      "Dermot": 6408,
      "successful": 6409,
      "Luna": 6410,
      "Laverty": 6411,
      "collabor": 6412,
      "cinemat": 6413,
      "corruption": 6414,
      "iotta": 6415,
      "since": 6416,
      "wrote": 6417,
      "Serbian": 6418,
      "Himansu": 6419,
      "female": 6420,
      "video": 6421,
      "twenty": 6422,
      "describ": 6423,
      "Dakshinam": 6424,
      "Imanol": 6425,
      "Oscar": 6426,
      "Pawan": 6427,
      "Xuechang": 6428,
      "career": 6429,
      "focuses": 6430,
      "mäki": 6431,
      "military": 6432,
      "middle": 6433,
      "ninkmeijer": 6434,
      "uñoz": 6435,
      "aneke": 6436,
      "Captain": 6437,
      "asilescu": 6438,
      "akravarthy": 6439,
      "Chinese": 6440,
      "aurismäki": 6441,
      "Manfredi": 6442,
      "telenovela": 6443,
      "Benoît": 6444,
      "biographical": 6445,
      "Prithviraj": 6446,
      "trilogy": 6447,
      "askaljević": 6448,
      "Nunziante": 6449,
      "Dakshinamoorthy": 6450,
      "060": 6451,
      "34": 6452,
      "380": 6453,
      "340": 6454,
      "3660": 6455,
      "41": 6456,
      "4260": 6457,
      "4620": 6458,
      "5340": 6459,
      "640": 6460,
      "6360": 6461,
      "6660": 6462,
      "6540": 6463,
      "8640": 6464,
      "9060": 6465,
      "Aj": 6466,
      "Aid": 6467,
      "Ajit": 6468,
      "Aoyama": 6469,
      "Atkins": 6470,
      "Ahmed": 6471,
      "Bo": 6472,
      "Bow": 6473,
      "Bang": 6474,
      "Bell": 6475,
      "Bull": 6476,
      "Baby": 6477,
      "Burnette": 6478,
      "Butterworth": 6479,
      "Bailey": 6480,
      "Burnett": 6481,
      "Ced": 6482,
      "Com": 6483,
      "Cost": 6484,
      "Cuy": 6485,
      "Cobb": 6486,
      "Cummings": 6487,
      "CBS": 6488,
      "Dh": 6489,
      "Du": 6490,
      "Das": 6491,
      "Div": 6492,
      "Dud": 6493,
      "Dani": 6494,
      "Dillon": 6495,
      "Duff": 6496,
      "Dwar": 6497,
      "Eb": 6498,
      "Ew": 6499,
      "Earth": 6500,
      "Farr": 6501,
      "Fair": 6502,
      "Ferr": 6503,
      "Fumi": 6504,
      "Foran": 6505,
      "GM": 6506,
      "Garr": 6507,
      "Gos": 6508,
      "Gau": 6509,
      "Gillespie": 6510,
      "Goldb": 6511,
      "Great": 6512,
      "Griffith": 6513,
      "Gleeson": 6514,
      "Hé": 6515,
      "His": 6516,
      "Hur": 6517,
      "Hum": 6518,
      "Hop": 6519,
      "Hack": 6520,
      "Hoff": 6521,
      "Hans": 6522,
      "Iren": 6523,
      "Ivo": 6524,
      "Iwa": 6525,
      "Iku": 6526,
      "Jordan": 6527,
      "Jon_El": 6528,
      "Ko": 6529,
      "Ku": 6530,
      "Kō": 6531,
      "Kur": 6532,
      "Kot": 6533,
      "Kay_": 6534,
      "Kandy": 6535,
      "Krishna": 6536,
      "Ling": 6537,
      "Lil": 6538,
      "Lon": 6539,
      "Lal": 6540,
      "Lat": 6541,
      "Lol": 6542,
      "Lim": 6543,
      "Lod": 6544,
      "Lu_": 6545,
      "Letter": 6546,
      "Linds": 6547,
      "Lerner": 6548,
      "Mé": 6549,
      "Mess": 6550,
      "Mex": 6551,
      "Mori": 6552,
      "Mabel": 6553,
      "Miles": 6554,
      "Mitch": 6555,
      "Mitchell": 6556,
      "Mazz": 6557,
      "Menon": 6558,
      "Mirren": 6559,
      "Marshall_": 6560,
      "Minam": 6561,
      "MGM": 6562,
      "Narr": 6563,
      "Nath": 6564,
      "Nish": 6565,
      "Nog": 6566,
      "Neg": 6567,
      "Oh": 6568,
      "Om": 6569,
      "Out": 6570,
      "Otak": 6571,
      "PA": 6572,
      "Pir": 6573,
      "Poll": 6574,
      "Pix": 6575,
      "Pione": 6576,
      "Perrine": 6577,
      "Ry": 6578,
      "Ră": 6579,
      "Res": 6580,
      "Rash": 6581,
      "Rip": 6582,
      "Rana_": 6583,
      "Sy": 6584,
      "Sen": 6585,
      "Sov": 6586,
      "Sent": 6587,
      "Spr": 6588,
      "Sey": 6589,
      "Sok": 6590,
      "Sup": 6591,
      "Sreen": 6592,
      "Samm": 6593,
      "Sally": 6594,
      "Sull": 6595,
      "Sapphire": 6596,
      "Singh": 6597,
      "Syl": 6598,
      "Sound": 6599,
      "Sukh": 6600,
      "Suresh": 6601,
      "Tō": 6602,
      "Tara_": 6603,
      "Vis": 6604,
      "Vic": 6605,
      "Vill": 6606,
      "Vent": 6607,
      "Vich": 6608,
      "Vik": 6609,
      "Writ": 6610,
      "Xia": 6611,
      "Zs": 6612,
      "Zar": 6613,
      "Zero": 6614,
      "Zalone": 6615,
      "_Cas": 6616,
      "_actor": 6617,
      "_Carson": 6618,
      "_Cart": 6619,
      "_Emmet": 6620,
      "athe": 6621,
      "aunt": 6622,
      "aish": 6623,
      "ble": 6624,
      "bir": 6625,
      "bus": 6626,
      "bney": 6627,
      "billion": 6628,
      "baum": 6629,
      "bastian": 6630,
      "break": 6631,
      "cr": 6632,
      "cy": 6633,
      "cis": 6634,
      "cus": 6635,
      "cow": 6636,
      "cap": 6637,
      "cern": 6638,
      "cord": 6639,
      "coup": 6640,
      "corsese": 6641,
      "cFar": 6642,
      "dep": 6643,
      "dubb": 6644,
      "ej": 6645,
      "eith": 6646,
      "each": 6647,
      "eif": 6648,
      "far": 6649,
      "fus": 6650,
      "ga_": 6651,
      "get": 6652,
      "gier": 6653,
      "gener": 6654,
      "hed": 6655,
      "hand": 6656,
      "hos": 6657,
      "hill": 6658,
      "hers": 6659,
      "hour": 6660,
      "hone": 6661,
      "hini": 6662,
      "hagi": 6663,
      "hiko_": 6664,
      "iang": 6665,
      "ia_G": 6666,
      "iamond": 6667,
      "jens": 6668,
      "ko": 6669,
      "ka_": 6670,
      "ko_": 6671,
      "lad": 6672,
      "ler_": 6673,
      "larg": 6674,
      "la_H": 6675,
      "logovac": 6676,
      "mp": 6677,
      "min": 6678,
      "mel": 6679,
      "may": 6680,
      "mem": 6681,
      "mour": 6682,
      "nd": 6683,
      "ny": 6684,
      "nin": 6685,
      "narr": 6686,
      "na_": 6687,
      "n_C": 6688,
      "nell": 6689,
      "noir": 6690,
      "nano": 6691,
      "network": 6692,
      "oof": 6693,
      "pict": 6694,
      "por_": 6695,
      "person": 6696,
      "publ": 6697,
      "rd": 6698,
      "ross": 6699,
      "royd": 6700,
      "singing": 6701,
      "se_Mc": 6702,
      "tani": 6703,
      "turn": 6704,
      "tru": 6705,
      "tjens": 6706,
      "u_W": 6707,
      "u_V": 6708,
      "uese": 6709,
      "uhl": 6710,
      "vra": 6711,
      "vill": 6712,
      "vino": 6713,
      "view": 6714,
      "wy": 6715,
      "wal": 6716,
      "wide": 6717,
      "would": 6718,
      "yne": 6719,
      "zy": 6720,
      "zom": 6721,
      "ári": 6722,
      "ávra": 6723,
      "än": 6724,
      "Ōtani": 6725,
      "ō_": 6726,
      "șan": 6727,
      "ar_": 6728,
      "ares": 6729,
      "ar_V": 6730,
      "arja": 6731,
      "arza": 6732,
      "ini_": 6733,
      "ine_F": 6734,
      "ine_G": 6735,
      "international": 6736,
      "star": 6737,
      "stit": 6738,
      "stant": 6739,
      "stock": 6740,
      "anor": 6741,
      "an_P": 6742,
      "an_V": 6743,
      "anya": 6744,
      "an_Dy": 6745,
      "arris": 6746,
      "erd": 6747,
      "ery_": 6748,
      "erry": 6749,
      "errigan": 6750,
      "ilar": 6751,
      "iley": 6752,
      "ilde_": 6753,
      "ilton": 6754,
      "reid": 6755,
      "reiss": 6756,
      "report": 6757,
      "rey_S": 6758,
      "e_Y": 6759,
      "e_Car": 6760,
      "e_El": 6761,
      "e_Le": 6762,
      "e_Autry": 6763,
      "e_Andrews": 6764,
      "e_Eisenberg": 6765,
      "e_Ōtani": 6766,
      "then": 6767,
      "tham": 6768,
      "thorne": 6769,
      "en_H": 6770,
      "en_D": 6771,
      "cted": 6772,
      "alle": 6773,
      "alog": 6774,
      "alton": 6775,
      "ala_Sat": 6776,
      "differ": 6777,
      "dialog": 6778,
      "a_Cam": 6779,
      "a_Ra": 6780,
      "a_Rao": 6781,
      "a_Field": 6782,
      "a_Canutt": 6783,
      "a_Canals": 6784,
      "a_Izzo": 6785,
      "asim": 6786,
      "escort": 6787,
      "rix": 6788,
      "ribe": 6789,
      "rizzi": 6790,
      "rifun": 6791,
      "Caren": 6792,
      "Cargo": 6793,
      "ams": 6794,
      "amy": 6795,
      "amboothiri": 6796,
      "is_Goldb": 6797,
      "isakawa": 6798,
      "ata_": 6799,
      "atic": 6800,
      "atch": 6801,
      "ican": 6802,
      "y_Michael": 6803,
      "y_Irving": 6804,
      "y_Ardant": 6805,
      "elf": 6806,
      "elav": 6807,
      "elaney": 6808,
      "ele_Mara": 6809,
      "ela_Reed": 6810,
      "oms": 6811,
      "omello": 6812,
      "omicki": 6813,
      "themed": 6814,
      "osper": 6815,
      "ol_N": 6816,
      "older": 6817,
      "olberg": 6818,
      "ima_Canutt": 6819,
      "ofer": 6820,
      "_Ser": 6821,
      "_Sand": 6822,
      "_Sel": 6823,
      "_Som": 6824,
      "_Sol": 6825,
      "_Sov": 6826,
      "_Sid": 6827,
      "_Switz": 6828,
      "_Sinha": 6829,
      "_Sasikumar": 6830,
      "_Saraf": 6831,
      "_Scorsese": 6832,
      "_Sarja": 6833,
      "l_Hannah": 6834,
      "ety": 6835,
      "eta_": 6836,
      "etime": 6837,
      "etch": 6838,
      "ley_B": 6839,
      "iros": 6840,
      "ircus": 6841,
      "itri": 6842,
      "itoshi": 6843,
      "urton": 6844,
      "_By": 6845,
      "_Bar": 6846,
      "_Bos": 6847,
      "_Bell": 6848,
      "_Bern": 6849,
      "_Bhar": 6850,
      "_Bark": 6851,
      "_Buck": 6852,
      "_Bretherton": 6853,
      "_Bardem": 6854,
      "adcast": 6855,
      "adja": 6856,
      "adway": 6857,
      "adult": 6858,
      "adagnino": 6859,
      "o_de_": 6860,
      "o_Val": 6861,
      "o_Hin": 6862,
      "o_Hung": 6863,
      "o_Ross": 6864,
      "o_Rodríguez": 6865,
      "o_Asaka": 6866,
      "o_Nero": 6867,
      "o_Celi": 6868,
      "writing": 6869,
      "ayed": 6870,
      "ayya": 6871,
      "aykin": 6872,
      "chore": 6873,
      "chana_": 6874,
      "ovo": 6875,
      "owdh": 6876,
      "nie": 6877,
      "nie_B": 6878,
      "Temp": 6879,
      "illian": 6880,
      "illon_": 6881,
      "illan_": 6882,
      "_Mil": 6883,
      "_Mos": 6884,
      "_May": 6885,
      "_Mund": 6886,
      "_Maz": 6887,
      "_Mune": 6888,
      "_Morgan": 6889,
      "_Menon": 6890,
      "_Menz": 6891,
      "_Murray": 6892,
      "_Moretti": 6893,
      "_Mishra": 6894,
      "_Muñoz": 6895,
      "_Ry": 6896,
      "_Ren": 6897,
      "_Rat": 6898,
      "_Ray": 6899,
      "_Rod": 6900,
      "_Rath": 6901,
      "_Roy": 6902,
      "_Reed": 6903,
      "_Roland": 6904,
      "_Reev": 6905,
      "_Ritter": 6906,
      "_Rosen": 6907,
      "_Romero": 6908,
      "_Resnick": 6909,
      "_Rundaro": 6910,
      "agid": 6911,
      "ague": 6912,
      "ake_": 6913,
      "akish": 6914,
      "akrab": 6915,
      "akrishn": 6916,
      "activ": 6917,
      "Chap": 6918,
      "Chec": 6919,
      "Chandr": 6920,
      "Chomicki": 6921,
      "odor": 6922,
      "_Ha": 6923,
      "_Hunt": 6924,
      "_Hak": 6925,
      "_Hop": 6926,
      "_Hall": 6927,
      "_Haw": 6928,
      "_Hans": 6929,
      "_Hori": 6930,
      "_Hope": 6931,
      "_Hatton": 6932,
      "_Hancock": 6933,
      "_Hampton": 6934,
      "_Haneke": 6935,
      "ido": 6936,
      "former": 6937,
      "_Ash": 6938,
      "_Aravind": 6939,
      "_Atkins": 6940,
      "_Aniston": 6941,
      "João": 6942,
      "_Gi": 6943,
      "_Gl": 6944,
      "_Gray": 6945,
      "_Grey": 6946,
      "_Griffith": 6947,
      "_Gable": 6948,
      "_Gielgud": 6949,
      "_Gozlan": 6950,
      "otest": 6951,
      "igi": 6952,
      "ention": 6953,
      "ently": 6954,
      "_Dun": 6955,
      "_De_S": 6956,
      "_Dutt": 6957,
      "_Denn": 6958,
      "_Dwan": 6959,
      "_Donald": 6960,
      "_De_Fel": 6961,
      "_Diamond": 6962,
      "_Delaney": 6963,
      "_Dillon_": 6964,
      "Prem_Ch": 6965,
      "_Cran": 6966,
      "_Cour": 6967,
      "_Conn": 6968,
      "_Cummings": 6969,
      "_Craig": 6970,
      "aph": 6971,
      "Clure": 6972,
      "toon": 6973,
      "_We": 6974,
      "_West": 6975,
      "_Wall": 6976,
      "_Wood_": 6977,
      "_Warren": 6978,
      "_Wesemael": 6979,
      "_Ford": 6980,
      "_Foran": 6981,
      "_Firth": 6982,
      "_Freeman": 6983,
      "_Fraser": 6984,
      "abell": 6985,
      "abón": 6986,
      "_Pl": 6987,
      "_Pist": 6988,
      "_Penn": 6989,
      "_Piper": 6990,
      "_Ponnamma": 6991,
      "_Pastrone": 6992,
      "_Panama": 6993,
      "_Paskaljević": 6994,
      "Cable": 6995,
      "Maril": 6996,
      "Mary_B": 6997,
      "Mary_St": 6998,
      "uller": 6999,
      "umai": 7000,
      "umiko_": 7001,
      "umi_Ogat": 7002,
      "um_Sov": 7003,
      "i_Leo": 7004,
      "i_Takay": 7005,
      "i_Lovato": 7006,
      "i_Nages": 7007,
      "utive": 7008,
      "iest": 7009,
      "atha": 7010,
      "athak": 7011,
      "rans": 7012,
      "Amb": 7013,
      "Amy_L": 7014,
      "Ampor_": 7015,
      "Amy_Irving": 7016,
      "_Loy": 7017,
      "_Lord": 7018,
      "_Ladd": 7019,
      "_Landers": 7020,
      "_Ledger": 7021,
      "_Ne": 7022,
      "_Nov": 7023,
      "_Nair": 7024,
      "_Nemescu": 7025,
      "iven": 7026,
      "ivasan": 7027,
      "neau": 7028,
      "ney_G": 7029,
      "Anit": 7030,
      "Animation": 7031,
      "Roch": 7032,
      "_Jason": 7033,
      "_Joshi": 7034,
      "ace_Mitchell": 7035,
      "Starrett": 7036,
      "estyle": 7037,
      "ikand": 7038,
      "ikala_Sat": 7039,
      "audi": 7040,
      "aura": 7041,
      "ie_Dickinson": 7042,
      "ie_Hammer": 7043,
      "1941": 7044,
      "Shin": 7045,
      "Shat": 7046,
      "Shiv": 7047,
      "Shah": 7048,
      "_Kar": 7049,
      "_Kok": 7050,
      "_King_": 7051,
      "_Knight": 7052,
      "_Kapoor": 7053,
      "_Krishn": 7054,
      "_Khan_": 7055,
      "_Kodandaram": 7056,
      "_Kohler": 7057,
      "_Kerrigan": 7058,
      "er_O": 7059,
      "er_de_": 7060,
      "allo": 7061,
      "allée": 7062,
      "amauro": 7063,
      "Carmi": 7064,
      "emm": 7065,
      "ema_": 7066,
      "empt": 7067,
      "hnu": 7068,
      "Al_St": 7069,
      "Alan_R": 7070,
      "Alice_": 7071,
      "Alme": 7072,
      "Alda": 7073,
      "Alois": 7074,
      "erick": 7075,
      "1994": 7076,
      "iano": 7077,
      "oreau": 7078,
      "e_Bern": 7079,
      "e_Burton": 7080,
      "prom": 7081,
      "profess": 7082,
      "commer": 7083,
      "John_D": 7084,
      "John_F": 7085,
      "John_St": 7086,
      "John_De": 7087,
      "John_Fran": 7088,
      "John_Farr": 7089,
      "John_Gielgud": 7090,
      "attoli": 7091,
      "Prosen": 7092,
      "Prosper": 7093,
      "awd": 7094,
      "awla": 7095,
      "endall": 7096,
      "Rae": 7097,
      "Ray_L": 7098,
      "Rao_G": 7099,
      "Raoul_": 7100,
      "Insp": 7101,
      "epper": 7102,
      "white": 7103,
      "Elen": 7104,
      "Elwood": 7105,
      "1973": 7106,
      "feel": 7107,
      "ogg": 7108,
      "ogh": 7109,
      "ogram": 7110,
      "earst": 7111,
      "otti": 7112,
      "otte_Burton": 7113,
      "becoming": 7114,
      "sei_": 7115,
      "orty": 7116,
      "_Tr": 7117,
      "_Tor": 7118,
      "_Trifun": 7119,
      "serves": 7120,
      "uke": 7121,
      "uki": 7122,
      "uko_": 7123,
      "ukherjee": 7124,
      "eway": 7125,
      "uguese": 7126,
      "acho": 7127,
      "ashe": 7128,
      "assist": 7129,
      "istic": 7130,
      "anny": 7131,
      "egu": 7132,
      "icke": 7133,
      "rics": 7134,
      "rice_D": 7135,
      "1967": 7136,
      "Carlson": 7137,
      "Carlo_Van": 7138,
      "Carl_Switz": 7139,
      "Carolina": 7140,
      "Arlen": 7141,
      "ible": 7142,
      "a_Mal": 7143,
      "a_Menon": 7144,
      "a_Moreno": 7145,
      "a_Mirza": 7146,
      "Robert_": 7147,
      "Robert_D": 7148,
      "Robertson": 7149,
      "Robert_Bl": 7150,
      "Robert_E": 7151,
      "Robert_Carl": 7152,
      "Robert_Paige": 7153,
      "Edgar": 7154,
      "Eddy_": 7155,
      "Dave": 7156,
      "eena_": 7157,
      "eenbur": 7158,
      "a_Sch": 7159,
      "a_Sard": 7160,
      "a_Srin": 7161,
      "a_Sengupta": 7162,
      "a_Solberg": 7163,
      "ontz": 7164,
      "ontes": 7165,
      "cost": 7166,
      "okan": 7167,
      "okaz": 7168,
      "oko_K": 7169,
      "Georgia_": 7170,
      "e_Musical": 7171,
      "e_Magid": 7172,
      "e_Moreau": 7173,
      "Lee_L": 7174,
      "Lehmann": 7175,
      "Leelav": 7176,
      "rence": 7177,
      "ownsend": 7178,
      "4080": 7179,
      "aldwin": 7180,
      "e_Sekely": 7181,
      "_Shaw": 7182,
      "_Shep": 7183,
      "_Sheen": 7184,
      "_Shizuno": 7185,
      "_Vij": 7186,
      "_Valent": 7187,
      "_Vasilescu": 7188,
      "_Van_Dy": 7189,
      "_Vallée": 7190,
      "ffries": 7191,
      "Jane_W": 7192,
      "Janis_C": 7193,
      "1954": 7194,
      "_Or": 7195,
      "_Orellana": 7196,
      "rimée": 7197,
      "playing": 7198,
      "Michell": 7199,
      "deals": 7200,
      "ethi": 7201,
      "upon": 7202,
      "a_Katta": 7203,
      "a_Koirala": 7204,
      "aza": 7205,
      "azel": 7206,
      "ez_": 7207,
      "e_Fl": 7208,
      "lyrics": 7209,
      "ondo": 7210,
      "Ador": 7211,
      "Adam_": 7212,
      "Adele_Mara": 7213,
      "io_Bardem": 7214,
      "e_La": 7215,
      "e_Ladd": 7216,
      "e_Lester": 7217,
      "a_Bell": 7218,
      "a_Bassett": 7219,
      "Heung": 7220,
      "Seigner": 7221,
      "Sebastian": 7222,
      "Seema_": 7223,
      "William_H": 7224,
      "William_A": 7225,
      "William_Hen": 7226,
      "Michael_Park": 7227,
      "Michael_Haneke": 7228,
      "James_W": 7229,
      "Joshi": 7230,
      "Joselit": 7231,
      "y_Bond": 7232,
      "y_Bell_": 7233,
      "indust": 7234,
      "esh_Bandopadhyay": 7235,
      "es_Eason": 7236,
      "_Love_H": 7237,
      "David_B": 7238,
      "David_J": 7239,
      "David_T": 7240,
      "David_Br": 7241,
      "yanarayana": 7242,
      "e_Hel": 7243,
      "e_Hack": 7244,
      "e_Havoc": 7245,
      "Jackie": 7246,
      "illerm": 7247,
      "ariw": 7248,
      "ariety": 7249,
      "Richard_B": 7250,
      "Richard_N": 7251,
      "Richard_Sal": 7252,
      "Bruno": 7253,
      "Brinke_": 7254,
      "ocane": 7255,
      "occur": 7256,
      "Frank_Whal": 7257,
      "Christmas": 7258,
      "Dia_Mirza": 7259,
      "Jean_R": 7260,
      "Gerard": 7261,
      "German": 7262,
      "Gertru": 7263,
      "Madel": 7264,
      "_Cheung": 7265,
      "orne_": 7266,
      "_Dein": 7267,
      "Harry_B": 7268,
      "Harry_R": 7269,
      "Peter_O": 7270,
      "offic": 7271,
      "Mural": 7272,
      "ana_Nog": 7273,
      "inoche": 7274,
      "Harve": 7275,
      "Harvey": 7276,
      "on_I": 7277,
      "aleh": 7278,
      "Anne_": 7279,
      "Anne_B": 7280,
      "Ann_Miller": 7281,
      "Anna_Mazz": 7282,
      "Manj": 7283,
      "a_Hol": 7284,
      "a_Hisakawa": 7285,
      "Raju": 7286,
      "aradis": 7287,
      "Eric_L": 7288,
      "Siddi": 7289,
      "Sidne": 7290,
      "Sidney_": 7291,
      "_McC": 7292,
      "_McLaglen": 7293,
      "_McDonagh": 7294,
      "_McDowell": 7295,
      "Paris": 7296,
      "Ramon": 7297,
      "ossi": 7298,
      "ossom": 7299,
      "Moon": 7300,
      "Moore": 7301,
      "Edwards_": 7302,
      "Edward_H": 7303,
      "Edward_L": 7304,
      "Edward_Gran": 7305,
      "Edward_Bern": 7306,
      "Julia_": 7307,
      "King_": 7308,
      "a_Gombell": 7309,
      "a_Glogovac": 7310,
      "y_Sal": 7311,
      "y_Sch": 7312,
      "y_Sukumar": 7313,
      "_Wilson": 7314,
      "_Wilcox": 7315,
      "Joan_L": 7316,
      "Blood": 7317,
      "Blossom": 7318,
      "Noel_M": 7319,
      "Quaid": 7320,
      "_Abu_S": 7321,
      "_Abbasi": 7322,
      "_Goldhaber": 7323,
      "Steve_B": 7324,
      "Steve_Sekely": 7325,
      "Martin_R": 7326,
      "Martin_Scorsese": 7327,
      "Martin_Sheen": 7328,
      "Kidman": 7329,
      "conne": 7330,
      "consid": 7331,
      "concern": 7332,
      "Maria_Canals": 7333,
      "Beck": 7334,
      "Unni": 7335,
      "Whal": 7336,
      "ecutive": 7337,
      "exp": 7338,
      "executive": 7339,
      "erry_": 7340,
      "e_Gaggero": 7341,
      "a_Nadda": 7342,
      "a_Namboothiri": 7343,
      "a_Rod": 7344,
      "a_Ryan": 7345,
      "a_Rose": 7346,
      "a_Rossi": 7347,
      "ittle": 7348,
      "Isabell": 7349,
      "arna_Sengupta": 7350,
      "anya_": 7351,
      "e_Dun": 7352,
      "y_Dale": 7353,
      "Tomokaz": 7354,
      "inning": 7355,
      "innelli": 7356,
      "Paul_Cox": 7357,
      "Paul_Tana": 7358,
      "regard": 7359,
      "a_del": 7360,
      "s_Coffin": 7361,
      "_Brun": 7362,
      "_Brass": 7363,
      "_Brown": 7364,
      "_Furuya": 7365,
      "Donald_H": 7366,
      "Donald_Brit": 7367,
      "22_Hayes": 7368,
      "22Gabby": 7369,
      "Fred_Kohler": 7370,
      "Dev_An": 7371,
      "Devaraj": 7372,
      "Deva_Katta": 7373,
      "techn": 7374,
      "e_Wilton": 7375,
      "Cameo": 7376,
      "Geraldine_F": 7377,
      "Daniels": 7378,
      "Daniele_D": 7379,
      "Daniel_Goldhaber": 7380,
      "Alec": 7381,
      "Aleks": 7382,
      "Barry_": 7383,
      "Herman": 7384,
      "Yukitoshi": 7385,
      "Yukana_Nog": 7386,
      "anski": 7387,
      "ravis": 7388,
      "Aki_K": 7389,
      "Sam_B": 7390,
      "Sam_New": 7391,
      "Helena_Solberg": 7392,
      "Jung_Sung": 7393,
      "McQueen": 7394,
      "Megumi_Ogat": 7395,
      "teenage": 7396,
      "_Williams_": 7397,
      "rispin": 7398,
      "Marc_Vallée": 7399,
      "secret": 7400,
      "Giacom": 7401,
      "Ritesh": 7402,
      "Rita_Moreno": 7403,
      "a_Douglas": 7404,
      "a_Perlman": 7405,
      "_Rogers": 7406,
      "_Jones": 7407,
      "Harold_S": 7408,
      "Brian_De_": 7409,
      "Brian_Doyle": 7410,
      "acek": 7411,
      "_Ball_": 7412,
      "_Anderson": 7413,
      "_Anmol": 7414,
      "Joe_Estevez": 7415,
      "Joe_Jonas": 7416,
      "Stanwy": 7417,
      "Stanley_B": 7418,
      "Joseph_C": 7419,
      "7140": 7420,
      "Bob_Hope": 7421,
      "Howard_Bretherton": 7422,
      "Reiner": 7423,
      "Reilly": 7424,
      "oyd_": 7425,
      "Mike_": 7426,
      "Mike_Magid": 7427,
      "Rosa_": 7428,
      "i_Mart": 7429,
      "_Rajkumar": 7430,
      "Bhasi": 7431,
      "Bhatti": 7432,
      "Cory_Michael": 7433,
      "Christian_Martin": 7434,
      "Christian_De_S": 7435,
      "Jonathan_Dem": 7436,
      "Terrenc": 7437,
      "_Bhatti": 7438,
      "_Bhandarkar": 7439,
      "o_Faria": 7440,
      "_Wilde": 7441,
      "_Lee_": 7442,
      "_Leigh": 7443,
      "voice_actress": 7444,
      "Alexis": 7445,
      "Jennifer_Aniston": 7446,
      "Jennifer_Love_H": 7447,
      "Dick_Foran": 7448,
      "spoof": 7449,
      "included": 7450,
      "Lew_Landers": 7451,
      "Waters": 7452,
      "kins_": 7453,
      "am_Bajwa": 7454,
      "_Robert": 7455,
      "_Rocha": 7456,
      "Angie_Dickinson": 7457,
      "George_Sherman": 7458,
      "Philip_Ford": 7459,
      "_Doctorz": 7460,
      "Victor_McLaglen": 7461,
      "Franco_Nero": 7462,
      "Madhu_": 7463,
      "Louise_Lester": 7464,
      "Imog": 7465,
      "Jesse": 7466,
      "Jessic": 7467,
      "Jesse_Eisenberg": 7468,
      "Reddy": 7469,
      "Ricky_": 7470,
      "Claudi": 7471,
      "ontaine": 7472,
      "performer": 7473,
      "performed": 7474,
      "Balachandran": 7475,
      "Ian_Mune": 7476,
      "Repp": 7477,
      "ru_Furuya": 7478,
      "Allan_Dwan": 7479,
      "Abel": 7480,
      "Grac": 7481,
      "Kate_": 7482,
      "Price": 7483,
      "u_Seki": 7484,
      "rights": 7485,
      "y_Hart": 7486,
      "orent": 7487,
      "Norman_Panama": 7488,
      "Raymond_Hatton": 7489,
      "Raymond_De_Fel": 7490,
      "Susan_": 7491,
      "Simona_Izzo": 7492,
      "María_": 7493,
      "Janet_G": 7494,
      "Adams": 7495,
      "Adams_": 7496,
      "Adam_Resnick": 7497,
      "Walter_Lang": 7498,
      "Pierre_Am": 7499,
      "Gene_Autry": 7500,
      "Henr": 7501,
      "Henry_": 7502,
      "Henreid": 7503,
      "Ravichandran": 7504,
      "Sergej": 7505,
      "y_Chase": 7506,
      "y_Chan_": 7507,
      "y_Chaykin": 7508,
      "Casablanca": 7509,
      "_Desai": 7510,
      "comedians": 7511,
      "Armie_Hammer": 7512,
      "Chris_Elliott": 7513,
      "Bhargava": 7514,
      "Gregory": 7515,
      "Gordon_Douglas_": 7516,
      "Hayes": 7517,
      "Mauric": 7518,
      "Owen": 7519,
      "Owen_": 7520,
      "Polish": 7521,
      "Sakura_": 7522,
      "Clarkson": 7523,
      "Clark_Gable": 7524,
      "Patrici": 7525,
      "Angela_Douglas": 7526,
      "3960": 7527,
      "Betty_B": 7528,
      "Betty_G": 7529,
      "Darla_H": 7530,
      "Vivek": 7531,
      "Vivien": 7532,
      "jit_Chatterjee": 7533,
      "nold_": 7534,
      "o_Brig": 7535,
      "o_Brizzi": 7536,
      "strug": 7537,
      "strong": 7538,
      "theatres": 7539,
      "raj_Hans": 7540,
      "_Beatty": 7541,
      "owery_": 7542,
      "_MacDonald": 7543,
      "_Martine": 7544,
      "_Corman": 7545,
      "Anthony_": 7546,
      "Bruce_B": 7547,
      "Jeffrey": 7548,
      "Noah_Be": 7549,
      "Reginald_Denham": 7550,
      "Reginaldo_Faria": 7551,
      "Elizabeth_Banks": 7552,
      "4500": 7553,
      "Del_Lord": 7554,
      "Ethan": 7555,
      "Ethel_W": 7556,
      "Junko_": 7557,
      "June_Havoc": 7558,
      "Keith": 7559,
      "Lamar": 7560,
      "Lynch": 7561,
      "Monte_C": 7562,
      "brother": 7563,
      "brothers": 7564,
      "broadcast": 7565,
      "fourth": 7566,
      "idden": 7567,
      "Roger_Corman": 7568,
      "Robin_Williams": 7569,
      "Sunil_Kumar": 7570,
      "Buhagi": 7571,
      "Bill_Owen_": 7572,
      "Gilles": 7573,
      "Hugo": 7574,
      "Kaikala_Sat": 7575,
      "Nancy": 7576,
      "Nancy_": 7577,
      "Smiley": 7578,
      "Willis_Goldb": 7579,
      "i_Reddy": 7580,
      "marks": 7581,
      "anthology": 7582,
      "asana_Singh": 7583,
      "_Salvador": 7584,
      "o_Gómez": 7585,
      "_Reiser": 7586,
      "_Arm": 7587,
      "_Arnold_": 7588,
      "Roger_": 7589,
      "Carlos_Orellana": 7590,
      "a_Mohan_": 7591,
      "George_Marshall_": 7592,
      "George_McFar": 7593,
      "Leigh_Jason": 7594,
      "Mohan_Babu": 7595,
      "Jimmy_": 7596,
      "Virginia_B": 7597,
      "Hannah_H": 7598,
      "English_": 7599,
      "Aya_Hisakawa": 7600,
      "Holly_Dale": 7601,
      "Jaim": 7602,
      "Kelly_": 7603,
      "Laura_": 7604,
      "Lloyd_Bacon": 7605,
      "Milburn": 7606,
      "Portuguese": 7607,
      "Weber_": 7608,
      "Woody_Allen": 7609,
      "subject": 7610,
      "Sheila_Ryan": 7611,
      "Gilbert_Roland": 7612,
      "Berlin": 7613,
      "Hema_Ch": 7614,
      "Kent_Osb": 7615,
      "Merc": 7616,
      "Nick_Jonas": 7617,
      "Pedro": 7618,
      "Sonam_Bajwa": 7619,
      "Seton_I": 7620,
      "_Carrol_N": 7621,
      "llman": 7622,
      "school": 7623,
      "takes": 7624,
      "en_Wilhoite": 7625,
      "a_Comello": 7626,
      "_Stoner": 7627,
      "agnani": 7628,
      "Chandler": 7629,
      "Johnny_M": 7630,
      "John_Michael": 7631,
      "1970s": 7632,
      "James_Ellis": 7633,
      "James_Edward_Gran": 7634,
      "Rajesh_Khanna": 7635,
      "Jacob_Cheung": 7636,
      "Juan_Anton": 7637,
      "Benny_Chan_": 7638,
      "Fernando_D": 7639,
      "Hammond": 7640,
      "Judd_Nelson": 7641,
      "Nia_Din": 7642,
      "Pooj": 7643,
      "Ruba_Nadda": 7644,
      "Talmad": 7645,
      "Uddin": 7646,
      "similar": 7647,
      "tradition": 7648,
      "represent": 7649,
      "Charlie_": 7650,
      "Charlotte_Burton": 7651,
      "Enrico_Brig": 7652,
      "Max_T": 7653,
      "Afric": 7654,
      "Basil_Mason": 7655,
      "Demi_Lovato": 7656,
      "Gary_H": 7657,
      "Hilar": 7658,
      "Lisa": 7659,
      "Linda_Bassett": 7660,
      "Lenny_Van": 7661,
      "Loretta": 7662,
      "Monic": 7663,
      "co_Zalone": 7664,
      "compet": 7665,
      "himself": 7666,
      "sister": 7667,
      "owski": 7668,
      "_Heymann": 7669,
      "_Goldberg": 7670,
      "_Walsh": 7671,
      "_Pollard": 7672,
      "Margaret": 7673,
      "a_Barrie": 7674,
      "Harry_A": 7675,
      "Julie_L": 7676,
      "Ashok_Saraf": 7677,
      "grossing": 7678,
      "Nanni_Moretti": 7679,
      "Nanni_Loy": 7680,
      "Leslie": 7681,
      "Mrinal_Dev": 7682,
      "Ramesh_Aravind": 7683,
      "Dylan": 7684,
      "Diego_": 7685,
      "Diane_Ladd": 7686,
      "Hughes": 7687,
      "Irene": 7688,
      "Jamie": 7689,
      "Jamie_": 7690,
      "Jorge_Gaggero": 7691,
      "Katherine_": 7692,
      "Raghu": 7693,
      "Torres": 7694,
      "Upasana_Singh": 7695,
      "opal_Rao": 7696,
      "Shepherd": 7697,
      "Alyson_Stoner": 7698,
      "commun": 7699,
      "Argentine": 7700,
      "Connor_": 7701,
      "Steven_W": 7702,
      "Asim_Abbasi": 7703,
      "Evelyne_B": 7704,
      "collection": 7705,
      "college": 7706,
      "Shankar_Nag": 7707,
      "Stephan_Bren": 7708,
      "Avani_M": 7709,
      "Broadway": 7710,
      "Buckley": 7711,
      "Court": 7712,
      "Drag": 7713,
      "Eugene_Gordon": 7714,
      "Forrest": 7715,
      "Grayson": 7716,
      "House": 7717,
      "Liz_Fraser": 7718,
      "Matheson": 7719,
      "Mathilde_": 7720,
      "Mukesh_": 7721,
      "Sandra_": 7722,
      "Vijay": 7723,
      "Yakima_Canutt": 7724,
      "idibe": 7725,
      "_Space": 7726,
      "urbin": 7727,
      "_Bergman": 7728,
      "Chevy_Chase": 7729,
      "_Admani": 7730,
      "_David": 7731,
      "_Patrick": 7732,
      "Amanda_Barrie": 7733,
      "_Lynn": 7734,
      "Anupam": 7735,
      "Sharon_Stone": 7736,
      "Alice_F": 7737,
      "uki_Neg": 7738,
      "Geoffre": 7739,
      "Geoffrey": 7740,
      "Debraj": 7741,
      "uppertz": 7742,
      "a_Bhatt": 7743,
      "Jacki_Piper": 7744,
      "Frankie_Chan": 7745,
      "Takayuki_Neg": 7746,
      "Andy_Lau": 7747,
      "Malayalam_actor": 7748,
      "Malayalam_actress": 7749,
      "Marco_Weber_": 7750,
      "Francesco_": 7751,
      "Randolph_Scott": 7752,
      "Patricia_Clarkson": 7753,
      "involved": 7754,
      "Cristian_Nemescu": 7755,
      "Kathleen_Wilhoite": 7756,
      "developed": 7757,
      "Penelope_Wilton": 7758,
      "Malcolm_McDowell": 7759,
      "Akkineni": 7760,
      "Akkineni_Nages": 7761,
      "2700": 7762,
      "Cesar_Romero": 7763,
      "Dale_": 7764,
      "Earl": 7765,
      "Kamal": 7766,
      "Lawrenc": 7767,
      "Pamela_Reed": 7768,
      "Ranbir": 7769,
      "Rudolph": 7770,
      "Seth_Green": 7771,
      "Tris_Coffin": 7772,
      "Tange": 7773,
      "highest": 7774,
      "named": 7775,
      "stein": 7776,
      "ivasa_Rao": 7777,
      "Alonzo": 7778,
      "Arjun_Sarja": 7779,
      "worldwide": 7780,
      "Mohammad": 7781,
      "Jaspal_Bhatti": 7782,
      "Sudhir_Mishra": 7783,
      "theatrical": 7784,
      "Whoopi_Goldberg": 7785,
      "7800": 7786,
      "Coldeway": 7787,
      "Erik_": 7788,
      "Fausto_Brizzi": 7789,
      "Ginger_Rogers": 7790,
      "Kashan_Admani": 7791,
      "Motoko_K": 7792,
      "Maury_Chaykin": 7793,
      "Minna_Gombell": 7794,
      "Nino_Manfredi": 7795,
      "Nana_Patekar": 7796,
      "Nagarjun": 7797,
      "Releasing": 7798,
      "Special": 7799,
      "Werner_R": 7800,
      "Zoë": 7801,
      "_Ullman": 7802,
      "gomery": 7803,
      "hardt": 7804,
      "i_Sethi": 7805,
      "k_Udapurkar": 7806,
      "month": 7807,
      "mission": 7808,
      "aro_Nunziante": 7809,
      "alternative": 7810,
      "a_Deol": 7811,
      "olff_": 7812,
      "_Basu": 7813,
      "_Brothers": 7814,
      "_Bucquet": 7815,
      "Tep_Rundaro": 7816,
      "_Mulroney": 7817,
      "Chicago": 7818,
      "_Cook_": 7819,
      "Clifton": 7820,
      "_Pilika": 7821,
      "_Payne_": 7822,
      "Anita_Ekberg": 7823,
      "_Jeffries": 7824,
      "Shilpa_": 7825,
      "Shashank_Udapurkar": 7826,
      "John_English_": 7827,
      "John_Carradine": 7828,
      "Ray_Milland": 7829,
      "_Taylor": 7830,
      "Arno_Hin": 7831,
      "Robert_Lowery_": 7832,
      "George_Sanders": 7833,
      "Adolfo_Celi": 7834,
      "Heath_Ledger": 7835,
      "William_Boyd_": 7836,
      "Jose_Prakash": 7837,
      "Jackie_Shroff": 7838,
      "_Chandrakumar": 7839,
      "Anna_Kendrick": 7840,
      "Manisha_Koirala": 7841,
      "Mario_Mattoli": 7842,
      "Tommy_Bond": 7843,
      "Laurence_H": 7844,
      "Barbara_Bouchet": 7845,
      "Bernard_Cribbins": 7846,
      "Meaghan_Martin": 7847,
      "Giorgos_V": 7848,
      "Rituparna_Sengupta": 7849,
      "Nebojša_Glogovac": 7850,
      "Ashley_Judd": 7851,
      "Teresa_": 7852,
      "Claude_Rains": 7853,
      "Lakshmi_": 7854,
      "Deron_Miller": 7855,
      "Randy_Newman": 7856,
      "Felissa_Rose": 7857,
      "Gregory_": 7858,
      "Salah_Abu_S": 7859,
      "Sreelatha_Namboothiri": 7860,
      "Jimmy_Lydon": 7861,
      "explores": 7862,
      "Edmund_Crispin": 7863,
      "Kaviyoor_Ponnamma": 7864,
      "Loretta_Young": 7865,
      "_Graffin": 7866,
      "Ingrid_Bergman": 7867,
      "Parvathy_Jayaram": 7868,
      "Jeremy_": 7869,
      "Kristen_Stewart": 7870,
      "Ashleigh_Ball_": 7871,
      "Karamjit_Anmol": 7872,
      "Kobun_Shizuno": 7873,
      "Pisith_Pilika": 7874,
      "Thikkurissy_Sukumar": 7875,
      "Actress": 7876,
      "Bosni": 7877,
      "Blue": 7878,
      "Daryl_Hannah": 7879,
      "Esha_Deol": 7880,
      "Fabrice_D": 7881,
      "Fanny_Ardant": 7882,
      "Gennaro_Nunziante": 7883,
      "Goran_Paskaljević": 7884,
      "Jyotii_Sethi": 7885,
      "Kibrick": 7886,
      "Original": 7887,
      "Rhea_Perlman": 7888,
      "Sollace_Mitchell": 7889,
      "Tinto_Brass": 7890,
      "Tachiki": 7891,
      "Viol": 7892,
      "Warner": 7893,
      "Yann_Gozlan": 7894,
      "euil": 7895,
      "figure": 7896,
      "members": 7897,
      "positive": 7898,
      "zvan_Vasilescu": 7899,
      "ovica_Comello": 7900,
      "Cheryl_": 7901,
      "respons": 7902,
      "Sharif": 7903,
      "soundtrack": 7904,
      "Patsy_R": 7905,
      "psychological": 7906,
      "Giusepp": 7907,
      "Melvin_Frank": 7908,
      "Madhur_Bhandarkar": 7909,
      "Nicolás_": 7910,
      "Glauber_Rocha": 7911,
      "Bertrand_Blier": 7912,
      "Giovanni_Pastrone": 7913,
      "Dermot_Mulroney": 7914,
      "collaboration": 7915,
      "cinematography": 7916,
      "Himansu_Rai": 7917,
      "described": 7918,
      "Captain_Raju": 7919,
      "Benoît_Graffin": 7920,
      "3420": 7921,
      "Ajitesh_Bandopadhyay": 7922,
      "Ahmed_Maz": 7923,
      "Banglad": 7924,
      "Cuypers": 7925,
      "Dwarakish": 7926,
      "Fumihiko_": 7927,
      "Gosho": 7928,
      "Goldberg": 7929,
      "Hurst": 7930,
      "Humph": 7931,
      "Hackett": 7932,
      "Iwao": 7933,
      "Ikue_Ōtani": 7934,
      "Jon_Else": 7935,
      "Kota_Srin": 7936,
      "Kandyse_Mc": 7937,
      "Lon_Ch": 7938,
      "Lodovica_Comello": 7939,
      "Lu_Xuechang": 7940,
      "Lindsay_": 7941,
      "Mérimée": 7942,
      "Mexican": 7943,
      "Morio_Asaka": 7944,
      "Mazzei": 7945,
      "Minami_Takay": 7946,
      "Nathal": 7947,
      "Otakar_V": 7948,
      "Pioneers": 7949,
      "Răzvan_Vasilescu": 7950,
      "Rana_Ranbir": 7951,
      "Sentai": 7952,
      "Seymour": 7953,
      "Sreenivasan": 7954,
      "Sammo_Hung": 7955,
      "Sullivan": 7956,
      "Sukhe_Musical": 7957,
      "Tōru_Furuya": 7958,
      "Vicent": 7959,
      "Vichy": 7960,
      "Vikram": 7961,
      "Written": 7962,
      "_Emmet_Walsh": 7963,
      "business": 7964,
      "cis_Dillon_": 7965,
      "cording": 7966,
      "depict": 7967,
      "dubbed": 7968,
      "handled": 7969,
      "picture": 7970,
      "personal": 7971,
      "published": 7972,
      "u_Welz": 7973,
      "different": 7974,
      "_Siddi": 7975,
      "_Bhargava": 7976,
      "owdhury": 7977,
      "Temple": 7978,
      "_Rodríguez": 7979,
      "_Reeves_Eason": 7980,
      "akraborty": 7981,
      "akrishna_": 7982,
      "Chaplin": 7983,
      "Checco_Zalone": 7984,
      "Chandra_Mohan_": 7985,
      "Prem_Chopra": 7986,
      "_Court": 7987,
      "_Connelly": 7988,
      "_Warren_Kerrigan": 7989,
      "Mary_Steenbur": 7990,
      "Amy_Locane": 7991,
      "Ampor_Tevi": 7992,
      "_Kodandarami_Reddy": 7993,
      "Almeida": 7994,
      "Alois_Reiser": 7995,
      "John_Debney": 7996,
      "John_Francis_Dillon_": 7997,
      "John_Farrow": 7998,
      "Ray_Liotta": 7999,
      "Rao_Gopal_Rao": 8000,
      "Inspired": 8001,
      "Elwood_Ullman": 8002,
      "_Trifunović": 8003,
      "assistant": 8004,
      "Carlo_Vanzina": 8005,
      "Carl_Switzer": 8006,
      "Robert_Blake_": 8007,
      "Robert_Carlyle": 8008,
      "Eddy_Waller": 8009,
      "_Vijaya": 8010,
      "_Van_Dyke": 8011,
      "Janis_Cole": 8012,
      "William_Henry_": 8013,
      "Michael_Parks": 8014,
      "Joselito_Rodríguez": 8015,
      "Richard_Sale_": 8016,
      "Brinke_Stevens": 8017,
      "Frank_Whaley": 8018,
      "Gertrude_": 8019,
      "Harry_Ruskin": 8020,
      "Anna_Mazzamauro": 8021,
      "Sidney_Kibrick": 8022,
      "Edward_Bernds": 8023,
      "considered": 8024,
      "Tomokazu_Seki": 8025,
      "Paul_Cox_": 8026,
      "Donald_Brittain": 8027,
      "Dev_Anand": 8028,
      "Aleksandr": 8029,
      "Yukitoshi_Hori": 8030,
      "Yukana_Nogami": 8031,
      "Aki_Kaurismäki": 8032,
      "Sam_Newfield": 8033,
      "Megumi_Ogata": 8034,
      "Brian_De_Palma": 8035,
      "Stanwyck": 8036,
      "Mike_Magidson": 8037,
      "Cory_Michael_Smith": 8038,
      "Christian_Martin_": 8039,
      "Christian_De_Sica": 8040,
      "Jonathan_Demme": 8041,
      "Jennifer_Love_Hewitt": 8042,
      "Philip_Ford_": 8043,
      "Raymond_De_Felitta": 8044,
      "Pierre_Améris": 8045,
      "Sergej_Trifunović": 8046,
      "Sakura_Tange": 8047,
      "Darla_Hood": 8048,
      "Ethel_Waters": 8049,
      "Junko_Iwao": 8050,
      "Monte_Collins": 8051,
      "Sunil_Kumar_Desai": 8052,
      "Buhagiar": 8053,
      "Kaikala_Satyanarayana": 8054,
      "Willis_Goldbeck": 8055,
      "George_McFarland": 8056,
      "Hema_Choudhary": 8057,
      "Kent_Osborne_": 8058,
      "_Carrol_Naish": 8059,
      "John_Michael_McDonagh": 8060,
      "James_Ellison_": 8061,
      "James_Edward_Grant": 8062,
      "Juan_Antonio_Bardem": 8063,
      "Fernando_Di_Leo": 8064,
      "Nia_Dinata": 8065,
      "Pooja_Bhatt": 8066,
      "Talmadge": 8067,
      "Enrico_Brignano": 8068,
      "Lenny_Van_Wesemael": 8069,
      "Stephan_Brenninkmeijer": 8070,
      "Avani_Modi": 8071,
      "Eugene_Gordon_Lee": 8072,
      "Mathilde_Seigner": 8073,
      "Takayuki_Negishi": 8074,
      "Akkineni_Nageswara_Rao": 8075,
      "Motoko_Kumai": 8076,
      "Arno_Hintjens": 8077,
      "Salah_Abu_Seif": 8078,
      "Thikkurissy_Sukumaran_Nair": 8079,
      "Fabrice_Du_Welz": 8080,
      "Ahmed_Mazhar": 8081,
      "Bangladesh": 8082,
      "Fumihiko_Tachiki": 8083,
      "Kota_Srinivasa_Rao": 8084,
      "Kandyse_McClure": 8085,
      "Minami_Takayama": 8086,
      "Otakar_Vávra": 8087,
      "Sukhe_Musical_Doctorz": 8088,
      "Mary_Steenburgen": 8089,
      "68": 8090,
      "82": 8091,
      "84": 8092,
      "85": 8093,
      "Ap": 8094,
      "Aam": 8095,
      "Aur": 8096,
      "Ach": 8097,
      "Aub": 8098,
      "Akan": 8099,
      "Abr": 8100,
      "Arab": 8101,
      "Adit": 8102,
      "Aulin": 8103,
      "Bin": 8104,
      "Bre": 8105,
      "Bol": 8106,
      "Borg": 8107,
      "Bapp": 8108,
      "Bud": 8109,
      "Baz": 8110,
      "Bip": 8111,
      "Bacon": 8112,
      "Banks": 8113,
      "Burt": 8114,
      "Bets": 8115,
      "Bucqu": 8116,
      "Biju": 8117,
      "Cott": 8118,
      "Cuk": 8119,
      "Cup": 8120,
      "Cosm": 8121,
      "Comes": 8122,
      "Crabbe": 8123,
      "Craig": 8124,
      "Civil": 8125,
      "Ding": 8126,
      "Dun": 8127,
      "Dur": 8128,
      "Dars": 8129,
      "Dut": 8130,
      "Dast": 8131,
      "Dhar": 8132,
      "Dyan": 8133,
      "Dari": 8134,
      "Dile": 8135,
      "Dool": 8136,
      "Dacre": 8137,
      "Doyle": 8138,
      "Denton": 8139,
      "Dily": 8140,
      "Dove": 8141,
      "Edi": 8142,
      "Eat": 8143,
      "Ech": 8144,
      "Ess": 8145,
      "Eelyn": 8146,
      "FC": 8147,
      "Fj": 8148,
      "Fen": 8149,
      "Fat": 8150,
      "Fun": 8151,
      "Fung": 8152,
      "First": 8153,
      "Fury": 8154,
      "Feat": 8155,
      "Flynn": 8156,
      "Fritz": 8157,
      "Gin": 8158,
      "Gan": 8159,
      "Gas": 8160,
      "Gov": 8161,
      "Gow": 8162,
      "God": 8163,
      "Gul": 8164,
      "Gum": 8165,
      "Gop": 8166,
      "Gem": 8167,
      "Giri": 8168,
      "Gast": 8169,
      "Gael": 8170,
      "Goff": 8171,
      "Garn": 8172,
      "Gates": 8173,
      "Gén": 8174,
      "Gaut": 8175,
      "Grand": 8176,
      "Grewal": 8177,
      "Glynn": 8178,
      "Giann": 8179,
      "Gossett": 8180,
      "Griffin": 8181,
      "How": 8182,
      "Hav": 8183,
      "Hild": 8184,
      "Home": 8185,
      "Hollow": 8186,
      "Hoot": 8187,
      "Hyd": 8188,
      "Hower": 8189,
      "Huff": 8190,
      "Hillyer": 8191,
      "Hewitt": 8192,
      "Hams": 8193,
      "Hazel": 8194,
      "Ib": 8195,
      "Ip": 8196,
      "Ion": 8197,
      "Ips": 8198,
      "Irish": 8199,
      "Jad": 8200,
      "Jain": 8201,
      "Just": 8202,
      "Jarv": 8203,
      "Jared": 8204,
      "Jiju": 8205,
      "Javier": 8206,
      "Jillian": 8207,
      "Kl": 8208,
      "Kin": 8209,
      "Kil": 8210,
      "Kas": 8211,
      "Kang": 8212,
      "Kud": 8213,
      "Kate": 8214,
      "Kast": 8215,
      "Kier": 8216,
      "Kaz": 8217,
      "Kiss": 8218,
      "Karth": 8219,
      "Kitt": 8220,
      "Kors": 8221,
      "Kota": 8222,
      "Krishn": 8223,
      "Lá": 8224,
      "Los": 8225,
      "Low": 8226,
      "Lok": 8227,
      "Laz": 8228,
      "Lond": 8229,
      "Lorn": 8230,
      "Ludi": 8231,
      "Lino": 8232,
      "Loren": 8233,
      "Liu": 8234,
      "Landers": 8235,
      "Laye": 8236,
      "Leven": 8237,
      "Laria": 8238,
      "MJ": 8239,
      "Mu": 8240,
      "Men": 8241,
      "Mos": 8242,
      "Mir": 8243,
      "Mum": 8244,
      "Mith": 8245,
      "Mack": 8246,
      "Mish": 8247,
      "Mort": 8248,
      "Must": 8249,
      "Mild": 8250,
      "Most": 8251,
      "Mund": 8252,
      "Miss": 8253,
      "Mani": 8254,
      "Muri": 8255,
      "Magg": 8256,
      "Ng": 8257,
      "Nis": 8258,
      "Nur": 8259,
      "Nus": 8260,
      "Nap": 8261,
      "Nob": 8262,
      "Niel": 8263,
      "Nere": 8264,
      "Nagu": 8265,
      "Of": 8266,
      "Os": 8267,
      "Ou": 8268,
      "Oth": 8269,
      "Oops": 8270,
      "PJ": 8271,
      "Pe": 8272,
      "Pes": 8273,
      "Pend": 8274,
      "Pist": 8275,
      "Peg": 8276,
      "Pank": 8277,
      "Push": 8278,
      "Piet": 8279,
      "Patti": 8280,
      "Peng": 8281,
      "Pacific": 8282,
      "Patton": 8283,
      "Pascal": 8284,
      "Ri": 8285,
      "Rad": 8286,
      "Rut": 8287,
      "Rau": 8288,
      "Rug": 8289,
      "Ria": 8290,
      "Ranj": 8291,
      "Radh": 8292,
      "Romero": 8293,
      "Resnick": 8294,
      "Ringo": 8295,
      "SD": 8296,
      "So": 8297,
      "San": 8298,
      "Sing": 8299,
      "Sof": 8300,
      "Sul": 8301,
      "Sop": 8302,
      "Sant": 8303,
      "Sug": 8304,
      "Sure": 8305,
      "Sib": 8306,
      "Siss": 8307,
      "Syn": 8308,
      "Sale": 8309,
      "Societ": 8310,
      "Sree": 8311,
      "Suj": 8312,
      "Sunflow": 8313,
      "Screaming": 8314,
      "Suth": 8315,
      "Sammo": 8316,
      "Sanam": 8317,
      "Safari": 8318,
      "Santh": 8319,
      "Summer": 8320,
      "Sekhar": 8321,
      "Slim": 8322,
      "Satha": 8323,
      "Tin": 8324,
      "Tun": 8325,
      "Tol": 8326,
      "Tot": 8327,
      "Tig": 8328,
      "Tich": 8329,
      "Toy": 8330,
      "Toth": 8331,
      "Tade": 8332,
      "Target": 8333,
      "Tagl": 8334,
      "Tosh": 8335,
      "Tanner": 8336,
      "Tôni": 8337,
      "Ut": 8338,
      "Vid": 8339,
      "Vig": 8340,
      "Vith": 8341,
      "Vald": 8342,
      "Wun": 8343,
      "Wini": 8344,
      "Wadd": 8345,
      "Weld": 8346,
      "Yut": 8347,
      "Yves": 8348,
      "Za": 8349,
      "Zh": 8350,
      "Zim": 8351,
      "Zhal": 8352,
      "Zeal": 8353,
      "Zayed": 8354,
      "aq": 8355,
      "aik": 8356,
      "ban": 8357,
      "bon": 8358,
      "bot": 8359,
      "big": 8360,
      "bett": 8361,
      "bog": 8362,
      "bach": 8363,
      "bry": 8364,
      "baj": 8365,
      "bitt": 8366,
      "banks": 8367,
      "cz": 8368,
      "ces": 8369,
      "cert": 8370,
      "century": 8371,
      "cione": 8372,
      "cía": 8373,
      "circus": 8374,
      "do": 8375,
      "du": 8376,
      "don": 8377,
      "dri": 8378,
      "det": 8379,
      "due": 8380,
      "detective": 8381,
      "despite": 8382,
      "efield": 8383,
      "eidt": 8384,
      "fi": 8385,
      "fel": 8386,
      "fav": 8387,
      "fou": 8388,
      "fman": 8389,
      "ffe": 8390,
      "font": 8391,
      "fare": 8392,
      "find": 8393,
      "fail": 8394,
      "frid": 8395,
      "fice": 8396,
      "fuss": 8397,
      "gor": 8398,
      "game": 8399,
      "grav": 8400,
      "gatty": 8401,
      "hon": 8402,
      "hel": 8403,
      "hap": 8404,
      "hou": 8405,
      "hart": 8406,
      "hael": 8407,
      "hub": 8408,
      "hee": 8409,
      "hale": 8410,
      "huri": 8411,
      "husband": 8412,
      "haraj": 8413,
      "help": 8414,
      "helm": 8415,
      "ior": 8416,
      "iage": 8417,
      "jor": 8418,
      "jam": 8419,
      "jou": 8420,
      "kk": 8421,
      "ked": 8422,
      "kal": 8423,
      "kion": 8424,
      "kiss": 8425,
      "kush": 8426,
      "klin": 8427,
      "kena": 8428,
      "kamoto": 8429,
      "kroyd": 8430,
      "lic": 8431,
      "lob": 8432,
      "liss": 8433,
      "lines": 8434,
      "litz": 8435,
      "lidge": 8436,
      "mom": 8437,
      "mut": 8438,
      "mik": 8439,
      "more": 8440,
      "mey": 8441,
      "mist": 8442,
      "mock": 8443,
      "mins": 8444,
      "mons": 8445,
      "money": 8446,
      "mste": 8447,
      "mukh": 8448,
      "no": 8449,
      "nu": 8450,
      "net": 8451,
      "nard": 8452,
      "noc": 8453,
      "nberg": 8454,
      "nook": 8455,
      "othe": 8456,
      "oire": 8457,
      "oiu": 8458,
      "oint": 8459,
      "pra": 8460,
      "pir": 8461,
      "phan": 8462,
      "pire": 8463,
      "public": 8464,
      "qiang": 8465,
      "rs": 8466,
      "rum": 8467,
      "rug": 8468,
      "rush": 8469,
      "sent": 8470,
      "sung": 8471,
      "sini": 8472,
      "some": 8473,
      "sworth": 8474,
      "summer": 8475,
      "ti": 8476,
      "tal": 8477,
      "tov": 8478,
      "tton": 8479,
      "taz": 8480,
      "uv": 8481,
      "uard": 8482,
      "uation": 8483,
      "uying": 8484,
      "vy": 8485,
      "vor": 8486,
      "vas": 8487,
      "vis": 8488,
      "vir": 8489,
      "vice": 8490,
      "vei": 8491,
      "varts": 8492,
      "vardhan": 8493,
      "wu": 8494,
      "wer": 8495,
      "wig": 8496,
      "wath": 8497,
      "water": 8498,
      "weal": 8499,
      "winning": 8500,
      "xmik": 8501,
      "yar": 8502,
      "yen": 8503,
      "yatt": 8504,
      "yles": 8505,
      "zi": 8506,
      "zer": 8507,
      "zas": 8508,
      "zes": 8509,
      "zur": 8510,
      "znov": 8511,
      "zger": 8512,
      "zbog": 8513,
      "Érik": 8514,
      "Örne": 8515,
      "àto": 8516,
      "ác": 8517,
      "ár": 8518,
      "är": 8519,
      "érie": 8520,
      "énez": 8521,
      "ías": 8522,
      "írez": 8523,
      "óh": 8524,
      "óni": 8525,
      "ønberg": 8526,
      "úñ": 8527,
      "ühl": 8528,
      "ălines": 8529,
      "čin": 8530,
      "dberg": 8531,
      "aren": 8532,
      "arian": 8533,
      "arib": 8534,
      "arma": 8535,
      "arbi": 8536,
      "inis": 8537,
      "inder": 8538,
      "inbe": 8539,
      "inley": 8540,
      "innov": 8541,
      "inke": 8542,
      "inelli": 8543,
      "inyoti": 8544,
      "sten": 8545,
      "stand": 8546,
      "stell": 8547,
      "stick": 8548,
      "steen": 8549,
      "street": 8550,
      "style": 8551,
      "ingle": 8552,
      "ingham": 8553,
      "inggang": 8554,
      "ingsteen": 8555,
      "arrell": 8556,
      "arraj": 8557,
      "arría": 8558,
      "eras": 8559,
      "erwitz": 8560,
      "erji": 8561,
      "ila": 8562,
      "ilă": 8563,
      "ilva": 8564,
      "Cait": 8565,
      "Cahan": 8566,
      "Caio": 8567,
      "Cake": 8568,
      "reon": 8569,
      "rees": 8570,
      "reun": 8571,
      "remade": 8572,
      "repri": 8573,
      "refle": 8574,
      "ilmore": 8575,
      "filming": 8576,
      "oris": 8577,
      "orse": 8578,
      "orah": 8579,
      "orpe": 8580,
      "there": 8581,
      "those": 8582,
      "ony": 8583,
      "onor": 8584,
      "onson": 8585,
      "onkar": 8586,
      "eni": 8587,
      "enth": 8588,
      "enou": 8589,
      "enson": 8590,
      "enlo": 8591,
      "edul": 8592,
      "edith": 8593,
      "alp": 8594,
      "alah": 8595,
      "alyan": 8596,
      "alondo": 8597,
      "did": 8598,
      "dio": 8599,
      "dix": 8600,
      "dison": 8601,
      "disc": 8602,
      "dise": 8603,
      "ande": 8604,
      "andon": 8605,
      "andam": 8606,
      "andridge": 8607,
      "ascon": 8608,
      "esis": 8609,
      "eswick": 8610,
      "esoiu": 8611,
      "rich": 8612,
      "riem": 8613,
      "rizz": 8614,
      "rieson": 8615,
      "riguez": 8616,
      "Carell": 8617,
      "Carty": 8618,
      "amh": 8619,
      "amu": 8620,
      "amor": 8621,
      "amund": 8622,
      "amoff": 8623,
      "isatti": 8624,
      "atesh": 8625,
      "atural": 8626,
      "ico": 8627,
      "icz": 8628,
      "ices": 8629,
      "icot": 8630,
      "icles": 8631,
      "ically": 8632,
      "190": 8633,
      "elo": 8634,
      "elu": 8635,
      "elle": 8636,
      "elent": 8637,
      "elaw": 8638,
      "elder": 8639,
      "elander": 8640,
      "elnu": 8641,
      "unk": 8642,
      "univ": 8643,
      "unyon": 8644,
      "omi": 8645,
      "omol": 8646,
      "omew": 8647,
      "theme": 8648,
      "Thur": 8649,
      "oso": 8650,
      "osar": 8651,
      "osey": 8652,
      "osse": 8653,
      "olé": 8654,
      "olot": 8655,
      "olley": 8656,
      "olta": 8657,
      "olhap": 8658,
      "olomew": 8659,
      "race": 8660,
      "raham": 8661,
      "iman": 8662,
      "imes": 8663,
      "iment": 8664,
      "impl": 8665,
      "imain": 8666,
      "imova": 8667,
      "immons": 8668,
      "eta": 8669,
      "eti": 8670,
      "eton": 8671,
      "etendra": 8672,
      "lee": 8673,
      "lev": 8674,
      "lex": 8675,
      "leen": 8676,
      "lesta": 8677,
      "leming": 8678,
      "Camarg": 8679,
      "irm": 8680,
      "iru": 8681,
      "iroff": 8682,
      "riti": 8683,
      "ritt": 8684,
      "ritzen": 8685,
      "urch": 8686,
      "urro": 8687,
      "urati": 8688,
      "urlitz": 8689,
      "adarsh": 8690,
      "imeo": 8691,
      "ayley": 8692,
      "aynor": 8693,
      "Press": 8694,
      "Presson": 8695,
      "usu": 8696,
      "chal": 8697,
      "chran": 8698,
      "chest": 8699,
      "chio": 8700,
      "chfield": 8701,
      "chron": 8702,
      "chtenberg": 8703,
      "ovsky": 8704,
      "owho": 8705,
      "owei": 8706,
      "nival": 8707,
      "Carrero": 8708,
      "Tex": 8709,
      "xter": 8710,
      "xton": 8711,
      "Casa": 8712,
      "Casar": 8713,
      "aged": 8714,
      "ages": 8715,
      "agher": 8716,
      "agger": 8717,
      "agavan": 8718,
      "cka": 8719,
      "ckard": 8720,
      "aks": 8721,
      "aku": 8722,
      "akar": 8723,
      "aking": 8724,
      "aken": 8725,
      "akis": 8726,
      "akie": 8727,
      "akopoul": 8728,
      "acting": 8729,
      "Chen": 8730,
      "Chang": 8731,
      "Chase": 8732,
      "Chester": 8733,
      "Choodu": 8734,
      "Chipp": 8735,
      "Chemb": 8736,
      "Chopra": 8737,
      "Chief": 8738,
      "Chakravarthy": 8739,
      "oda": 8740,
      "ody": 8741,
      "odson": 8742,
      "odern": 8743,
      "odkar": 8744,
      "oderick": 8745,
      "avas": 8746,
      "avian": 8747,
      "avya": 8748,
      "fort": 8749,
      "ioni": 8750,
      "ions": 8751,
      "ional": 8752,
      "Joy": 8753,
      "Joel": 8754,
      "Joaqu": 8755,
      "Jodie": 8756,
      "ards": 8757,
      "arden": 8758,
      "igley": 8759,
      "igopoulos": 8760,
      "entin": 8761,
      "entire": 8762,
      "Preminger": 8763,
      "One": 8764,
      "apri": 8765,
      "aplan": 8766,
      "apstick": 8767,
      "ershon": 8768,
      "Clara": 8769,
      "Clive": 8770,
      "Clamp": 8771,
      "Cloris": 8772,
      "evi": 8773,
      "event": 8774,
      "evero": 8775,
      "eville": 8776,
      "evilla": 8777,
      "events": 8778,
      "evsky": 8779,
      "evarría": 8780,
      "abo": 8781,
      "abst": 8782,
      "abnur": 8783,
      "Cannes": 8784,
      "Canelas": 8785,
      "Marin": 8786,
      "Marie": 8787,
      "Marco": 8788,
      "Marathi": 8789,
      "Margu": 8790,
      "Marjo": 8791,
      "Marjor": 8792,
      "Marleen": 8793,
      "uli": 8794,
      "ume": 8795,
      "umet": 8796,
      "umate": 8797,
      "umann": 8798,
      "umont": 8799,
      "icher": 8800,
      "Callaghan": 8801,
      "utcl": 8802,
      "uttenberg": 8803,
      "iek": 8804,
      "ieth": 8805,
      "iece": 8806,
      "resist": 8807,
      "respect": 8808,
      "athers": 8809,
      "athaway": 8810,
      "Amal": 8811,
      "Ames": 8812,
      "Amit": 8813,
      "Amend": 8814,
      "Ambr": 8815,
      "Amaria": 8816,
      "Amrani": 8817,
      "ellan": 8818,
      "elling": 8819,
      "ellés": 8820,
      "ivac": 8821,
      "near": 8822,
      "nehy": 8823,
      "negat": 8824,
      "Anil": 8825,
      "Andi": 8826,
      "Anub": 8827,
      "Anders": 8828,
      "Anura": 8829,
      "Anderson": 8830,
      "Roop": 8831,
      "shan": 8832,
      "sher": 8833,
      "shner": 8834,
      "shoot": 8835,
      "shared": 8836,
      "shanti": 8837,
      "acu": 8838,
      "acy": 8839,
      "acqu": 8840,
      "accept": 8841,
      "acinelli": 8842,
      "open": 8843,
      "opened": 8844,
      "opros": 8845,
      "Starr": 8846,
      "Stone": 8847,
      "Stiles": 8848,
      "ithers": 8849,
      "ucci": 8850,
      "ike": 8851,
      "ikh": 8852,
      "Caddie": 8853,
      "auto": 8854,
      "auder": 8855,
      "augh": 8856,
      "aufman": 8857,
      "Sham": 8858,
      "Shrest": 8859,
      "Shvarts": 8860,
      "Shabnur": 8861,
      "allas": 8862,
      "allone": 8863,
      "hta": 8864,
      "emuk": 8865,
      "emmer": 8866,
      "Along": 8867,
      "Allu": 8868,
      "Alix": 8869,
      "Alumm": 8870,
      "Alfred": 8871,
      "Altov": 8872,
      "ianc": 8873,
      "ianni": 8874,
      "acker": 8875,
      "ernatural": 8876,
      "come": 8877,
      "Johnston": 8878,
      "attempt": 8879,
      "awn": 8880,
      "awak": 8881,
      "Carole": 8882,
      "ende": 8883,
      "eyder": 8884,
      "Rai": 8885,
      "Raimon": 8886,
      "Rainbe": 8887,
      "Inferno": 8888,
      "Instit": 8889,
      "Inescort": 8890,
      "Innoc": 8891,
      "esser": 8892,
      "epic": 8893,
      "what": 8894,
      "quand": 8895,
      "Eli": 8896,
      "Els": 8897,
      "Elmer": 8898,
      "Elhone": 8899,
      "Elfont": 8900,
      "ciosa": 8901,
      "1977": 8902,
      "ishwambharan": 8903,
      "ply": 8904,
      "plund": 8905,
      "plots": 8906,
      "etta": 8907,
      "Carnage": 8908,
      "Carnimeo": 8909,
      "oges": 8910,
      "oghan": 8911,
      "rombie": 8912,
      "romski": 8913,
      "anteg": 8914,
      "screw": 8915,
      "ighton": 8916,
      "ightly": 8917,
      "ains": 8918,
      "aines": 8919,
      "oye": 8920,
      "ottoms": 8921,
      "ationship": 8922,
      "bee": 8923,
      "ortner": 8924,
      "serial": 8925,
      "served": 8926,
      "ekass": 8927,
      "ukah": 8928,
      "ukassi": 8929,
      "achman": 8930,
      "udes": 8931,
      "udson": 8932,
      "udwick": 8933,
      "udwig": 8934,
      "ashburn": 8935,
      "ashekhar": 8936,
      "ahon": 8937,
      "assall": 8938,
      "iste": 8939,
      "asthan": 8940,
      "astro": 8941,
      "harani": 8942,
      "ameswar": 8943,
      "roeder": 8944,
      "ongdon": 8945,
      "ierig": 8946,
      "ierney": 8947,
      "oodan": 8948,
      "ustig": 8949,
      "Caine": 8950,
      "Arci": 8951,
      "Arquette": 8952,
      "Arliss": 8953,
      "ibb": 8954,
      "ibson": 8955,
      "iblo": 8956,
      "arki": 8957,
      "Franç": 8958,
      "Franciosa": 8959,
      "iao": 8960,
      "lany": 8961,
      "Dein": 8962,
      "Edeson": 8963,
      "Eddie": 8964,
      "Davison": 8965,
      "eenth": 8966,
      "okar": 8967,
      "okhale": 8968,
      "okvei": 8969,
      "cloud": 8970,
      "Lea": 8971,
      "Leï": 8972,
      "LeToy": 8973,
      "rent": 8974,
      "perd": 8975,
      "Kenna": 8976,
      "unders": 8977,
      "lien": 8978,
      "1953": 8979,
      "Charell": 8980,
      "Charbon": 8981,
      "rimes": 8982,
      "rimura": 8983,
      "iziru": 8984,
      "ether": 8985,
      "azal": 8986,
      "azimova": 8987,
      "eza": 8988,
      "ockhart": 8989,
      "lystone": 8990,
      "ondeti": 8991,
      "Adri": 8992,
      "Adew": 8993,
      "Adair": 8994,
      "Adele": 8995,
      "Advent": 8996,
      "Adolph": 8997,
      "ioznov": 8998,
      "ajon": 8999,
      "ajda": 9000,
      "hail": 9001,
      "haal": 9002,
      "hadi": 9003,
      "arya": 9004,
      "Heart": 9005,
      "hys": 9006,
      "othen": 9007,
      "othari": 9008,
      "Camera": 9009,
      "Williamson": 9010,
      "irez": 9011,
      "Jameson": 9012,
      "Donogh": 9013,
      "Josef": 9014,
      "lenhaal": 9015,
      "1913": 9016,
      "inslet": 9017,
      "inslee": 9018,
      "ucker": 9019,
      "Carefree": 9020,
      "Richelie": 9021,
      "eech": 9022,
      "eeman": 9023,
      "eecher": 9024,
      "eshav": 9025,
      "eshmukh": 9026,
      "Conor": 9027,
      "Conley": 9028,
      "Conrad": 9029,
      "people": 9030,
      "enner": 9031,
      "madi": 9032,
      "Filmed": 9033,
      "Filmfare": 9034,
      "Jayan": 9035,
      "Jayanth": 9036,
      "yner": 9037,
      "arias": 9038,
      "arihar": 9039,
[...]
