{
  "version": "1.0",
  "truncation": null,
  "padding": null,
  "added_tokens": [
    {
      "id": 0,
      "content": "<unk>",
      "single_word": false,
      "lstrip": false,
      "rstrip": false,
      "normalized": false,
      "special": true
    },
    {
      "id": 1,
      "content": "<pad>",
      "single_word": false,
      "lstrip": false,
      "rstrip": false,
      "normalized": false,
      "special": true
    },
    {
      "id": 2,
      "content": "<SOT>",
      "single_word": false,
      "lstrip": false,
      "rstrip": false,
      "normalized": false,
      "special": true
    },
    {
      "id": 3,
      "content": "<EOT>",
      "single_word": false,
      "lstrip": false,
      "rstrip": false,
      "normalized": false,
      "special": true
    },
    {
      "id": 4,
      "content": "<SUBJ>",
      "single_word": false,
      "lstrip": false,
      "rstrip": false,
      "normalized": false,
      "special": true
    },
    {
      "id": 5,
      "content": "<PRED>",
      "single_word": false,
      "lstrip": false,
      "rstrip": false,
      "normalized": false,
      "special": true
    },
    {
      "id": 6,
      "content": "<OBJ>",
      "single_word": false,
      "lstrip": false,
      "rstrip": false,
      "normalized": false,
      "special": true
    },
    {
      "id": 7,
      "content": "<RDF2Text>",
      "single_word": false,
      "lstrip": false,
      "rstrip": false,
      "normalized": false,
      "special": true
    },
    {
      "id": 8,
      "content": "<Text2RDF>",
      "single_word": false,
      "lstrip": false,
      "rstrip": false,
      "normalized": false,
      "special": true
    },
    {
      "id": 9,
      "content": "<CONTINUERDF>",
      "single_word": false,
      "lstrip": false,
      "rstrip": false,
      "normalized": false,
      "special": true
    },
    {
      "id": 10,
      "content": "<MASK>",
      "single_word": false,
      "lstrip": false,
      "rstrip": false,
      "normalized": false,
      "special": true
    }
  ],
  "normalizer": null,
  "pre_tokenizer": {
    "type": "Whitespace"
  },
  "post_processor": {
    "type": "TemplateProcessing",
    "single": [
      {
        "Sequence": {
          "id": "A",
          "type_id": 0
        }
      }
    ],
    "pair": [
      {
        "Sequence": {
          "id": "A",
          "type_id": 0
        }
      },
      {
        "Sequence": {
          "id": "B",
          "type_id": 1
        }
      }
    ],
    "special_tokens": {
      "<pad>": {
        "id": "<pad>",
        "ids": [
          1
        ],
        "tokens": [
          "<pad>"
        ]
      }
    }
  },
  "decoder": null,
  "model": {
    "type": "BPE",
    "dropout": null,
    "unk_token": "<unk>",
    "continuing_subword_prefix": null,
    "end_of_word_suffix": null,
    "fuse_unk": false,
    "byte_fallback": false,
    "ignore_merges": false,
    "vocab": {
      "<unk>": 0,
      "<pad>": 1,
      "<SOT>": 2,
      "<EOT>": 3,
      "<SUBJ>": 4,
      "<PRED>": 5,
      "<OBJ>": 6,
      "<RDF2Text>": 7,
      "<Text2RDF>": 8,
      "<CONTINUERDF>": 9,
      "<MASK>": 10,
      "!": 11,
      "\"": 12,
      "#": 13,
      "$": 14,
      "%": 15,
      "&": 16,
      "'": 17,
      "(": 18,
      ")": 19,
      "*": 20,
      "+": 21,
      ",": 22,
      "-": 23,
      ".": 24,
      "/": 25,
      "0": 26,
      "1": 27,
      "2": 28,
      "3": 29,
      "4": 30,
      "5": 31,
      "6": 32,
      "7": 33,
      "8": 34,
      "9": 35,
      ":": 36,
      ";": 37,
      "<": 38,
      "=": 39,
      ">": 40,
      "?": 41,
      "@": 42,
      "A": 43,
      "B": 44,
      "C": 45,
      "D": 46,
      "E": 47,
      "F": 48,
      "G": 49,
      "H": 50,
      "I": 51,
      "J": 52,
      "K": 53,
      "L": 54,
      "M": 55,
      "N": 56,
      "O": 57,
      "P": 58,
      "Q": 59,
      "R": 60,
      "S": 61,
      "T": 62,
      "U": 63,
      "V": 64,
      "W": 65,
      "X": 66,
      "Y": 67,
      "Z": 68,
      "[": 69,
      "]": 70,
      "_": 71,
      "a": 72,
      "b": 73,
      "c": 74,
      "d": 75,
      "e": 76,
      "f": 77,
      "g": 78,
      "h": 79,
      "i": 80,
      "j": 81,
      "k": 82,
      "l": 83,
      "m": 84,
      "n": 85,
      "o": 86,
      "p": 87,
      "q": 88,
      "r": 89,
      "s": 90,
      "t": 91,
      "u": 92,
      "v": 93,
      "w": 94,
      "x": 95,
      "y": 96,
      "z": 97,
      "~": 98,
      "¡": 99,
      "£": 100,
      "¥": 101,
      "§": 102,
      "ª": 103,
      "°": 104,
      "²": 105,
      "·": 106,
      "½": 107,
      "¿": 108,
      "À": 109,
      "Á": 110,
      "Â": 111,
      "Ä": 112,
      "Å": 113,
      "Æ": 114,
      "Ç": 115,
      "È": 116,
      "É": 117,
      "Ê": 118,
      "Í": 119,
      "Ó": 120,
      "Ô": 121,
      "Ö": 122,
      "×": 123,
      "Ø": 124,
      "Ú": 125,
      "Ü": 126,
      "Þ": 127,
      "ß": 128,
      "à": 129,
      "á": 130,
      "â": 131,
      "ã": 132,
      "ä": 133,
      "å": 134,
      "æ": 135,
      "ç": 136,
      "è": 137,
      "é": 138,
      "ê": 139,
      "ë": 140,
      "ì": 141,
      "í": 142,
      "î": 143,
      "ï": 144,
      "ð": 145,
      "ñ": 146,
      "ò": 147,
      "ó": 148,
      "ô": 149,
      "õ": 150,
      "ö": 151,
      "ø": 152,
      "ù": 153,
      "ú": 154,
      "û": 155,
      "ü": 156,
      "ý": 157,
      "ÿ": 158,
      "Ā": 159,
      "ā": 160,
      "ă": 161,
      "ą": 162,
      "Ć": 163,
      "ć": 164,
      "Č": 165,
      "č": 166,
      "ď": 167,
      "Đ": 168,
      "đ": 169,
      "Ē": 170,
      "ē": 171,
      "ė": 172,
      "ę": 173,
      "ě": 174,
      "ğ": 175,
      "ģ": 176,
      "ī": 177,
      "İ": 178,
      "ı": 179,
      "ķ": 180,
      "ļ": 181,
      "ľ": 182,
      "Ł": 183,
      "ł": 184,
      "ń": 185,
      "ņ": 186,
      "ň": 187,
      "Ō": 188,
      "ō": 189,
      "ŏ": 190,
      "ő": 191,
      "Œ": 192,
      "œ": 193,
      "Ř": 194,
      "ř": 195,
      "Ś": 196,
      "ś": 197,
      "Ş": 198,
      "ş": 199,
      "Š": 200,
      "š": 201,
      "ū": 202,
      "ů": 203,
      "ź": 204,
      "Ż": 205,
      "ż": 206,
      "Ž": 207,
      "ž": 208,
      "Ș": 209,
      "ș": 210,
      "Ț": 211,
      "ț": 212,
      "ə": 213,
      "ɪ": 214,
      "ʋ": 215,
      "ʱ": 216,
      "ʻ": 217,
      "ʼ": 218,
      "ː": 219,
      "Α": 220,
      "Δ": 221,
      "ά": 222,
      "έ": 223,
      "α": 224,
      "δ": 225,
      "η": 226,
      "ι": 227,
      "λ": 228,
      "μ": 229,
      "ν": 230,
      "ξ": 231,
      "ο": 232,
      "ρ": 233,
      "ς": 234,
      "τ": 235,
      "Б": 236,
      "И": 237,
      "К": 238,
      "а": 239,
      "б": 240,
      "г": 241,
      "е": 242,
      "з": 243,
      "н": 244,
      "о": 245,
      "р": 246,
      "т": 247,
      "у": 248,
      "ь": 249,
      "я": 250,
      "أ": 251,
      "ئ": 252,
      "ا": 253,
      "ب": 254,
      "ة": 255,
      "ت": 256,
      "د": 257,
      "ذ": 258,
      "ر": 259,
      "ز": 260,
      "س": 261,
      "ش": 262,
      "ص": 263,
      "ط": 264,
      "ف": 265,
      "ق": 266,
      "ل": 267,
      "م": 268,
      "ن": 269,
      "ه": 270,
      "و": 271,
      "ي": 272,
      "پ": 273,
      "چ": 274,
      "ک": 275,
      "ہ": 276,
      "ی": 277,
      "ं": 278,
      "उ": 279,
      "ण": 280,
      "द": 281,
      "न": 282,
      "ब": 283,
      "म": 284,
      "ल": 285,
      "स": 286,
      "ह": 287,
      "ा": 288,
      "ि": 289,
      "ी": 290,
      "ू": 291,
      "ै": 292,
      "्": 293,
      "ঝ": 294,
      "দ": 295,
      "ম": 296,
      "র": 297,
      "হ": 298,
      "া": 299,
      "ৃ": 300,
      "ে": 301,
      "্": 302,
      "க": 303,
      "த": 304,
      "ள": 305,
      "வ": 306,
      "ி": 307,
      "ு": 308,
      "்": 309,
      "ತ": 310,
      "ಯ": 311,
      "ಸ": 312,
      "ಾ": 313,
      "ಿ": 314,
      "ು": 315,
      "ೆ": 316,
      "ං": 317,
      "අ": 318,
      "එ": 319,
      "ක": 320,
      "ග": 321,
      "ච": 322,
      "ණ": 323,
      "ත": 324,
      "ද": 325,
      "න": 326,
      "ඳ": 327,
      "ප": 328,
      "භ": 329,
      "ම": 330,
      "ය": 331,
      "ර": 332,
      "ල": 333,
      "ව": 334,
      "ෂ": 335,
      "ස": 336,
      "හ": 337,
      "ළ": 338,
      "්": 339,
      "ා": 340,
      "ැ": 341,
      "ි": 342,
      "ී": 343,
      "ු": 344,
      "ෙ": 345,
      "ේ": 346,
      "ො": 347,
      "ෝ": 348,
      "ช": 349,
      "พ": 350,
      "ย": 351,
      "า": 352,
      "ี": 353,
      "่": 354,
      "ḥ": 355,
      "ḱ": 356,
      "ạ": 357,
      "ả": 358,
      "ậ": 359,
      "ặ": 360,
      "ế": 361,
      "ỏ": 362,
      "ỳ": 363,
      "‌": 364,
      "‍": 365,
      "‐": 366,
      "–": 367,
      "—": 368,
      "‘": 369,
      "’": 370,
      "“": 371,
      "”": 372,
      "…": 373,
      "⁄": 374,
      "⁣": 375,
      "€": 376,
      "₱": 377,
      "₹": 378,
      "−": 379,
      "◎": 380,
      "★": 381,
      "あ": 382,
      "い": 383,
      "う": 384,
      "か": 385,
      "が": 386,
      "き": 387,
      "く": 388,
      "さ": 389,
      "す": 390,
      "た": 391,
      "て": 392,
      "な": 393,
      "に": 394,
      "の": 395,
      "は": 396,
      "べ": 397,
      "ま": 398,
      "よ": 399,
      "り": 400,
      "る": 401,
      "ん": 402,
      "ア": 403,
      "ィ": 404,
      "イ": 405,
      "エ": 406,
      "ガ": 407,
      "ク": 408,
      "ケ": 409,
      "ゲ": 410,
      "コ": 411,
      "シ": 412,
      "ス": 413,
      "ズ": 414,
      "タ": 415,
      "チ": 416,
      "ッ": 417,
      "ツ": 418,
      "テ": 419,
      "デ": 420,
      "ト": 421,
      "ド": 422,
      "ナ": 423,
      "バ": 424,
      "パ": 425,
      "ピ": 426,
      "フ": 427,
      "ブ": 428,
      "プ": 429,
      "ペ": 430,
      "ホ": 431,
      "ボ": 432,
      "マ": 433,
      "ャ": 434,
      "ョ": 435,
      "ラ": 436,
      "リ": 437,
      "ル": 438,
      "レ": 439,
      "ロ": 440,
      "ン": 441,
      "・": 442,
      "ー": 443,
      "一": 444,
      "世": 445,
      "丸": 446,
      "久": 447,
      "之": 448,
      "事": 449,
      "交": 450,
      "亨": 451,
      "人": 452,
      "仇": 453,
      "代": 454,
      "伯": 455,
      "似": 456,
      "但": 457,
      "住": 458,
      "保": 459,
      "俠": 460,
      "傳": 461,
      "傾": 462,
      "僕": 463,
      "先": 464,
      "八": 465,
      "决": 466,
      "冼": 467,
      "刀": 468,
      "刃": 469,
      "分": 470,
      "利": 471,
      "功": 472,
      "勤": 473,
      "升": 474,
      "参": 475,
      "反": 476,
      "台": 477,
      "命": 478,
      "哥": 479,
      "国": 480,
      "園": 481,
      "地": 482,
      "城": 483,
      "大": 484,
      "奇": 485,
      "子": 486,
      "學": 487,
      "安": 488,
      "宏": 489,
      "家": 490,
      "对": 491,
      "寺": 492,
      "居": 493,
      "山": 494,
      "州": 495,
      "已": 496,
      "年": 497,
      "幻": 498,
      "広": 499,
      "府": 500,
      "影": 501,
      "很": 502,
      "復": 503,
      "心": 504,
      "情": 505,
      "愛": 506,
      "感": 507,
      "成": 508,
      "我": 509,
      "战": 510,
      "手": 511,
      "放": 512,
      "政": 513,
      "故": 514,
      "新": 515,
      "方": 516,
      "施": 517,
      "日": 518,
      "明": 519,
      "昏": 520,
      "是": 521,
      "未": 522,
      "本": 523,
      "李": 524,
      "来": 525,
      "杨": 526,
      "林": 527,
      "果": 528,
      "校": 529,
      "梁": 530,
      "楽": 531,
      "榔": 532,
      "榮": 533,
      "模": 534,
      "檳": 535,
      "次": 536,
      "正": 537,
      "死": 538,
      "水": 539,
      "永": 540,
      "治": 541,
      "流": 542,
      "潔": 543,
      "然": 544,
      "爱": 545,
      "狮": 546,
      "环": 547,
      "电": 548,
      "界": 549,
      "留": 550,
      "痞": 551,
      "盂": 552,
      "盛": 553,
      "石": 554,
      "祖": 555,
      "祝": 556,
      "神": 557,
      "种": 558,
      "第": 559,
      "等": 560,
      "策": 561,
      "篇": 562,
      "糖": 563,
      "者": 564,
      "胎": 565,
      "能": 566,
      "色": 567,
      "英": 568,
      "蘭": 569,
      "虽": 570,
      "行": 571,
      "西": 572,
      "誠": 573,
      "賭": 574,
      "起": 575,
      "超": 576,
      "越": 577,
      "达": 578,
      "这": 579,
      "送": 580,
      "速": 581,
      "部": 582,
      "錦": 583,
      "陳": 584,
      "雄": 585,
      "雨": 586,
      "雲": 587,
      "風": 588,
      "飛": 589,
      "高": 590,
      "魔": 591,
      "黃": 592,
      "黄": 593,
      "黎": 594,
      "黑": 595,
      "가": 596,
      "강": 597,
      "거": 598,
      "공": 599,
      "과": 600,
      "구": 601,
      "녀": 602,
      "늘": 603,
      "니": 604,
      "다": 605,
      "답": 606,
      "동": 607,
      "들": 608,
      "라": 609,
      "랙": 610,
      "로": 611,
      "루": 612,
      "름": 613,
      "리": 614,
      "링": 615,
      "마": 616,
      "머": 617,
      "먼": 618,
      "멍": 619,
      "물": 620,
      "뭉": 621,
      "바": 622,
      "벌": 623,
      "벤": 624,
      "블": 625,
      "빅": 626,
      "삘": 627,
      "사": 628,
      "산": 629,
      "새": 630,
      "소": 631,
      "속": 632,
      "숨": 633,
      "스": 634,
      "시": 635,
      "식": 636,
      "아": 637,
      "야": 638,
      "여": 639,
      "연": 640,
      "오": 641,
      "울": 642,
      "웃": 643,
      "육": 644,
      "의": 645,
      "이": 646,
      "저": 647,
      "져": 648,
      "주": 649,
      "중": 650,
      "진": 651,
      "철": 652,
      "청": 653,
      "촌": 654,
      "카": 655,
      "캔": 656,
      "퀵": 657,
      "타": 658,
      "톤": 659,
      "트": 660,
      "페": 661,
      "하": 662,
      "황": 663,
      "히": 664,
      "ﬁ": 665,
      "﹟": 666,
      "！": 667,
      "，": 668,
      "／": 669,
      "：": 670,
      "Ａ": 671,
      "Ｉ": 672,
      "Ｎ": 673,
      "Ｐ": 674,
      "db": 675,
      "OT": 676,
      "BJ": 677,
      "dbr": 678,
      "ar": 679,
      "in": 680,
      "dbo": 681,
      "PR": 682,
      "PRE": 683,
      "SU": 684,
      "EOT": 685,
      "OBJ": 686,
      "SOT": 687,
      "PRED": 688,
      "SUBJ": 689,
      "an": 690,
      "il": 691,
      "er": 692,
      "st": 693,
      "ing": 694,
      "arr": 695,
      "ilm": 696,
      "starr": 697,
      "starring": 698,
      "film": 699,
      "e_": 700,
      "or": 701,
      "en": 702,
      "on": 703,
      "re": 704,
      "th": 705,
      "ct": 706,
      "ri": 707,
      "al": 708,
      "_film": 709,
      "di": 710,
      "and": 711,
      "es": 712,
      "as": 713,
      "at": 714,
      "ed": 715,
      "ic": 716,
      "am": 717,
      "is": 718,
      "a_": 719,
      "19": 720,
      "el": 721,
      "om": 722,
      "y_": 723,
      "Th": 724,
      "rect": 725,
      "direct": 726,
      "un": 727,
      "ter": 728,
      "ag": 729,
      "of": 730,
      "s_": 731,
      "20": 732,
      "ang": 733,
      "ent": 734,
      "ol": 735,
      "us": 736,
      "os": 737,
      "director": 738,
      "wri": 739,
      "the": 740,
      "_S": 741,
      "im": 742,
      "ad": 743,
      "age": 744,
      "le": 745,
      "ur": 746,
      "writer": 747,
      "it": 748,
      "by": 749,
      "_M": 750,
      "angu": 751,
      "anguage": 752,
      "ch": 753,
      "language": 754,
      "_B": 755,
      "The_": 756,
      "DF": 757,
      "RDF": 758,
      "De": 759,
      "ay": 760,
      "the_": 761,
      "unt": 762,
      "et": 763,
      "ow": 764,
      "_the_": 765,
      "_C": 766,
      "ion": 767,
      "ir": 768,
      "ac": 769,
      "od": 770,
      "ex": 771,
      "av": 772,
      "ilent": 773,
      "_H": 774,
      "omp": 775,
      "ak": 776,
      "Silent": 777,
      "Silent_film": 778,
      "usic": 779,
      "_R": 780,
      "id": 781,
      "act": 782,
      "ill": 783,
      "music": 784,
      "ompos": 785,
      "ig": 786,
      "Tex": 787,
      "_P": 788,
      "to": 789,
      "au": 790,
      "Text": 791,
      "ime": 792,
      "_L": 793,
      "omposer": 794,
      "MA": 795,
      "SK": 796,
      "MASK": 797,
      "ov": 798,
      "_A": 799,
      "ou": 800,
      "_W": 801,
      "runt": 802,
      "runtime": 803,
      "ap": 804,
      "Composer": 805,
      "musicComposer": 806,
      "The": 807,
      "_K": 808,
      "um": 809,
      "ot": 810,
      "_G": 811,
      "200": 812,
      "_D": 813,
      "iv": 814,
      "ard": 815,
      "Ch": 816,
      "Bl": 817,
      "_T": 818,
      "ath": 819,
      "ev": 820,
      "201": 821,
      "Jo": 822,
      "ell": 823,
      "directed": 824,
      "ab": 825,
      "ies": 826,
      "ul": 827,
      "was": 828,
      "_F": 829,
      "An": 830,
      "ber": 831,
      "for": 832,
      "_of": 833,
      "actor": 834,
      "em": 835,
      "In": 836,
      "Am": 837,
      "sh": 838,
      "Ro": 839,
      "est": 840,
      "Sh": 841,
      "all": 842,
      "ack": 843,
      "man": 844,
      "son": 845,
      "ich": 846,
      "St": 847,
      "Mar": 848,
      "ut": 849,
      "ant": 850,
      "ra": 851,
      "It": 852,
      "ro": 853,
      "ser": 854,
      "hn": 855,
      "co": 856,
      "ey": 857,
      "ck": 858,
      "ie": 859,
      "ith": 860,
      "res": 861,
      "_N": 862,
      "ain": 863,
      "2Text": 864,
      "RDF2Text": 865,
      "eric": 866,
      "ian": 867,
      "John": 868,
      "igh": 869,
      "ers": 870,
      "art": 871,
      "series": 872,
      "ep": 873,
      "Al": 874,
      "CO": 875,
      "NT": 876,
      "IN": 877,
      "2RDF": 878,
      "ERDF": 879,
      "UERDF": 880,
      "Text2RDF": 881,
      "CONT": 882,
      "INUERDF": 883,
      "CONTINUERDF": 884,
      "er_": 885,
      "199": 886,
      "ran": 887,
      "op": 888,
      "Be": 889,
      "ry": 890,
      "ah": 891,
      "ud": 892,
      "ood": 893,
      "erican": 894,
      "198": 895,
      "leas": 896,
      "ast": 897,
      "ann": 898,
      "ish": 899,
      "ik": 900,
      "ce": 901,
      "American": 902,
      "_E": 903,
      "releas": 904,
      "le_": 905,
      "rom": 906,
      "_J": 907,
      "uc": 908,
      "ram": 909,
      "aj": 910,
      "ho": 911,
      "pr": 912,
      "aw": 913,
      "_series": 914,
      "tt": 915,
      "ight": 916,
      "Car": 917,
      "if": 918,
      "ia": 919,
      "end": 920,
      "192": 921,
      "ars": 922,
      "Bo": 923,
      "bert": 924,
      "o_": 925,
      "com": 926,
      "ay_": 927,
      "ation": 928,
      "ai": 929,
      "V_series": 930,
      "197": 931,
      "ie_": 932,
      "Ca": 933,
      "ong": 934,
      "ind": 935,
      "oll": 936,
      "00": 937,
      "ug": 938,
      "kan": 939,
      "Pr": 940,
      "8_film": 941,
      "own": 942,
      "193": 943,
      "und": 944,
      "og": 945,
      "ond": 946,
      "bau": 947,
      "195": 948,
      "7_film": 949,
      "Sc": 950,
      "ary": 951,
      "ew": 952,
      "_St": 953,
      "ist": 954,
      "up": 955,
      "an_": 956,
      "5_film": 957,
      "6_film": 958,
      "194": 959,
      "eg": 960,
      "ern": 961,
      "i_": 962,
      "enn": 963,
      "2_film": 964,
      "es_": 965,
      "sc": 966,
      "ate": 967,
      "4_film": 968,
      "ort": 969,
      "org": 970,
      "her": 971,
      "with": 972,
      "ach": 973,
      "196": 974,
      "arl": 975,
      "oc": 976,
      "_Ch": 977,
      "qu": 978,
      "ub": 979,
      "ee": 980,
      "een": 981,
      "Black": 982,
      "Ar": 983,
      "e_of": 984,
      "ess": 985,
      "tten": 986,
      "1_film": 987,
      "_Sh": 988,
      "ok": 989,
      "ick": 990,
      "ia_": 991,
      "gh": 992,
      "_The_": 993,
      "rama": 994,
      "_of_the_": 995,
      "edy": 996,
      "3_film": 997,
      "az": 998,
      "ress": 999,
      "written": 1000,
      "pl": 1001,
      "_V": 1002,
      "Bri": 1003,
      "ous": 1004,
      "prod": 1005,
      "ff": 1006,
      "ark": 1007,
      "stars": 1008,
      "ton": 1009,
      "TV_series": 1010,
      "drama": 1011,
      "eb": 1012,
      "_and": 1013,
      "0_film": 1014,
      "our": 1015,
      "ect": 1016,
      "ec": 1017,
      "uk": 1018,
      "ust": 1019,
      "reen": 1020,
      "Qu": 1021,
      "gen": 1022,
      "_O": 1023,
      "att": 1024,
      "ip": 1025,
      "iam": 1026,
      "Pri": 1027,
      "Indi": 1028,
      "count": 1029,
      "9_film": 1030,
      "Sam": 1031,
      "Robert": 1032,
      "Dav": 1033,
      "itt": 1034,
      "comedy": 1035,
      "ett": 1036,
      "_to": 1037,
      "Br": 1038,
      "country": 1039,
      "Pe": 1040,
      "Bh": 1041,
      "Cl": 1042,
      "old": 1043,
      "e_M": 1044,
      "from": 1045,
      "produc": 1046,
      "Pre": 1047,
      "_a_": 1048,
      "oy": 1049,
      "ash": 1050,
      "ung": 1051,
      "Dev": 1052,
      "Fran": 1053,
      "s_of": 1054,
      "ott": 1055,
      "Will": 1056,
      "released": 1057,
      "En": 1058,
      "_Y": 1059,
      "urn": 1060,
      "ord": 1061,
      "_I": 1062,
      "Film": 1063,
      "El": 1064,
      "ce_": 1065,
      "Ge": 1066,
      "ure": 1067,
      "ani": 1068,
      "oth": 1069,
      "Mich": 1070,
      "How": 1071,
      "Death": 1072,
      "ob": 1073,
      "adi": 1074,
      "ly": 1075,
      "Dead": 1076,
      "Un": 1077,
      "rol": 1078,
      "his": 1079,
      "ine": 1080,
      "ass": 1081,
      "genre": 1082,
      "per": 1083,
      "apt": 1084,
      "ne": 1085,
      "han": 1086,
      "He": 1087,
      "so": 1088,
      "ore": 1089,
      "actress": 1090,
      "ision": 1091,
      "Le": 1092,
      "ame": 1093,
      "ael": 1094,
      "release": 1095,
      "inc": 1096,
      "Georg": 1097,
      "produced": 1098,
      "ict": 1099,
      "one": 1100,
      "ier": 1101,
      "tel": 1102,
      "Rich": 1103,
      "Don": 1104,
      "eng": 1105,
      "William": 1106,
      "_in": 1107,
      "esh": 1108,
      "Mo": 1109,
      "ory": 1110,
      "evision": 1111,
      "rist": 1112,
      "aul": 1113,
      "app": 1114,
      "ru": 1115,
      "e_S": 1116,
      "ased": 1117,
      "land": 1118,
      "ek": 1119,
      "On": 1120,
      "Date": 1121,
      "David": 1122,
      "television": 1123,
      "iz": 1124,
      "releaseDate": 1125,
      "80": 1126,
      "io": 1127,
      "ry_": 1128,
      "irl": 1129,
      "ear": 1130,
      "ld": 1131,
      "who": 1132,
      "en_": 1133,
      "Je": 1134,
      "ing_": 1135,
      "Man": 1136,
      "ild": 1137,
      "screen": 1138,
      "ald": 1139,
      "ward": 1140,
      "orn": 1141,
      "Sar": 1142,
      "amp": 1143,
      "Michael": 1144,
      "60": 1145,
      "play": 1146,
      "ya": 1147,
      "ont": 1148,
      "40": 1149,
      "se": 1150,
      "ric": 1151,
      "191": 1152,
      "And": 1153,
      "ib": 1154,
      "Ros": 1155,
      "he": 1156,
      "Ed": 1157,
      "ost": 1158,
      "out": 1159,
      "red": 1160,
      "e_C": 1161,
      "based": 1162,
      "Litt": 1163,
      "Indian": 1164,
      "ert": 1165,
      "amil": 1166,
      "Des": 1167,
      "eat": 1168,
      "Richard": 1169,
      "ames": 1170,
      "Blood": 1171,
      "ument": 1172,
      "ren": 1173,
      "ph": 1174,
      "Charl": 1175,
      "ial": 1176,
      "ine_": 1177,
      "San": 1178,
      "Ph": 1179,
      "a_M": 1180,
      "ed_": 1181,
      "Ad": 1182,
      "umentary": 1183,
      "oman": 1184,
      "a_R": 1185,
      "Pat": 1186,
      "yn": 1187,
      "Per": 1188,
      "ari": 1189,
      "y_M": 1190,
      "kn": 1191,
      "are": 1192,
      "wh": 1193,
      "ley": 1194,
      "be": 1195,
      "rim": 1196,
      "also": 1197,
      "_Th": 1198,
      "Sat": 1199,
      "Sp": 1200,
      "known": 1201,
      "iller": 1202,
      "Paul": 1203,
      "oo": 1204,
      "ush": 1205,
      "All": 1206,
      "Jos": 1207,
      "_Bl": 1208,
      "ival": 1209,
      "ate_": 1210,
      "Capt": 1211,
      "Little_": 1212,
      "Jack": 1213,
      "ner": 1214,
      "de_": 1215,
      "on_": 1216,
      "af": 1217,
      "ata": 1218,
      "ocumentary": 1219,
      "der": 1220,
      "ock": 1221,
      "ones": 1222,
      "ive": 1223,
      "Big": 1224,
      "Hum": 1225,
      "James": 1226,
      "ler": 1227,
      "ins": 1228,
      "de": 1229,
      "_Al": 1230,
      "air": 1231,
      "202": 1232,
      "Bill": 1233,
      "ara": 1234,
      "Can": 1235,
      "Ann": 1236,
      "eth": 1237,
      "_Lov": 1238,
      "ough": 1239,
      "off": 1240,
      "e_B": 1241,
      "Blu": 1242,
      "ali": 1243,
      "Sav": 1244,
      "gl": 1245,
      "Raj": 1246,
      "yan": 1247,
      "a_B": 1248,
      "a_K": 1249,
      "arry_": 1250,
      "ures": 1251,
      "Din": 1252,
      "adh": 1253,
      "ers_": 1254,
      "ife": 1255,
      "ade": 1256,
      "ool": 1257,
      "eph": 1258,
      "mer": 1259,
      "_Mc": 1260,
      "Peter": 1261,
      "_An": 1262,
      "antic": 1263,
      "Wh": 1264,
      "Sch": 1265,
      "Charles": 1266,
      "iss": 1267,
      "a_P": 1268,
      "Frank": 1269,
      "ork": 1270,
      "orr": 1271,
      "Sal": 1272,
      "_1": 1273,
      "lin": 1274,
      "a_G": 1275,
      "rem": 1276,
      "am_": 1277,
      "sk": 1278,
      "hi": 1279,
      "ini": 1280,
      "eld": 1281,
      "ment": 1282,
      "roles": 1283,
      "but": 1284,
      "Prem": 1285,
      "Mal": 1286,
      "e_H": 1287,
      "uss": 1288,
      "ide": 1289,
      "e_L": 1290,
      "umar": 1291,
      "ax": 1292,
      "Bre": 1293,
      "ess_": 1294,
      "Hous": 1295,
      "_language": 1296,
      "Christ": 1297,
      "Del": 1298,
      "Captain": 1299,
      "ens": 1300,
      "),": 1301,
      "ovie": 1302,
      "tern": 1303,
      "ank": 1304,
      "ver": 1305,
      "Gre": 1306,
      "ly_": 1307,
      "a_S": 1308,
      "oor": 1309,
      "uck": 1310,
      "irst": 1311,
      "ge": 1312,
      "Johnn": 1313,
      "ational": 1314,
      "Re": 1315,
      "ail": 1316,
      "ice": 1317,
      "Bar": 1318,
      "ated": 1319,
      "ada": 1320,
      "estival": 1321,
      "feat": 1322,
      "iri": 1323,
      "har": 1324,
      "port": 1325,
      "aut": 1326,
      "ember": 1327,
      "ical": 1328,
      "ever": 1329,
      "Call": 1330,
      "thr": 1331,
      "Cas": 1332,
      "Jul": 1333,
      "wood": 1334,
      "Tom": 1335,
      "orld": 1336,
      "Jan": 1337,
      "_TV_series": 1338,
      "Dinata": 1339,
      "erman": 1340,
      "oss": 1341,
      "ence": 1342,
      "bo": 1343,
      "ome": 1344,
      "ull": 1345,
      "onn": 1346,
      "ake": 1347,
      "eet": 1348,
      "Ben": 1349,
      "II": 1350,
      "Det": 1351,
      "rav": 1352,
      "Sand": 1353,
      "Festival": 1354,
      "ue": 1355,
      "ings": 1356,
      "aur": 1357,
      "e_W": 1358,
      "ovel": 1359,
      "Ind": 1360,
      "romantic": 1361,
      "ra_": 1362,
      "ity": 1363,
      "e_of_the_": 1364,
      "ix": 1365,
      "inn": 1366,
      "indi": 1367,
      "_He": 1368,
      "How_to": 1369,
      "2002": 1370,
      "Ale": 1371,
      "Up": 1372,
      "iy": 1373,
      "alk": 1374,
      "_Man": 1375,
      "ace": 1376,
      "Em": 1377,
      "ma": 1378,
      "ction": 1379,
      "ham": 1380,
      "Is": 1381,
      "rid": 1382,
      "Fer": 1383,
      "_Am": 1384,
      "Gu": 1385,
      "_Br": 1386,
      "rap": 1387,
      "Her": 1388,
      "ina": 1389,
      "e_D": 1390,
      "eturn": 1391,
      "Rid": 1392,
      "ger": 1393,
      "vent": 1394,
      "Award": 1395,
      "Rob": 1396,
      "Pro": 1397,
      "has": 1398,
      "Mart": 1399,
      "ale": 1400,
      "edi": 1401,
      "ayal": 1402,
      "oung": 1403,
      "ster": 1404,
      "Par": 1405,
      "y_C": 1406,
      "ates": 1407,
      "ao": 1408,
      "lor": 1409,
      "ire": 1410,
      "ar_": 1411,
      "The_M": 1412,
      "anc": 1413,
      "films": 1414,
      "Nin": 1415,
      "The_L": 1416,
      "eer": 1417,
      "Best": 1418,
      "omb": 1419,
      "ana": 1420,
      "ha": 1421,
      "el_": 1422,
      "int": 1423,
      "story": 1424,
      "Night": 1425,
      "uri": 1426,
      "lo": 1427,
      "y_S": 1428,
      "y_W": 1429,
      "udi": 1430,
      "Hindi": 1431,
      "wo": 1432,
      "novel": 1433,
      "Brit": 1434,
      "Gr": 1435,
      "action": 1436,
      "uth": 1437,
      "us_": 1438,
      "ons": 1439,
      "Nor": 1440,
      "iet": 1441,
      "e_F": 1442,
      "eh": 1443,
      "Deep": 1444,
      "ij": 1445,
      "Tel": 1446,
      "Cam": 1447,
      "..": 1448,
      "ternational": 1449,
      "ows": 1450,
      "Kar": 1451,
      "ino": 1452,
      "ance": 1453,
      "_Sp": 1454,
      "_De": 1455,
      "a_H": 1456,
      "rish": 1457,
      "_Ar": 1458,
      "ez": 1459,
      "yl": 1460,
      "inal": 1461,
      "a_L": 1462,
      "ane": 1463,
      "unn": 1464,
      "Jean": 1465,
      "She": 1466,
      "in_": 1467,
      "e_T": 1468,
      "British": 1469,
      "West": 1470,
      "Se": 1471,
      "Andre": 1472,
      "e_P": 1473,
      "Ram": 1474,
      "ugu": 1475,
      "composer": 1476,
      "India": 1477,
      "son_": 1478,
      "Return": 1479,
      "ret": 1480,
      "ield": 1481,
      "Sco": 1482,
      "lead": 1483,
      "Ev": 1484,
      "gel": 1485,
      "yr": 1486,
      "uch": 1487,
      "alian": 1488,
      "eyond": 1489,
      "Devil": 1490,
      "Day": 1491,
      "bar": 1492,
      "ans": 1493,
      "ally": 1494,
      "Sou": 1495,
      "way": 1496,
      "Der": 1497,
      "Lov": 1498,
      "Mark": 1499,
      "Bel": 1500,
      "al_": 1501,
      "atch": 1502,
      "first": 1503,
      "y_H": 1504,
      "_Sch": 1505,
      "aria": 1506,
      "Stev": 1507,
      "ilip": 1508,
      "ris": 1509,
      "aker": 1510,
      "Lol": 1511,
      "New": 1512,
      "documentary": 1513,
      "which": 1514,
      "role": 1515,
      "Hen": 1516,
      "itch": 1517,
      "ribut": 1518,
      "augh": 1519,
      "2019": 1520,
      "olly": 1521,
      "ors": 1522,
      "Ab": 1523,
      "thriller": 1524,
      "arn": 1525,
      "ount": 1526,
      "Rev": 1527,
      "Donald": 1528,
      "Indones": 1529,
      "International": 1530,
      "ited": 1531,
      "uz": 1532,
      "well": 1533,
      "ater": 1534,
      "ala": 1535,
      "_Girl": 1536,
      "Detect": 1537,
      "Girl": 1538,
      "rit": 1539,
      "ley_": 1540,
      "Salim": 1541,
      "_for": 1542,
      "_Mar": 1543,
      "Sw": 1544,
      "Rock": 1545,
      "rench": 1546,
      "oby": 1547,
      "etw": 1548,
      "_Cl": 1549,
      "_Re": 1550,
      "ound": 1551,
      "sp": 1552,
      "as_": 1553,
      "hu": 1554,
      "_and_the_": 1555,
      "ird": 1556,
      "Tim": 1557,
      "_Be": 1558,
      "Hug": 1559,
      "anth": 1560,
      "in_the_": 1561,
      "ream": 1562,
      "s_M": 1563,
      "night": 1564,
      "ion_": 1565,
      "ather": 1566,
      "Scott": 1567,
      "s_of_the_": 1568,
      "tit": 1569,
      "No": 1570,
      "urd": 1571,
      "ower": 1572,
      ").": 1573,
      "Beyond": 1574,
      "hy": 1575,
      "iek": 1576,
      "Nia_": 1577,
      "_Bro": 1578,
      "Princ": 1579,
      "Telugu": 1580,
      "i_K": 1581,
      "Queen": 1582,
      "Col": 1583,
      "that": 1584,
      "ign": 1585,
      "sup": 1586,
      "other": 1587,
      "Pict": 1588,
      "ford": 1589,
      "Hom": 1590,
      "let": 1591,
      "under": 1592,
      "min": 1593,
      "Ol": 1594,
      "Tamil": 1595,
      "war": 1596,
      "my": 1597,
      "mith": 1598,
      "utt": 1599,
      "orror": 1600,
      "Niniek": 1601,
      "rev": 1602,
      "Nia_Dinata": 1603,
      "ile": 1604,
      "Amaria": 1605,
      "3F": 1606,
      "Har": 1607,
      "ason": 1608,
      "inem": 1609,
      "The_S": 1610,
      "Dec": 1611,
      "mon": 1612,
      "e_R": 1613,
      "dist": 1614,
      "Hol": 1615,
      "li": 1616,
      "its": 1617,
      "_Par": 1618,
      "Martin": 1619,
      "oon": 1620,
      "Cal": 1621,
      "e_K": 1622,
      "y_L": 1623,
      "Sant": 1624,
      "Scar": 1625,
      "ese": 1626,
      "rick": 1627,
      "_Z": 1628,
      "Alex": 1629,
      "Beaut": 1630,
      "same": 1631,
      "ite": 1632,
      "Malayal": 1633,
      "Scooby": 1634,
      "a_D": 1635,
      "_Sc": 1636,
      "glish": 1637,
      "ein": 1638,
      "uction": 1639,
      "ox": 1640,
      "Bob": 1641,
      "Dear": 1642,
      "lan": 1643,
      "and_the_": 1644,
      "etween": 1645,
      "ney": 1646,
      "ef": 1647,
      "riend": 1648,
      "a_F": 1649,
      "Pictures": 1650,
      "dit": 1651,
      "_En": 1652,
      "a_N": 1653,
      "The_F": 1654,
      "Boy": 1655,
      "Wal": 1656,
      "Bro": 1657,
      "les": 1658,
      "Shir": 1659,
      "Priv": 1660,
      "Johnny_": 1661,
      "Lou": 1662,
      "54": 1663,
      "kin": 1664,
      "or_": 1665,
      "Mer": 1666,
      "y_of": 1667,
      "e_G": 1668,
      "iver": 1669,
      "over": 1670,
      "rime": 1671,
      "Er": 1672,
      "Break": 1673,
      "Ter": 1674,
      "oh": 1675,
      "Gl": 1676,
      "distribut": 1677,
      "10": 1678,
      "arri": 1679,
      "aniel": 1680,
      "ree": 1681,
      "Bell": 1682,
      "olf": 1683,
      "2010_film": 1684,
      "2018_film": 1685,
      "ere": 1686,
      "atter": 1687,
      "pt": 1688,
      "ollywood": 1689,
      "Detectiv": 1690,
      "udd": 1691,
      "lud": 1692,
      "oot": 1693,
      "foll": 1694,
      "deb": 1695,
      "_Wh": 1696,
      "ury": 1697,
      "ident": 1698,
      "Jay": 1699,
      "osh": 1700,
      "Jon": 1701,
      "Malayalam": 1702,
      "Documentary": 1703,
      "Jim": 1704,
      "Pal": 1705,
      "English": 1706,
      "_in_the_": 1707,
      "You": 1708,
      "rishn": 1709,
      "Ber": 1710,
      "Dr": 1711,
      "horror": 1712,
      "Franc": 1713,
      "Doo": 1714,
      "Pun": 1715,
      "Ne": 1716,
      "distributed": 1717,
      "Ag": 1718,
      "French": 1719,
      "ama": 1720,
      "unter": 1721,
      "debut": 1722,
      "on_the_": 1723,
      "ris_": 1724,
      "War": 1725,
      "age_": 1726,
      "name": 1727,
      "enc": 1728,
      "short": 1729,
      "World": 1730,
      "2003": 1731,
      "20_film": 1732,
      "vil": 1733,
      "600": 1734,
      "Jer": 1735,
      "sy": 1736,
      "y_F": 1737,
      "_Ad": 1738,
      "about": 1739,
      "Val": 1740,
      "band": 1741,
      "Mc": 1742,
      "arry": 1743,
      "Camp": 1744,
      "Pur": 1745,
      "Documentary_film": 1746,
      "Fred": 1747,
      "ous_": 1748,
      "_Le": 1749,
      "_Night": 1750,
      "venture": 1751,
      "United": 1752,
      "ana_": 1753,
      "kar": 1754,
      "aksh": 1755,
      "urt": 1756,
      "Hel": 1757,
      "aid": 1758,
      "mond": 1759,
      "y_K": 1760,
      "Ren": 1761,
      "e_the_": 1762,
      "athi": 1763,
      "screenwriter": 1764,
      "u_": 1765,
      "Kal": 1766,
      "bl": 1767,
      "apan": 1768,
      "Kann": 1769,
      "German": 1770,
      "includ": 1771,
      "ke": 1772,
      "Gen": 1773,
      "The_C": 1774,
      "awn": 1775,
      "Den": 1776,
      "jee": 1777,
      "ell_": 1778,
      "Mon": 1779,
      "ose": 1780,
      "ander": 1781,
      "Blind": 1782,
      "Nat": 1783,
      "hav": 1784,
      "ron": 1785,
      "o_M": 1786,
      "omin": 1787,
      "2007_film": 1788,
      "án": 1789,
      "Steph": 1790,
      "ograp": 1791,
      "2016_film": 1792,
      "Red": 1793,
      "Daniel": 1794,
      "et_": 1795,
      "omas": 1796,
      "ubl": 1797,
      "Joseph": 1798,
      "Max": 1799,
      "Russ": 1800,
      "uring": 1801,
      "by_": 1802,
      "Gar": 1803,
      "ta": 1804,
      "ght": 1805,
      "aughter": 1806,
      "ero": 1807,
      "ss": 1808,
      "_Gr": 1809,
      "Tr": 1810,
      "ink": 1811,
      "2008_film": 1812,
      "Movie": 1813,
      "musical": 1814,
      "Stephen": 1815,
      "Batt": 1816,
      "ace_": 1817,
      "Ac": 1818,
      "Feb": 1819,
      "Gold": 1820,
      "Hon": 1821,
      "Aust": 1822,
      "amb": 1823,
      "Italian": 1824,
      "la": 1825,
      "Res": 1826,
      "Ser": 1827,
      "silent": 1828,
      "evin": 1829,
      "antas": 1830,
      "Febru": 1831,
      "a_V": 1832,
      "2013_film": 1833,
      "work": 1834,
      "rang": 1835,
      "appear": 1836,
      "ston": 1837,
      "rig": 1838,
      "February": 1839,
      "_Land": 1840,
      "Jeff": 1841,
      "Philip": 1842,
      "char": 1843,
      "ourt": 1844,
      "Ap": 1845,
      "uel": 1846,
      "screenplay": 1847,
      "Ke": 1848,
      "den": 1849,
      "berg": 1850,
      "Mil": 1851,
      "ise": 1852,
      "ady": 1853,
      "had": 1854,
      "Reg": 1855,
      "2006_film": 1856,
      "Cap": 1857,
      "The_W": 1858,
      "title": 1859,
      "ence_": 1860,
      "oul": 1861,
      "2015_film": 1862,
      "Dou": 1863,
      "aan": 1864,
      "yar": 1865,
      "Edward": 1866,
      "yam": 1867,
      "Andrew": 1868,
      "crime": 1869,
      "2014_film": 1870,
      "gar": 1871,
      "School": 1872,
      "_U": 1873,
      "ject": 1874,
      "Bra": 1875,
      "mi": 1876,
      "Brian": 1877,
      "ecret": 1878,
      "_Pr": 1879,
      "Bat": 1880,
      "ies_": 1881,
      "feature": 1882,
      "For": 1883,
      "ept": 1884,
      "ity_": 1885,
      "cast": 1886,
      "su": 1887,
      "ice_": 1888,
      "not": 1889,
      "y_B": 1890,
      "_Love_": 1891,
      "Private_": 1892,
      "Ash": 1893,
      "athan": 1894,
      "quel": 1895,
      "Pl": 1896,
      "_In": 1897,
      "inger": 1898,
      "ives": 1899,
      "King": 1900,
      "ble": 1901,
      "a_T": 1902,
      "_Car": 1903,
      "_Ro": 1904,
      "adian": 1905,
      "Desert": 1906,
      "Mel": 1907,
      "Sang": 1908,
      "thur": 1909,
      "7200": 1910,
      "rel": 1911,
      "thon": 1912,
      "_Bab": 1913,
      "Carl": 1914,
      "Heart": 1915,
      "ult": 1916,
      "South": 1917,
      "con": 1918,
      "Con": 1919,
      "ech": 1920,
      "anim": 1921,
      "len": 1922,
      "Roman": 1923,
      "y_T": 1924,
      "_Raj": 1925,
      "uj": 1926,
      "_Se": 1927,
      "porting": 1928,
      "Ken": 1929,
      "Lu": 1930,
      "gu": 1931,
      "ure_": 1932,
      "_Pl": 1933,
      "_2": 1934,
      "made": 1935,
      "stin": 1936,
      "Kevin": 1937,
      "compos": 1938,
      "des": 1939,
      "any": 1940,
      "pe": 1941,
      "ka": 1942,
      "tr": 1943,
      "iser": 1944,
      "_Will": 1945,
      "2017_film": 1946,
      "Ak": 1947,
      "part": 1948,
      "_Mor": 1949,
      "ody": 1950,
      "_Kar": 1951,
      "Japan": 1952,
      "Men": 1953,
      "Mik": 1954,
      "Fl": 1955,
      "ife_": 1956,
      "gr": 1957,
      "sen": 1958,
      "57": 1959,
      "ow_": 1960,
      "Kim": 1961,
      "ublic": 1962,
      "adapt": 1963,
      "Hur": 1964,
      "movie": 1965,
      "eek": 1966,
      "anj": 1967,
      "Angel": 1968,
      "uv": 1969,
      "Prod": 1970,
      "field": 1971,
      "2009_film": 1972,
      "Bab": 1973,
      "Lew": 1974,
      "e_N": 1975,
      "a_C": 1976,
      "_Dr": 1977,
      "Bord": 1978,
      "Dor": 1979,
      "theat": 1980,
      "charact": 1981,
      "ove": 1982,
      "arth": 1983,
      "screened": 1984,
      "ely": 1985,
      "cre": 1986,
      "Adam": 1987,
      "esan": 1988,
      "best": 1989,
      "composed": 1990,
      "Kenn": 1991,
      "Christop": 1992,
      "anger": 1993,
      "ati": 1994,
      "Anthon": 1995,
      "man_": 1996,
      "_Love": 1997,
      "a_Ch": 1998,
      "11": 1999,
      "elli": 2000,
      "ite_": 2001,
      "ook": 2002,
      "_Fran": 2003,
      "Louis": 2004,
      "Henry_": 2005,
      "umb": 2006,
      "Prison": 2007,
      "ita": 2008,
      "dy": 2009,
      "ori": 2010,
      "2011_film": 2011,
      "Hollywood": 2012,
      "Jak": 2013,
      "May": 2014,
      "Sus": 2015,
      "won": 2016,
      "_actor": 2017,
      "Walter": 2018,
      "ucc": 2019,
      "18": 2020,
      "Hit": 2021,
      "Mad": 2022,
      "ordon": 2023,
      "Rom": 2024,
      "Carol": 2025,
      "Canadian": 2026,
      "ther": 2027,
      "Thomas": 2028,
      "2014": 2029,
      "Carn": 2030,
      "Jac": 2031,
      "two": 2032,
      "Gi": 2033,
      "prem": 2034,
      "Arthur": 2035,
      "ami": 2036,
      "2012_film": 2037,
      "José": 2038,
      "Born": 2039,
      "Out": 2040,
      "_Gar": 2041,
      "Sun": 2042,
      "omen": 2043,
      "ray": 2044,
      "Robin": 2045,
      "Rud": 2046,
      "Hong": 2047,
      "reet": 2048,
      "Anton": 2049,
      "Shar": 2050,
      "5400": 2051,
      "Kannada": 2052,
      "_of_a_": 2053,
      "Spr": 2054,
      "Harry_": 2055,
      "their": 2056,
      "ad_": 2057,
      "_Ber": 2058,
      "avi": 2059,
      "Cann": 2060,
      "men": 2061,
      "Di": 2062,
      "Bern": 2063,
      "Deb": 2064,
      "2015": 2065,
      "_You": 2066,
      "Day_": 2067,
      "Ex": 2068,
      "Mat": 2069,
      "fect": 2070,
      "into": 2071,
      "2016": 2072,
      "Befor": 2073,
      "iseries": 2074,
      "TV": 2075,
      "Vict": 2076,
      "anish": 2077,
      "err": 2078,
      "use": 2079,
      "os_": 2080,
      "rail": 2081,
      "sych": 2082,
      "life": 2083,
      "Court": 2084,
      "Mur": 2085,
      "Pol": 2086,
      "rab": 2087,
      "George_": 2088,
      "after": 2089,
      "2022_film": 2090,
      "12": 2091,
      "emy": 2092,
      "miniseries": 2093,
      "ful": 2094,
      "mar": 2095,
      "ake_": 2096,
      "sl": 2097,
      "2008": 2098,
      "Hill": 2099,
      "y_G": 2100,
      "Howard": 2101,
      "sel": 2102,
      "Pra": 2103,
      "premier": 2104,
      "Or": 2105,
      "follows": 2106,
      "och": 2107,
      "pro": 2108,
      "usband": 2109,
      "itz": 2110,
      "_Ag": 2111,
      "Beh": 2112,
      "2019_film": 2113,
      "Hy": 2114,
      "_Sw": 2115,
      "55": 2116,
      "Jenn": 2117,
      "This": 2118,
      "2004_film": 2119,
      "1925_film": 2120,
      "t_": 2121,
      "supporting": 2122,
      "_We": 2123,
      "Western": 2124,
      "go": 2125,
      "ky": 2126,
      "stage": 2127,
      "antasy": 2128,
      "rik": 2129,
      "_El": 2130,
      "iction": 2131,
      "a_W": 2132,
      "aud": 2133,
      "2003_film": 2134,
      "azz": 2135,
      "set": 2136,
      "Roy": 2137,
      "Laur": 2138,
      "Ton": 2139,
      "at_": 2140,
      "2017": 2141,
      "Kalyan": 2142,
      "2018": 2143,
      "Patrick": 2144,
      "o_B": 2145,
      "2013": 2146,
      "Mor": 2147,
      "The_T": 2148,
      "Marc": 2149,
      "cl": 2150,
      "Dark": 2151,
      "Sil": 2152,
      "mas": 2153,
      "iss_": 2154,
      "mann": 2155,
      "Ali": 2156,
      "...": 2157,
      "producer": 2158,
      "y_D": 2159,
      "_Your": 2160,
      "Beyond_the_": 2161,
      "features": 2162,
      "Ron": 2163,
      "e_St": 2164,
      "_Ram": 2165,
      "_Ab": 2166,
      "ain_": 2167,
      "ski": 2168,
      "Ger": 2169,
      "ears": 2170,
      "enk": 2171,
      "riv": 2172,
      "ova": 2173,
      "ines": 2174,
      "day": 2175,
      "olog": 2176,
      "Kath": 2177,
      "Af": 2178,
      "Luc": 2179,
      "_Green": 2180,
      "Crim": 2181,
      "oj": 2182,
      "host": 2183,
      "i_M": 2184,
      "ived": 2185,
      "Law": 2186,
      "nomin": 2187,
      "Palm": 2188,
      "Victor": 2189,
      "mo": 2190,
      "ayan": 2191,
      "_New": 2192,
      "Moon": 2193,
      "Ray_": 2194,
      "Sid": 2195,
      "1924_film": 2196,
      "cinem": 2197,
      "inter": 2198,
      "oyd": 2199,
      "ison": 2200,
      "_Con": 2201,
      "Cr": 2202,
      "Ray": 2203,
      "Wild": 2204,
      "ling": 2205,
      "econd": 2206,
      "aar": 2207,
      "The_G": 2208,
      "owd": 2209,
      "100": 2210,
      "even": 2211,
      "Ern": 2212,
      "Sath": 2213,
      "maker": 2214,
      "ano": 2215,
      "House_of": 2216,
      "wan": 2217,
      "300": 2218,
      "Com": 2219,
      "Jun": 2220,
      "alph": 2221,
      "2011": 2222,
      "Christopher": 2223,
      "uff": 2224,
      "iew": 2225,
      "Alf": 2226,
      "Peop": 2227,
      "him": 2228,
      "s_in": 2229,
      "ents": 2230,
      "Island": 2231,
      "Cab": 2232,
      "Sim": 2233,
      "2009": 2234,
      "berto": 2235,
      "2007": 2236,
      "2005_film": 2237,
      "Alan": 2238,
      "Indonesian": 2239,
      "araj": 2240,
      "aram": 2241,
      "Stan": 2242,
      "0s": 2243,
      "sequel": 2244,
      "52": 2245,
      "one_": 2246,
      "Brid": 2247,
      "George": 2248,
      "rong": 2249,
      "ual": 2250,
      "ask": 2251,
      "1923_film": 2252,
      "_II": 2253,
      "Indonesia": 2254,
      "auri": 2255,
      "Cor": 2256,
      "Deadly_": 2257,
      "sky": 2258,
      "_Hay": 2259,
      "serial": 2260,
      "Jess": 2261,
      "fl": 2262,
      "Greg": 2263,
      "i_S": 2264,
      "inst": 2265,
      "eron": 2266,
      "Jason": 2267,
      "pol": 2268,
      "van": 2269,
      "orth": 2270,
      "akk": 2271,
      "abeth": 2272,
      "s_S": 2273,
      "_Ros": 2274,
      "2010": 2275,
      "own_": 2276,
      "iev": 2277,
      "is_": 2278,
      "Andi": 2279,
      "Awards": 2280,
      "ves": 2281,
      "Mag": 2282,
      "ing_H": 2283,
      "ave": 2284,
      "iff": 2285,
      "Carr": 2286,
      "My": 2287,
      "ma_": 2288,
      "ive_": 2289,
      "1989_film": 2290,
      "ado": 2291,
      "anna": 2292,
      "upp": 2293,
      "Lola": 2294,
      "era": 2295,
      "Reveng": 2296,
      "Springs": 2297,
      "Bal": 2298,
      "Carry_": 2299,
      "Lola_": 2300,
      "Great": 2301,
      "Beng": 2302,
      "eed": 2303,
      "ple": 2304,
      "anch": 2305,
      "_Day": 2306,
      "Les": 2307,
      "win": 2308,
      "Satan": 2309,
      "Ralph": 2310,
      "e_Con": 2311,
      "amily": 2312,
      "Last": 2313,
      "illion": 2314,
      "Karim": 2315,
      "aus": 2316,
      "Do": 2317,
      "Vij": 2318,
      "i_P": 2319,
      "Nia": 2320,
      "comp": 2321,
      "arta": 2322,
      "Young": 2323,
      "ina_": 2324,
      "s_W": 2325,
      "1921_film": 2326,
      "were": 2327,
      "iro": 2328,
      "oshi": 2329,
      "Human": 2330,
      "Shira": 2331,
      "_Karim": 2332,
      "Rep": 2333,
      "_Men": 2334,
      "_Bo": 2335,
      "1926_film": 2336,
      "Ferry": 2337,
      "enter": 2338,
      "omer": 2339,
      "akash": 2340,
      "Kalyana": 2341,
      "Hunt": 2342,
      "fiction": 2343,
      "mit": 2344,
      "ing_the_": 2345,
      "osed": 2346,
      "_Fl": 2347,
      "_All": 2348,
      "Ferry_": 2349,
      "Niniek_L": 2350,
      "ator": 2351,
      "ote": 2352,
      "Jakarta": 2353,
      "uart": 2354,
      "rich": 2355,
      "_Rian": 2356,
      "1997_film": 2357,
      "Sarah": 2358,
      "Andi_Rian": 2359,
      "Lola_Amaria": 2360,
      "Ferry_Salim": 2361,
      "Andi_Rianto": 2362,
      "andr": 2363,
      "Courtesan": 2364,
      "Eric": 2365,
      "Rem": 2366,
      "1999_film": 2367,
      "Pet": 2368,
      "loyd": 2369,
      "reak": 2370,
      "aya": 2371,
      "aly": 2372,
      "edd": 2373,
      "s_and": 2374,
      "aylor": 2375,
      "_Dav": 2376,
      "Chris_": 2377,
      "1998_film": 2378,
      "ctor": 2379,
      "rey": 2380,
      "1980_film": 2381,
      "1922_film": 2382,
      "e_I": 2383,
      "Cast": 2384,
      "Vinc": 2385,
      "orig": 2386,
      "Bhar": 2387,
      "gin": 2388,
      "hm": 2389,
      "andi": 2390,
      "add": 2391,
      "ance_": 2392,
      "2002_film": 2393,
      "ceived": 2394,
      "Barbar": 2395,
      "Leon": 2396,
      "_Mur": 2397,
      "1928_film": 2398,
      "Between": 2399,
      "Mah": 2400,
      "Holid": 2401,
      "Just": 2402,
      "Path": 2403,
      "ico": 2404,
      "_Evil": 2405,
      "ernand": 2406,
      "_Blood": 2407,
      "Hugh": 2408,
      "filmmaker": 2409,
      "aven": 2410,
      "more": 2411,
      "ada_": 2412,
      "_Gl": 2413,
      "2000": 2414,
      "raw": 2415,
      "1927_film": 2416,
      "58": 2417,
      "2012": 2418,
      "Van": 2419,
      "1936_film": 2420,
      "_The_Movie": 2421,
      "Bho": 2422,
      "oud": 2423,
      "High": 2424,
      "e_Cl": 2425,
      "iful": 2426,
      "Home_": 2427,
      "col": 2428,
      "ois": 2429,
      "oz": 2430,
      "young": 2431,
      "ura": 2432,
      "1985_film": 2433,
      "me": 2434,
      "Austr": 2435,
      "animated": 2436,
      "Ra": 2437,
      "Under": 2438,
      "Detective_Con": 2439,
      "Detective_Conan": 2440,
      "Kid": 2441,
      "ele": 2442,
      "Rod": 2443,
      "Vin": 2444,
      "_Wil": 2445,
      "_For": 2446,
      "Prett": 2447,
      "Pul": 2448,
      "bro": 2449,
      "sch": 2450,
      "thew": 2451,
      "Joan": 2452,
      "2000_film": 2453,
      "_Don": 2454,
      "ation_": 2455,
      "Behind": 2456,
      "Vir": 2457,
      "icol": 2458,
      "_Tr": 2459,
      "1995_film": 2460,
      "1987_film": 2461,
      "Johnson": 2462,
      "Perfect": 2463,
      "ankar": 2464,
      "get": 2465,
      "2005": 2466,
      "Project": 2467,
      "Francis": 2468,
      "Mac": 2469,
      "vin": 2470,
      "ette": 2471,
      "elle": 2472,
      "y_P": 2473,
      "Def": 2474,
      "1996_film": 2475,
      "ika": 2476,
      "production": 2477,
      "2021_film": 2478,
      "als": 2479,
      "antom": 2480,
      "le_of": 2481,
      "1934_film": 2482,
      "Ey": 2483,
      "e_to": 2484,
      "Demon": 2485,
      "_Ex": 2486,
      "Hold": 2487,
      "erson": 2488,
      "Denn": 2489,
      "Ma": 2490,
      "ci": 2491,
      "along": 2492,
      "_Gu": 2493,
      "shot": 2494,
      "ugust": 2495,
      "Kh": 2496,
      "Mr": 2497,
      "kins": 2498,
      "ington": 2499,
      "_Har": 2500,
      "_Kh": 2501,
      "1929_film": 2502,
      "Bruc": 2503,
      "Pier": 2504,
      "achel": 2505,
      "22": 2506,
      "Pya": 2507,
      "mark": 2508,
      "_Cr": 2509,
      "_Rid": 2510,
      "Bed": 2511,
      "Bet": 2512,
      "Cand": 2513,
      "ler_": 2514,
      "_Boy": 2515,
      "1978_film": 2516,
      "Scand": 2517,
      "istor": 2518,
      "Princess_": 2519,
      "atterjee": 2520,
      "character": 2521,
      "ience": 2522,
      "Beast": 2523,
      "anner": 2524,
      "ridge": 2525,
      "bi": 2526,
      "urs": 2527,
      "2006": 2528,
      "ard_": 2529,
      "inds": 2530,
      "_Christ": 2531,
      "ograph": 2532,
      "Carry_On": 2533,
      "Child": 2534,
      "Eliz": 2535,
      "e_A": 2536,
      "oman_": 2537,
      "Davis": 2538,
      "premiered": 2539,
      "Cali": 2540,
      "Pres": 2541,
      "lav": 2542,
      "rat": 2543,
      "te": 2544,
      "John_H": 2545,
      "ks": 2546,
      "ve": 2547,
      "rain": 2548,
      "arker": 2549,
      "Sup": 2550,
      "__1": 2551,
      "Acad": 2552,
      "Rao": 2553,
      "avan": 2554,
      "akan": 2555,
      "apoor": 2556,
      "forn": 2557,
      "Clau": 2558,
      "iol": 2559,
      "o_R": 2560,
      "itter": 2561,
      "Art": 2562,
      "remake": 2563,
      "ien": 2564,
      "stein": 2565,
      "ummer": 2566,
      "Far": 2567,
      "Prom": 2568,
      "during": 2569,
      "_Jo": 2570,
      "Dem": 2571,
      "Blue_": 2572,
      "As": 2573,
      "Wood": 2574,
      "Daughter": 2575,
      "Saw": 2576,
      "rest": 2577,
      "ivers": 2578,
      "ester": 2579,
      "_Heart": 2580,
      "Helen": 2581,
      "ular": 2582,
      "here": 2583,
      "Love": 2584,
      "Bad": 2585,
      "Mont": 2586,
      "oir": 2587,
      "ale_": 2588,
      "John_L": 2589,
      "Kenneth": 2590,
      "Cat": 2591,
      "2001_film": 2592,
      "ideo": 2593,
      "Vincent": 2594,
      "09": 2595,
      "Jud": 2596,
      "she": 2597,
      "ations": 2598,
      "_Is_": 2599,
      "Cyr": 2600,
      "received": 2601,
      "2020_film": 2602,
      "ire_": 2603,
      "_Pre": 2604,
      "a_Rao": 2605,
      "Mir": 2606,
      "Rub": 2607,
      "rip": 2608,
      "ions": 2609,
      "Honey": 2610,
      "Border": 2611,
      "idnight": 2612,
      "_War": 2613,
      "1972_film": 2614,
      "Crime_": 2615,
      "and_": 2616,
      "_My_": 2617,
      "Go": 2618,
      "Sa": 2619,
      "_Nag": 2620,
      "49": 2621,
      "perfor": 2622,
      "Hung": 2623,
      "most": 2624,
      "Studi": 2625,
      "ofess": 2626,
      "Herbert": 2627,
      "13": 2628,
      "At": 2629,
      "His": 2630,
      "between": 2631,
      "Kumar": 2632,
      "Wil": 2633,
      "cont": 2634,
      "ingh": 2635,
      "1920_film": 2636,
      "ade_": 2637,
      "udu": 2638,
      "1954_film": 2639,
      "Japanese": 2640,
      "Californ": 2641,
      "Bomb": 2642,
      "now": 2643,
      "leg": 2644,
      "Dan": 2645,
      "Jones": 2646,
      "na": 2647,
      "nam": 2648,
      "s_T": 2649,
      "_Man_": 2650,
      "able": 2651,
      "_of_H": 2652,
      "Part": 2653,
      "iar": 2654,
      "a_A": 2655,
      "_Tim": 2656,
      "1974_film": 2657,
      "1918_film": 2658,
      "Fernand": 2659,
      "chi": 2660,
      "Arch": 2661,
      "Phantom": 2662,
      "Elizabeth": 2663,
      "Cyril": 2664,
      "Gil": 2665,
      "Rough": 2666,
      "o_C": 2667,
      "1935_film": 2668,
      "Saturd": 2669,
      "Whit": 2670,
      "2004": 2671,
      "including": 2672,
      "Academy": 2673,
      "umm": 2674,
      "akes": 2675,
      "qui": 2676,
      "Golden": 2677,
      "Bird": 2678,
      "z_": 2679,
      "_Me": 2680,
      "abh": 2681,
      "aster": 2682,
      "_The_F": 2683,
      "1917_film": 2684,
      "Roll": 2685,
      "Your": 2686,
      "ker": 2687,
      "ze": 2688,
      "Dennis": 2689,
      "ya_": 2690,
      "ing_P": 2691,
      "_Gold": 2692,
      "que": 2693,
      "Michel": 2694,
      "ais": 2695,
      "ics": 2696,
      "annah": 2697,
      "glas": 2698,
      "care": 2699,
      "ne_": 2700,
      "ers_of_the_": 2701,
      "1949_film": 2702,
      "Emil": 2703,
      "time": 2704,
      "Dean": 2705,
      "Stuart": 2706,
      "North": 2707,
      "Han": 2708,
      "oint": 2709,
      "starred": 2710,
      "_Hous": 2711,
      "_Per": 2712,
      "all_": 2713,
      "December": 2714,
      "Lloyd": 2715,
      "Son": 2716,
      "aru": 2717,
      "alu": 2718,
      "Ernest": 2719,
      "Bett": 2720,
      "ey_": 2721,
      "ious": 2722,
      "ould": 2723,
      "ys": 2724,
      "ats": 2725,
      "ichol": 2726,
      "Bod": 2727,
      "Nick": 2728,
      "ple_": 2729,
      "in_Sh": 2730,
      "it_": 2731,
      "_Kong": 2732,
      "song": 2733,
      "score": 2734,
      "_William": 2735,
      "car": 2736,
      "agon": 2737,
      "Beautiful": 2738,
      "Luis": 2739,
      "Gab": 2740,
      "ón": 2741,
      "anam": 2742,
      "ter_": 2743,
      "_Bh": 2744,
      "erica": 2745,
      "Desper": 2746,
      "Me": 2747,
      "ula": 2748,
      "eff": 2749,
      "_Kill": 2750,
      "Production": 2751,
      "orm": 2752,
      "Destin": 2753,
      "Prin": 2754,
      "nold": 2755,
      "ue_": 2756,
      "ore_": 2757,
      "y_R": 2758,
      "_Com": 2759,
      "_Her": 2760,
      "_Pat": 2761,
      "1993_film": 2762,
      "uzz": 2763,
      "Cra": 2764,
      "ty": 2765,
      "musician": 2766,
      "lyn": 2767,
      "Gordon": 2768,
      "played": 2769,
      "Nag": 2770,
      "Public": 2771,
      "Mohan": 2772,
      "Nas": 2773,
      "right": 2774,
      "ent_": 2775,
      "Andr": 2776,
      "stery": 2777,
      "ven": 2778,
      "_Pe": 2779,
      "ister": 2780,
      "while": 2781,
      "_American": 2782,
      "Matthew": 2783,
      "Ir": 2784,
      "Rome": 2785,
      "ode": 2786,
      "la_": 2787,
      "second": 2788,
      "film_series": 2789,
      "_God": 2790,
      "Bernard": 2791,
      "Bor": 2792,
      "Bhag": 2793,
      "Bas": 2794,
      "Co": 2795,
      "Mex": 2796,
      "Pud": 2797,
      "line": 2798,
      "Caf": 2799,
      "Allen": 2800,
      "Oliv": 2801,
      "thers": 2802,
      "irk": 2803,
      "Dick": 2804,
      "Sol": 2805,
      "1986_film": 2806,
      "1984_film": 2807,
      "endra": 2808,
      "cher": 2809,
      "ble_": 2810,
      "boy": 2811,
      "way_": 2812,
      "Marsh": 2813,
      "1991_film": 2814,
      "1975_film": 2815,
      "Im": 2816,
      "ales": 2817,
      "els": 2818,
      "Rang": 2819,
      "eal": 2820,
      "_No": 2821,
      "from_the_": 2822,
      "End": 2823,
      "61": 2824,
      "tain": 2825,
      "lem": 2826,
      "liott": 2827,
      "led": 2828,
      "_Mag": 2829,
      "1988_film": 2830,
      "Batman": 2831,
      "friend": 2832,
      "irth": 2833,
      "abb": 2834,
      "aff": 2835,
      "ame_": 2836,
      "_Bur": 2837,
      "_of_S": 2838,
      "Star": 2839,
      "Doroth": 2840,
      "Pyaar": 2841,
      "Radh": 2842,
      "oom": 2843,
      "Smith": 2844,
      "urai": 2845,
      "States": 2846,
      "Douglas": 2847,
      "i_B": 2848,
      "ic_": 2849,
      "Carlo": 2850,
      "_Black": 2851,
      "Beauty_": 2852,
      "ographical": 2853,
      "career": 2854,
      "Apr": 2855,
      "Leg": 2856,
      "riff": 2857,
      "ase": 2858,
      "vers": 2859,
      "Thil": 2860,
      "The_H": 2861,
      "_Kumar": 2862,
      "eman": 2863,
      "through": 2864,
      "6000": 2865,
      "Crime_film": 2866,
      "Naz": 2867,
      "akt": 2868,
      "o_S": 2869,
      "von": 2870,
      "ories": 2871,
      "_West": 2872,
      "1990_film": 2873,
      "1982_film": 2874,
      "1930_film": 2875,
      "rishna": 2876,
      "Penn": 2877,
      "Rag": 2878,
      "aye": 2879,
      "Enter": 2880,
      "48": 2881,
      "Matt": 2882,
      "_at": 2883,
      "fer": 2884,
      "o_G": 2885,
      "1919": 2886,
      "_Cor": 2887,
      "_Pol": 2888,
      "2001": 2889,
      "Psych": 2890,
      "Quick": 2891,
      "Berlin": 2892,
      "i_R": 2893,
      "mil": 2894,
      "_Cop": 2895,
      "arren": 2896,
      "illa": 2897,
      "science": 2898,
      "Thilakan": 2899,
      "1950_film": 2900,
      "oney_": 2901,
      "5700": 2902,
      "del": 2903,
      "than": 2904,
      "awa": 2905,
      "Ver": 2906,
      "_director": 2907,
      "re_": 2908,
      "video": 2909,
      "Thre": 2910,
      "acy": 2911,
      "_Woman": 2912,
      "_of_M": 2913,
      "round": 2914,
      "Albert": 2915,
      "1947_film": 2916,
      "anda": 2917,
      "ades": 2918,
      "ship": 2919,
      "plot": 2920,
      "30": 2921,
      "Il": 2922,
      "Mas": 2923,
      "Rick": 2924,
      "Sri": 2925,
      "_de_": 2926,
      "uan": 2927,
      "rec": 2928,
      "ition": 2929,
      "Dek": 2930,
      "_Wat": 2931,
      "1992_film": 2932,
      "1977_film": 2933,
      "aby": 2934,
      "Sanj": 2935,
      "Pyar": 2936,
      "_with": 2937,
      "adventure": 2938,
      "_Hill": 2939,
      "um_": 2940,
      "1973_film": 2941,
      "eeth": 2942,
      "Spanish": 2943,
      "Little_M": 2944,
      "eptember": 2945,
      "akrab": 2946,
      "iving": 2947,
      "Studios": 2948,
      "_Up": 2949,
      "s_F": 2950,
      "_But": 2951,
      "_Rob": 2952,
      "ella": 2953,
      "1994_film": 2954,
      "1952_film": 2955,
      "adaptation": 2956,
      "Kat": 2957,
      "ja": 2958,
      "vo": 2959,
      "olph": 2960,
      "irc": 2961,
      "15": 2962,
      "lis": 2963,
      "less_": 2964,
      "The_P": 2965,
      "1940_film": 2966,
      "Telugu_language": 2967,
      "Jr": 2968,
      "Way": 2969,
      "kumar": 2970,
      "pres": 2971,
      "side": 2972,
      "Williams": 2973,
      "2021": 2974,
      "orrow": 2975,
      "Barr": 2976,
      "Hall": 2977,
      "Tak": 2978,
      "dom": 2979,
      "tran": 2980,
      "ing_S": 2981,
      "riz": 2982,
      "The_D": 2983,
      "ong_": 2984,
      "1948_film": 2985,
      "Cinem": 2986,
      "gent": 2987,
      "world": 2988,
      "Mary_": 2989,
      "1946_film": 2990,
      "_Frank": 2991,
      "04": 2992,
      "Hay": 2993,
      "aal": 2994,
      "Mary": 2995,
      "erner": 2996,
      "line_": 2997,
      "rew": 2998,
      "Return_of_the_": 2999,
      "Gun": 3000,
      "Trav": 3001,
      "light": 3002,
      "aki": 3003,
      "thy": 3004,
      "asi": 3005,
      "_Jack": 3006,
      "Pras": 3007,
      "1932_film": 3008,
      "rican": 3009,
      "Bon": 3010,
      "hol": 3011,
      "mand": 3012,
      "vs": 3013,
      "adow": 3014,
      "August": 3015,
      "Holl": 3016,
      "Lind": 3017,
      "_Mac": 3018,
      "_Life": 3019,
      "City": 3020,
      "umber": 3021,
      "Russell": 3022,
      "02": 3023,
      "Pen": 3024,
      "September": 3025,
      "ni": 3026,
      "wa": 3027,
      "_Col": 3028,
      "Lee": 3029,
      "Vis": 3030,
      "later": 3031,
      "die": 3032,
      "iger": 3033,
      "back": 3034,
      "three": 3035,
      "ato": 3036,
      "ural": 3037,
      "The_St": 3038,
      "_Co": 3039,
      "_Part": 3040,
      "upta": 3041,
      "1960_film": 3042,
      "Hugo": 3043,
      "Hong_Kong": 3044,
      "01": 3045,
      "ness": 3046,
      "sur": 3047,
      "Deew": 3048,
      "Chand": 3049,
      "Jonathan": 3050,
      "Push": 3051,
      "ings_": 3052,
      "s_D": 3053,
      "_Mart": 3054,
      "ave_": 3055,
      "ques": 3056,
      "_Young": 3057,
      "banner": 3058,
      "aine": 3059,
      "Mount": 3060,
      "Australian": 3061,
      "Rachel": 3062,
      "ft": 3063,
      "_Bell": 3064,
      "acc": 3065,
      "ranch": 3066,
      "_Or": 3067,
      "Frank_Mc": 3068,
      "Return_to": 3069,
      "Jennif": 3070,
      "900": 3071,
      "Nicol": 3072,
      "histor": 3073,
      "ki": 3074,
      "za": 3075,
      "amar": 3076,
      "epend": 3077,
      "April": 3078,
      "640": 3079,
      "ji": 3080,
      "_Me_": 3081,
      "ains": 3082,
      "1983_film": 3083,
      "ecial": 3084,
      "Quest": 3085,
      "e_Mc": 3086,
      "Donn": 3087,
      "Case_Cl": 3088,
      "woman": 3089,
      "1993": 3090,
      "Cad": 3091,
      "Dann": 3092,
      "Fantasy": 3093,
      "four": 3094,
      "year": 3095,
      "That": 3096,
      "s_G": 3097,
      "_Khan": 3098,
      "_Val": 3099,
      "Univers": 3100,
      "03": 3101,
      "Nav": 3102,
      "vest": 3103,
      "Films": 3104,
      "sound": 3105,
      "enge": 3106,
      "Kam": 3107,
      "Nov": 3108,
      "alog": 3109,
      "1941_film": 3110,
      "head": 3111,
      "Ele": 3112,
      "Li": 3113,
      "br": 3114,
      "March": 3115,
      "aint": 3116,
      "organ": 3117,
      "Blue": 3118,
      "Kay_": 3119,
      "My_": 3120,
      "_on_the_": 3121,
      "rin": 3122,
      "s_B": 3123,
      "_Ben": 3124,
      "et_M": 3125,
      "_Ke": 3126,
      "1999": 3127,
      "ope": 3128,
      "_Story": 3129,
      "The_Last": 3130,
      "appeared": 3131,
      "BC": 3132,
      "ahn": 3133,
      "family": 3134,
      "Brad": 3135,
      "uccess": 3136,
      "Oct": 3137,
      "ge_": 3138,
      "ko": 3139,
      "ica": 3140,
      "ters": 3141,
      "_Hol": 3142,
      "_Red": 3143,
      "elly": 3144,
      "ella_": 3145,
      "Carm": 3146,
      "Lee_": 3147,
      "_White_": 3148,
      "Case_Closed": 3149,
      "La": 3150,
      "asc": 3151,
      "ism": 3152,
      "Norman": 3153,
      "Music": 3154,
      "ober": 3155,
      "ory_": 3156,
      "ali_": 3157,
      "s_L": 3158,
      "The_B": 3159,
      "Love_": 3160,
      "Puth": 3161,
      "par": 3162,
      "arro": 3163,
      "1992": 3164,
      "1998": 3165,
      "Beat": 3166,
      "Hu": 3167,
      "Ur": 3168,
      "s_C": 3169,
      "utch": 3170,
      "Ham": 3171,
      "Ish": 3172,
      "erv": 3173,
      "adway": 3174,
      "ider": 3175,
      "original": 3176,
      "Fox": 3177,
      "ired": 3178,
      "aron": 3179,
      "reg": 3180,
      "aman": 3181,
      "_Mo": 3182,
      "_Mock": 3183,
      "Rose": 3184,
      "inning": 3185,
      "born": 3186,
      "tell": 3187,
      "ilian": 3188,
      "ican": 3189,
      "Story": 3190,
      "House": 3191,
      "box": 3192,
      "III": 3193,
      "Carnival": 3194,
      "Craig": 3195,
      "Madh": 3196,
      "_Dev": 3197,
      "_Sar": 3198,
      "ille_": 3199,
      "_Wish": 3200,
      "_Ne": 3201,
      "1995": 3202,
      "1989": 3203,
      "1937_film": 3204,
      "orty": 3205,
      "Samurai": 3206,
      "Person": 3207,
      "_Paradi": 3208,
      "pect": 3209,
      "Bever": 3210,
      "Catch": 3211,
      "Dam": 3212,
      "ić": 3213,
      "reat": 3214,
      "_Pleas": 3215,
      "1996": 3216,
      "eerudd": 3217,
      "Cyril_J": 3218,
      "Naseerudd": 3219,
      "Fantasy_film": 3220,
      "_Mockridge": 3221,
      "this": 3222,
      "directorial": 3223,
      "Roger": 3224,
      "Ian": 3225,
      "Jam": 3226,
      "Jag": 3227,
      "Meg": 3228,
      "Old": 3229,
      "The_R": 3230,
      "_Wild": 3231,
      "_Des": 3232,
      "Philipp": 3233,
      "64": 3234,
      "Nar": 3235,
      "success": 3236,
      "adu": 3237,
      "child": 3238,
      "Billy_": 3239,
      "Julie_": 3240,
      "English_language": 3241,
      "elv": 3242,
      "ump": 3243,
      "Blond": 3244,
      "ief": 3245,
      "Eng": 3246,
      "rug": 3247,
      "on_a_": 3248,
      "un_": 3249,
      "_Rock": 3250,
      "aster_": 3251,
      "iamond": 3252,
      "Donald_": 3253,
      "_Scott": 3254,
      "foot": 3255,
      "2020": 3256,
      "ima": 3257,
      "Inn": 3258,
      "ithout": 3259,
      "1991": 3260,
      "Christian": 3261,
      "Alexander": 3262,
      "Patt": 3263,
      "worth": 3264,
      "unk": 3265,
      "_Back": 3266,
      "top": 3267,
      "_Fr": 3268,
      "Beau": 3269,
      "1981_film": 3270,
      "Book": 3271,
      "Alfred": 3272,
      "in_Shah": 3273,
      "Beg": 3274,
      "ike": 3275,
      "Vijay": 3276,
      "Dar": 3277,
      "Hal": 3278,
      "Rand": 3279,
      "Sk": 3280,
      "ha_": 3281,
      "_Friend": 3282,
      "ainst": 3283,
      "1985": 3284,
      "1939_film": 3285,
      "1955_film": 3286,
      "_Out": 3287,
      "Scarlet": 3288,
      "California_": 3289,
      "po": 3290,
      "oup": 3291,
      "itha": 3292,
      "14": 3293,
      "East": 3294,
      "Flor": 3295,
      "earl": 3296,
      "ary_": 3297,
      "ot_": 3298,
      "_Dog": 3299,
      "elle_": 3300,
      "_Landers": 3301,
      "Lew_Landers": 3302,
      "Raymond": 3303,
      "25": 3304,
      "Bi": 3305,
      "Sall": 3306,
      "Kathle": 3307,
      "Ka": 3308,
      "jun": 3309,
      "_Mon": 3310,
      "ath_": 3311,
      "Naseeruddin_Shah": 3312,
      "17": 3313,
      "Bur": 3314,
      "gomer": 3315,
      "award": 3316,
      "Ever": 3317,
      "Sl": 3318,
      "Sark": 3319,
      "1958_film": 3320,
      "Cameron": 3321,
      "ita_": 3322,
      "06": 3323,
      "Bol": 3324,
      "National": 3325,
      "Pay": 3326,
      "Pupp": 3327,
      "been": 3328,
      "mir": 3329,
      "pos": 3330,
      "elyn": 3331,
      "oper": 3332,
      "Prim": 3333,
      "akshmi": 3334,
      "black": 3335,
      "Fr": 3336,
      "se_": 3337,
      "_Mont": 3338,
      "Sher": 3339,
      "1997": 3340,
      "1953_film": 3341,
      "1969_film": 3342,
      "Keith": 3343,
      "nominated": 3344,
      "Krist": 3345,
      "ban": 3346,
      "yd": 3347,
      "ayam": 3348,
      "Chatterjee": 3349,
      "raham": 3350,
      "inder": 3351,
      "Bry": 3352,
      "sever": 3353,
      "yle": 3354,
      "s_the_": 3355,
      "_Can": 3356,
      "ira": 3357,
      "_King": 3358,
      "_Ed": 3359,
      "edit": 3360,
      "Nik": 3361,
      "singer": 3362,
      "onda": 3363,
      "Gill": 3364,
      "Larry_": 3365,
      "Ven": 3366,
      "sub": 3367,
      "Little": 3368,
      "Oliver": 3369,
      "Susan": 3370,
      "beg": 3371,
      "crit": 3372,
      "2022": 3373,
      "Simon": 3374,
      "October": 3375,
      "i_H": 3376,
      "they": 3377,
      "_Smith": 3378,
      "_Hall": 3379,
      "_Wid": 3380,
      "form": 3381,
      "1931_film": 3382,
      "_to_the_": 3383,
      "House_": 3384,
      "Jacques": 3385,
      "ivas": 3386,
      "Brand": 3387,
      "follow": 3388,
      "Lis": 3389,
      "Rh": 3390,
      "Ru": 3391,
      "jan": 3392,
      "around": 3393,
      "angal": 3394,
      "usin": 3395,
      "_Who": 3396,
      "1990": 3397,
      "1988": 3398,
      "ubb": 3399,
      "orean": 3400,
      "When": 3401,
      "Scandal": 3402,
      "1919_film": 3403,
      "05": 3404,
      "24": 3405,
      "Dawn": 3406,
      "Kong": 3407,
      "Lyn": 3408,
      "oviet": 3409,
      "16": 3410,
      "Ryan": 3411,
      "Vl": 3412,
      "where": 3413,
      "enz": 3414,
      "es_of": 3415,
      "emy_": 3416,
      "_That": 3417,
      "law": 3418,
      "mart": 3419,
      "tainment": 3420,
      "several": 3421,
      "Iran": 3422,
      "Say_": 3423,
      "ness_": 3424,
      "ral": 3425,
      "ida": 3426,
      "_World": 3427,
      "Hot": 3428,
      "Tw": 3429,
      "ange": 3430,
      "Street": 3431,
      "1987": 3432,
      "cent": 3433,
      "hal": 3434,
      "rad": 3435,
      "_Rich": 3436,
      "1986": 3437,
      "We": 3438,
      "gy": 3439,
      "tim": 3440,
      "Argent": 3441,
      "aas": 3442,
      "gi": 3443,
      "pre": 3444,
      "star": 3445,
      "Shankar": 3446,
      "_York": 3447,
      "1916_film": 3448,
      "Savag": 3449,
      "arried": 3450,
      "Sin": 3451,
      "jo": 3452,
      "Joe": 3453,
      "Steven": 3454,
      "Gabri": 3455,
      "Na": 3456,
      "new": 3457,
      "rud": 3458,
      "arm": 3459,
      "an_P": 3460,
      "aga": 3461,
      "_Roy": 3462,
      "_Do": 3463,
      "raj": 3464,
      "Bear": 3465,
      "ai_": 3466,
      "self": 3467,
      "5520": 3468,
      "Jennifer": 3469,
      "Nichol": 3470,
      "Rhy": 3471,
      "teen": 3472,
      "oft": 3473,
      "anti": 3474,
      "Derek": 3475,
      "People": 3476,
      "Av": 3477,
      "Rey": 3478,
      "_It": 3479,
      "yon": 3480,
      "alie_": 3481,
      "itical": 3482,
      "_Be_": 3483,
      "ional": 3484,
      "_Tak": 3485,
      "fore": 3486,
      "Holiday": 3487,
      "akraborty": 3488,
      "70": 3489,
      "Mim": 3490,
      "por": 3491,
      "lett": 3492,
      "ext": 3493,
      "baud": 3494,
      "Bhal": 3495,
      "Regin": 3496,
      "5640": 3497,
      "aser": 3498,
      "idd": 3499,
      "_Light": 3500,
      "uman": 3501,
      "El_": 3502,
      "1915_film": 3503,
      "Tamil_language": 3504,
      "5760": 3505,
      "key": 3506,
      "years": 3507,
      "umi": 3508,
      "Margar": 3509,
      "Bengali": 3510,
      "rawford": 3511,
      "500": 3512,
      "5100": 3513,
      "Fel": 3514,
      "Khan": 3515,
      "_3": 3516,
      "gan": 3517,
      "ative": 3518,
      "_Cam": 3519,
      "_Ap": 3520,
      "able_": 3521,
      "_Em": 3522,
      "Boy_": 3523,
      "Nature_": 3524,
      "One": 3525,
      "Vik": 3526,
      "agh": 3527,
      "ello": 3528,
      "ainbaud": 3529,
      "Beach": 3530,
      "ipp": 3531,
      "alker": 3532,
      "Antonio": 3533,
      "Archainbaud": 3534,
      "Power": 3535,
      "_Hom": 3536,
      "_David": 3537,
      "Nature_documentary": 3538,
      "Green": 3539,
      "Hunter": 3540,
      "Tar": 3541,
      "Tor": 3542,
      "Wall": 3543,
      "du": 3544,
      "andit": 3545,
      "unch": 3546,
      "olan": 3547,
      "illip": 3548,
      "Adventure": 3549,
      "Lewis": 3550,
      "Productions": 3551,
      "21": 3552,
      "360": 3553,
      "Nam": 3554,
      "burn": 3555,
      "eel": 3556,
      "franch": 3557,
      "girl": 3558,
      "o_D": 3559,
      "pri": 3560,
      "ena": 3561,
      "Chin": 3562,
      "ecut": 3563,
      "One_": 3564,
      "Glenn": 3565,
      "Frances": 3566,
      "Warner": 3567,
      "Direct": 3568,
      "Home": 3569,
      "Husband": 3570,
      "Luk": 3571,
      "pop": 3572,
      "oland": 3573,
      "Produc": 3574,
      "Ja": 3575,
      "Pu": 3576,
      "ues": 3577,
      "ide_": 3578,
      "_Wit": 3579,
      "raz": 3580,
      "1951_film": 3581,
      "1968_film": 3582,
      "cinema": 3583,
      "Act": 3584,
      "Say": 3585,
      "Anim": 3586,
      "comedi": 3587,
      "adapted": 3588,
      "riffith": 3589,
      "franchise": 3590,
      "08": 3591,
      "Mam": 3592,
      "Ric": 3593,
      "real": 3594,
      "a_of": 3595,
      "_Wall": 3596,
      "_Taylor": 3597,
      "1938_film": 3598,
      "1965_film": 3599,
      "_On": 3600,
      "5280": 3601,
      "Prince_": 3602,
      "50": 3603,
      "Pran": 3604,
      "Soviet": 3605,
      "onz": 3606,
      "ola": 3607,
      "owell": 3608,
      "aka": 3609,
      "ection": 3610,
      "ukher": 3611,
      "Russian": 3612,
      "Jung": 3613,
      "i_G": 3614,
      "_City_": 3615,
      "_Ph": 3616,
      "American_TV_series": 3617,
      "coming": 3618,
      "oe": 3619,
      "olves": 3620,
      "Box": 3621,
      "performan": 3622,
      "340": 3623,
      "6300": 3624,
      "Rest": 3625,
      "1959_film": 3626,
      "1967_film": 3627,
      "office": 3628,
      "theatric": 3629,
      "George_Archainbaud": 3630,
      "5580": 3631,
      "Entertainment": 3632,
      "Dream": 3633,
      "Yam": 3634,
      "empt": 3635,
      "Profess": 3636,
      "iews": 3637,
      "ait": 3638,
      "_Mr": 3639,
      "ovie_": 3640,
      "_Wood": 3641,
      "iver_": 3642,
      "Blaz": 3643,
      "_Ter": 3644,
      "_Not": 3645,
      "ruth": 3646,
      "arajan": 3647,
      "Secret": 3648,
      "bur": 3649,
      "cr": 3650,
      "emm": 3651,
      "before": 3652,
      "theatre": 3653,
      "Bos": 3654,
      "Kr": 3655,
      "_or": 3656,
      "lov": 3657,
      "o_F": 3658,
      "rote": 3659,
      "_Sk": 3660,
      "_Russ": 3661,
      "Maria_": 3662,
      "ewart": 3663,
      "phy": 3664,
      "Punch": 3665,
      "United_St": 3666,
      "Woman": 3667,
      "uary": 3668,
      "ava": 3669,
      "aja": 3670,
      "Valent": 3671,
      "Hul": 3672,
      "jam": 3673,
      "ompson": 3674,
      "5460": 3675,
      "June": 3676,
      "People_": 3677,
      "United_States": 3678,
      "Ho": 3679,
      "cia": 3680,
      "da": 3681,
      "ene": 3682,
      "anders": 3683,
      "elson": 3684,
      "Chan": 3685,
      "ants": 3686,
      "Bright": 3687,
      "Romantic": 3688,
      "Prairi": 3689,
      "Virgin": 3690,
      "Kill": 3691,
      "hel": 3692,
      "eder": 3693,
      "_Sund": 3694,
      "ady_": 3695,
      "ur_": 3696,
      "_Women": 3697,
      "_Der": 3698,
      "_Dream": 3699,
      "ant_": 3700,
      "1978": 3701,
      "ondon": 3702,
      "_Is": 3703,
      "heim": 3704,
      "Sank": 3705,
      "Riders_of_the_": 3706,
      "Royal": 3707,
      "cinemat": 3708,
      "Sm": 3709,
      "Sund": 3710,
      "fantasy": 3711,
      "Adri": 3712,
      "Bitter": 3713,
      "Good": 3714,
      "Ruth": 3715,
      "_Death": 3716,
      "cons": 3717,
      "arrell": 3718,
      "film_director": 3719,
      "ang_": 3720,
      "_City": 3721,
      "ukh": 3722,
      "ibal": 3723,
      "_Williams": 3724,
      "\".": 3725,
      "oto": 3726,
      "wrote": 3727,
      "Ang": 3728,
      "Mario": 3729,
      "Prakash": 3730,
      "Min": 3731,
      "Miss": 3732,
      "Py": 3733,
      "gram": 3734,
      "i_L": 3735,
      "last": 3736,
      "_Mitch": 3737,
      "_Ka": 3738,
      "1933_film": 3739,
      "Robert_F": 3740,
      "Queen_of_the_": 3741,
      "5820": 3742,
      "Beverly_": 3743,
      "mut": 3744,
      "wick": 3745,
      "owan": 3746,
      "abel": 3747,
      "Rog": 3748,
      "ific": 3749,
      "Brown": 3750,
      "Nanc": 3751,
      "such": 3752,
      "we": 3753,
      "ass_": 3754,
      "y_Cl": 3755,
      "leep": 3756,
      "_Bar": 3757,
      "_Leg": 3758,
      "_Ale": 3759,
      "annon": 3760,
      "awk": 3761,
      "aiy": 3762,
      "1961_film": 3763,
      "Britt": 3764,
      "Days_of": 3765,
      "Mexican": 3766,
      "Sab": 3767,
      "low": 3768,
      "love": 3769,
      "ora": 3770,
      "alv": 3771,
      "Show": 3772,
      "January": 3773,
      "historical": 3774,
      "Vladi": 3775,
      "Lost": 3776,
      "Pav": 3777,
      "ony": 3778,
      "ets": 3779,
      "_Ash": 3780,
      "_Trail": 3781,
      "_Shar": 3782,
      "Saty": 3783,
      "edding": 3784,
      "Barbara_": 3785,
      "bell": 3786,
      "iel": 3787,
      "ores": 3788,
      "otter": 3789,
      "book": 3790,
      "November": 3791,
      "Dian": 3792,
      "God": 3793,
      "ll": 3794,
      "my_": 3795,
      "ors_": 3796,
      "_High": 3797,
      "_Go": 3798,
      "_Two": 3799,
      "ood_": 3800,
      "Eli": 3801,
      "July": 3802,
      "Play": 3803,
      "07": 3804,
      "Op": 3805,
      "ti": 3806,
      "ots": 3807,
      "ante": 3808,
      "credit": 3809,
      "transl": 3810,
      "240": 3811,
      "Conn": 3812,
      "Karl": 3813,
      "Tur": 3814,
      "_from": 3815,
      "o_K": 3816,
      "Journ": 3817,
      "for_the_": 3818,
      "ahl": 3819,
      "_Jul": 3820,
      "George_S": 3821,
      "_Heaven": 3822,
      "Revol": 3823,
      "Dis": 3824,
      "father": 3825,
      "ising": 3826,
      "Saving": 3827,
      "Som": 3828,
      "Two": 3829,
      "_on": 3830,
      "bor": 3831,
      "high": 3832,
      "ena_": 3833,
      "them": 3834,
      "ffair": 3835,
      "ney_": 3836,
      "After": 3837,
      "Saturday_": 3838,
      "ependent": 3839,
      "Harr": 3840,
      "olk": 3841,
      "evi": 3842,
      "Hurrican": 3843,
      "o_P": 3844,
      "ones_": 3845,
      "s_2": 3846,
      "_My": 3847,
      "_Hop": 3848,
      "_Law": 3849,
      "_Tw": 3850,
      "_Town": 3851,
      "Anand": 3852,
      "1984": 3853,
      "Scen": 3854,
      "ylv": 3855,
      "Cag": 3856,
      "Ek": 3857,
      "Off": 3858,
      "Park": 3859,
      "Rug": 3860,
      "bec": 3861,
      "only": 3862,
      "Phil": 3863,
      "André": 3864,
      "Sel": 3865,
      "psych": 3866,
      "om_": 3867,
      "_Sand": 3868,
      "_Life_": 3869,
      "1982": 3870,
      "ocial": 3871,
      "land_": 3872,
      "Calling": 3873,
      "y_of_the_": 3874,
      "Marshall": 3875,
      "Cz": 3876,
      "Meet": 3877,
      "Rel": 3878,
      "Yu": 3879,
      "iya": 3880,
      "eller": 3881,
      "being": 3882,
      "Evelyn": 3883,
      "ography": 3884,
      "ukherjee": 3885,
      "Myr": 3886,
      "aunt": 3887,
      "ball": 3888,
      "final": 3889,
      "rice_": 3890,
      "ela": 3891,
      "ley_M": 3892,
      "_Bal": 3893,
      "show": 3894,
      "ck_": 3895,
      "onder": 3896,
      "_Strang": 3897,
      "Death_of_a_": 3898,
      "Patric": 3899,
      "Call_of_the_": 3900,
      "Behind_the_": 3901,
      "\",": 3902,
      "Santh": 3903,
      "Legend": 3904,
      "Bert": 3905,
      "ér": 3906,
      "dies": 3907,
      "a_de_": 3908,
      "_Mad": 3909,
      "_Bart": 3910,
      "_Ham": 3911,
      "_Rang": 3912,
      "_Af": 3913,
      "_Dark": 3914,
      "Purple_": 3915,
      "Battle_of": 3916,
      "Lesl": 3917,
      "alongside": 3918,
      "Comp": 3919,
      "Lar": 3920,
      "Ranj": 3921,
      "Sing": 3922,
      "Sur": 3923,
      "alt": 3924,
      "asu": 3925,
      "ole": 3926,
      "Joy": 3927,
      "Carmen": 3928,
      "ift": 3929,
      "urner": 3930,
      "Sean": 3931,
      "tells": 3932,
      "Gov": 3933,
      "les_": 3934,
      "mp": 3935,
      "omen_": 3936,
      "Thr": 3937,
      "_Bel": 3938,
      "to_": 3939,
      "Anup": 3940,
      "_Jr": 3941,
      "1976_film": 3942,
      "lands": 3943,
      "_Girls_": 3944,
      "ville": 3945,
      "Jerry_": 3946,
      "urtis": 3947,
      "Bryan": 3948,
      "27": 3949,
      "Cent": 3950,
      "Light": 3951,
      "nine": 3952,
      "yer": 3953,
      "dis": 3954,
      "esc": 3955,
      "utter": 3956,
      "Beth": 3957,
      "playing": 3958,
      "Wolf": 3959,
      "hard": 3960,
      "orah": 3961,
      "thm": 3962,
      "_Sim": 3963,
      "leton": 3964,
      "_Lo": 3965,
      "_Down": 3966,
      "Margaret": 3967,
      "Met": 3968,
      "Reb": 3969,
      "aig": 3970,
      "press": 3971,
      "ror": 3972,
      "third": 3973,
      "ago": 3974,
      "ito": 3975,
      "Alberto": 3976,
      "67": 3977,
      "940": 3978,
      "Vamp": 3979,
      "vis": 3980,
      "_Barr": 3981,
      "_Ge": 3982,
      "oph": 3983,
      "_Ey": 3984,
      "1971_film": 3985,
      "acher": 3986,
      "ashi": 3987,
      "_Babbar": 3988,
      "160": 3989,
      "Harry": 3990,
      "Sap": 3991,
      "aro": 3992,
      "Texas": 3993,
      "ists": 3994,
      "Julian": 3995,
      "Resident": 3996,
      "5340": 3997,
      "Ass": 3998,
      "Bonn": 3999,
      "Lor": 4000,
      "jab": 4001,
      "isch": 4002,
      "_Sil": 4003,
      "The_Great": 4004,
      "_Roman": 4005,
      "_Del": 4006,
      "allment": 4007,
      "ute": 4008,
      "ople": 4009,
      "1983": 4010,
      "_Ever": 4011,
      "_Jones": 4012,
      "On_the_": 4013,
      "Ride_": 4014,
      "School_for": 4015,
      "_Again": 4016,
      "5220": 4017,
      "installment": 4018,
      "Aaron": 4019,
      "Ble": 4020,
      "List": 4021,
      "Pass": 4022,
      "Sard": 4023,
      "main": 4024,
      "amy": 4025,
      "ulu": 4026,
      "epp": 4027,
      "White": 4028,
      "Aleks": 4029,
      "Is_": 4030,
      "Om": 4031,
      "mod": 4032,
      "ing_C": 4033,
      "ener": 4034,
      "s_to": 4035,
      "_Mark": 4036,
      "Anj": 4037,
      "ike_": 4038,
      "o_de_": 4039,
      "Priy": 4040,
      "Death_Wish": 4041,
      "Dead_Man": 4042,
      "amilton": 4043,
      "_America": 4044,
      "urder_": 4045,
      "ological": 4046,
      "Cop": 4047,
      "Siv": 4048,
      "Viv": 4049,
      "York": 4050,
      "sson": 4051,
      "ader": 4052,
      "irac": 4053,
      "rock": 4054,
      "epis": 4055,
      "Deborah": 4056,
      "Café": 4057,
      "Benn": 4058,
      "Korean": 4059,
      "Ted": 4060,
      "fe": 4061,
      "loc": 4062,
      "eni": 4063,
      "ams": 4064,
      "_Miller": 4065,
      "_Rub": 4066,
      "illo": 4067,
      "Joann": 4068,
      "Anne": 4069,
      "_of_F": 4070,
      "Marj": 4071,
      "1994": 4072,
      "1981": 4073,
      "Raj_Babbar": 4074,
      "_Ander": 4075,
      "Born_to": 4076,
      "biographical": 4077,
      "4800": 4078,
      "do": 4079,
      "ović": 4080,
      "Strang": 4081,
      "Christmas": 4082,
      "Mauri": 4083,
      "Tan": 4084,
      "Var": 4085,
      "il_": 4086,
      "filmed": 4087,
      "illon": 4088,
      "_Pro": 4089,
      "_Diamond": 4090,
      "eva": 4091,
      "_Fe": 4092,
      "ikk": 4093,
      "_Just": 4094,
      "hero": 4095,
      "_Chap": 4096,
      "Devi": 4097,
      "Johnny": 4098,
      "dep": 4099,
      "oli": 4100,
      "aver": 4101,
      "popular": 4102,
      "540": 4103,
      "Ay": 4104,
      "Ow": 4105,
      "Run": 4106,
      "hit": 4107,
      "e_and": 4108,
      "ayer": 4109,
      "_Parker": 4110,
      "uli": 4111,
      "_Street": 4112,
      "_III": 4113,
      "Braz": 4114,
      "Sub": 4115,
      "Tal": 4116,
      "Year": 4117,
      "down": 4118,
      "agi": 4119,
      "tog": 4120,
      "Brend": 4121,
      "ibb": 4122,
      "group": 4123,
      "Babu": 4124,
      "46": 4125,
      "Bang": 4126,
      "Fonda": 4127,
      "Hor": 4128,
      "Who": 4129,
      "_Qu": 4130,
      "i_Ch": 4131,
      "enberg": 4132,
      "_Mer": 4133,
      "_Borg": 4134,
      "_Baker": 4135,
      "_Hunter": 4136,
      "_Paul": 4137,
      "ouch": 4138,
      "_Dh": 4139,
      "house": 4140,
      "1971": 4141,
      "1979_film": 4142,
      "1951": 4143,
      "1957_film": 4144,
      "_Angel": 4145,
      "What": 4146,
      "featuring": 4147,
      "_Girls": 4148,
      "Battle_": 4149,
      "enkat": 4150,
      "Gilbert": 4151,
      "Marjor": 4152,
      "Happ": 4153,
      "Ry": 4154,
      "gang": 4155,
      "mov": 4156,
      "urder": 4157,
      "aku": 4158,
      "1980": 4159,
      "Arm": 4160,
      "Kathleen": 4161,
      "ili": 4162,
      "agg": 4163,
      "of_the_": 4164,
      "_Mount": 4165,
      "Bruce_": 4166,
      "Frank_McDonald_": 4167,
      "_Witney": 4168,
      "Hush": 4169,
      "ried": 4170,
      "eson": 4171,
      "Ing": 4172,
      "1940": 4173,
      "Soumit": 4174,
      "Henry": 4175,
      "Serge": 4176,
      "Prisoner": 4177,
      "Silv": 4178,
      "First": 4179,
      "Hell": 4180,
      "Sure": 4181,
      "break": 4182,
      "cow": 4183,
      "ín": 4184,
      "a_Th": 4185,
      "agan": 4186,
      "_Sol": 4187,
      "_Bra": 4188,
      "_Harr": 4189,
      "_Te": 4190,
      "Bros": 4191,
      "Once_": 4192,
      "Robot": 4193,
      "_End": 4194,
      "Neal": 4195,
      "Judy_": 4196,
      "Yuk": 4197,
      "both": 4198,
      "zi": 4199,
      "iment": 4200,
      "ital": 4201,
      "arden": 4202,
      "Bew": 4203,
      "1972": 4204,
      "Over": 4205,
      "adb": 4206,
      "Inter": 4207,
      "ah_": 4208,
      "_Ver": 4209,
      "atherine_": 4210,
      "Gerald": 4211,
      "5880": 4212,
      "Danger": 4213,
      "Jav": 4214,
      "Ly": 4215,
      "Pad": 4216,
      "Yev": 4217,
      "aam": 4218,
      "mother": 4219,
      "ras": 4220,
      "1975": 4221,
      "Colin": 4222,
      "23": 4223,
      "Barry_": 4224,
      "Kate_": 4225,
      "Sylv": 4226,
      "o_L": 4227,
      "thor": 4228,
      "_Bern": 4229,
      "alli": 4230,
      "1969": 4231,
      "France": 4232,
      "Allan": 4233,
      "Param": 4234,
      "Romance_": 4235,
      "_Khan_": 4236,
      "_American_film": 4237,
      "78": 4238,
      "Kapoor": 4239,
      "can": 4240,
      "nes": 4241,
      "oni": 4242,
      "Dest": 4243,
      "owe": 4244,
      "aking": 4245,
      "ahan": 4246,
      "1954": 4247,
      "rue": 4248,
      "Produced": 4249,
      "Vladimir": 4250,
      "Air": 4251,
      "Eug": 4252,
      "Lion": 4253,
      "Sky": 4254,
      "na_L": 4255,
      "sm": 4256,
      "onson": 4257,
      "ream_": 4258,
      "_Band": 4259,
      "_Crawford": 4260,
      "_Hunt": 4261,
      "akar": 4262,
      "Shadow": 4263,
      "rah": 4264,
      "awan": 4265,
      "aire": 4266,
      "1966_film": 4267,
      "que_": 4268,
      "William_Witney": 4269,
      "Big_B": 4270,
      "Night_": 4271,
      "Donald_Pleas": 4272,
      "mystery": 4273,
      "Donald_Pleasence": 4274,
      "ces": 4275,
      "fin": 4276,
      "ving": 4277,
      "andran": 4278,
      "isc": 4279,
      "entry": 4280,
      "irt": 4281,
      "odd": 4282,
      "shan": 4283,
      "aji": 4284,
      "1970": 4285,
      "obb": 4286,
      "Manoj": 4287,
      "Jackson": 4288,
      "Canada": 4289,
      "Nicholas": 4290,
      "Not": 4291,
      "u_S": 4292,
      "ille": 4293,
      "_Count": 4294,
      "_How": 4295,
      "idden": 4296,
      "igan": 4297,
      "_Kap": 4298,
      "American_actor": 4299,
      "1974": 4300,
      "1943_film": 4301,
      "1965": 4302,
      "Dead_": 4303,
      "Deadline_": 4304,
      "Boys_": 4305,
      "_Weis": 4306,
      "43": 4307,
      "Kaz": 4308,
      "hr": 4309,
      "less": 4310,
      "sim": 4311,
      "uy": 4312,
      "ution": 4313,
      "1959": 4314,
      "Scor": 4315,
      "portray": 4316,
      "_Un": 4317,
      "zt": 4318,
      "a_Z": 4319,
      "_Call": 4320,
      "_Fre": 4321,
      "emple": 4322,
      "Shah": 4323,
      "reviews": 4324,
      "lanet": 4325,
      "Jeffre": 4326,
      "_Anderson": 4327,
      "Glor": 4328,
      "Land": 4329,
      "Su": 4330,
      "Taylor": 4331,
      "ros": 4332,
      "andra": 4333,
      "ighter": 4334,
      "endez": 4335,
      "independent": 4336,
      "irit": 4337,
      "Sea": 4338,
      "igned": 4339,
      "Maxwell": 4340,
      "track": 4341,
      "version": 4342,
      "Pak": 4343,
      "River": 4344,
      "fast": 4345,
      "u_M": 4346,
      "ía": 4347,
      "iner": 4348,
      "_Camp": 4349,
      "_Wel": 4350,
      "ula_": 4351,
      "_Fer": 4352,
      "Road": 4353,
      "est_": 4354,
      "Marie_": 4355,
      "erica_": 4356,
      "1956_film": 4357,
      "Franç": 4358,
      "Head": 4359,
      "Billy": 4360,
      "ra_Chatterjee": 4361,
      "_Brown": 4362,
      "Santa_": 4363,
      "blem": 4364,
      "Cannes": 4365,
      "Silver": 4366,
      "Promis": 4367,
      "Little_Miss_": 4368,
      "Carmen_": 4369,
      "Soumitra_Chatterjee": 4370,
      "Hud": 4371,
      "Rah": 4372,
      "vill": 4373,
      "yay": 4374,
      "ript": 4375,
      "many": 4376,
      "1947": 4377,
      "1960": 4378,
      "etti": 4379,
      "Harold": 4380,
      "encer": 4381,
      "characters": 4382,
      "3600": 4383,
      "Wat": 4384,
      "ca": 4385,
      "yth": 4386,
      "at_the_": 4387,
      "osely": 4388,
      "oub": 4389,
      "Cher": 4390,
      "endr": 4391,
      "1944_film": 4392,
      "1962_film": 4393,
      "Pride_": 4394,
      "How_to_M": 4395,
      "Hero": 4396,
      "_Beaut": 4397,
      "_Elliott": 4398,
      "Revenge_of_the_": 4399,
      "Ernest_Borg": 4400,
      "26": 4401,
      "Hop": 4402,
      "Ugo": 4403,
      "Joel": 4404,
      "Ross": 4405,
      "Professor": 4406,
      "5940": 4407,
      "y_St": 4408,
      "_Mich": 4409,
      "The_Girl": 4410,
      "_Ho": 4411,
      "_At": 4412,
      "ardo": 4413,
      "ellow": 4414,
      "_Far": 4415,
      "away": 4416,
      "ociet": 4417,
      "insp": 4418,
      "Helmut": 4419,
      "_Robert": 4420,
      "_Christmas": 4421,
      "Dekalog": 4422,
      "George_Sanders": 4423,
      "Myrna_L": 4424,
      "Paramount": 4425,
      "Ernest_Borgnine": 4426,
      "Myrna_Loy": 4427,
      "Bay": 4428,
      "Maur": 4429,
      "Suk": 4430,
      "pic": 4431,
      "sit": 4432,
      "ening": 4433,
      "ovich": 4434,
      "Marie": 4435,
      "ebast": 4436,
      "Samuel": 4437,
      "Mock": 4438,
      "edish": 4439,
      "Fat": 4440,
      "Hrid": 4441,
      "Ig": 4442,
      "Rul": 4443,
      "str": 4444,
      "_San": 4445,
      "_Sav": 4446,
      "adas": 4447,
      "odes": 4448,
      "_Kid": 4449,
      "_Gun": 4450,
      "John_F": 4451,
      "_Star": 4452,
      "etty": 4453,
      "ekhar": 4454,
      "6060": 4455,
      "plays": 4456,
      "Josh": 4457,
      "_Space": 4458,
      "Prince_of": 4459,
      "_Greene": 4460,
      "_Murder": 4461,
      "4980": 4462,
      "Pyaar_K": 4463,
      "_Mitchell_": 4464,
      "Aj": 4465,
      "Ot": 4466,
      "To": 4467,
      "une": 4468,
      "rishnan": 4469,
      "Gabriel": 4470,
      "Dog": 4471,
      "Satt": 4472,
      "VD": 4473,
      "_John": 4474,
      "hart": 4475,
      "ux": 4476,
      "tha": 4477,
      "alia": 4478,
      "s_from": 4479,
      "itel": 4480,
      "_Conn": 4481,
      "_Gh": 4482,
      "_Day_": 4483,
      "ullet": 4484,
      "_Nar": 4485,
      "Prat": 4486,
      "1955": 4487,
      "1945_film": 4488,
      "1968": 4489,
      "1963_film": 4490,
      "_The_Last": 4491,
      "Mill": 4492,
      "Pus": 4493,
      "Ul": 4494,
      "cat": 4495,
      "olo": 4496,
      "aired": 4497,
      "1976": 4498,
      "1931": 4499,
      "Benjam": 4500,
      "raves": 4501,
      "nolds": 4502,
      "Aleksandr": 4503,
      "Gan": 4504,
      "Our": 4505,
      "Rav": 4506,
      "Sud": 4507,
      "may": 4508,
      "ps": 4509,
      "én": 4510,
      "ini_": 4511,
      "ing_B": 4512,
      "atural": 4513,
      "ed_S": 4514,
      "_Happ": 4515,
      "_Return": 4516,
      "_Wal": 4517,
      "_Tom": 4518,
      "_Ek": 4519,
      "o_and": 4520,
      "1952": 4521,
      "Clair": 4522,
      "_Paris": 4523,
      "_Adventure": 4524,
      "Holiday_": 4525,
      "Super": 4526,
      "early": 4527,
      "Code": 4528,
      "no": 4529,
      "sar": 4530,
      "ating": 4531,
      "ugh": 4532,
      "ogan": 4533,
      "oster": 4534,
      "rigan": 4535,
      "Hyp": 4536,
      "660": 4537,
      "Fre": 4538,
      "Rup": 4539,
      "hot": 4540,
      "lim": 4541,
      "ye": 4542,
      "in_P": 4543,
      "iles": 4544,
      "_Midnight": 4545,
      "ody_": 4546,
      "_Run": 4547,
      "_Let": 4548,
      "_Liv": 4549,
      "_Tog": 4550,
      "_of_": 4551,
      "romance": 4552,
      "1941": 4553,
      "ized": 4554,
      "3F_": 4555,
      "Boys": 4556,
      "have": 4557,
      "conc": 4558,
      "Henry_Fonda": 4559,
      "Desperate_": 4560,
      "Beauty_and_the_": 4561,
      "Mountain": 4562,
      "adbent": 4563,
      "Card": 4564,
      "Seven": 4565,
      "aat": 4566,
      "lost": 4567,
      "some": 4568,
      "ila": 4569,
      "agn": 4570,
      "aps": 4571,
      "Chris": 4572,
      "1977": 4573,
      "Brun": 4574,
      "President": 4575,
      "Suresh": 4576,
      "5160": 4577,
      "840": 4578,
      "Bud": 4579,
      "Based": 4580,
      "Kent": 4581,
      "Life_": 4582,
      "day_": 4583,
      "iern": 4584,
      "noir": 4585,
      "prev": 4586,
      "ino_": 4587,
      "anu": 4588,
      "ing_M": 4589,
      "_Carl": 4590,
      "_Pal": 4591,
      "ouble": 4592,
      "Room": 4593,
      "1970_film": 4594,
      "Moh": 4595,
      "unny": 4596,
      "Punjab": 4597,
      "Menon": 4598,
      "_House": 4599,
      "6120": 4600,
      "Prasad": 4601,
      "Gang": 4602,
      "dec": 4603,
      "inv": 4604,
      "dic": 4605,
      "expl": 4606,
      "Shel": 4607,
      "1973": 4608,
      "ether": 4609,
      "Lawren": 4610,
      "François": 4611,
      "Dal": 4612,
      "Vas": 4613,
      "thers_": 4614,
      "ries": 4615,
      "aving": 4616,
      "_Hell": 4617,
      "_Warri": 4618,
      "_Die": 4619,
      "Ins": 4620,
      "1979": 4621,
      "ollar": 4622,
      "enna": 4623,
      "oci": 4624,
      "_Show": 4625,
      "Preeth": 4626,
      "Moore": 4627,
      "Eddi": 4628,
      "offic": 4629,
      "Camille_": 4630,
      "Resident_Evil": 4631,
      "Bast": 4632,
      "Earth": 4633,
      "Nath": 4634,
      "Set": 4635,
      "Sach": 4636,
      "Te": 4637,
      "ges": 4638,
      "lad": 4639,
      "vey": 4640,
      "rie": 4641,
      "andro": 4642,
      "itri": 4643,
      "1953": 4644,
      "ected": 4645,
      "Robinson": 4646,
      "sets": 4647,
      "named": 4648,
      "Count": 4649,
      "La_": 4650,
      "Man_": 4651,
      "ae": 4652,
      "e_Th": 4653,
      "e_Ch": 4654,
      "uses": 4655,
      "otland": 4656,
      "_of_L": 4657,
      "ement": 4658,
      "_Nov": 4659,
      "Boog": 4660,
      "1939": 4661,
      "ister_": 4662,
      "Blood_": 4663,
      "Call_M": 4664,
      "_Destin": 4665,
      "_Girl_": 4666,
      "Timoth": 4667,
      "Jimm": 4668,
      "Anthony": 4669,
      "Claude_": 4670,
      "Marjorie_": 4671,
      "ebastian": 4672,
      "Tri": 4673,
      "Tam": 4674,
      "ied": 4675,
      "lar": 4676,
      "yde": 4677,
      "ingo": 4678,
      "arty": 4679,
      "Beck": 4680,
      "ajor": 4681,
      "anks": 4682,
      "Reneg": 4683,
      "Boris": 4684,
      "Yevgen": 4685,
      "Fort": 4686,
      "Hard": 4687,
      "Hans": 4688,
      "Lon": 4689,
      "Luck": 4690,
      "Morn": 4691,
      "Trail": 4692,
      "u_P": 4693,
      "uce": 4694,
      "ored": 4695,
      "rez": 4696,
      "atsu": 4697,
      "a_Man": 4698,
      "_Aur": 4699,
      "_Train": 4700,
      "Amb": 4701,
      "Round": 4702,
      "erick": 4703,
      "John_W": 4704,
      "_Joshi": 4705,
      "Robert_L": 4706,
      "Elliott": 4707,
      "Blood_and": 4708,
      "_Clark": 4709,
      "_Broadbent": 4710,
      "Columb": 4711,
      "Scary_M": 4712,
      "Broadway": 4713,
      "Jim_Broadbent": 4714,
      "people": 4715,
      "Before_the_": 4716,
      "Mockumentary": 4717,
      "Cec": 4718,
      "Gert": 4719,
      "Win": 4720,
      "bes": 4721,
      "ken": 4722,
      "aran": 4723,
      "onst": 4724,
      "rop": 4725,
      "Clark": 4726,
      "becom": 4727,
      "Leonard": 4728,
      "Disney": 4729,
      "440": 4730,
      "6600": 4731,
      "Meh": 4732,
      "Rit": 4733,
      "Ret": 4734,
      "Vill": 4735,
      "eep": 4736,
      "mel": 4737,
      "ala_": 4738,
      "_Sur": 4739,
      "_Rah": 4740,
      "oved": 4741,
      "_As": 4742,
      "atha": 4743,
      "shi": 4744,
      "_Nolan": 4745,
      "_Earth": 4746,
      "1950": 4747,
      "1964_film": 4748,
      "arkar": 4749,
      "Quiet": 4750,
      "loosely": 4751,
      "revor": 4752,
      "Detective_": 4753,
      "worked": 4754,
      "Eyes": 4755,
      "Nazarro": 4756,
      "_Georg": 4757,
      "DVD": 4758,
      "Gin": 4759,
      "Mort": 4760,
      "Rowd": 4761,
      "far": 4762,
      "reas": 4763,
      "oscow": 4764,
      "Deiv": 4765,
      "igg": 4766,
      "ovan": 4767,
      "former": 4768,
      "1935": 4769,
      "1943": 4770,
      "Grand": 4771,
      "Neil": 4772,
      "Kingdom": 4773,
      "eekend": 4774,
      "performance": 4775,
      "previous": 4776,
      "Fish": 4777,
      "Los": 4778,
      "Other": 4779,
      "ient": 4780,
      "ily": 4781,
      "odu": 4782,
      "_Good": 4783,
      "evel": 4784,
      "Ant": 4785,
      "radi": 4786,
      "1961": 4787,
      "_Child": 4788,
      "_Ven": 4789,
      "_Babu": 4790,
      "_Wilson_": 4791,
      "4920": 4792,
      "Cameron_Mitchell_": 4793,
      "Puppet_M": 4794,
      "Argentine": 4795,
      "comedian": 4796,
      "psychological": 4797,
      "Gh": 4798,
      "Hir": 4799,
      "Ky": 4800,
      "Mitch": 4801,
      "Row": 4802,
      "fall": 4803,
      "hood": 4804,
      "esar": 4805,
      "ager": 4806,
      "Scatter": 4807,
      "Jane": 4808,
      "Valer": 4809,
      "Cannibal": 4810,
      "azzi": 4811,
      "Remember": 4812,
      "4200": 4813,
      "Der_": 4814,
      "Lam": 4815,
      "Walk": 4816,
      "cer": 4817,
      "hail": 4818,
      "_Hain": 4819,
      "akrishna": 4820,
      "_Pri": 4821,
      "_Lau": 4822,
      "_Tum": 4823,
      "uti": 4824,
      "e_of_a_": 4825,
      "_Our": 4826,
      "Charlie_": 4827,
      "leading": 4828,
      "Anthony_": 4829,
      "Joan_Crawford": 4830,
      "_Time_": 4831,
      "Saturday": 4832,
      "_House_": 4833,
      "Tob": 4834,
      "murder": 4835,
      "eland": 4836,
      "illai": 4837,
      "toon": 4838,
      "actors": 4839,
      "America": 4840,
      "1946": 4841,
      "Enri": 4842,
      "class": 4843,
      "420": 4844,
      "Kell": 4845,
      "Ty": 4846,
      "cident": 4847,
      "lock": 4848,
      "moon": 4849,
      "strong": 4850,
      "th_": 4851,
      "alam": 4852,
      "ently": 4853,
      "ower_": 4854,
      "_Cap": 4855,
      "_Av": 4856,
      "emp": 4857,
      "Pros": 4858,
      "_Stone": 4859,
      "scap": 4860,
      "George_H": 4861,
      "ear_": 4862,
      "Janet": 4863,
      "el_documentary": 4864,
      "Detective": 4865,
      "Travel_documentary": 4866,
      "Actress": 4867,
      "Journey": 4868,
      "31": 4869,
      "Lev": 4870,
      "Os": 4871,
      "ny": 4872,
      "rayal": 4873,
      "arian": 4874,
      "adows": 4875,
      "abor": 4876,
      "1957": 4877,
      "1958": 4878,
      "script": 4879,
      "ordan": 4880,
      "Serg": 4881,
      "designed": 4882,
      "82": 4883,
      "Actor": 4884,
      "Bollywood": 4885,
      "Cath": 4886,
      "Long": 4887,
      "Sas": 4888,
      "Zh": 4889,
      "judi": 4890,
      "sin": 4891,
      "weet": 4892,
      "y_and": 4893,
      "_Hen": 4894,
      "_Wife": 4895,
      "otion": 4896,
      "_Ghost": 4897,
      "athi_": 4898,
      "iano": 4899,
      "_Jones_": 4900,
      "1949": 4901,
      "1967": 4902,
      "_Off": 4903,
      "Brave_": 4904,
      "ash_": 4905,
      "peri": 4906,
      "phy_": 4907,
      "death": 4908,
      "_Ann": 4909,
      "Charles_Br": 4910,
      "Swedish": 4911,
      "3000": 4912,
      "entered": 4913,
      "oint_": 4914,
      "6180": 4915,
      "began": 4916,
      "140": 4917,
      "Life": 4918,
      "Mau": 4919,
      "Morgan": 4920,
      "Nob": 4921,
      "bird": 4922,
      "sport": 4923,
      "zys": 4924,
      "ona": 4925,
      "refer": 4926,
      "ages": 4927,
      "che": 4928,
      "oween": 4929,
      "1938": 4930,
      "Jeann": 4931,
      "Barb": 4932,
      "Grant": 4933,
      "Bobb": 4934,
      "ummings": 4935,
      "holm": 4936,
      "Back": 4937,
      "Barry": 4938,
      "Fore": 4939,
      "Mick": 4940,
      "Rek": 4941,
      "del_": 4942,
      "miss": 4943,
      "nazzi": 4944,
      "pris": 4945,
      "in_B": 4946,
      "cha": 4947,
      "The_Man": 4948,
      "_Danger": 4949,
      "ards": 4950,
      "Blair": 4951,
      "Roy_": 4952,
      "John_C": 4953,
      "ikh": 4954,
      "Carb": 4955,
      "_Var": 4956,
      "izz": 4957,
      "Rose_": 4958,
      "amily_": 4959,
      "Peter_W": 4960,
      "Sandra_": 4961,
      "Terry_": 4962,
      "Ray_Nazarro": 4963,
      "Finn": 4964,
      "Kn": 4965,
      "Od": 4966,
      "Sai": 4967,
      "stand": 4968,
      "ened": 4969,
      "against": 4970,
      "Another": 4971,
      "Mikhail": 4972,
      "Hills": 4973,
      "program": 4974,
      "Children": 4975,
      "Kamal": 4976,
      "Eugen": 4977,
      "28": 4978,
      "Est": 4979,
      "Ko": 4980,
      "Kan": 4981,
      "Sum": 4982,
      "Soph": 4983,
      "ior": 4984,
      "s_R": 4985,
      "_Break": 4986,
      "_Tal": 4987,
      "Prath": 4988,
      "Franco": 4989,
      "Geoff": 4990,
      "Up_": 4991,
      "unning": 4992,
      "owery_": 4993,
      "ences": 4994,
      "by_the_": 4995,
      "Ashok": 4996,
      "Rhythm": 4997,
      "84": 4998,
      "wyn": 4999,
      "elf": 5000,
      "Roberto": 5001,
      "Marg": 5002,
      "appa": 5003,
      "Phyl": 5004,
      "when": 5005,
      "adhyay": 5006,
      "appearance": 5007,
      "depict": 5008,
      "Ivan": 5009,
      "Jay_": 5010,
      "Pa": 5011,
      "_X": 5012,
      "ka_": 5013,
      "lon": 5014,
      "ile_": 5015,
      "reek": 5016,
      "atic": 5017,
      "s_in_the_": 5018,
      "_Mah": 5019,
      "_Res": 5020,
      "_Rog": 5021,
      "acting": 5022,
      "Shiv": 5023,
      "serv": 5024,
      "1934": 5025,
      "Clar": 5026,
      "urns": 5027,
      "e_Wood": 5028,
      "Brook": 5029,
      "Murder": 5030,
      "_Green_": 5031,
      "usiness": 5032,
      "Krzys": 5033,
      "ztof": 5034,
      "Krzysztof": 5035,
      "US": 5036,
      "Women": 5037,
      "Warren": 5038,
      "alakshmi": 5039,
      "agar": 5040,
      "idy": 5041,
      "tock": 5042,
      "author": 5043,
      "1964": 5044,
      "uki": 5045,
      "whose": 5046,
      "Blues": 5047,
      "Monster": 5048,
      "ucci": 5049,
      "origin": 5050,
      "school": 5051,
      "inspired": 5052,
      "6240": 5053,
      "Down": 5054,
      "Kir": 5055,
      "Raf": 5056,
      "caus": 5057,
      "eath": 5058,
      "idi": 5059,
      "ata_": 5060,
      "amura": 5061,
      "anga": 5062,
      "_Cab": 5063,
      "to_the_": 5064,
      "aug": 5065,
      "Blon": 5066,
      "Block": 5067,
      "Boston": 5068,
      "1942": 5069,
      "1942_film": 5070,
      "Death_R": 5071,
      "_Blu": 5072,
      "_Anton": 5073,
      "Stevens": 5074,
      "_for_a_": 5075,
      "Jerem": 5076,
      "Tony": 5077,
      "team": 5078,
      "Keith_David": 5079,
      "Ugo_Tog": 5080,
      "Ugo_Tognazzi": 5081,
      "hl": 5082,
      "oney": 5083,
      "avin": 5084,
      "akrav": 5085,
      "Starr": 5086,
      "roy": 5087,
      "1937": 5088,
      "uke": 5089,
      "Phillip": 5090,
      "Emman": 5091,
      "Denis": 5092,
      "Den_": 5093,
      "_p": 5094,
      "kh": 5095,
      "e_You": 5096,
      "dier": 5097,
      "_Sam": 5098,
      "urrect": 5099,
      "The_Ch": 5100,
      "_Has": 5101,
      "Cho": 5102,
      "Joe_": 5103,
      "rook": 5104,
      "counter": 5105,
      "op_": 5106,
      "anna_": 5107,
      "ordon_": 5108,
      "Sarv": 5109,
      "Delhi": 5110,
      "_Brent": 5111,
      "Anthony_W": 5112,
      "Jacob": 5113,
      "Pierr": 5114,
      "Hong_Kong_actor": 5115,
      "_Juliet": 5116,
      "_Barton_": 5117,
      "Bond": 5118,
      "Cass": 5119,
      "Ghost": 5120,
      "ba": 5121,
      "ague": 5122,
      "earch": 5123,
      "ancer": 5124,
      "soundtrack": 5125,
      "Pakist": 5126,
      "Lin": 5127,
      "Lau": 5128,
      "Sen": 5129,
      "ned": 5130,
      "ts": 5131,
      "ür": 5132,
      "ing_T": 5133,
      "uso": 5134,
      "ushan": 5135,
      "_Sant": 5136,
      "The_N": 5137,
      "ov_": 5138,
      "_Knight": 5139,
      "Chi": 5140,
      "eyer": 5141,
      "Prid": 5142,
      "eet_": 5143,
      "Camer": 5144,
      "_Arm": 5145,
      "y_Field": 5146,
      "Kevin_K": 5147,
      "_Montgomer": 5148,
      "following": 5149,
      "cinematography": 5150,
      "Phyllis": 5151,
      "Anthony_Wong_": 5152,
      "Id": 5153,
      "san": 5154,
      "tham": 5155,
      "asw": 5156,
      "Step": 5157,
      "ebb": 5158,
      "Anderson": 5159,
      "Ramesh": 5160,
      "super": 5161,
      "Republic": 5162,
      "became": 5163,
      "ierney": 5164,
      "Fuzz": 5165,
      "Ker": 5166,
      "Lif": 5167,
      "Sy": 5168,
      "mail": 5169,
      "member": 5170,
      "andra_": 5171,
      "_Son": 5172,
      "_Sho": 5173,
      "_Sahn": 5174,
      "The_Big": 5175,
      "_His": 5176,
      "Chri": 5177,
      "Bewar": 5178,
      "_Jag": 5179,
      "Scream_": 5180,
      "uster": 5181,
      "_One": 5182,
      "esh_": 5183,
      "e_Smith": 5184,
      "Advent": 5185,
      "Jack_Ne": 5186,
      "Charles_Barton_": 5187,
      "ment_": 5188,
      "The_Man_": 5189,
      "ances": 5190,
      "ehr": 5191,
      "Evil": 5192,
      "Noah": 5193,
      "ronic": 5194,
      "_Berg": 5195,
      "Carroll": 5196,
      "Wilson": 5197,
      "Irani": 5198,
      "theatrical": 5199,
      "Czech": 5200,
      "Listen": 5201,
      "_Sahni": 5202,
      "Jack_Neo": 5203,
      "47": 5204,
      "Biz": 5205,
      "Gop": 5206,
      "Mig": 5207,
      "Oh": 5208,
      "Port": 5209,
      "cor": 5210,
      "ires": 5211,
      "sol": 5212,
      "uru": 5213,
      "ities": 5214,
      "anta": 5215,
      "uda": 5216,
      "Devika": 5217,
      "rica": 5218,
      "ulliv": 5219,
      "76": 5220,
      "Du": 5221,
      "Miss_": 5222,
      "Ped": 5223,
      "foc": 5224,
      "path": 5225,
      "six": 5226,
      "erg": 5227,
      "stone": 5228,
      "e_V": 5229,
      "una": 5230,
      "adav": 5231,
      "_Mat": 5232,
      "_Hor": 5233,
      "_Husband": 5234,
      "_Lom": 5235,
      "_Want": 5236,
      "_of_T": 5237,
      "Shr": 5238,
      "1956": 5239,
      "upon": 5240,
      "Perc": 5241,
      "Deepak": 5242,
      "Santa_F": 5243,
      "include": 5244,
      "Brahm": 5245,
      "Bombay_": 5246,
      "Lloyd_Nolan": 5247,
      "cartoon": 5248,
      "friends": 5249,
      "_Butler_": 5250,
      "voice": 5251,
      "_Martin": 5252,
      "_Paradise": 5253,
      "Charles_Bronson": 5254,
      "Filip": 5255,
      "Iv": 5256,
      "London": 5257,
      "Ng": 5258,
      "eck": 5259,
      "fr": 5260,
      "rod": 5261,
      "ör": 5262,
      "oment": 5263,
      "Marin": 5264,
      "rael": 5265,
      "rait": 5266,
      "scar": 5267,
      "white": 5268,
      "arriage": 5269,
      "Sunil": 5270,
      "Pudhu": 5271,
      "Ah": 5272,
      "Body": 5273,
      "Lady": 5274,
      "Put": 5275,
      "Ravi": 5276,
      "i_D": 5277,
      "mik": 5278,
      "u_T": 5279,
      "e_for": 5280,
      "anda_": 5281,
      "y_Sh": 5282,
      "chan": 5283,
      "Dece": 5284,
      "_Lee": 5285,
      "_Was": 5286,
      "ota": 5287,
      "_Gordon": 5288,
      "_Ev": 5289,
      "ie_P": 5290,
      "Pearl": 5291,
      "e_Me": 5292,
      "other_": 5293,
      "Savage_": 5294,
      "merc": 5295,
      "Casan": 5296,
      "Philip_Green_": 5297,
      "Andrews": 5298,
      "_Alex": 5299,
      "Death_Wish_": 5300,
      "29": 5301,
      "Juan": 5302,
      "Mol": 5303,
      "mal": 5304,
      "ared": 5305,
      "studi": 5306,
      "ede": 5307,
      "akov": 5308,
      "profess": 5309,
      "ationship": 5310,
      "place": 5311,
      "himself": 5312,
      "Cecil": 5313,
      "Die": 5314,
      "Gian": 5315,
      "hand": 5316,
      "kk": 5317,
      "_Sad": 5318,
      "_Sab": 5319,
      "_Mal": 5320,
      "_Mir": 5321,
      "_Roll": 5322,
      "_Walk": 5323,
      "_Graves": 5324,
      "_Fire": 5325,
      "Alice_": 5326,
      "ahi": 5327,
      "ika_": 5328,
      "ender": 5329,
      "ernatural": 5330,
      "1962": 5331,
      "1963": 5332,
      "aza": 5333,
      "azh": 5334,
      "Roberts": 5335,
      "Bhai": 5336,
      "Georges": 5337,
      "1914_film": 5338,
      "Casino": 5339,
      "Emm": 5340,
      "_Night_": 5341,
      "_About": 5342,
      "Candy": 5343,
      "ographical_film": 5344,
      "Puthiy": 5345,
      "Biographical_film": 5346,
      "Chinese": 5347,
      "Dom": 5348,
      "Dol": 5349,
      "Kee": 5350,
      "Liv": 5351,
      "Miller": 5352,
      "though": 5353,
      "opra": 5354,
      "uchi": 5355,
      "Germany": 5356,
      "Gregor": 5357,
      "Govern": 5358,
      "260": 5359,
      "6360": 5360,
      "960": 5361,
      "Birth": 5362,
      "Ethan": 5363,
      "Miri": 5364,
      "Rain": 5365,
      "Zo": 5366,
      "Zomb": 5367,
      "wife": 5368,
      "orc": 5369,
      "alist": 5370,
      "ica_": 5371,
      "_Beg": 5372,
      "The_Un": 5373,
      "The_Devil": 5374,
      "ays": 5375,
      "owley": 5376,
      "_Ass": 5377,
      "_Di": 5378,
      "Chen": 5379,
      "_Fall": 5380,
      "emble": 5381,
      "Rose_of_the_": 5382,
      "_Rea": 5383,
      "special": 5384,
      "_Brothers": 5385,
      "_Grand": 5386,
      "rell": 5387,
      "relationship": 5388,
      "_Keith": 5389,
      "Century": 5390,
      "e_Woodard": 5391,
      "Erik": 5392,
      "Knight": 5393,
      "Singh": 5394,
      "athe": 5395,
      "ga": 5396,
      "ardi": 5397,
      "190": 5398,
      "iti": 5399,
      "Marvin": 5400,
      "eldon": 5401,
      "Through": 5402,
      "6540": 5403,
      "Dun": 5404,
      "Danish": 5405,
      "Irish": 5406,
      "Lauri": 5407,
      "Um": 5408,
      "good": 5409,
      "kill": 5410,
      "long": 5411,
      "zh": 5412,
      "ar_K": 5413,
      "ory_of": 5414,
      "among": 5415,
      "The_In": 5416,
      "aya_": 5417,
      "_Hart": 5418,
      "_Hors": 5419,
      "audi": 5420,
      "_Kenn": 5421,
      "_Dawn": 5422,
      "Shin": 5423,
      "opp": 5424,
      "ished": 5425,
      "1926": 5426,
      "Samanth": 5427,
      "oyer": 5428,
      "Death_in": 5429,
      "David_H": 5430,
      "ible_": 5431,
      "Canyon": 5432,
      "Franklin": 5433,
      "ensemble": 5434,
      "revolves": 5435,
      "oonam": 5436,
      "Shirley_M": 5437,
      "Stephen_Rea": 5438,
      "Angeles": 5439,
      "political": 5440,
      "6480": 5441,
      "Evelyn_Brent": 5442,
      "Ji": 5443,
      "Muk": 5444,
      "Pers": 5445,
      "Rus": 5446,
      "wara": 5447,
      "ician": 5448,
      "amous": 5449,
      "agal": 5450,
      "urse": 5451,
      "umari": 5452,
      "aiah": 5453,
      "1936": 5454,
      "sequ": 5455,
      "Paris": 5456,
      "Princess": 5457,
      "includes": 5458,
      "Battle": 5459,
      "Innoc": 5460,
      "Reynolds": 5461,
      "Murder_": 5462,
      "bu": 5463,
      "jour": 5464,
      "in_a_": 5465,
      "dig": 5466,
      "_Sub": 5467,
      "adcast": 5468,
      "_Mann": 5469,
      "_Bas": 5470,
      "The_Sp": 5471,
      "Depart": 5472,
      "_Rod": 5473,
      "_Without": 5474,
      "Marion": 5475,
      "Being": 5476,
      "Boot": 5477,
      "o_I": 5478,
      "1966": 5479,
      "Bride_": 5480,
      "arks": 5481,
      "e_Mor": 5482,
      "Only_": 5483,
      "Reun": 5484,
      "yron": 5485,
      "Calend": 5486,
      "Shirley_": 5487,
      "_Whit": 5488,
      "Dragon": 5489,
      "gross": 5490,
      "rivate_": 5491,
      "Revenge": 5492,
      "Scandal_": 5493,
      "leming": 5494,
      "Adventures_of": 5495,
      "Leslie_": 5496,
      "Puppet_Master_": 5497,
      "Wend": 5498,
      "Winter": 5499,
      "bel": 5500,
      "mund": 5501,
      "tar": 5502,
      "vari": 5503,
      "thi": 5504,
      "alitha": 5505,
      "omi": 5506,
      "eta": 5507,
      "ido": 5508,
      "Blow": 5509,
      "road": 5510,
      "arton": 5511,
      "artist": 5512,
      "Care": 5513,
      "Cloud": 5514,
      "Breaking": 5515,
      "Garcia": 5516,
      "selected": 5517,
      "Sathy": 5518,
      "quiem": 5519,
      "Columbia": 5520,
      "Bir": 5521,
      "Pir": 5522,
      "Pep": 5523,
      "V_": 5524,
      "mid": 5525,
      "went": 5526,
      "west": 5527,
      "arch": 5528,
      "disc": 5529,
      "urr": 5530,
      "The_V": 5531,
      "aked": 5532,
      "_Pass": 5533,
      "_Gill": 5534,
      "Anil": 5535,
      "iko": 5536,
      "Bog": 5537,
      "1944": 5538,
      "ords": 5539,
      "enger": 5540,
      "Moham": 5541,
      "harm": 5542,
      "Rocket": 5543,
      "Polish": 5544,
      "_Hayden": 5545,
      "_Nagarajan": 5546,
      "Olivia_": 5547,
      "Quicks": 5548,
      "children": 5549,
      "Holidays_": 5550,
      "5040": 5551,
      "Scary_Movie_": 5552,
      "Ari": 5553,
      "Fall": 5554,
      "Jol": 5555,
      "Let": 5556,
      "Sent": 5557,
      "With": 5558,
      "bie": 5559,
      "phan": 5560,
      "run": 5561,
      "ilar": 5562,
      "amas": 5563,
      "Italy": 5564,
      "ighting": 5565,
      "inde": 5566,
      "ebe": 5567,
      "ustaf": 5568,
      "Manuel": 5569,
      "umaran": 5570,
      "Housef": 5571,
      "uez": 5572,
      "Steve": 5573,
      "ritz": 5574,
      "supernatural": 5575,
      "created": 5576,
      "ecutive": 5577,
      "credited": 5578,
      "Rupert": 5579,
      "Miriam": 5580,
      "Housefull": 5581,
      "Band": 5582,
      "Laine": 5583,
      "Never": 5584,
      "vous_": 5585,
      "ara_": 5586,
      "reet_": 5587,
      "riya": 5588,
      "alo": 5589,
      "ase_": 5590,
      "askar": 5591,
      "s_H": 5592,
      "_Ser": 5593,
      "_Sor": 5594,
      "_Sal": 5595,
      "_Soul": 5596,
      "_Card": 5597,
      "aces": 5598,
      "_Hero": 5599,
      "ová": 5600,
      "outh": 5601,
      "_Woman_": 5602,
      "umer": 5603,
      "Stewart": 5604,
      "room": 5605,
      "ight_": 5606,
      "Black_Wid": 5607,
      "_Old": 5608,
      "Priyan": 5609,
      "Bhe": 5610,
      "y_Mc": 5611,
      "Satyam": 5612,
      "Jackie_": 5613,
      "_School": 5614,
      "Neill": 5615,
      "y_Knight": 5616,
      "Natalie_": 5617,
      "Resurrect": 5618,
      "_Landau": 5619,
      "featured": 5620,
      "Herbert_Lom": 5621,
      "Say_It": 5622,
      "Patricia_": 5623,
      "_Romance": 5624,
      "Miguel": 5625,
      "Buck": 5626,
      "Fire": 5627,
      "Turner": 5628,
      "neg": 5629,
      "aum": 5630,
      "Marco": 5631,
      "ession": 5632,
      "Bhakt": 5633,
      "Resc": 5634,
      "Honeymoon": 5635,
      "rinivas": 5636,
      "Bare": 5637,
      "Cle": 5638,
      "De_": 5639,
      "Iren": 5640,
      "Song": 5641,
      "Wong": 5642,
      "cle": 5643,
      "hai": 5644,
      "io_": 5645,
      "social": 5646,
      "uf": 5647,
      "ama_": 5648,
      "am_P": 5649,
      "_Singh": 5650,
      "ch_": 5651,
      "The_Sh": 5652,
      "ets_": 5653,
      "_Ac": 5654,
      "_Div": 5655,
      "Bloom": 5656,
      "_Fire_": 5657,
      "Prot": 5658,
      "1932": 5659,
      "ing_with": 5660,
      "heel": 5661,
      "Spencer": 5662,
      "James_R": 5663,
      "_Club": 5664,
      "_Close": 5665,
      "_Broadway": 5666,
      "Queen_of": 5667,
      "German_language": 5668,
      "laim": 5669,
      "Cabar": 5670,
      "company": 5671,
      "ali_language": 5672,
      "6420": 5673,
      "iver_U": 5674,
      "Sex": 5675,
      "oro": 5676,
      "ayana": 5677,
      "oti": 5678,
      "Char": 5679,
      "Shawn": 5680,
      "annel": 5681,
      "ishra": 5682,
      "ega": 5683,
      "Soul": 5684,
      "Ronald": 5685,
      "critics": 5686,
      "Metro": 5687,
      "Bizarr": 5688,
      "560": 5689,
      "Affair": 5690,
      "Cre": 5691,
      "Dh": 5692,
      "Edi": 5693,
      "Kay": 5694,
      "Krishn": 5695,
      "Mann": 5696,
      "Po": 5697,
      "Pan": 5698,
      "Trevor": 5699,
      "_born": 5700,
      "town": 5701,
      "vi": 5702,
      "anan": 5703,
      "ere_": 5704,
      "rey_": 5705,
      "andre": 5706,
      "ed_F": 5707,
      "icz": 5708,
      "a_Sh": 5709,
      "_Secret": 5710,
      "_Bu": 5711,
      "_Wolf": 5712,
      "_Griffith": 5713,
      "In_the_": 5714,
      "aha": 5715,
      "Bound": 5716,
      "Scream": 5717,
      "arya": 5718,
      "1948": 5719,
      "Arnold": 5720,
      "our_": 5721,
      "Samb": 5722,
      "_a_F": 5723,
      "_Year": 5724,
      "engupta": 5725,
      "out_": 5726,
      "White_": 5727,
      "_for_the_": 5728,
      "Martin_Landau": 5729,
      "Calam": 5730,
      "Kannada_": 5731,
      "premiere": 5732,
      "Alfr": 5733,
      "instone": 5734,
      "Wayn": 5735,
      "Cinema": 5736,
      "Gillian": 5737,
      "_Wallach": 5738,
      "Eli_Wallach": 5739,
      "amilton_": 5740,
      "Fuzzy_Knight": 5741,
      "iver_Us_from": 5742,
      "480": 5743,
      "Ciar": 5744,
      "Ford": 5745,
      "Lois": 5746,
      "Punn": 5747,
      "Rendez": 5748,
      "Teen": 5749,
      "ced": 5750,
      "coll": 5751,
      "cult": 5752,
      "daughter": 5753,
      "ground": 5754,
      "medi": 5755,
      "ng": 5756,
      "row": 5757,
      "zan": 5758,
      "arrett": 5759,
      "Thompson": 5760,
      "illy": 5761,
      "Theat": 5762,
      "Priyam": 5763,
      "Bruce": 5764,
      "Bha": 5765,
      "ekar": 5766,
      "Captiv": 5767,
      "Anna": 5768,
      "utta": 5769,
      "works": 5770,
      "Bhagy": 5771,
      "heimer": 5772,
      "Bott": 5773,
      "Curtis": 5774,
      "Lax": 5775,
      "oes_": 5776,
      "an_M": 5777,
      "eral": 5778,
      "ersh": 5779,
      "stit": 5780,
      "e_in": 5781,
      "a_3": 5782,
      "_Squ": 5783,
      "acula": 5784,
      "_Hard": 5785,
      "_River": 5786,
      "_Lost": 5787,
      "_Gener": 5788,
      "_Fury": 5789,
      "_of_C": 5790,
      "sha": 5791,
      "Shash": 5792,
      "_Jung": 5793,
      "Caref": 5794,
      "indust": 5795,
      "_Strong": 5796,
      "istory": 5797,
      "_Op": 5798,
      "_Over": 5799,
      "Save_the_": 5800,
      "British_TV_series": 5801,
      "René": 5802,
      "Double_": 5803,
      "Sidne": 5804,
      "Doo_": 5805,
      "rizz": 5806,
      "Russell_Hayden": 5807,
      "Universe": 5808,
      "Felix": 5809,
      "Foreign": 5810,
      "originally": 5811,
      "Alfre_Woodard": 5812,
      "Eg": 5813,
      "Lan": 5814,
      "Mith": 5815,
      "Midnight": 5816,
      "Ob": 5817,
      "Oscar": 5818,
      "Peg": 5819,
      "fighter": 5820,
      "hum": 5821,
      "hury": 5822,
      "nini": 5823,
      "pir": 5824,
      "tra": 5825,
      "inson": 5826,
      "international": 5827,
      "onto": 5828,
      "reland": 5829,
      "wright": 5830,
      "itra": 5831,
      "ayn": 5832,
      "akh": 5833,
      "eves": 5834,
      "emi": 5835,
      "isters": 5836,
      "iper": 5837,
      "ohen": 5838,
      "ieves": 5839,
      "Destination": 5840,
      "Universal": 5841,
      "Personal": 5842,
      "Directed": 5843,
      "consider": 5844,
      "episodes": 5845,
      "Banglad": 5846,
      "Bangladesh": 5847,
      "4500": 5848,
      "But": 5849,
      "Boman_": 5850,
      "Cant": 5851,
      "Hrud": 5852,
      "Lil": 5853,
      "Lag": 5854,
      "Ladi": 5855,
      "Mak": 5856,
      "Nathan": 5857,
      "Poonam": 5858,
      "Rab": 5859,
      "Viol": 5860,
      "Wel": 5861,
      "call": 5862,
      "section": 5863,
      "ilog": 5864,
      "ices": 5865,
      "_Big": 5866,
      "_Boot": 5867,
      "etime": 5868,
      "_Cle": 5869,
      "acon": 5870,
      "acLaine": 5871,
      "id_": 5872,
      "apadi": 5873,
      "_Kn": 5874,
      "events": 5875,
      "John_R": 5876,
      "Arun": 5877,
      "_The_R": 5878,
      "ffer": 5879,
      "Samson": 5880,
      "Robert_C": 5881,
      "Peer": 5882,
      "e_Me_": 5883,
      "William_Gar": 5884,
      "David_S": 5885,
      "Deliver": 5886,
      "e_For": 5887,
      "Maxim": 5888,
      "Heart_": 5889,
      "Border_": 5890,
      "_Weaving": 5891,
      "Marcel": 5892,
      "Bharat": 5893,
      "Better": 5894,
      "perform": 5895,
      "Cinema_of": 5896,
      "Hugo_Weaving": 5897,
      "Glenn_Close": 5898,
      "Beverly_Hill": 5899,
      "Calling_All": 5900,
      "Benjamin": 5901,
      "akravarth": 5902,
      "Shirley_MacLaine": 5903,
      ".,": 5904,
      "Hart": 5905,
      "Pull": 5906,
      "eung": 5907,
      "fi": 5908,
      "yp": 5909,
      "amm": 5910,
      "Chuck": 5911,
      "assin": 5912,
      "Rajkumar": 5913,
      "remade": 5914,
      "Israel": 5915,
      "Denholm": 5916,
      "Ahm": 5917,
      "Bil": 5918,
      "Circ": 5919,
      "Ki": 5920,
      "Town": 5921,
      "_l": 5922,
      "mas_": 5923,
      "u_K": 5924,
      "asim": 5925,
      "a_J": 5926,
      "20th": 5927,
      "_Spr": 5928,
      "_Benn": 5929,
      "ete": 5930,
      "_the_World": 5931,
      "_Cow": 5932,
      "ides": 5933,
      "ramp": 5934,
      "Leigh": 5935,
      "Sankar": 5936,
      "Barn": 5937,
      "Beneath": 5938,
      "How_to_Be_": 5939,
      "urders": 5940,
      "Corpor": 5941,
      "_Evil_": 5942,
      "_Glory": 5943,
      "John_Litel": 5944,
      "_Sharma": 5945,
      "Hem": 5946,
      "Winstone": 5947,
      "cis": 5948,
      "hann": 5949,
      "prom": 5950,
      "isi": 5951,
      "emb": 5952,
      "Amit": 5953,
      "endran": 5954,
      "1921": 5955,
      "ector": 5956,
      "Santa": 5957,
      "Giorg": 5958,
      "Political": 5959,
      "Lauren": 5960,
      "Corn": 5961,
      "Fe": 5962,
      "Language": 5963,
      "Rex": 5964,
      "Van_": 5965,
      "ren_": 5966,
      "ilt": 5967,
      "di_": 5968,
      "asekhar": 5969,
      "urphy": 5970,
      "_Mem": 5971,
      "_Bad": 5972,
      "_Barry": 5973,
      "_Cast": 5974,
      "_Cob": 5975,
      "_Reg": 5976,
      "_Port": 5977,
      "_Lyn": 5978,
      "ove_": 5979,
      "_Women_": 5980,
      "otic": 5981,
      "ever_": 5982,
      "_Ele": 5983,
      "o_V": 5984,
      "1933": 5985,
      "uper": 5986,
      "Black_": 5987,
      "ick_": 5988,
      "Richard_Wid": 5989,
      "_Thomas": 5990,
      "_And": 5991,
      "ossom": 5992,
      "Breakfast": 5993,
      "_Nights": 5994,
      "Brian_Keith": 5995,
      "Tony_": 5996,
      "Cabin": 5997,
      "Woods": 5998,
      "Radhik": 5999,
      "surv": 6000,
      "Virginia_": 6001,
      "sitcom": 6002,
      "Richard_Widmark": 6003,
      "85": 6004,
      "Erich": 6005,
      "Gal": 6006,
      "Get": 6007,
      "Hand": 6008,
      "Ned": 6009,
      "Pump": 6010,
      "Saud": 6011,
      "Zind": 6012,
      "feld": 6013,
      "home": 6014,
      "million": 6015,
      "sex": 6016,
      "urb": 6017,
      "Chap": 6018,
      "China": 6019,
      "Rox": 6020,
      "anne": 6021,
      "oke": 6022,
      "Davies": 6023,
      "ucker": 6024,
      "Guy": 6025,
      "Below": 6026,
      "Vampire": 6027,
      "akravarthy": 6028,
      "_thriller": 6029,
      "aith": 6030,
      "ead": 6031,
      "gress": 6032,
      "yo": 6033,
      "onor": 6034,
      "did": 6035,
      "is_T": 6036,
      "_Sex": 6037,
      "adar": 6038,
      "_Batt": 6039,
      "The_E": 6040,
      "ayya": 6041,
      "_Hand": 6042,
      "_Pur": 6043,
      "aper": 6044,
      "_Tar": 6045,
      "Jok": 6046,
      "Ank": 6047,
      "_Jun": 6048,
      "ram_": 6049,
      "ollins": 6050,
      "Scotland": 6051,
      "_Chakraborty": 6052,
      "Elis": 6053,
      "atch_": 6054,
      "animator": 6055,
      "Carrie_": 6056,
      "_Boy_": 6057,
      "Hunting": 6058,
      "Bharath": 6059,
      "Vinod": 6060,
      "o_Rey": 6061,
      "Douglas_F": 6062,
      "_Corrigan": 6063,
      "Lynn": 6064,
      "88": 6065,
      "Az": 6066,
      "Ast": 6067,
      "Dutch": 6068,
      "Krishna": 6069,
      "Mand": 6070,
      "So": 6071,
      "game": 6072,
      "pa": 6073,
      "pict": 6074,
      "rib": 6075,
      "atan": 6076,
      "ivil": 6077,
      "1928": 6078,
      "1945": 6079,
      "quette": 6080,
      "attempt": 6081,
      "ured": 6082,
      "Emmy": 6083,
      "Rider": 6084,
      "uther": 6085,
      "zej": 6086,
      "Andrzej": 6087,
      "Vishn": 6088,
      "Revolution": 6089,
      "radio": 6090,
      "77": 6091,
      "Kav": 6092,
      "Kurt": 6093,
      "Lim": 6094,
      "Misch": 6095,
      "Ok": 6096,
      "late": 6097,
      "rd": 6098,
      "wig": 6099,
      "ans_": 6100,
      "stud": 6101,
      "dix": 6102,
      "_Mask": 6103,
      "_Home": 6104,
      "_Rag": 6105,
      "_Roland": 6106,
      "_Ki": 6107,
      "_German": 6108,
      "berry": 6109,
      "Rogu": 6110,
      "1927": 6111,
      "_Shane": 6112,
      "Robert_Montgomer": 6113,
      "David_B": 6114,
      "Michael_C": 6115,
      "Sweet": 6116,
      "The_Secret": 6117,
      "Beauty": 6118,
      "Broken": 6119,
      "_White": 6120,
      "echn": 6121,
      "Robin_H": 6122,
      "_Conway": 6123,
      "_Murphy_": 6124,
      "Fernando_Rey": 6125,
      "_The_Final": 6126,
      "Maxwell_Shane": 6127,
      "_Juliet_": 6128,
      "Pride_of_the_": 6129,
      "Beware_of": 6130,
      "William_Gargan": 6131,
      "Denholm_Elliott": 6132,
      "Political_thriller": 6133,
      "Robert_Montgomery_": 6134,
      "Bou": 6135,
      "Budd": 6136,
      "Das": 6137,
      "Friend": 6138,
      "Gig": 6139,
      "Lo": 6140,
      "then": 6141,
      "1920": 6142,
      "Thunder": 6143,
      "osa": 6144,
      "Marian": 6145,
      "Marathi": 6146,
      "eward": 6147,
      "Club": 6148,
      "Devd": 6149,
      "dition": 6150,
      "Myster": 6151,
      "brother": 6152,
      "Damian": 6153,
      "Owen": 6154,
      "sports": 6155,
      "mercial": 6156,
      "Dana_": 6157,
      "Fly": 6158,
      "Graham": 6159,
      "Ik": 6160,
      "Mum": 6161,
      "Venkat": 6162,
      "Wind": 6163,
      "came": 6164,
      "det": 6165,
      "hatt": 6166,
      "k_": 6167,
      "mad": 6168,
      "ins_": 6169,
      "ero_": 6170,
      "imp": 6171,
      "_Money_": 6172,
      "ir_": 6173,
      "_Rav": 6174,
      "_Daughter": 6175,
      "ively": 6176,
      "raight": 6177,
      "opadhyay": 6178,
      "Becaus": 6179,
      "ast_": 6180,
      "ogue": 6181,
      "ewis": 6182,
      "_Chatterjee": 6183,
      "Arjun": 6184,
      "Indian_": 6185,
      "William_Ben": 6186,
      "a_Mc": 6187,
      "_Ali": 6188,
      "_McG": 6189,
      "Deliver_Us_from": 6190,
      "Juliet": 6191,
      "Girls": 6192,
      "_Brook": 6193,
      "Bobby_": 6194,
      "Ray_Winstone": 6195,
      "Bengali_language": 6196,
      "_Days_": 6197,
      "Hans_": 6198,
      "Betty_": 6199,
      "_Franken": 6200,
      "Danny_": 6201,
      "Maurice_": 6202,
      "Gilbert_Roland": 6203,
      "7800": 6204,
      "Rowdy_": 6205,
      "3D": 6206,
      "Cy": 6207,
      "Div": 6208,
      "Hust": 6209,
      "Hara": 6210,
      "Killer": 6211,
      "Moscow": 6212,
      "Pho": 6213,
      "Tro": 6214,
      "find": 6215,
      "live": 6216,
      "rant": 6217,
      "ross": 6218,
      "winning": 6219,
      "aren": 6220,
      "asa": 6221,
      "oven": 6222,
      "Short": 6223,
      "Alic": 6224,
      "ajan": 6225,
      "1929": 6226,
      "comm": 6227,
      "ernon": 6228,
      "arling": 6229,
      "Clif": 6230,
      "otten": 6231,
      "Els": 6232,
      "others": 6233,
      "Sandhy": 6234,
      "Decept": 6235,
      "Glend": 6236,
      "Justin": 6237,
      "Australia": 6238,
      "vestig": 6239,
      "mikant": 6240,
      "Laxmikant": 6241,
      "87": 6242,
      "CB": 6243,
      "Desh": 6244,
      "Fab": 6245,
      "Herman": 6246,
      "Mass": 6247,
      "Puzz": 6248,
      "rand": 6249,
      "ver_": 6250,
      "asa_": 6251,
      "edy_": 6252,
      "_Sm": 6253,
      "_Serv": 6254,
      "lev": 6255,
      "chin": 6256,
      "Dep": 6257,
      "etter": 6258,
      "_Cost": 6259,
      "_Circ": 6260,
      "_Reb": 6261,
      "aux": 6262,
      "_Kiss": 6263,
      "abhar": 6264,
      "ro_": 6265,
      "Along": 6266,
      "_Shadows": 6267,
      "Brien": 6268,
      "George_M": 6269,
      "e_Se": 6270,
      "Charlott": 6271,
      "a_Rag": 6272,
      "All_the_": 6273,
      "_Ang": 6274,
      "a_Gupta": 6275,
      "Det_": 6276,
      "y_Cur": 6277,
      "Outlaw": 6278,
      "Island_": 6279,
      "Stanley_": 6280,
      "annah_": 6281,
      "present": 6282,
      "_Jackson": 6283,
      "_Valley_": 6284,
      "_Moore": 6285,
      "Sally_Field": 6286,
      "Mammo": 6287,
      "_Dhillon": 6288,
      "Emmanu": 6289,
      "Ciarán": 6290,
      "considered": 6291,
      "Boman_Irani": 6292,
      "Van_Johnson": 6293,
      "37": 6294,
      "ABC": 6295,
      "Feat": 6296,
      "Hour": 6297,
      "Hob": 6298,
      "Temple": 6299,
      "capt": 6300,
      "ienn": 6301,
      "som": 6302,
      "uter": 6303,
      "vir": 6304,
      "elal": 6305,
      "used": 6306,
      "owers": 6307,
      "abad": 6308,
      "arts": 6309,
      "Carey": 6310,
      "commercial": 6311,
      "Prab": 6312,
      "achchan": 6313,
      "adison": 6314,
      "Desp": 6315,
      "police": 6316,
      "Farce": 6317,
      "awards": 6318,
      "Corporation": 6319,
      "Door": 6320,
      "ee_": 6321,
      "ious_": 6322,
      "al_L": 6323,
      "andam": 6324,
      "_Sn": 6325,
      "itive": 6326,
      "_Mil": 6327,
      "_Moon": 6328,
      "_Mein": 6329,
      "_Beh": 6330,
      "_Cit": 6331,
      "iday": 6332,
      "aust": 6333,
      "_Language": 6334,
      "overs": 6335,
      "_Fox": 6336,
      "John_B": 6337,
      "Carter": 6338,
      "ocaly": 6339,
      "ettico": 6340,
      "otty": 6341,
      "onti": 6342,
      "Andy_Cl": 6343,
      "Eden": 6344,
      "Richard_Cr": 6345,
      "Santo": 6346,
      "a_Gersh": 6347,
      "maid": 6348,
      "los_": 6349,
      "Karen": 6350,
      "Days": 6351,
      "Mark_Strong": 6352,
      "Scott_Br": 6353,
      "wara_Rao": 6354,
      "Campus_": 6355,
      "field_": 6356,
      "Susannah": 6357,
      "Hitler": 6358,
      "Dark_": 6359,
      "Bridget": 6360,
      "Pretty_": 6361,
      "Hold_That": 6362,
      "Beast_": 6363,
      "engeance": 6364,
      "successful": 6365,
      "_Mountain": 6366,
      "Otto": 6367,
      "Bizarre_": 6368,
      "Andy_Clyde": 6369,
      "Richard_Crenna": 6370,
      "73": 6371,
      "Bom": 6372,
      "Fed": 6373,
      "Sn": 6374,
      "Tat": 6375,
      "cal": 6376,
      "ør": 6377,
      "ayne": 6378,
      "Their": 6379,
      "ahey": 6380,
      "ishi": 6381,
      "ajda": 6382,
      "Screen": 6383,
      "Peac": 6384,
      "person": 6385,
      "bled": 6386,
      "Hruday": 6387,
      "Domin": 6388,
      "Gul": 6389,
      "Jorg": 6390,
      "Lord": 6391,
      "Radi": 6392,
      "Tab": 6393,
      "bie_": 6394,
      "der_": 6395,
      "go_": 6396,
      "o_T": 6397,
      "ying": 6398,
      "an_K": 6399,
      "ery": 6400,
      "e_Be": 6401,
      "dialog": 6402,
      "asm": 6403,
      "_Smart": 6404,
      "_Bre": 6405,
      "_Brid": 6406,
      "ions_": 6407,
      "_Hugh": 6408,
      "_Rí": 6409,
      "_Luck": 6410,
      "_Wives": 6411,
      "_Walker": 6412,
      "otal": 6413,
      "_Frid": 6414,
      "Storm": 6415,
      "_Na": 6416,
      "_Nor": 6417,
      "_Naz": 6418,
      "_James": 6419,
      "endra_": 6420,
      "000": 6421,
      "_Ship": 6422,
      "ashington": 6423,
      "Edgar": 6424,
      "Sanam": 6425,
      "Frank_Butler_": 6426,
      "ravel": 6427,
      "a_Hall": 6428,
      "y_Hunter": 6429,
      "Girl_": 6430,
      "liot": 6431,
      "pte": 6432,
      "ology": 6433,
      "owdhury": 6434,
      "Doctor": 6435,
      "_Blood_": 6436,
      "Francisco": 6437,
      "Claudi": 6438,
      "_Prejudi": 6439,
      "songs": 6440,
      "Olivier": 6441,
      "_Woods_": 6442,
      "ything": 6443,
      "_Destiny": 6444,
      "Gina_Gersh": 6445,
      "since": 6446,
      "Black_Widow_": 6447,
      "collabor": 6448,
      "Mammootty": 6449,
      "Gina_Gershon": 6450,
      "Four": 6451,
      "Joll": 6452,
      "Mov": 6453,
      "Rio": 6454,
      "aqu": 6455,
      "ih": 6456,
      "ju": 6457,
      "tz": 6458,
      "aling": 6459,
      "entle": 6460,
      "ablo": 6461,
      "Carav": 6462,
      "1930": 6463,
      "quis": 6464,
      "eena": 6465,
      "araaja": 6466,
      "Ridin": 6467,
      "Doug": 6468,
      "enko": 6469,
      "Urs": 6470,
      "A_M": 6471,
      "Him": 6472,
      "Orig": 6473,
      "Puri": 6474,
      "Syd": 6475,
      "Tet": 6476,
      "__The_": 6477,
      "gie_": 6478,
      "han_": 6479,
      "hold": 6480,
      "turn": 6481,
      "uh": 6482,
      "ores_": 6483,
      "agon_": 6484,
      "oldb": 6485,
      "ury_": 6486,
      "_Bill": 6487,
      "ayama": 6488,
      "the_Kid": 6489,
      "odor": 6490,
      "_Hinds": 6491,
      "_Rest": 6492,
      "_Litt": 6493,
      "_Az": 6494,
      "_Warren": 6495,
      "_Gil": 6496,
      "_Glen": 6497,
      "ivam": 6498,
      "berry_": 6499,
      "_of_Love": 6500,
      "Stef": 6501,
      "Its": 6502,
      "_Nat": 6503,
      "_Nair": 6504,
      "John_D": 6505,
      "_Jos": 6506,
      "Prav": 6507,
      "_She": 6508,
      "Samsar": 6509,
      "1913_film": 6510,
      "Richard_L": 6511,
      "Special": 6512,
      "_Brothers_": 6513,
      "Brian_T": 6514,
      "_Love_You": 6515,
      "azzara": 6516,
      "Puli_": 6517,
      "Lloyd_Corrigan": 6518,
      "Romeo_and": 6519,
      "Dorothy_": 6520,
      "_Scott_": 6521,
      "Romantic_Warri": 6522,
      "onym": 6523,
      "Gloria_": 6524,
      "Mitchell": 6525,
      "Sandra_Ng": 6526,
      "Poonam_Dhillon": 6527,
      "Douglas_Fowley": 6528,
      "Baby": 6529,
      "Kelly": 6530,
      "Lill": 6531,
      "Vitt": 6532,
      "Wher": 6533,
      "fern": 6534,
      "ged": 6535,
      "lay": 6536,
      "met": 6537,
      "él": 6538,
      "onc": 6539,
      "rif": 6540,
      "ament": 6541,
      "Bless": 6542,
      "Inv": 6543,
      "Mari": 6544,
      "ips": 6545,
      "esham": 6546,
      "Breath": 6547,
      "uckle": 6548,
      "board": 6549,
      "raph": 6550,
      "fictional": 6551,
      "Vaness": 6552,
      "Ilaiy": 6553,
      "ascal": 6554,
      "studio": 6555,
      "called": 6556,
      "ilogy": 6557,
      "Ilaiyaraaja": 6558,
      "Att": 6559,
      "Cain": 6560,
      "Iron": 6561,
      "Mani": 6562,
      "Nay": 6563,
      "Snow": 6564,
      "Time": 6565,
      "eon": 6566,
      "five": 6567,
      "tor": 6568,
      "zo": 6569,
      "alb": 6570,
      "agu": 6571,
      "_Sleep": 6572,
      "adway_": 6573,
      "_Brit": 6574,
      "executive": 6575,
      "_Hoff": 6576,
      "_Luc": 6577,
      "_Kent": 6578,
      "_Gop": 6579,
      "_Den": 6580,
      "eyes": 6581,
      "Board": 6582,
      "ie_L": 6583,
      "ie_Davis": 6584,
      "inda": 6585,
      "ollow": 6586,
      "Black_and": 6587,
      "Prey_": 6588,
      "lyric": 6589,
      "orea": 6590,
      "Leo": 6591,
      "a_Ravi": 6592,
      "adha": 6593,
      "Captain_America": 6594,
      "boy_": 6595,
      "Ben_G": 6596,
      "_America_": 6597,
      "_Marsh": 6598,
      "_Eng": 6599,
      "Jeremy_": 6600,
      "_Road": 6601,
      "_Play": 6602,
      "Walter_Greene": 6603,
      "_Prett": 6604,
      "Ruby_": 6605,
      "4680": 6606,
      "George_Hamilton_": 6607,
      "period": 6608,
      "superhero": 6609,
      "_born_": 6610,
      "Emmanuelle_": 6611,
      "Coff": 6612,
      "Judi": 6613,
      "Mother": 6614,
      "Por": 6615,
      "Saj": 6616,
      "Vish": 6617,
      "cou": 6618,
      "gn": 6619,
      "mag": 6620,
      "uit": 6621,
      "andon": 6622,
      "Alice": 6623,
      "ryn": 6624,
      "prot": 6625,
      "Blackmail": 6626,
      "ault": 6627,
      "ible": 6628,
      "oodb": 6629,
      "Television": 6630,
      "Pursu": 6631,
      "colle": 6632,
      "California": 6633,
      "Philippines": 6634,
      "century": 6635,
      "Reginald": 6636,
      "Barbara": 6637,
      "depicts": 6638,
      "Barefoot": 6639,
      "Aur": 6640,
      "Ba": 6641,
      "Cost": 6642,
      "Eur": 6643,
      "Ju": 6644,
      "Mall": 6645,
      "Sebastian": 6646,
      "din": 6647,
      "mes": 6648,
      "asing": 6649,
      "using": 6650,
      "_Sher": 6651,
      "_May": 6652,
      "Deal": 6653,
      "_Prem": 6654,
      "ouble_": 6655,
      "_Water": 6656,
      "Chandr": 6657,
      "Marí": 6658,
      "_Now": 6659,
      "olland": 6660,
      "Prof": 6661,
      "_Stall": 6662,
      "ouse": 6663,
      "ukk": 6664,
      "_Oru": 6665,
      "Bhav": 6666,
      "Elliot": 6667,
      "Desc": 6668,
      "a_Ram": 6669,
      "Jean_Parker": 6670,
      "Calc": 6671,
      "Brother": 6672,
      "Valley_": 6673,
      "working": 6674,
      "Hearts_": 6675,
      "TV_": 6676,
      "s_in_Boot": 6677,
      "_Donovan": 6678,
      "_Rider": 6679,
      "_Boys": 6680,
      "Children_": 6681,
      "_Gold_": 6682,
      "4860": 6683,
      "_Waters_": 6684,
      "_Up_the_": 6685,
      "press_": 6686,
      "Puss_in_Boot": 6687,
      "Blondi": 6688,
      "Molina": 6689,
      "Ciarán_Hinds": 6690,
      "Federic": 6691,
      "Ben_Gazzara": 6692,
      "Aud": 6693,
      "Bus": 6694,
      "Bit": 6695,
      "Oss": 6696,
      "Second": 6697,
      "Tit": 6698,
      "Tru": 6699,
      "fre": 6700,
      "post": 6701,
      "ten": 6702,
      "viol": 6703,
      "yom": 6704,
      "ère": 6705,
      "icide": 6706,
      "agam": 6707,
      "auer": 6708,
      "athu": 6709,
      "Anur": 6710,
      "shown": 6711,
      "raff": 6712,
      "Annab": 6713,
      "Rajesh": 6714,
      "Rein": 6715,
      "Case": 6716,
      "Jules": 6717,
      "Meliss": 6718,
      "Cannon": 6719,
      "Cross": 6720,
      "iffer": 6721,
      "Balraj": 6722,
      "Romeo": 6723,
      "emmings": 6724,
      "aunted": 6725,
      "Brazilian": 6726,
      "various": 6727,
      "Be_": 6728,
      "Bul": 6729,
      "Bran": 6730,
      "Earl": 6731,
      "Gall": 6732,
      "Haw": 6733,
      "Iain": 6734,
      "Lal": 6735,
      "Mack": 6736,
      "Oleg": 6737,
      "Putt": 6738,
      "Vol": 6739,
      "Veron": 6740,
      "don": 6741,
      "eev": 6742,
      "found": 6743,
      "mare": 6744,
      "ty_": 6745,
      "takes": 6746,
      "yal": 6747,
      "arb": 6748,
      "ario": 6749,
      "ina_M": 6750,
      "ilson": 6751,
      "eron_": 6752,
      "e_Ar": 6753,
      "ates_": 6754,
      "entin": 6755,
      "_Summer": 6756,
      "_Mill": 6757,
      "_Book": 6758,
      "etz": 6759,
      "_Haas": 6760,
      "_Ra": 6761,
      "acted": 6762,
      "_Penn": 6763,
      "ova_": 6764,
      "ap_": 6765,
      "_Talk": 6766,
      "_of_W": 6767,
      "ack_": 6768,
      "ray_": 6769,
      "Alone_": 6770,
      "udhu": 6771,
      "_Ste": 6772,
      "ernán": 6773,
      "es_and": 6774,
      "_Shot": 6775,
      "_Shadow": 6776,
      "_One_": 6777,
      "Brough": 6778,
      "Ellen": 6779,
      "George_B": 6780,
      "Captive_": 6781,
      "ock_": 6782,
      "Blue_M": 6783,
      "Gret": 6784,
      "rave": 6785,
      "Guy_": 6786,
      "Camill": 6787,
      "Steve_": 6788,
      "Steve_B": 6789,
      "a_Farrell": 6790,
      "_Seas": 6791,
      "rikes": 6792,
      "_Hays": 6793,
      "andis": 6794,
      "broadcast": 6795,
      "Hungarian": 6796,
      "Radha_Ravi": 6797,
      "Pushp": 6798,
      "fourth": 6799,
      "Bradley_": 6800,
      "usiness_": 6801,
      "_Home_": 6802,
      "_Rangers_": 6803,
      "Brendan": 6804,
      "ociety": 6805,
      "ronicles": 6806,
      "Mithun": 6807,
      "Maximilian": 6808,
      "William_Bendix": 6809,
      "Glenda_Farrell": 6810,
      "Bim": 6811,
      "Nan": 6812,
      "Press": 6813,
      "Rust": 6814,
      "Sreen": 6815,
      "Soh": 6816,
      "Wes": 6817,
      "Wenn": 6818,
      "horn": 6819,
      "lives": 6820,
      "mam": 6821,
      "narr": 6822,
      "numer": 6823,
      "pho": 6824,
      "uni": 6825,
      "igel": 6826,
      "Champ": 6827,
      "Insp": 6828,
      "arland": 6829,
      "Armand": 6830,
      "Franz": 6831,
      "1917": 6832,
      "Adoor": 6833,
      "Malcol": 6834,
      "Isab": 6835,
      "Sharma": 6836,
      "nominations": 6837,
      "Rogers": 6838,
      "mission": 6839,
      "numerous": 6840,
      "Malcolm": 6841,
      "79": 6842,
      "From": 6843,
      "Fair": 6844,
      "Gor": 6845,
      "Katherine_": 6846,
      "Lovel": 6847,
      "bow": 6848,
      "like": 6849,
      "sing": 6850,
      "ég": 6851,
      "ony_": 6852,
      "ese_": 6853,
      "agner": 6854,
      "s_for": 6855,
      "osaur": 6856,
      "_Mel": 6857,
      "_Bat": 6858,
      "until": 6859,
      "aken": 6860,
      "_Ross": 6861,
      "_Ay": 6862,
      "_Kerr": 6863,
      "_Dar": 6864,
      "_Dor": 6865,
      "iven": 6866,
      "Johann": 6867,
      "_Fahey": 6868,
      "utner": 6869,
      "rog": 6870,
      "ope_": 6871,
      "ewell": 6872,
      "upt": 6873,
      "achandran": 6874,
      "_Cheng": 6875,
      "okh": 6876,
      "lymp": 6877,
      "Sara_B": 6878,
      "Abb": 6879,
      "arni": 6880,
      "Rocky_": 6881,
      "_Beach": 6882,
      "Santosh": 6883,
      "appearances": 6884,
      "Jeff_Fahey": 6885,
      "Jacquel": 6886,
      "moon_": 6887,
      "_New_York": 6888,
      "Francis_L": 6889,
      "_Hearts": 6890,
      "effer": 6891,
      "Mexico": 6892,
      "Frank_McHugh": 6893,
      "Kay_Kay_": 6894,
      "Sarkar_": 6895,
      "6720": 6896,
      "_Justice": 6897,
      "_Michael": 6898,
      "Igor": 6899,
      "Nathalie_": 6900,
      "Scott_Brady": 6901,
      "Kay_Kay_Menon": 6902,
      "Bish": 6903,
      "Griffith": 6904,
      "Hood": 6905,
      "Hitch": 6906,
      "Net": 6907,
      "Rent": 6908,
      "dram": 6909,
      "non": 6910,
      "inz": 6911,
      "lee": 6912,
      "lez": 6913,
      "otch": 6914,
      "Roc": 6915,
      "Stars": 6916,
      "anning": 6917,
      "Qure": 6918,
      "etta": 6919,
      "Bhaskar": 6920,
      "hana": 6921,
      "ength": 6922,
      "ekha": 6923,
      "phant": 6924,
      "Delic": 6925,
      "Agn": 6926,
      "Romanc": 6927,
      "eeker": 6928,
      "akku": 6929,
      "irkland": 6930,
      "Hudson": 6931,
      "Sergio": 6932,
      "Filipino": 6933,
      "Careful": 6934,
      "aney": 6935,
      "7140": 6936,
      "Ride": 6937,
      "Saur": 6938,
      "_7": 6939,
      "center": 6940,
      "yster": 6941,
      "al_R": 6942,
      "died": 6943,
      "differ": 6944,
      "atin": 6945,
      "ischer": 6946,
      "ela_": 6947,
      "usso": 6948,
      "usepp": 6949,
      "writ": 6950,
      "_Sl": 6951,
      "_Movie": 6952,
      "_Bor": 6953,
      "_Bullet": 6954,
      "The_Black": 6955,
      "oda": 6956,
      "odern": 6957,
      "aval": 6958,
      "_Him": 6959,
      "_Hend": 6960,
      "akumar": 6961,
      "_Wajda": 6962,
      "_Krishn": 6963,
      "_Gang": 6964,
      "emon": 6965,
      "_Charl": 6966,
      "_and_C": 6967,
      "ects": 6968,
      "Bhatt": 6969,
      "George_C": 6970,
      "Most": 6971,
      "ial_": 6972,
      "ments": 6973,
      "Deliri": 6974,
      "_Schell": 6975,
      "_Enem": 6976,
      "_Leung": 6977,
      "ographer": 6978,
      "App": 6979,
      "_Francis": 6980,
      "_Berlin": 6981,
      "e_Story_": 6982,
      "_Heart_": 6983,
      "_Perfect": 6984,
      "_Peop": 6985,
      "oomey": 6986,
      "Deewan": 6987,
      "7080": 6988,
      "_Cameron_": 6989,
      "Toronto": 6990,
      "theatrically": 6991,
      "_Island": 6992,
      "Robert_Folk": 6993,
      "iracle_": 6994,
      "_Rubens": 6995,
      "8400": 6996,
      "Deceit_": 6997,
      "Andrzej_Wajda": 6998,
      "Broughton": 6999,
      "Maximilian_Schell": 7000,
      "Sara_Berner": 7001,
      "Burn": 7002,
      "Dharm": 7003,
      "Kl": 7004,
      "Number": 7005,
      "Ten": 7006,
      "done": 7007,
      "dubb": 7008,
      "making": 7009,
      "wat": 7010,
      "wald": 7011,
      "inch": 7012,
      "icy": 7013,
      "amoto": 7014,
      "ente": 7015,
      "oslav": 7016,
      "etto": 7017,
      "Sha": 7018,
      "acker": 7019,
      "ahu": 7020,
      "quer": 7021,
      "hanam": 7022,
      "hiy": 7023,
      "Parv": 7024,
      "Paradi": 7025,
      "Honor": 7026,
      "Bhoom": 7027,
      "Rangayan": 7028,
      "Qureshi": 7029,
      "Bj": 7030,
      "Dust": 7031,
      "Sor": 7032,
      "Sak": 7033,
      "Summer": 7034,
      "Top": 7035,
      "Vid": 7036,
      "l_": 7037,
      "lers": 7038,
      "rac": 7039,
      "true": 7040,
      "wal": 7041,
      "zen": 7042,
      "äutner": 7043,
      "e_in_the_": 7044,
      "agic": 7045,
      "_Sun": 7046,
      "_Sak": 7047,
      "_Saw": 7048,
      "_Hot": 7049,
      "_Heat": 7050,
      "_Pig": 7051,
      "_Lives": 7052,
      "_Ko": 7053,
      "_Kapoor": 7054,
      "athil": 7055,
      "abo": 7056,
      "_Fish": 7057,
      "_Fly": 7058,
      "_Fool": 7059,
      "ber_": 7060,
      "_Nob": 7061,
      "ained": 7062,
      "Ald": 7063,
      "ahin": 7064,
      "_Jan": 7065,
      "1960s": 7066,
      "ukla": 7067,
      "Death_on_the_": 7068,
      "Michael_R": 7069,
      "1918": 7070,
      "Edu": 7071,
      "a_Raj": 7072,
      "Hum_Tum": 7073,
      "Jones_": 7074,
      "South_": 7075,
      "_Place_": 7076,
      "_Morita": 7077,
      "Day_of_the_": 7078,
      "itzer": 7079,
      "Bride_of": 7080,
      "_Days": 7081,
      "Daughter_of_the_": 7082,
      "_Paradise_": 7083,
      "followed": 7084,
      "7020": 7085,
      "Jungle_": 7086,
      "_Deramas": 7087,
      "Anup_Rubens": 7088,
      "Bruce_Broughton": 7089,
      "Judy_Davis": 7090,
      "_Howard": 7091,
      "limited": 7092,
      "Punjabi": 7093,
      "Gertrud": 7094,
      "Cathy_": 7095,
      "Kevin_Kline": 7096,
      "_Jagger": 7097,
      "ullivan": 7098,
      "_Alexander": 7099,
      "Romantic_Warriors_": 7100,
      "Vittor": 7101,
      "Balraj_Sahni": 7102,
      "_People_": 7103,
      "Cow": 7104,
      "Family": 7105,
      "Hus": 7106,
      "Mun": 7107,
      "Oper": 7108,
      "Tiger": 7109,
      "Without": 7110,
      "hom": 7111,
      "ms": 7112,
      "major": 7113,
      "taz": 7114,
      "wide": 7115,
      "amor": 7116,
      "Maria": 7117,
      "Bount": 7118,
      "quest": 7119,
      "Brig": 7120,
      "Bride": 7121,
      "Devar": 7122,
      "Requiem": 7123,
      "Juli": 7124,
      "Henri": 7125,
      "renchard": 7126,
      "Russia": 7127,
      "Pyarelal": 7128,
      "Francesco": 7129,
      "onderful": 7130,
      "imental": 7131,
      "Bottom": 7132,
      "picture": 7133,
      "Borrow": 7134,
      "Dist": 7135,
      "Escap": 7136,
      "Field": 7137,
      "Mach": 7138,
      "My_S": 7139,
      "Parker": 7140,
      "Potter": 7141,
      "Planet": 7142,
      "hor": 7143,
      "hash": 7144,
      "mons": 7145,
      "married": 7146,
      "t_S": 7147,
      "weg": 7148,
      "women": 7149,
      "é_": 7150,
      "esa": 7151,
      "ised": 7152,
      "eless_": 7153,
      "s_K": 7154,
      "_Bhas": 7155,
      "_Carr": 7156,
      "_Lar": 7157,
      "_Kul": 7158,
      "_Gall": 7159,
      "_Das": 7160,
      "_Tri": 7161,
      "Amaz": 7162,
      "_Je": 7163,
      "_Jac": 7164,
      "Boomer": 7165,
      "uge": 7166,
      "ogers": 7167,
      "oka": 7168,
      "ously": 7169,
      "atty": 7170,
      "En_": 7171,
      "Leo_G": 7172,
      "William_F": 7173,
      "_Anand": 7174,
      "Julia_": 7175,
      "Detro": 7176,
      "Upon_a_": 7177,
      "etwork": 7178,
      "_Befor": 7179,
      "i_Kapoor": 7180,
      "_Scream": 7181,
      "kineni": 7182,
      "_Prakash": 7183,
      "Akkineni": 7184,
      "_You_": 7185,
      "_Sweet": 7186,
      "Law_": 7187,
      "Moonlight": 7188,
      "_Davis": 7189,
      "John_Hannah_": 7190,
      "Honeymoon_": 7191,
      "Dennis_Hays": 7192,
      "Dean_Jagger": 7193,
      "i_Rogers": 7194,
      "9000": 7195,
      "Nikol": 7196,
      "gypt": 7197,
      "Mimi_Rogers": 7198,
      "Harris": 7199,
      "Bonnie_": 7200,
      "Scorch": 7201,
      "John_Frizz": 7202,
      "Chris_M": 7203,
      "Pedro": 7204,
      "focuses": 7205,
      "David_Hemmings": 7206,
      "Calendar": 7207,
      "Calamity_": 7208,
      "a_Raghu": 7209,
      "Romeo_and_Juliet_": 7210,
      "Coffin": 7211,
      "Wenn_V": 7212,
      "Rangayana_Raghu": 7213,
      "Dennis_Haysbert": 7214,
      "John_Frizzell_": 7215,
      "Bing": 7216,
      "Burt": 7217,
      "BBC": 7218,
      "Camil": 7219,
      "Gem": 7220,
      "Linds": 7221,
      "Master": 7222,
      "Trip": 7223,
      "Yellow": 7224,
      "bal": 7225,
      "dam": 7226,
      "karni": 7227,
      "ilight": 7228,
      "enport": 7229,
      "asad": 7230,
      "asher": 7231,
      "Than": 7232,
      "Chat": 7233,
      "Chill": 7234,
      "athers": 7235,
      "raft": 7236,
      "1923": 7237,
      "Quin": 7238,
      "Ell": 7239,
      "Eddie": 7240,
      "ensen": 7241,
      "Reed": 7242,
      "Private": 7243,
      "akshi": 7244,
      "Austri": 7245,
      "notable": 7246,
      "Const": 7247,
      "Aksh": 7248,
      "Christoph": 7249,
      "Hitman": 7250,
      "brothers": 7251,
      "location": 7252,
      "Silva": 7253,
      "small": 7254,
      "Faten": 7255,
      "6900": 7256,
      "Bik": 7257,
      "Lab": 7258,
      "Lana_": 7259,
      "Pac": 7260,
      "Zach": 7261,
      "bra": 7262,
      "card": 7263,
      "how": 7264,
      "iber": 7265,
      "nd": 7266,
      "try": 7267,
      "ül": 7268,
      "ari_": 7269,
      "e_No": 7270,
      "diqui": 7271,
      "of_": 7272,
      "_Sa": 7273,
      "_Sing": 7274,
      "_Sed": 7275,
      "adev": 7276,
      "_Miss": 7277,
      "aymond": 7278,
      "owski": 7279,
      "_Cat": 7280,
      "ira_K": 7281,
      "_Hai": 7282,
      "_Ru": 7283,
      "_Rom": 7284,
      "_Rising": 7285,
      "_Panth": 7286,
      "_Lu": 7287,
      "over_": 7288,
      "_Ak": 7289,
      "_Wi": 7290,
      "umn": 7291,
      "_Dim": 7292,
      "_Dance": 7293,
      "_Top": 7294,
      "_Nelson": 7295,
      "_Jay": 7296,
      "away_": 7297,
      "Carthy": 7298,
      "Scent": 7299,
      "Blackbird": 7300,
      "Prith": 7301,
      "Price": 7302,
      "Claud": 7303,
      "Preston": 7304,
      "_I_": 7305,
      "_Ir": 7306,
      "Desmond": 7307,
      "_Allen": 7308,
      "Rajan": 7309,
      "Rajan_P": 7310,
      "iya_": 7311,
      "Queen_": 7312,
      "Walt": 7313,
      "Berg": 7314,
      "Regis_T": 7315,
      "Batman_": 7316,
      "Forest": 7317,
      "Mike": 7318,
      "Mayer": 7319,
      "Carolina_": 7320,
      "a_Wat": 7321,
      "African": 7322,
      "Magn": 7323,
      "Revenge_": 7324,
      "Rod_Cameron_": 7325,
      "_Rides": 7326,
      "ealand": 7327,
      "Spanish_language": 7328,
      "edited": 7329,
      "_Hamama": 7330,
      "Robert_Lowery_": 7331,
      "Rafael": 7332,
      "Death_Race_": 7333,
      "Carroll_Baker": 7334,
      "Devdas_": 7335,
      "Deliver_Us_from_Evil_": 7336,
      "Brian_Trenchard": 7337,
      "Ossie_Davis": 7338,
      "Faten_Hamama": 7339,
      "Regis_Toomey": 7340,
      "Cur": 7341,
      "Dilip": 7342,
      "Gail": 7343,
      "Hoff": 7344,
      "If": 7345,
      "Jill": 7346,
      "Ri": 7347,
      "Tai": 7348,
      "Vernon": 7349,
      "gus": 7350,
      "husband": 7351,
      "prim": 7352,
      "yas": 7353,
      "repris": 7354,
      "eleb": 7355,
      "itation": 7356,
      "chen": 7357,
      "ulp": 7358,
      "Shaw": 7359,
      "cop": 7360,
      "ainter": 7361,
      "Aless": 7362,
      "icks": 7363,
      "Ellis": 7364,
      "Edmund": 7365,
      "Believ": 7366,
      "Beloved": 7367,
      "Newman": 7368,
      "Princes": 7369,
      "Campbell": 7370,
      "Atl": 7371,
      "Prince": 7372,
      "Irving": 7373,
      "prison": 7374,
      "Aw": 7375,
      "Ban": 7376,
      "Bow": 7377,
      "Catherine_": 7378,
      "Ha": 7379,
      "Nelson": 7380,
      "iu": 7381,
      "jit": 7382,
      "ning": 7383,
      "van_": 7384,
      "strug": 7385,
      "ense": 7386,
      "esp": 7387,
      "asp": 7388,
      "ator_": 7389,
      "a_St": 7390,
      "a_Jay": 7391,
      "directing": 7392,
      "usk": 7393,
      "_Song": 7394,
      "_Stern": 7395,
      "_Mas": 7396,
      "_Bust": 7397,
      "ira_": 7398,
      "_Hu": 7399,
      "aker_": 7400,
      "_Lang": 7401,
      "_Lalitha": 7402,
      "_Know": 7403,
      "_Käutner": 7404,
      "ives_": 7405,
      "_Time": 7406,
      "_Terr": 7407,
      "athon": 7408,
      "Stella_": 7409,
      "_Number": 7410,
      "_Chaser": 7411,
      "_Van": 7412,
      "_and_M": 7413,
      "ourage": 7414,
      "Elain": 7415,
      "Death_Valley_": 7416,
      "asse_": 7417,
      "Jeet": 7418,
      "Sarg": 7419,
      "Little_W": 7420,
      "Blue_S": 7421,
      "gles": 7422,
      "The_Lov": 7423,
      "About": 7424,
      "titled": 7425,
      "Martin_Donovan": 7426,
      "included": 7427,
      "Blind_D": 7428,
      "Melod": 7429,
      "uvard": 7430,
      "Pete": 7431,
      "Perfect_Strang": 7432,
      "Gil_Bell": 7433,
      "Whitford": 7434,
      "ing_Point_": 7435,
      "Luis_Rest": 7436,
      "Chandler": 7437,
      "Rachel_Weis": 7438,
      "Billy_the_Kid": 7439,
      "Florence_": 7440,
      "érard": 7441,
      "6780": 7442,
      "movies": 7443,
      "Helmut_Käutner": 7444,
      "Ganesh": 7445,
      "_Asner": 7446,
      "Theatre": 7447,
      "Vishnuvard": 7448,
      "Indian_actress": 7449,
      "Cathy_Garcia": 7450,
      "Gil_Bellows": 7451,
      "Luis_Resto_": 7452,
      "Rachel_Weisz": 7453,
      "Gra": 7454,
      "Jordan": 7455,
      "Kish": 7456,
      "Million": 7457,
      "Og": 7458,
      "Werner": 7459,
      "bidden": 7460,
      "ej": 7461,
      "hub": 7462,
      "suk": 7463,
      "tri": 7464,
      "êt": 7465,
      "andey": 7466,
      "Three": 7467,
      "adine": 7468,
      "JoBeth": 7469,
      "Stone": 7470,
      "opera": 7471,
      "prov": 7472,
      "ecord": 7473,
      "Quinn": 7474,
      "Davenport": 7475,
      "obe": 7476,
      "asse": 7477,
      "playwright": 7478,
      "Julien": 7479,
      "Frederick": 7480,
      "Milton": 7481,
      "desc": 7482,
      "olognini": 7483,
      "abbit": 7484,
      "England": 7485,
      "Adrian": 7486,
      "Scattergood": 7487,
      "Starring": 7488,
      "Laglen": 7489,
      "dubbed": 7490,
      ".\"": 7491,
      "66": 7492,
      "Gavin": 7493,
      "Mustaf": 7494,
      "Pam": 7495,
      "Pec": 7496,
      "Sound": 7497,
      "famous": 7498,
      "i_T": 7499,
      "list": 7500,
      "nick": 7501,
      "o_J": 7502,
      "piv": 7503,
      "row_": 7504,
      "si": 7505,
      "in_M": 7506,
      "enst": 7507,
      "andy": 7508,
      "icago": 7509,
      "elo": 7510,
      "agle": 7511,
      "urch": 7512,
      "_Bound": 7513,
      "The_New": 7514,
      "etim": 7515,
      "iro_": 7516,
      "exico": 7517,
      "_Pil": 7518,
      "oux": 7519,
      "Cargo_": 7520,
      "endant": 7521,
      "_Stein": 7522,
      "e_of_": 7523,
      "Quant": 7524,
      "Michael_T": 7525,
      "Michael_Murphy_": 7526,
      "ontier": 7527,
      "Bluebe": 7528,
      "Casper": 7529,
      "Janis": 7530,
      "atherine": 7531,
      "i_Khan": 7532,
      "_Princ": 7533,
      "Jenny_": 7534,
      "Supporting": 7535,
      "_My_Heart_": 7536,
      "Birds_of": 7537,
      "del_Rí": 7538,
      "record": 7539,
      "_Edward": 7540,
      "_Russell_": 7541,
      "Yuen": 7542,
      "_Chapter": 7543,
      "together": 7544,
      "Rekha_": 7545,
      "The_Man_Who": 7546,
      "Robert_Cummings": 7547,
      "_Coburn": 7548,
      "Iain_Glen": 7549,
      "Saurabh": 7550,
      "pivotal": 7551,
      "del_Río": 7552,
      "e_Is_": 7553,
      "Byron": 7554,
      "Dhan": 7555,
      "Page": 7556,
      "Pell": 7557,
      "Rumb": 7558,
      "Yuri": 7559,
      "dar": 7560,
      "fred": 7561,
      "mán": 7562,
      "ually": 7563,
      "wi": 7564,
      "ás": 7565,
      "andan": 7566,
      "Thor": 7567,
      "anguly": 7568,
      "chant": 7569,
      "acre": 7570,
      "idan": 7571,
      "event": 7572,
      "rane": 7573,
      "ryst": 7574,
      "orton": 7575,
      "Bhan": 7576,
      "orden": 7577,
      "Evans": 7578,
      "titles": 7579,
      "Goldwyn": 7580,
      "Ernst": 7581,
      "wanathan": 7582,
      "iewicz": 7583,
      "contr": 7584,
      "Viktor": 7585,
      "Luke": 7586,
      "Rugrat": 7587,
      "Pakistani": 7588,
      "Crime": 7589,
      "Egypt": 7590,
      "Liz": 7591,
      "Rele": 7592,
      "Yosh": 7593,
      "fem": 7594,
      "ias": 7595,
      "kes": 7596,
      "mi_": 7597,
      "és": 7598,
      "iness": 7599,
      "eno": 7600,
      "Ther": 7601,
      "The_Red": 7602,
      "Dement": 7603,
      "_Winter": 7604,
      "iva": 7605,
      "arde": 7606,
      "aby_": 7607,
      "Sheldon": 7608,
      "ress_": 7609,
      "aines": 7610,
      "1922": 7611,
      "ind_": 7612,
      "inda_": 7613,
      "undrel": 7614,
      "uki_H": 7615,
      "Primar": 7616,
      "otts": 7617,
      "William_Dev": 7618,
      "William_Sad": 7619,
      "One_M": 7620,
      "David_W": 7621,
      "season": 7622,
      "head_": 7623,
      "Ed_Asner": 7624,
      "ough_": 7625,
      "a_Ber": 7626,
      "Delany": 7627,
      "Johnny_C": 7628,
      "How_to_Train": 7629,
      "y_Co": 7630,
      "Belle": 7631,
      "_Raja": 7632,
      "_Rosen": 7633,
      "Castle_": 7634,
      "Mrs": 7635,
      "Candy_": 7636,
      "Carlos_": 7637,
      "Raghav": 7638,
      "Takay": 7639,
      "Sally_K": 7640,
      "Power_Rangers_": 7641,
      "Restless_": 7642,
      "Battle_of_the_": 7643,
      "Bryan_Leung": 7644,
      "Rebec": 7645,
      "Deborah_Kerr": 7646,
      "Once_Upon_a_": 7647,
      "Geraldine_": 7648,
      "Scorp": 7649,
      "Beauty_and_the_Beast_": 7650,
      "Renegad": 7651,
      "Tobin": 7652,
      "4740": 7653,
      "Dolores_": 7654,
      "James_Russo": 7655,
      "Susannah_York": 7656,
      "South_Indian_actress": 7657,
      "William_Devane": 7658,
      "William_Sadler_": 7659,
      "Dolores_del_Río": 7660,
      "Baye": 7661,
      "Cit": 7662,
      "Da": 7663,
      "Ep": 7664,
      "IV": 7665,
      "Kate": 7666,
      "Next": 7667,
      "Puss": 7668,
      "Pawn": 7669,
      "Vaug": 7670,
      "number": 7671,
      "vict": 7672,
      "walk": 7673,
      "water": 7674,
      "iley": 7675,
      "ador": 7676,
      "uraj": 7677,
      "Blink": 7678,
      "Shil": 7679,
      "Shot": 7680,
      "ahiri": 7681,
      "1925": 7682,
      "ubin": 7683,
      "Arab": 7684,
      "Brides": 7685,
      "Jonah": 7686,
      "Miles": 7687,
      "Milburn": 7688,
      "Before": 7689,
      "Murray": 7690,
      "Bridg": 7691,
      "Musical": 7692,
      "Valentin": 7693,
      "Singap": 7694,
      "Anupam": 7695,
      "Passion": 7696,
      "Anjali": 7697,
      "western": 7698,
      "Radio": 7699,
      "couple": 7700,
      "Lady_": 7701,
      "Nann": 7702,
      "Ran": 7703,
      "Rap": 7704,
      "Six": 7705,
      "_von": 7706,
      "bud": 7707,
      "crim": 7708,
      "f_": 7709,
      "mont": 7710,
      "mix": 7711,
      "pse": 7712,
      "sa": 7713,
      "vel": 7714,
      "web": 7715,
      "zy": 7716,
      "ée": 7717,
      "e_de_": 7718,
      "enant": 7719,
      "ref": 7720,
      "ther_": 7721,
      "aly_": 7722,
      "eswara_Rao": 7723,
      "asion": 7724,
      "a_and_the_": 7725,
      "ose_": 7726,
      "theater": 7727,
      "_Six": 7728,
      "_Mull": 7729,
      "owlands": 7730,
      "_Cho": 7731,
      "iddiqui": 7732,
      "_Work": 7733,
      "_Tell": 7734,
      "atham": 7735,
      "uld": 7736,
      "_of_D": 7737,
      "Maril": 7738,
      "eym": 7739,
      "rani": 7740,
      "_Jim": 7741,
      "raman": 7742,
      "iaz": 7743,
      "ending": 7744,
      "Scout": 7745,
      "Black_R": 7746,
      "_Sheffer": 7747,
      "_Shukla": 7748,
      "_Vis": 7749,
      "Quar": 7750,
      "Robert_D": 7751,
      "Bhad": 7752,
      "_a_W": 7753,
      "Enn": 7754,
      "_Yee": 7755,
      "_Ish": 7756,
      "rol_": 7757,
      "William_K": 7758,
      "Edd": 7759,
      "e_Com": 7760,
      "Spe": 7761,
      "2023": 7762,
      "Anne_": 7763,
      "a_Par": 7764,
      "_13": 7765,
      "ussi": 7766,
      "ussain": 7767,
      "Reign": 7768,
      "urdan": 7769,
      "French_language": 7770,
      "aiders": 7771,
      "Laurent": 7772,
      "o_Bolognini": 7773,
      "_Rama_Rao": 7774,
      "Pierre": 7775,
      "Michel_Mag": 7776,
      "_Valley": 7777,
      "Craig_Sheffer": 7778,
      "elvet": 7779,
      "position": 7780,
      "Derek_Yee": 7781,
      "_Phillip": 7782,
      "Barbara_Eden": 7783,
      "_Everett": 7784,
      "_Brahm": 7785,
      "Jimmy_L": 7786,
      "_Surv": 7787,
      "Stephan": 7788,
      "Mischa_B": 7789,
      "_Hughes": 7790,
      "Bradley_Whitford": 7791,
      "Lana_Turner": 7792,
      "JoBeth_Williams": 7793,
      "Michel_Magne": 7794,
      "Bes": 7795,
      "Cont": 7796,
      "Dim": 7797,
      "Gam": 7798,
      "Gary": 7799,
      "Jew": 7800,
      "Laksh": 7801,
      "Mem": 7802,
      "Mut": 7803,
      "Ni": 7804,
      "Nir": 7805,
      "RK": 7806,
      "Sad": 7807,
      "Sapt": 7808,
      "cover": 7809,
      "lal": 7810,
      "vert": 7811,
      "andar": 7812,
      "eden": 7813,
      "ically": 7814,
      "union": 7815,
      "aguchi": 7816,
      "olv": 7817,
      "abl": 7818,
      "fort": 7819,
      "ements": 7820,
      "utton": 7821,
      "Alib": 7822,
      "Carson": 7823,
      "ended": 7824,
      "Samar": 7825,
      "order": 7826,
      "appan": 7827,
      "Joshu": 7828,
      "Real": 7829,
      "Sheil": 7830,
      "Abh": 7831,
      "Reddy": 7832,
      "Series": 7833,
      "Conf": 7834,
      "Luig": 7835,
      "trilogy": 7836,
      "Doris": 7837,
      "Rudolf": 7838,
      "Cooper": 7839,
      "Holland": 7840,
      "acclaim": 7841,
      "Animation": 7842,
      "Robotech": 7843,
      "Lawrence": 7844,
      "previously": 7845,
      "hattan": 7846,
      "photog": 7847,
      "centers": 7848,
      "Quinlan": 7849,
      "7500": 7850,
      "8100": 7851,
      "Bah": 7852,
      "Cash": 7853,
      "Fritz": 7854,
      "Gay": 7855,
      "Hag": 7856,
      "Kul": 7857,
      "Lance_": 7858,
      "Living": 7859,
      "Nil": 7860,
      "Sau": 7861,
      "Srid": 7862,
      "aad": 7863,
      "cy": 7864,
      "de_M": 7865,
      "gie": 7866,
      "jar": 7867,
      "kov": 7868,
      "length": 7869,
      "na_": 7870,
      "ning_": 7871,
      "pire": 7872,
      "rix": 7873,
      "rier": 7874,
      "aldi": 7875,
      "a_O": 7876,
      "a_Y": 7877,
      "a_Qureshi": 7878,
      "y_Ch": 7879,
      "_Maj": 7880,
      "_Meet": 7881,
      "cho": 7882,
      "_Ball": 7883,
      "_Hy": 7884,
      "_Horn": 7885,
      "_Pick": 7886,
      "_Tre": 7887,
      "ather_": 7888,
      "shows": 7889,
      "alla": 7890,
      "ishch": 7891,
      "_Jatt": 7892,
      "_Stewart": 7893,
      "_Cheat": 7894,
      "_Yadav": 7895,
      "_Imp": 7896,
      "Lee_R": 7897,
      "George_G": 7898,
      "Michael_W": 7899,
      "heart": 7900,
      "Pat_Morita": 7901,
      "_Blanc": 7902,
      "Savitri": 7903,
      "_Heav": 7904,
      "onsie": 7905,
      "Rama": 7906,
      "Returns": 7907,
      "_Advent": 7908,
      "Daniel_Stern": 7909,
      "Carlo_": 7910,
      "189": 7911,
      "_Youth": 7912,
      "ayanam_": 7913,
      "compet": 7914,
      "_Forbes": 7915,
      "achelor": 7916,
      "Emilio": 7917,
      "Donnell": 7918,
      "Navy": 7919,
      "Beatrice_": 7920,
      "positive": 7921,
      "Blazing": 7922,
      "_Ashmore": 7923,
      "Open": 7924,
      "Sylvia_": 7925,
      "Mauro_Bolognini": 7926,
      "_Earth_": 7927,
      "Ahsan": 7928,
      "Wayne_Mor": 7929,
      "_Spring": 7930,
      "Caravan_": 7931,
      "_Little_": 7932,
      "Nathalie_Baye": 7933,
      "Vittorio": 7934,
      "Saurabh_Shukla": 7935,
      "Daniel_Stern_": 7936,
      "Dix": 7937,
      "Mast": 7938,
      "Now": 7939,
      "Puk": 7940,
      "Rou": 7941,
      "Sadd": 7942,
      "Tre": 7943,
      "Us": 7944,
      "Vadi": 7945,
      "eem": 7946,
      "haps": 7947,
      "ku": 7948,
      "lik": 7949,
      "Thir": 7950,
      "aders": 7951,
      "urthy": 7952,
      "ayak": 7953,
      "Rop": 7954,
      "iani": 7955,
      "rans": 7956,
      "Boil": 7957,
      "achi": 7958,
      "Brick": 7959,
      "Deadwood": 7960,
      "1914": 7961,
      "deal": 7962,
      "Jerry": 7963,
      "Austin": 7964,
      "Adams": 7965,
      "Murphy": 7966,
      "Sidney": 7967,
      "Hollow": 7968,
      "Sarkar": 7969,
      "Company": 7970,
      "Promised": 7971,
      "Bruno": 7972,
      "becomes": 7973,
      "Bodygu": 7974,
      "different": 7975,
      "writing": 7976,
      "6660": 7977,
      "A_C": 7978,
      "Dul": 7979,
      "Fear": 7980,
      "Iz": 7981,
      "Lang": 7982,
      "Nair": 7983,
      "Pow": 7984,
      "Todd": 7985,
      "fif": 7986,
      "iw": 7987,
      "pool": 7988,
      "u_N": 7989,
      "yler": 7990,
      "on_Par": 7991,
      "s_Out": 7992,
      "_Sco": 7993,
      "_Cent": 7994,
      "_Curs": 7995,
      "acation": 7996,
      "_Hel": 7997,
      "_Ryan": 7998,
      "idence_": 7999,
      "_Long": 8000,
      "_Lady": 8001,
      "umph": 8002,
      "_Gab": 8003,
      "Blade_": 8004,
      "elling": 8005,
      "emick": 8006,
      "Amm": 8007,
      "ikumar": 8008,
      "awson": 8009,
      "1924": 8010,
      "Boop": 8011,
      "with_a_": 8012,
      "ache": 8013,
      "_Chang": 8014,
      "Blackout_": 8015,
      "ickman": 8016,
      "aze": 8017,
      "ark_": 8018,
      "_and_W": 8019,
      "Prison_": 8020,
      "associ": 8021,
      "Sarfar": 8022,
      "Adel": 8023,
      "a_Rowlands": 8024,
      "y_Murphy": 8025,
      "Raja": 8026,
      "Gray": 8027,
      "e_Trail": 8028,
      "leader": 8029,
      "oshi_": 8030,
      "World_": 8031,
      "Gena_Rowlands": 8032,
      "Joseph_F": 8033,
      "_Gray": 8034,
      "_Rajkumar": 8035,
      "Flesh": 8036,
      "a_Cass": 8037,
      "_Garc": 8038,
      "Gerard": 8039,
      "nomination": 8040,
      "_Wilson": 8041,
      "a_Apte": 8042,
      "Basil": 8043,
      "Dorothy": 8044,
      "Pyar_K": 8045,
      "Kathleen_": 8046,
      "ydon": 8047,
      "Regina_Hall": 8048,
      "helm": 8049,
      "Leslie": 8050,
      "hardt": 8051,
      "become": 8052,
      "Enriqu": 8053,
      "Prosper": 8054,
      "front": 8055,
      "Casanova_": 8056,
      "Shirley_Temple": 8057,
      "Cabaret": 8058,
      "CBS": 8059,
      "Original": 8060,
      "Little_Women_": 8061,
      "budget": 8062,
      "Lee_Remick": 8063,
      "Wayne_Morris_": 8064,
      "Bian": 8065,
      "Darr": 8066,
      "Dani": 8067,
      "Dutt": 8068,
      "Father": 8069,
      "Gust": 8070,
      "Mind": 8071,
      "Pot": 8072,
      "Pour": 8073,
      "Sah": 8074,
      "Wang": 8075,
      "enth": 8076,
      "andh": 8077,
      "lex": 8078,
      "uran": 8079,
      "aves": 8080,
      "ids": 8081,
      "epic": 8082,
      "Caesar": 8083,
      "eethe": 8084,
      "eenth": 8085,
      "gener": 8086,
      "ricane": 8087,
      "1915": 8088,
      "Patri": 8089,
      "Perkins": 8090,
      "Grey": 8091,
      "Sword": 8092,
      "Brothers": 8093,
      "Lucas": 8094,
      "Magic": 8095,
      "Betty": 8096,
      "Haywood": 8097,
      "Turk": 8098,
      "Rahul": 8099,
      "standing": 8100,
      "Sarfarosh": 8101,
      "Ach": 8102,
      "Bess": 8103,
      "Dais": 8104,
      "Es": 8105,
      "Len": 8106,
      "Lake": 8107,
      "Pay_": 8108,
      "Ronn": 8109,
      "Slav": 8110,
      "Tales": 8111,
      "aadi": 8112,
      "cess": 8113,
      "due": 8114,
      "festival": 8115,
      "sang": 8116,
      "seven": 8117,
      "wn": 8118,
      "xter": 8119,
      "stem": 8120,
      "ing_G": 8121,
      "ritten": 8122,
      "es_of_the_": 8123,
      "ed_in": 8124,
      "y_in": 8125,
      "_Sac": 8126,
      "_Saf": 8127,
      "_Mom": 8128,
      "_Burn": 8129,
      "_Baby": 8130,
      "_Rand": 8131,
      "_Att": 8132,
      "_Ward": 8133,
      "_Gordon_": 8134,
      "_Dou": 8135,
      "Chakraborty": 8136,
      "evney": 8137,
      "John_Franken": 8138,
      "Alone": 8139,
      "ishek": 8140,
      "ights": 8141,
      "Carib": 8142,
      "orgotten": 8143,
      "_Shep": 8144,
      "azaki": 8145,
      "Queer": 8146,
      "ip_T": 8147,
      "appears": 8148,
      "ruct": 8149,
      "David_": 8150,
      "a_Red": 8151,
      "Pauline_": 8152,
      "Anna_": 8153,
      "_McLaglen": 8154,
      "ska": 8155,
      "portrayal": 8156,
      "y_Wall": 8157,
      "a_Har": 8158,
      "Sea_": 8159,
      "Jayas": 8160,
      "y_Friend": 8161,
      "riguez": 8162,
      "_Love_Story": 8163,
      "Flight": 8164,
      "theaters": 8165,
      "Louis_Jo": 8166,
      "Giul": 8167,
      "Sunset": 8168,
      "Rudolph": 8169,
      "_Your_Dr": 8170,
      "ieves_": 8171,
      "ma_Blair": 8172,
      "marks": 8173,
      "_Christmas_": 8174,
      "Roller": 8175,
      "lynn": 8176,
      "_Copper": 8177,
      "Sanjay_": 8178,
      "Penel": 8179,
      "Carnival_": 8180,
      "Julie_Andrews": 8181,
      "Blonde_": 8182,
      "_Friends_": 8183,
      "_Smith_": 8184,
      "performances": 8185,
      "Saturday_Night": 8186,
      "model": 8187,
      "4320": 8188,
      "How_to_Make_": 8189,
      "_Beauty_": 8190,
      "_Returns": 8191,
      "_Varalakshmi": 8192,
      "members": 8193,
      "grossing": 8194,
      "Resurrection_": 8195,
      "Butler": 8196,
      "Beneath_the_": 8197,
      "_Raghav": 8198,
      "_Germany": 8199,
      "Dana_Delany": 8200,
      "Ursula_": 8201,
      "Europe": 8202,
      "ernánde": 8203,
      "_Bhasi": 8204,
      "Mustafa_Qureshi": 8205,
      "How_to_Train_Your_Dr": 8206,
      "Sally_Kirkland": 8207,
      "RKO": 8208,
      "Kathleen_Quinlan": 8209,
      "John_Frankenheimer": 8210,
      "Louis_Jourdan": 8211,
      "Boss": 8212,
      "Bij": 8213,
      "Dil": 8214,
      "Dall": 8215,
      "Dirk": 8216,
      "Frid": 8217,
      "Gérard": 8218,
      "Roland": 8219,
      "Techn": 8220,
      "sal": 8221,
      "ui": 8222,
      "inj": 8223,
      "erz": 8224,
      "onso": 8225,
      "itar": 8226,
      "akrishnan": 8227,
      "Chad": 8228,
      "Channel": 8229,
      "Shan": 8230,
      "1970s": 8231,
      "attori": 8232,
      "oya": 8233,
      "Desire": 8234,
      "Guiller": 8235,
      "Express": 8236,
      "Ort": 8237,
      "Alien": 8238,
      "Justice": 8239,
      "brook": 8240,
      "Psycho": 8241,
      "Director": 8242,
      "Domini": 8243,
      "4440": 8244,
      "Adit": 8245,
      "Bis": 8246,
      "DC": 8247,
      "Honey_": 8248,
      "Omar": 8249,
      "Ward": 8250,
      "cle_": 8251,
      "wai": 8252,
      "är": 8253,
      "eda_B": 8254,
      "ammer": 8255,
      "a_2": 8256,
      "aga_": 8257,
      "s_V": 8258,
      "s_Daughter": 8259,
      "_Su": 8260,
      "_Met": 8261,
      "The_Little_": 8262,
      "_the_Movie": 8263,
      "_Cal": 8264,
      "aces_": 8265,
      "avathi": 8266,
      "_Hat": 8267,
      "_Hur": 8268,
      "_Hung": 8269,
      "_Rev": 8270,
      "illac": 8271,
      "_Pry": 8272,
      "_Wedding": 8273,
      "_Ger": 8274,
      "_Dob": 8275,
      "Blake": 8276,
      "Blossom": 8277,
      "_Fat": 8278,
      "_Fort": 8279,
      "Root": 8280,
      "Shakt": 8281,
      "mani": 8282,
      "ichi": 8283,
      "ichael": 8284,
      "respect": 8285,
      "John_P": 8286,
      "anned": 8287,
      "_Jarr": 8288,
      "hous": 8289,
      "under_": 8290,
      "_Str": 8291,
      "_Stev": 8292,
      "e_of_M": 8293,
      "_Vict": 8294,
      "Robert_J": 8295,
      "Peck": 8296,
      "Bhale_": 8297,
      "Preci": 8298,
      "assan": 8299,
      "William_H": 8300,
      "Sara": 8301,
      "1916": 8302,
      "a_Reed": 8303,
      "_Thr": 8304,
      "_This": 8305,
      "Satan_": 8306,
      "Spain": 8307,
      "Jack_L": 8308,
      "_Albert": 8309,
      "alier_": 8310,
      "Charles_Coburn": 8311,
      "a_Gu": 8312,
      "e_Lee": 8313,
      "Tom_Conway": 8314,
      "Harve": 8315,
      "Santa_B": 8316,
      "Malayalam_": 8317,
      "y_of_a_": 8318,
      "Malayalam_Language": 8319,
      "Gene_R": 8320,
      "Italian_language": 8321,
      "_Sea": 8322,
      "_Wills": 8323,
      "Caroline_": 8324,
      "_Conf": 8325,
      "Jessic": 8326,
      "_Roses_": 8327,
      "Vijay_": 8328,
      "_Allen_": 8329,
      "Mahesh": 8330,
      "Under_the_": 8331,
      "Claude": 8332,
      "Kenneth_Wel": 8333,
      "ichols": 8334,
      "_Command": 8335,
      "_Party": 8336,
      "Danny": 8337,
      "_Back_": 8338,
      "_Kingdom": 8339,
      "_Richard": 8340,
      "_Alej": 8341,
      "Brittan": 8342,
      "highest": 8343,
      "Hurricane_": 8344,
      "Selma_Blair": 8345,
      "_Africa": 8346,
      "_Darkness_": 8347,
      "4620": 8348,
      "4380": 8349,
      "Kyle_": 8350,
      "Olivia_Williams": 8351,
      "Damian_Lau": 8352,
      "Stella_Stevens": 8353,
      "mixed": 8354,
      "Mischa_Barton": 8355,
      "Kenneth_Welsh": 8356,
      "91": 8357,
      "Bu": 8358,
      "Game": 8359,
      "Jes": 8360,
      "Kab": 8361,
      "Lenn": 8362,
      "Pend": 8363,
      "Puff": 8364,
      "Uday": 8365,
      "make": 8366,
      "publ": 8367,
      "sey": 8368,
      "isf": 8369,
      "agiri": 8370,
      "ckhart": 8371,
      "1950s": 8372,
      "Devadas": 8373,
      "ynn": 8374,
      "Savage": 8375,
      "Proph": 8376,
      "Terror": 8377,
      "Valley": 8378,
      "suy": 8379,
      "guer": 8380,
      "Diary": 8381,
      "slasher": 8382,
      "flix": 8383,
      "agonist": 8384,
      "subject": 8385,
      "Prairie": 8386,
      "Padm": 8387,
      "Lionel": 8388,
      "Phillips": 8389,
      "Netflix": 8390,
      "3900": 8391,
      "Carry": 8392,
      "Fin": 8393,
      "Hub": 8394,
      "Main": 8395,
      "Morg": 8396,
      "_4": 8397,
      "aik": 8398,
      "bour": 8399,
      "bury": 8400,
      "ei": 8401,
      "ke_": 8402,
      "kel": 8403,
      "nat": 8404,
      "pal": 8405,
      "sister": 8406,
      "e_2": 8407,
      "thik": 8408,
      "ag_": 8409,
      "s_Big": 8410,
      "_Som": 8411,
      "_Sky": 8412,
      "uro": 8413,
      "_Morgan": 8414,
      "chik": 8415,
      "_Hour": 8416,
      "_Pan": 8417,
      "_Poor": 8418,
      "_Pevney": 8419,
      "_Lie": 8420,
      "_Ax": 8421,
      "They": 8422,
      "_Ker": 8423,
      "_Dollar": 8424,
      "Chir": 8425,
      "Bliss_": 8426,
      "Blanch": 8427,
      "_Field": 8428,
      "America_": 8429,
      "ieg": 8430,
      "_North": 8431,
      "John_T": 8432,
      "John_Brahm": 8433,
      "Almost": 8434,
      "1980s": 8435,
      "_Eat": 8436,
      "o_Y": 8437,
      "Scram": 8438,
      "arly": 8439,
      "occ": 8440,
      "_Chand": 8441,
      "_Shor": 8442,
      "_and_B": 8443,
      "_Ol": 8444,
      "Samud": 8445,
      "Peep": 8446,
      "_a_Girl": 8447,
      "asha": 8448,
      "Lead": 8449,
      "ing_Dead": 8450,
      "e_Col": 8451,
      "a_Mor": 8452,
      "y_Madison": 8453,
      "_Blue_": 8454,
      "ocket": 8455,
      "Billy_C": 8456,
      "Charles_Mar": 8457,
      "Captain_": 8458,
      "_Brody": 8459,
      "y_We": 8460,
      "return": 8461,
      "Steve_C": 8462,
      "Donald_Woods_": 8463,
      "_Zan": 8464,
      "Jayaram": 8465,
      "Again": 8466,
      "Joseph_Pevney": 8467,
      "Keep": 8468,
      "_Inn": 8469,
      "_Carter": 8470,
      "_Sea_": 8471,
      "Ken_Lo": 8472,
      "Baby_": 8473,
      "_Garfield": 8474,
      "Kathar": 8475,
      "flict": 8476,
      "Chris_Haywood": 8477,
      "Mac_Alej": 8478,
      "Hungry_": 8479,
      "Ill": 8480,
      "Nicolas": 8481,
      "Persona_3": 8482,
      "_Out_": 8483,
      "_Russell": 8484,
      "Joyce_": 8485,
      "Born_to_B": 8486,
      "Armstrong": 8487,
      "Morning_": 8488,
      "John_Wick": 8489,
      "Keefe": 8490,
      "Natalie_Wood": 8491,
      "Gillian_Anderson": 8492,
      "Rendezvous_": 8493,
      "_Bennett": 8494,
      "Below_the_": 8495,
      "Joker_": 8496,
      "Black_and_White_": 8497,
      "wegian": 8498,
      "Perfect_Strangers_": 8499,
      "Milburn_Stone": 8500,
      "Pukar_": 8501,
      "Gene_Raymond": 8502,
      "Ken_Loach": 8503,
      "Mac_Alejandre": 8504,
      "Persona_3_The_Movie": 8505,
      "39": 8506,
      "Cru": 8507,
      "Eil": 8508,
      "Gur": 8509,
      "LB": 8510,
      "Pee": 8511,
      "Suz": 8512,
      "Vic": 8513,
      "Wars": 8514,
      "Witch": 8515,
      "bot": 8516,
      "cell": 8517,
      "hman": 8518,
      "take": 8519,
      "uto": 8520,
      "ão": 8521,
      "stad": 8522,
      "alcon": 8523,
      "eda": 8524,
      "isa": 8525,
      "terling": 8526,
      "imm": 8527,
      "uram": 8528,
      "Deco": 8529,
      "irō": 8530,
      "Sham": 8531,
      "comic": 8532,
      "undred": 8533,
      "Army": 8534,
      "uka": 8535,
      "Qual": 8536,
      "Brave": 8537,
      "Cliff": 8538,
      "oys": 8539,
      "Howling": 8540,
      "Andy": 8541,
      "Bluff": 8542,
      "axter": 8543,
      "Trac": 8544,
      "umbai": 8545,
      "ochran": 8546,
      "Montgomer": 8547,
      "abbat": 8548,
      "editing": 8549,
      "Reyes": 8550,
      "heeler": 8551,
      "detect": 8552,
      "Prabhu": 8553,
      "6960": 8554,
      "Are": 8555,
      "Bars": 8556,
      "Bush": 8557,
      "Bower": 8558,
      "Fro": 8559,
      "Fay_": 8560,
      "Hale": 8561,
      "Ice_": 8562,
      "Lakshmi": 8563,
      "Medi": 8564,
      "NBC": 8565,
      "Pas": 8566,
      "Work": 8567,
      "Walker": 8568,
      "Yuv": 8569,
      "_s": 8570,
      "devel": 8571,
      "ger_": 8572,
      "hil": 8573,
      "hem": 8574,
      "nik": 8575,
      "anesan": 8576,
      "erd": 8577,
      "sters": 8578,
      "start": 8579,
      "arrow": 8580,
      "e_Z": 8581,
      "rict": 8582,
      "ators": 8583,
      "Theda_B": 8584,
      "s_P": 8585,
      "s_End": 8586,
      "ura_": 8587,
      "urang": 8588,
      "_Ma": 8589,
      "_Music": 8590,
      "_Moll": 8591,
      "_Bri": 8592,
      "The_O": 8593,
      "The_Adventures_of": 8594,
      "Deto": 8595,
      "etri": 8596,
      "exper": 8597,
      "_Han": 8598,
      "akaz": 8599,
      "ill_": 8600,
      "illa_": 8601,
      "igil": 8602,
      "took": 8603,
      "_Wars": 8604,
      "_Kal": 8605,
      "_Kra": 8606,
      "_Killer": 8607,
      "_Garr": 8608,
      "_Get": 8609,
      "_Turner": 8610,
      "State": 8611,
      "co_": 8612,
      "_Ng": 8613,
      "_Nam": 8614,
      "John_M": 8615,
      "opol": 8616,
      "_Steal": 8617,
      "_Street_": 8618,
      "es_at": 8619,
      "eena_": 8620,
      "_Veg": 8621,
      "ipal": 8622,
      "s_of_R": 8623,
      "Elena_": 8624,
      "Death_Not": 8625,
      "George_W": 8626,
      "Rich_Man": 8627,
      "William_Mc": 8628,
      "David_Copper": 8629,
      "ing_for": 8630,
      "ibson": 8631,
      "Edg": 8632,
      "ed_by_the_": 8633,
      "_Blue": 8634,
      "aird": 8635,
      "Blue_C": 8636,
      "Raju": 8637,
      "_McDon": 8638,
      "Prem_Naz": 8639,
      "Christine_": 8640,
      "Delt": 8641,
      "Independ": 8642,
      "_Brand": 8643,
      "Ramon": 8644,
      "_Marg": 8645,
      "_Reed": 8646,
      "Noel": 8647,
      "_Zero": 8648,
      "a_For": 8649,
      "The_Wild": 8650,
      "_Morris_": 8651,
      "Mike_": 8652,
      "Hit_the_": 8653,
      "Before_I": 8654,
      "Alias": 8655,
      "_Hayes": 8656,
      "Pretty_Cur": 8657,
      "Phantom_of_the_": 8658,
      "Bhagav": 8659,
      "_Burman": 8660,
      "Psycho_": 8661,
      "_Hill_": 8662,
      "Lee_Marvin": 8663,
      "Jamie_": 8664,
      "Hotel": 8665,
      "Savages_": 8666,
      "Riccard": 8667,
      "Intertitle": 8668,
      "Jeffrey_Hunter": 8669,
      "_Tomorrow": 8670,
      "Maureen": 8671,
      "reekumar": 8672,
      "Reunion_": 8673,
      "_Portrait": 8674,
      "Radhika_Apte": 8675,
      "Puzzle_": 8676,
      "_Prejudice_": 8677,
      "Rio_Grand": 8678,
      "onymous": 8679,
      "uki_Hattori": 8680,
      "Takayuki_Hattori": 8681,
      "Jimmy_Lydon": 8682,
      "Theda_Bara": 8683,
      "David_Copperfield_": 8684,
      "Prem_Nazir": 8685,
      "Aish": 8686,
      "Baker": 8687,
      "Cold": 8688,
      "Dowell": 8689,
      "Geeth": 8690,
      "Mu": 8691,
      "Mukherjee": 8692,
      "Nade": 8693,
      "Peng": 8694,
      "Sig": 8695,
      "Seth": 8696,
      "Tenn": 8697,
      "Water": 8698,
      "human": 8699,
      "history": 8700,
      "pon": 8701,
      "vyn": 8702,
      "yman": 8703,
      "inam": 8704,
      "erotic": 8705,
      "stories": 8706,
      "elchin": 8707,
      "enton": 8708,
      "ayi": 8709,
      "athy": 8710,
      "uller": 8711,
      "Robo": 8712,
      "Beeth": 8713,
      "Proud": 8714,
      "ousand": 8715,
      "Sarasw": 8716,
      "Phantas": 8717,
      "Peril": 8718,
      "ooj": 8719,
      "Candi": 8720,
      "ension": 8721,
      "Julie": 8722,
      "Grac": 8723,
      "uzet": 8724,
      "Louise": 8725,
      "Jimmy": 8726,
      "Honk": 8727,
      "Giusepp": 8728,
      "Sharon": 8729,
      "Bengal": 8730,
      "auser": 8731,
      "Dekh": 8732,
      "negative": 8733,
      "performed": 8734,
      "Stefan": 8735,
      "ferno": 8736,
      "lyrics": 8737,
      "Alessandro": 8738,
      "Phantasm": 8739,
      "6840": 8740,
      "Has": 8741,
      "Meer": 8742,
      "Paw": 8743,
      "Pettico": 8744,
      "Sir": 8745,
      "Vo": 8746,
      "Wagner": 8747,
      "_actress": 8748,
      "ball_": 8749,
      "jad": 8750,
      "pur": 8751,
      "puri": 8752,
      "sent": 8753,
      "áv": 8754,
      "arily": 8755,
      "ined": 8756,
      "ing_F": 8757,
      "isen": 8758,
      "isler": 8759,
      "ely_": 8760,
      "aged": 8761,
      "s__1": 8762,
      "s_Revenge": 8763,
      "olin": 8764,
      "_Sound": 8765,
      "_Min": 8766,
      "_More": 8767,
      "_Mukherjee": 8768,
      "_Beyond": 8769,
      "_Bachchan": 8770,
      "The_A": 8771,
      "aye_": 8772,
      "_Cannon": 8773,
      "_Hal": 8774,
      "_Had": 8775,
      "akam": 8776,
      "_Gal": 8777,
      "_Glor": 8778,
      "_TV_": 8779,
      "utes": 8780,
      "ish_film": 8781,
      "indu": 8782,
      "undar": 8783,
      "i_Y": 8784,
      "i_Yam": 8785,
      "ennie": 8786,
      "e_of_F": 8787,
      "_Shah": 8788,
      "_Shankar": 8789,
      "Deva_": 8790,
      "_IV": 8791,
      "Death_at": 8792,
      "Heaven": 8793,
      "_in_a_": 8794,
      "Adolf": 8795,
      "_Blond": 8796,
      "Hum_Hain": 8797,
      "e_Love": 8798,
      "Captain_Fr": 8799,
      "_Brown_": 8800,
      "edict": 8801,
      "The_Leg": 8802,
      "Sheedy": 8803,
      "Belov": 8804,
      "Abd": 8805,
      "Revers": 8806,
      "month": 8807,
      "Martin_K": 8808,
      "Belle_": 8809,
      "Jayabhar": 8810,
      "Punar": 8811,
      "Gene": 8812,
      "having": 8813,
      "appearing": 8814,
      "Adam_West": 8815,
      "Prisoners_of_the_": 8816,
      "_Garber": 8817,
      "selves": 8818,
      "problem": 8819,
      "Laurence_": 8820,
      "Victoria_": 8821,
      "Victor_Garber": 8822,
      "_Newman": 8823,
      "Destiny": 8824,
      "Ricky_": 8825,
      "voice_": 8826,
      "Quest_for": 8827,
      "vest_": 8828,
      "Sky_": 8829,
      "critical": 8830,
      "lette": 8831,
      "Connor": 8832,
      "_Hopkins": 8833,
      "_Delil": 8834,
      "episode": 8835,
      "Joanna_Cass": 8836,
      "_Harris": 8837,
      "Claire_": 8838,
      "Marjorie_Reynolds": 8839,
      "Peter_Weller": 8840,
      "Samantha_": 8841,
      "promin": 8842,
      "quis_Warren": 8843,
      "_Joseph": 8844,
      "_Sheikh": 8845,
      "Chill_Wills": 8846,
      "Tobin_Bell": 8847,
      "Charles_Marquis_Warren": 8848,
      "Captain_Frac": 8849,
      "Joanna_Cassidy": 8850,
      "Eat": 8851,
      "Post": 8852,
      "Saint": 8853,
      "Ud": 8854,
      "Wak": 8855,
      "fman": 8856,
      "fail": 8857,
      "king": 8858,
      "kok": 8859,
      "kova": 8860,
      "wid": 8861,
      "rees": 8862,
      "asy": 8863,
      "aghan": 8864,
      "imal": 8865,
      "lein": 8866,
      "Demi": 8867,
      "iding": 8868,
      "Blank": 8869,
      "abu": 8870,
      "Among": 8871,
      "sons": 8872,
      "Career": 8873,
      "Cairo": 8874,
      "Claus": 8875,
      "Sarang": 8876,
      "Sarath": 8877,
      "ething": 8878,
      "very": 8879,
      "harsh": 8880,
      "Conrad": 8881,
      "Comedy": 8882,
      "Report": 8883,
      "icolor": 8884,
      "productions": 8885,
      "marked": 8886,
      "often": 8887,
      "Bhalob": 8888,
      "aige": 8889,
      "Bleak": 8890,
      "Beware": 8891,
      "industry": 8892,
      "Giorgio": 8893,
      "Pumpkin": 8894,
      "Elisabeth": 8895,
      "utherland": 8896,
      "Feature": 8897,
      "Dominic": 8898,
      "7440": 8899,
      "Kap": 8900,
      "Larry": 8901,
      "Lin_Sh": 8902,
      "Pup": 8903,
      "Qav": 8904,
      "Rot": 8905,
      "TA": 8906,
      "Tris_": 8907,
      "Yas": 8908,
      "Yash": 8909,
      "oi_": 8910,
      "sid": 8911,
      "ří": 8912,
      "aram_": 8913,
      "anor": 8914,
      "an_S": 8915,
      "orf": 8916,
      "reon": 8917,
      "rice": 8918,
      "rise": 8919,
      "ately": 8920,
      "ises": 8921,
      "eli": 8922,
      "y_Ro": 8923,
      "y_Don": 8924,
      "agl": 8925,
      "s_with": 8926,
      "osp": 8927,
      "osse": 8928,
      "_Sev": 8929,
      "ima_": 8930,
      "The_Young": 8931,
      "_Calv": 8932,
      "_Hate": 8933,
      "_Power": 8934,
      "_Lav": 8935,
      "_Warn": 8936,
      "_Kann": 8937,
      "_Kind": 8938,
      "_Go_": 8939,
      "_Die_": 8940,
      "Blade": 8941,
      "_First": 8942,
      "Anit": 8943,
      "Anita_": 8944,
      "bers": 8945,
      "Int": 8946,
      "Amand": 8947,
      "cox": 8948,
      "_Never": 8949,
      "anners": 8950,
      "iki": 8951,
      "ikala": 8952,
      "_Er": 8953,
      "_Jans": 8954,
      "uce_": 8955,
      "_Steven": 8956,
      "erny": 8957,
      "_Chakravarthy": 8958,
      "ube": 8959,
      "Black_Mag": 8960,
      "Willard": 8961,
      "_Ireland": 8962,
      "ision_": 8963,
      "Moore_": 8964,
      "e_Sch": 8965,
      "aldwin": 8966,
      "Michael_G": 8967,
      "Anders": 8968,
      "Bloody_": 8969,
      "y_Mad": 8970,
      "Josef": 8971,
      "_McC": 8972,
      "_McGovern": 8973,
      "Brew": 8974,
      "Delus": 8975,
      "haran": 8976,
      "Sandh": 8977,
      "Alek": 8978,
      "Eva": 8979,
      "Daybreak": 8980,
      "_Beast": 8981,
      "utta_": 8982,
      "_Engel": 8983,
      "_English": 8984,
      "_Enemy_": 8985,
      "a_Naam": 8986,
      "Breaking_": 8987,
      "Frederic": 8988,
      "_Grant": 8989,
      "Milind": 8990,
      "ultan": 8991,
      "_Morris": 8992,
      "Harry_Davenport": 8993,
      "Sidd": 8994,
      "Stanley": 8995,
      "Sarah_Paul": 8996,
      "contin": 8997,
      "Elizabeth_McGovern": 8998,
      "_Williams_": 8999,
      "Mohan_Joshi": 9000,
      "_Jackson_": 9001,
      "Deewana_": 9002,
      "_Desire": 9003,
      "Lisa_": 9004,
      "Rhond": 9005,
      "_After": 9006,
      "_Silver": 9007,
      "Bennett": 9008,
      "_Justice_": 9009,
      "Javed_S": 9010,
      "_Kaplan": 9011,
      "Boogey": 9012,
      "onster_": 9013,
      "reasure": 9014,
      "Percy_": 9015,
      "Rupert_Graves": 9016,
      "album": 9017,
      "guson": 9018,
      "female": 9019,
      "Eddy_Wall": 9020,
      "Ahsan_Khan_": 9021,
      "develop": 9022,
      "Petticoat": 9023,
      "Lin_Shaye": 9024,
      "Qavi_Khan": 9025,
      "Tris_Coffin": 9026,
      "Harry_Davenport_": 9027,
      "Sarah_Paulson": 9028,
      "Javed_Siddiqui": 9029,
      "Eddy_Waller": 9030,
      "Curt": 9031,
      "Hari": 9032,
      "Maj": 9033,
      "Si": 9034,
      "Vali": 9035,
      "Zero": 9036,
      "doc": 9037,
      "fare": 9038,
      "lam": 9039,
      "must": 9040,
      "pear": 9041,
      "elman": 9042,
      "ads": 9043,
      "Chang": 9044,
      "cock": 9045,
      "eyton": 9046,
      "cker": 9047,
      "Alain": 9048,
      "ahil": 9049,
      "baum": 9050,
      "Sampo": 9051,
      "othing": 9052,
      "Saroj": 9053,
      "Rosem": 9054,
      "Allison": 9055,
      "oorthy": 9056,
      "aurav": 9057,
      "Bobby": 9058,
      "Globe": 9059,
      "Punk": 9060,
      "Kathryn": 9061,
      "polit": 9062,
      "Artist": 9063,
      "akespear": 9064,
      "Halloween": 9065,
      "martial": 9066,
      "official": 9067,
      "melod": 9068,
      "Pegg": 9069,
      "cameo": 9070,
      "iennes": 9071,
      "primarily": 9072,
      "Technicolor": 9073,
      "Jayabharathi": 9074,
      "4260": 9075,
      "Bend": 9076,
      "Crist": 9077,
      "Dw": 9078,
      "Garland": 9079,
      "Huckle": 9080,
      "Lane": 9081,
      "Mason": 9082,
      "Pov": 9083,
      "Sic": 9084,
      "Sleep": 9085,
      "Social": 9086,
      "Tin": 9087,
      "Ye": 9088,
      "_Dead": 9089,
      "eevi": 9090,
      "few": 9091,
      "lic": 9092,
      "sati": 9093,
      "view": 9094,
      "will": 9095,
      "ilver": 9096,
      "orter": 9097,
      "reck": 9098,
      "ise_": 9099,
      "a_Al": 9100,
      "y_De": 9101,
      "uns": 9102,
      "oln": 9103,
      "_Sin": 9104,
      "_Mak": 9105,
      "_My_S": 9106,
      "The_Heart": 9107,
      "_Crim": 9108,
      "_Hindi": 9109,
      "_Ry": 9110,
      "_Private_": 9111,
      "_Well": 9112,
      "_Kan": 9113,
      "_Kelly": 9114,
      "_Korea": 9115,
      "_Dis": 9116,
      "_Dad": 9117,
      "_Door": 9118,
      "_of_N": 9119,
      "eming": 9120,
      "shaw": 9121,
      "uture": 9122,
      "Johnson_": 9123,
      "ikari": 9124,
      "_Eric": 9125,
      "comb": 9126,
      "und_": 9127,
      "_Stories": 9128,
      "scen": 9129,
      "ocus_": 9130,
      "_Shaw": 9131,
      "_Sheet_": 9132,
      "itte": 9133,
      "itti": 9134,
      "ette_": 9135,
      "_Yelchin": 9136,
      "Unt": 9137,
      "neo": 9138,
      "George_T": 9139,
      "ampbell": 9140,
      "Michael_O": 9141,
      "e_Call": 9142,
      "Despic": 9143,
      "Patel": 9144,
      "ynd": 9145,
      "Ann_D": 9146,
      "Annie_": 9147,
      "Peter_S": 9148,
      "uck_": 9149,
      "Ferr": 9150,
      "Ride_the_": 9151,
      "Problem": 9152,
      "edith": 9153,
      "The_Myster": 9154,
      "Nights": 9155,
      "Norwegian": 9156,
      "_Cluzet": 9157,
      "a_Fleming": 9158,
      "Walsh": 9159,
      "Johnny_English": 9160,
      "kins_": 9161,
      "Terry": 9162,
      "_What": 9163,
      "_Leon": 9164,
      "Resist": 9165,
      "Carlos": 9166,
      "_Place": 9167,
      "Kimber": 9168,
      "Adam_Brody": 9169,
      "Henry_Silva": 9170,
      "Anton_Yelchin": 9171,
      "days": 9172,
      "s_Secret": 9173,
      "Leonid": 9174,
      "Raoul": 9175,
      "Vinay_": 9176,
      "_Express": 9177,
      "_Journ": 9178,
      "Party": 9179,
      "effects": 9180,
      "_Patrick": 9181,
      "Matthew_L": 9182,
      "Imp": 9183,
      "_Water_": 9184,
      "akrabarty": 9185,
      "Gunfighter": 9186,
      "Kristen": 9187,
      "Scandal_Sheet_": 9188,
      "Sinh": 9189,
      "Wallace": 9190,
      "Jungle": 9191,
      "_Sunday_": 9192,
      "_Dreams": 9193,
      "Roger_": 9194,
      "Kathleen_Turner": 9195,
      "Neal_McDon": 9196,
      "Pride_and": 9197,
      "François_Cluzet": 9198,
      "Say_It_with": 9199,
      "Nathan_Barr": 9200,
      "Robin_Hood": 9201,
      "oldberg": 9202,
      "Blind_Date_": 9203,
      "Gustav": 9204,
      "_Janssen": 9205,
      "Rhonda_Fleming": 9206,
      "Sampoorn": 9207,
      "Neal_McDonough": 9208,
      "AF": 9209,
      "Bapp": 9210,
      "Bib": 9211,
      "Ded": 9212,
      "Doll": 9213,
      "Dary": 9214,
      "Famil": 9215,
      "Garden": 9216,
      "Lori": 9217,
      "Mus": 9218,
      "Mob": 9219,
      "Mumbai": 9220,
      "Nev": 9221,
      "Neg": 9222,
      "Neen": 9223,
      "Past": 9224,
      "Stock": 9225,
      "Ush": 9226,
      "dale": 9227,
      "hunt": 9228,
      "je": 9229,
      "just": 9230,
      "mult": 9231,
      "oop": 9232,
      "rov": 9233,
      "wart": 9234,
      "wok": 9235,
      "ön": 9236,
      "Thurs": 9237,
      "ention": 9238,
      "ume": 9239,
      "Chev": 9240,
      "abhav": 9241,
      "Roth": 9242,
      "Shak": 9243,
      "Sherman": 9244,
      "Marguer": 9245,
      "Alvin": 9246,
      "opat": 9247,
      "Bez": 9248,
      "hoe": 9249,
      "ends": 9250,
      "Quart": 9251,
      "Bron": 9252,
      "Richardson": 9253,
      "Sansh": 9254,
      "Alej": 9255,
      "Guid": 9256,
      "Proper": 9257,
      "ietnam": 9258,
      "Henrik": 9259,
      "Colle": 9260,
      "Scared": 9261,
      "Scarec": 9262,
      "Renz": 9263,
      "Mystery": 9264,
      "Rubber": 9265,
      "Raghub": 9266,
      "footage": 9267,
      "modern": 9268,
      "explores": 9269,
      "Paol": 9270,
      "journ": 9271,
      "personal": 9272,
      "Reinhold": 9273,
      "Hagman": 9274,
      "detective": 9275,
      "akespeare": 9276,
      "Raghubir": 9277,
      "A_F": 9278,
      "Butter": 9279,
      "Can_": 9280,
      "Core": 9281,
      "Dyn": 9282,
      "Dyan": 9283,
      "Diamond": 9284,
      "Gö": 9285,
      "Jared": 9286,
      "Kō": 9287,
      "Lok": 9288,
      "Ma_": 9289,
      "Nigel": 9290,
      "Oz": 9291,
      "Veer": 9292,
      "Yaar": 9293,
      "aa": 9294,
      "cía": 9295,
      "each": 9296,
      "lu": 9297,
      "o_Al": 9298,
      "pin": 9299,
      "éd": 9300,
      "il_S": 9301,
      "ility": 9302,
      "e_J": 9303,
      "ree_": 9304,
      "aled": 9305,
      "dia": 9306,
      "and_C": 9307,
      "esn": 9308,
      "ica_P": 9309,
      "y_J": 9310,
      "y_Sheedy": 9311,
      "una_": 9312,
      "agar_": 9313,
      "s_Dr": 9314,
      "s_Island": 9315,
      "_Sus": 9316,
      "_Mass": 9317,
      "chu": 9318,
      "_Beat": 9319,
      "The_Ex": 9320,
      "_Cass": 9321,
      "_Cont": 9322,
      "_Cons": 9323,
      "_Hollywood": 9324,
      "ompson_": 9325,
      "_Rust": 9326,
      "_Roth": 9327,
      "_Agu": 9328,
      "_With": 9329,
      "_King_": 9330,
      "_Ford": 9331,
      "Roj": 9332,
      "raine": 9333,
      "ighth": 9334,
      "opez": 9335,
      "_Eckhart": 9336,
      "_Jam": 9337,
      "Pract": 9338,
      "og_": 9339,
      "Sci": 9340,
      "_Story_": 9341,
      "upid": 9342,
      "enne": 9343,
      "_Vir": 9344,
      "Brief": 9345,
      "_Ot": 9346,
      "Priest": 9347,
      "Devi_": 9348,
      "Encounter": 9349,
      "George_K": 9350,
      "Donal_L": 9351,
      "izen": 9352,
      "alde": 9353,
      "1912_film": 9354,
      "ed_by_": 9355,
      "Ally_Sheedy": 9356,
      "Little_Big": 9357,
      "Little_Red": 9358,
      "air_": 9359,
      "Bill_": 9360,
      "a_Kar": 9361,
      "a_Kan": 9362,
      "Frank_Wel": 9363,
      "e_Hammer": 9364,
      "a_Sen": 9365,
      "Johnny_H": 9366,
      "Jane_": 9367,
      "Riding": 9368,
      "Grace": 9369,
      "_Speed": 9370,
      "ylan": 9371,
      "uzh": 9372,
      "Punish": 9373,
      "_Adreon": 9374,
      "aidu": 9375,
      "_Land_": 9376,
      "Caprice_": 9377,
      "Romance": 9378,
      "ujer": 9379,
      "partic": 9380,
      "Kennedy": 9381,
      "Rome_": 9382,
      "Jason_Pat": 9383,
      "s_Wife": 9384,
      "Kids": 9385,
      "Pulse_": 9386,
      "Virg": 9387,
      "_Harper": 9388,
      "_Khanna": 9389,
      "Bruce_Mc": 9390,
      "Betrayal": 9391,
      "Fernando": 9392,
      "Body_": 9393,
      "Sol_Kaplan": 9394,
      "_Butter": 9395,
      "Pusher_": 9396,
      "Donna_Reed": 9397,
      "James_": 9398,
      "ivasan": 9399,
      "Bright_Light": 9400,
      "cinematographer": 9401,
      "_Trail_": 9402,
      "credits": 9403,
      "_Twist": 9404,
      "Aaron_Eckhart": 9405,
      "Prisoner_of": 9406,
      "ociety_": 9407,
      "Lawrence_": 9408,
      "Zhang": 9409,
      "Carbon": 9410,
      "served": 9411,
      "_Husbands": 9412,
      "Franklin_Adreon": 9413,
      "Quicksand_": 9414,
      "aynor": 9415,
      "Beverly_Hills_": 9416,
      "Blackmail_": 9417,
      "Jacqueline_": 9418,
      "Calamity_Anne": 9419,
      "Taiwan": 9420,
      "enstern": 9421,
      "George_Gordon_": 9422,
      "a_Harishch": 9423,
      "Steve_Cochran": 9424,
      "Beloved_": 9425,
      "_Hindi_film": 9426,
      "Donal_Logue": 9427,
      "Frank_Welker": 9428,
      "Jason_Patric": 9429,
      "Bart": 9430,
      "Lud": 9431,
      "Qai": 9432,
      "Rach": 9433,
      "Rolf": 9434,
      "Tun": 9435,
      "Utt": 9436,
      "añ": 9437,
      "drug": 9438,
      "fist": 9439,
      "kesh": 9440,
      "syn": 9441,
      "yat": 9442,
      "ythe": 9443,
      "ste": 9444,
      "stop": 9445,
      "asco": 9446,
      "amma": 9447,
      "aks": 9448,
      "Blad": 9449,
      "Amor": 9450,
      "artment": 9451,
      "erns": 9452,
      "eef": 9453,
      "essler": 9454,
      "ickford": 9455,
      "Prize": 9456,
      "Brav": 9457,
      "otta": 9458,
      "Willis": 9459,
      "Elise": 9460,
      "Union": 9461,
      "appy": 9462,
      "Edwin": 9463,
      "Design": 9464,
      "Bloodfist": 9465,
      "Patter": 9466,
      "Satish": 9467,
      "inski": 9468,
      "Tomorrow": 9469,
      "Seem": 9470,
      "Abraham": 9471,
      "antha": 9472,
      "Agnes": 9473,
      "amblyn": 9474,
      "Capric": 9475,
      "gradu": 9476,
      "eeks": 9477,
      "credi": 9478,
      "Ronit": 9479,
      "Magd": 9480,
      "Masakaz": 9481,
      "Wayne": 9482,
      "Cadet": 9483,
      "Eastwood": 9484,
      "Felic": 9485,
      "help": 9486,
      "local": 9487,
      "Ryu": 9488,
      "Lankan": 9489,
      "Ahmed": 9490,
      "criminal": 9491,
      "Chiranj": 9492,
      "36": 9493,
      "A_Woman": 9494,
      "Bram": 9495,
      "Cage": 9496,
      "Cash_": 9497,
      "Dud": 9498,
      "Drew": 9499,
      "Gonz": 9500,
      "Mul": 9501,
      "Talk": 9502,
      "Written": 9503,
      "_t": 9504,
      "fig": 9505,
      "face": 9506,
      "hara": 9507,
      "i_N": 9508,
      "latter": 9509,
      "oitation": 9510,
      "per_": 9511,
      "rí": 9512,
      "rush": 9513,
      "ár": 9514,
      "ine_C": 9515,
      "ani_": 9516,
      "onado": 9517,
      "on_Fire_": 9518,
      "tha_": 9519,
      "atz": 9520,
      "a_d": 9521,
      "eless": 9522,
      "y_Th": 9523,
      "agle_": 9524,
      "s_War": 9525,
      "olt": 9526,
      "_Sid": 9527,
      "_Saint": 9528,
      "ure_of": 9529,
      "itary": 9530,
      "ition_": 9531,
      "_Million": 9532,
      "_Bry": 9533,
      "_Baj": 9534,
      "The_Th": 9535,
      "The_Night": 9536,
      "_Cran": 9537,
      "iran": 9538,
      "od_": 9539,
      "avu": 9540,
      "_Haw": 9541,
      "_Hans": 9542,
      "_Ris": 9543,
      "_Rain": 9544,
      "_Rao": 9545,
      "_Round": 9546,
      "ige_": 9547,
      "_Pad": 9548,
      "_Pir": 9549,
      "_Pard": 9550,
      "_Pan_": 9551,
      "ouri": 9552,
      "ape": 9553,
      "_Doll": 9554,
      "_Tur": 9555,
      "eva_Jay": 9556,
      "iesz": 9557,
      "emann": 9558,
      "Shetty": 9559,
      "Maris": 9560,
      "John_G": 9561,
      "es_from_the_": 9562,
      "_Chan": 9563,
      "quez": 9564,
      "Black_Beauty_": 9565,
      "ton_": 9566,
      "ukumaran": 9567,
      "Robert_S": 9568,
[...]
