{
  "version": "1.0",
  "truncation": null,
  "padding": null,
  "added_tokens": [
    {
      "id": 0,
      "content": "<unk>",
      "single_word": false,
      "lstrip": false,
      "rstrip": false,
      "normalized": false,
      "special": true
    },
    {
      "id": 1,
      "content": "<pad>",
      "single_word": false,
      "lstrip": false,
      "rstrip": false,
      "normalized": false,
      "special": true
    },
    {
      "id": 2,
      "content": "<SOT>",
      "single_word": false,
      "lstrip": false,
      "rstrip": false,
      "normalized": false,
      "special": true
    },
    {
      "id": 3,
      "content": "<EOT>",
      "single_word": false,
      "lstrip": false,
      "rstrip": false,
      "normalized": false,
      "special": true
    },
    {
      "id": 4,
      "content": "<SUBJ>",
      "single_word": false,
      "lstrip": false,
      "rstrip": false,
      "normalized": false,
      "special": true
    },
    {
      "id": 5,
      "content": "<PRED>",
      "single_word": false,
      "lstrip": false,
      "rstrip": false,
      "normalized": false,
      "special": true
    },
    {
      "id": 6,
      "content": "<OBJ>",
      "single_word": false,
      "lstrip": false,
      "rstrip": false,
      "normalized": false,
      "special": true
    },
    {
      "id": 7,
      "content": "<OBJ_LIST>",
      "single_word": false,
      "lstrip": false,
      "rstrip": false,
      "normalized": false,
      "special": true
    },
    {
      "id": 8,
      "content": "|",
      "single_word": false,
      "lstrip": false,
      "rstrip": false,
      "normalized": false,
      "special": true
    },
    {
      "id": 9,
      "content": "<RDF2Text>",
      "single_word": false,
      "lstrip": false,
      "rstrip": false,
      "normalized": false,
      "special": true
    },
    {
      "id": 10,
      "content": "<Text2RDF>",
      "single_word": false,
      "lstrip": false,
      "rstrip": false,
      "normalized": false,
      "special": true
    },
    {
      "id": 11,
      "content": "<CONTINUERDF>",
      "single_word": false,
      "lstrip": false,
      "rstrip": false,
      "normalized": false,
      "special": true
    },
    {
      "id": 12,
      "content": "<MASK>",
      "single_word": false,
      "lstrip": false,
      "rstrip": false,
      "normalized": false,
      "special": true
    }
  ],
  "normalizer": null,
  "pre_tokenizer": {
    "type": "Whitespace"
  },
  "post_processor": {
    "type": "TemplateProcessing",
    "single": [
      {
        "Sequence": {
          "id": "A",
          "type_id": 0
        }
      }
    ],
    "pair": [
      {
        "Sequence": {
          "id": "A",
          "type_id": 0
        }
      },
      {
        "Sequence": {
          "id": "B",
          "type_id": 1
        }
      }
    ],
    "special_tokens": {
      "<pad>": {
        "id": "<pad>",
        "ids": [
          1
        ],
        "tokens": [
          "<pad>"
        ]
      }
    }
  },
  "decoder": null,
  "model": {
    "type": "BPE",
    "dropout": null,
    "unk_token": "<unk>",
    "continuing_subword_prefix": null,
    "end_of_word_suffix": null,
    "fuse_unk": false,
    "byte_fallback": false,
    "ignore_merges": false,
    "vocab": {
      "<unk>": 0,
      "<pad>": 1,
      "<SOT>": 2,
      "<EOT>": 3,
      "<SUBJ>": 4,
      "<PRED>": 5,
      "<OBJ>": 6,
      "<OBJ_LIST>": 7,
      "|": 8,
      "<RDF2Text>": 9,
      "<Text2RDF>": 10,
      "<CONTINUERDF>": 11,
      "<MASK>": 12,
      "!": 13,
      "\"": 14,
      "#": 15,
      "$": 16,
      "%": 17,
      "&": 18,
      "'": 19,
      "(": 20,
      ")": 21,
      "+": 22,
      ",": 23,
      "-": 24,
      ".": 25,
      "/": 26,
      "0": 27,
      "1": 28,
      "2": 29,
      "3": 30,
      "4": 31,
      "5": 32,
      "6": 33,
      "7": 34,
      "8": 35,
      "9": 36,
      ":": 37,
      ";": 38,
      "<": 39,
      ">": 40,
      "?": 41,
      "A": 42,
      "B": 43,
      "C": 44,
      "D": 45,
      "E": 46,
      "F": 47,
      "G": 48,
      "H": 49,
      "I": 50,
      "J": 51,
      "K": 52,
      "L": 53,
      "M": 54,
      "N": 55,
      "O": 56,
      "P": 57,
      "Q": 58,
      "R": 59,
      "S": 60,
      "T": 61,
      "U": 62,
      "V": 63,
      "W": 64,
      "X": 65,
      "Y": 66,
      "Z": 67,
      "_": 68,
      "a": 69,
      "b": 70,
      "c": 71,
      "d": 72,
      "e": 73,
      "f": 74,
      "g": 75,
      "h": 76,
      "i": 77,
      "j": 78,
      "k": 79,
      "l": 80,
      "m": 81,
      "n": 82,
      "o": 83,
      "p": 84,
      "q": 85,
      "r": 86,
      "s": 87,
      "t": 88,
      "u": 89,
      "v": 90,
      "w": 91,
      "x": 92,
      "y": 93,
      "z": 94,
      "¥": 95,
      "½": 96,
      "À": 97,
      "Á": 98,
      "Å": 99,
      "É": 100,
      "Ó": 101,
      "Ô": 102,
      "Ö": 103,
      "à": 104,
      "á": 105,
      "â": 106,
      "ä": 107,
      "å": 108,
      "ç": 109,
      "è": 110,
      "é": 111,
      "ë": 112,
      "í": 113,
      "ï": 114,
      "ñ": 115,
      "ò": 116,
      "ó": 117,
      "ô": 118,
      "ö": 119,
      "ø": 120,
      "ù": 121,
      "ú": 122,
      "ü": 123,
      "ý": 124,
      "ă": 125,
      "ć": 126,
      "č": 127,
      "ō": 128,
      "ş": 129,
      "š": 130,
      "ū": 131,
      "Ž": 132,
      "ž": 133,
      "ș": 134,
      "Б": 135,
      "а": 136,
      "б": 137,
      "е": 138,
      "р": 139,
      "т": 140,
      "у": 141,
      "–": 142,
      "—": 143,
      "’": 144,
      "“": 145,
      "一": 146,
      "之": 147,
      "亨": 148,
      "傳": 149,
      "哥": 150,
      "城": 151,
      "大": 152,
      "奇": 153,
      "宏": 154,
      "情": 155,
      "愛": 156,
      "新": 157,
      "果": 158,
      "糖": 159,
      "賭": 160,
      "陳": 161,
      "雨": 162,
      "db": 163,
      "BJ": 164,
      "OT": 165,
      "dbr": 166,
      "ar": 167,
      "in": 168,
      "an": 169,
      "dbo": 170,
      "PR": 171,
      "PRE": 172,
      "EOT": 173,
      "OBJ": 174,
      "SU": 175,
      "SOT": 176,
      "PRED": 177,
      "SUBJ": 178,
      "st": 179,
      "er": 180,
      "ing": 181,
      "arr": 182,
      "il": 183,
      "arring": 184,
      "starring": 185,
      "re": 186,
      "ilm": 187,
      "Ca": 188,
      "film": 189,
      "or": 190,
      "th": 191,
      "on": 192,
      "e_": 193,
      "ic": 194,
      "en": 195,
      "ct": 196,
      "al": 197,
      "and": 198,
      "di": 199,
      "ri": 200,
      "a_": 201,
      "ed": 202,
      "es": 203,
      "is": 204,
      "as": 205,
      "am": 206,
      "el": 207,
      "rect": 208,
      "y_": 209,
      "direct": 210,
      "19": 211,
      "om": 212,
      "at": 213,
      "_film": 214,
      "ter": 215,
      "us": 216,
      "os": 217,
      "ol": 218,
      "wri": 219,
      "director": 220,
      "Pre": 221,
      "Cal": 222,
      "Car": 223,
      "the": 224,
      "by": 225,
      "_S": 226,
      "of": 227,
      "writer": 228,
      "_M": 229,
      "_B": 230,
      "ch": 231,
      "ad": 232,
      "it": 233,
      "ou": 234,
      "ag": 235,
      "Am": 236,
      "Th": 237,
      "20": 238,
      "DF": 239,
      "RDF": 240,
      "le": 241,
      "_R": 242,
      "ay": 243,
      "Prem": 244,
      "usic": 245,
      "omp": 246,
      "t_": 247,
      "ompos": 248,
      "ir": 249,
      "music": 250,
      "omposer": 251,
      "Can": 252,
      "ni": 253,
      "ra": 254,
      "Carr": 255,
      "Ch": 256,
      "ex": 257,
      "Be": 258,
      "Composer": 259,
      "musicComposer": 260,
      "Cas": 261,
      "Call": 262,
      "li": 263,
      "the_": 264,
      "n_": 265,
      "s_": 266,
      "_the_": 267,
      "au": 268,
      "tt": 269,
      "ext": 270,
      "AS": 271,
      "MAS": 272,
      "Text": 273,
      "od": 274,
      "MASK": 275,
      "act": 276,
      "id": 277,
      "ov": 278,
      "o_": 279,
      "ac": 280,
      "an_": 281,
      "ang": 282,
      "The": 283,
      "ur": 284,
      "on_": 285,
      "directed": 286,
      "av": 287,
      "ak": 288,
      "ow": 289,
      "Cat": 290,
      "un": 291,
      "i_": 292,
      "ber": 293,
      "eric": 294,
      "et": 295,
      "ard": 296,
      "ell": 297,
      "Americ": 298,
      "Carry_": 299,
      "_A": 300,
      "ent": 301,
      "to": 302,
      "im": 303,
      "ich": 304,
      "ev": 305,
      "age": 306,
      "200": 307,
      "for": 308,
      "_H": 309,
      "ill": 310,
      "ne": 311,
      "sh": 312,
      "Cap": 313,
      "An": 314,
      "Jo": 315,
      "ig": 316,
      "actor": 317,
      "_G": 318,
      "It": 319,
      "was": 320,
      "_D": 321,
      "ab": 322,
      "ion": 323,
      "um": 324,
      "Mar": 325,
      "Carry_O": 326,
      "ers": 327,
      "ot": 328,
      "man": 329,
      "201": 330,
      "ap": 331,
      "angu": 332,
      "anguage": 333,
      "Sh": 334,
      "language": 335,
      "uc": 336,
      "all": 337,
      "ath": 338,
      "ore": 339,
      "198": 340,
      "_C": 341,
      "American": 342,
      "_F": 343,
      "Cast": 344,
      "ul": 345,
      "end": 346,
      "Carry_On_": 347,
      "res": 348,
      "es_": 349,
      "Wil": 350,
      "CO": 351,
      "NT": 352,
      "ran": 353,
      "2RDF": 354,
      "2Text": 355,
      "ERDF": 356,
      "IN": 357,
      "UERDF": 358,
      "RDF2Text": 359,
      "Text2RDF": 360,
      "CONT": 361,
      "INUERDF": 362,
      "CONTINUERDF": 363,
      "_K": 364,
      "199": 365,
      "Ro": 366,
      "Ra": 367,
      "ith": 368,
      "St": 369,
      "iv": 370,
      "Cab": 371,
      "ased": 372,
      "Catch": 373,
      "ric": 374,
      "ack": 375,
      "oun": 376,
      "em": 377,
      "Al": 378,
      "ud": 379,
      "_P": 380,
      "ish": 381,
      "Carol": 382,
      "Pr": 383,
      "ain": 384,
      "7_film": 385,
      "ep": 386,
      "han": 387,
      "son": 388,
      "Le": 389,
      "_of": 390,
      "op": 391,
      "ik": 392,
      "com": 393,
      "pr": 394,
      "ind": 395,
      "ie": 396,
      "Joh": 397,
      "ars": 398,
      "ram": 399,
      "_N": 400,
      "_Ro": 401,
      "ry": 402,
      "In": 403,
      "anc": 404,
      "Carni": 405,
      "se": 406,
      "ut": 407,
      "wh": 408,
      "196": 409,
      "per": 410,
      "Cam": 411,
      "195": 412,
      "5_film": 413,
      "gh": 414,
      "Cand": 415,
      "_Th": 416,
      "ian": 417,
      "194": 418,
      "att": 419,
      "Carniv": 420,
      "qu": 421,
      "eth": 422,
      "ant": 423,
      "tten": 424,
      "8_film": 425,
      "Pra": 426,
      "stars": 427,
      "written": 428,
      "Carnival": 429,
      "ey": 430,
      "Camp": 431,
      "oc": 432,
      "_W": 433,
      "fe": 434,
      "Cali": 435,
      "le_": 436,
      "_T": 437,
      "ie_": 438,
      "197": 439,
      "irl": 440,
      "2_film": 441,
      "ern": 442,
      "edy": 443,
      "ah": 444,
      "ong": 445,
      "oll": 446,
      "ear": 447,
      "les": 448,
      "og": 449,
      "prod": 450,
      "ick": 451,
      "comedy": 452,
      "ti": 453,
      "_St": 454,
      "_Me_": 455,
      "rama": 456,
      "_J": 457,
      "ies": 458,
      "rom": 459,
      "co": 460,
      "forni": 461,
      "Californi": 462,
      "Prema_": 463,
      "drama": 464,
      "est": 465,
      "pl": 466,
      "ug": 467,
      "with": 468,
      "dian": 469,
      "Rober": 470,
      "Bel": 471,
      "Ge": 472,
      "rele": 473,
      "_Sh": 474,
      "ann": 475,
      "ek": 476,
      "sc": 477,
      "Carolin": 478,
      "produc": 479,
      "her": 480,
      "aj": 481,
      "aw": 482,
      "Beau": 483,
      "ount": 484,
      "6_film": 485,
      "193": 486,
      "Carm": 487,
      "Casin": 488,
      "Willi": 489,
      "De": 490,
      "Fran": 491,
      "org": 492,
      "igh": 493,
      "California_": 494,
      "Dav": 495,
      "Carn": 496,
      "ton": 497,
      "ach": 498,
      "io": 499,
      "ai": 500,
      "de": 501,
      "Call_Me_": 502,
      "ress": 503,
      "ser": 504,
      "John": 505,
      "Cat_": 506,
      "William": 507,
      "El": 508,
      "art": 509,
      "Char": 510,
      "ob": 511,
      "ce": 512,
      "ash": 513,
      "in_": 514,
      "released": 515,
      "You": 516,
      "4_film": 517,
      "ly": 518,
      "are": 519,
      "en_": 520,
      "Mich": 521,
      "ia": 522,
      "Cann": 523,
      "Jack": 524,
      "ood": 525,
      "ict": 526,
      "produced": 527,
      "ure": 528,
      "ael": 529,
      "eg": 530,
      "ok": 531,
      "Castle_": 532,
      "Br": 533,
      "_L": 534,
      "der": 535,
      "_of_the_": 536,
      "rit": 537,
      "ort": 538,
      "Cash": 539,
      "Georg": 540,
      "Ar": 541,
      "Pe": 542,
      "oy": 543,
      "ass": 544,
      "su": 545,
      "Calling": 546,
      "series": 547,
      "his": 548,
      "ame": 549,
      "ark": 550,
      "ream": 551,
      "3_film": 552,
      "_V": 553,
      "count": 554,
      "ia_": 555,
      "ast": 556,
      "fore": 557,
      "9_film": 558,
      "har": 559,
      "one": 560,
      "rist": 561,
      "Prat": 562,
      "oth": 563,
      "David": 564,
      "_Al": 565,
      "based": 566,
      "ani": 567,
      "adh": 568,
      "who": 569,
      "ght": 570,
      "country": 571,
      "een": 572,
      "ire": 573,
      "esh": 574,
      "endar": 575,
      "Catch_": 576,
      "rim": 577,
      "ation": 578,
      "actress": 579,
      "ger": 580,
      "ana": 581,
      "ory": 582,
      "ee": 583,
      "uk": 584,
      "ins": 585,
      "Cl": 586,
      "reen": 587,
      "Michael": 588,
      "ing_": 589,
      "ity_": 590,
      "_Girl": 591,
      "ost": 592,
      "ren": 593,
      "ist": 594,
      "ier": 595,
      "am_": 596,
      "ck": 597,
      "ine": 598,
      "Calendar": 599,
      "our": 600,
      "Ju": 601,
      "ara_": 602,
      "umar": 603,
      "Beauti": 604,
      "Ad": 605,
      "e_F": 606,
      "e_S": 607,
      "Before": 608,
      "ary": 609,
      "Cad": 610,
      "old": 611,
      "Calam": 612,
      "app": 613,
      "Mo": 614,
      "ini": 615,
      "ane": 616,
      "ero": 617,
      "or_": 618,
      "ald": 619,
      "as_": 620,
      "Call_of_the_": 621,
      "play": 622,
      "Jam": 623,
      "tain": 624,
      "bal": 625,
      "y_S": 626,
      "Casper": 627,
      "Preeth": 628,
      "son_": 629,
      "ue": 630,
      "e_M": 631,
      "Cars_": 632,
      "Carnival_": 633,
      "Casino": 634,
      "Cash_": 635,
      "Ed": 636,
      "con": 637,
      "rol": 638,
      "Raj": 639,
      "II": 640,
      "man_": 641,
      "e_H": 642,
      "John_": 643,
      "Christ": 644,
      "aul": 645,
      "feat": 646,
      "ip": 647,
      "als": 648,
      "uck": 649,
      "Candy_": 650,
      "Rich": 651,
      "ess": 652,
      "iss": 653,
      "az": 654,
      "ph": 655,
      "ara": 656,
      "orn": 657,
      "_Mc": 658,
      "And": 659,
      "cl": 660,
      "up": 661,
      "ures": 662,
      "1_film": 663,
      "Bell": 664,
      "Mal": 665,
      "Paul": 666,
      "cu": 667,
      "ef": 668,
      "from": 669,
      "e_N": 670,
      "a_D": 671,
      "a_K": 672,
      "hind": 673,
      "ous": 674,
      "Pred": 675,
      "Indian": 676,
      "En": 677,
      "ub": 678,
      "a_S": 679,
      "atric": 680,
      "Har": 681,
      "On": 682,
      "erg": 683,
      "ush": 684,
      "ley": 685,
      "0_film": 686,
      "a_B": 687,
      "Behind": 688,
      "Robert": 689,
      "be": 690,
      "tin": 691,
      "Lov": 692,
      "_O": 693,
      "_You": 694,
      "to_": 695,
      "in_the_": 696,
      "_Bl": 697,
      "Candy": 698,
      "ari": 699,
      "ere": 700,
      "nibal": 701,
      "Anne": 702,
      "Richard": 703,
      "American_": 704,
      "ew": 705,
      "ott": 706,
      "Charles": 707,
      "Don": 708,
      "Jatt": 709,
      "Ken": 710,
      "TV": 711,
      "pe": 712,
      "ada": 713,
      "Robert_": 714,
      "22": 715,
      "Gu": 716,
      "Jos": 717,
      "Ph": 718,
      "gl": 719,
      "nov": 720,
      "enc": 721,
      "ele": 722,
      "Prath": 723,
      "Tim": 724,
      "ail": 725,
      "of_the_": 726,
      "ung": 727,
      "_All": 728,
      "192": 729,
      "Ital": 730,
      "Campus": 731,
      "Frank": 732,
      "Peter": 733,
      "Up": 734,
      "air": 735,
      "but": 736,
      "Cannibal": 737,
      "Cass": 738,
      "own": 739,
      "ive": 740,
      "Tom": 741,
      "Carl": 742,
      "Carry": 743,
      "Wild": 744,
      "also": 745,
      "iz": 746,
      "ya": 747,
      "enn": 748,
      "Can_": 749,
      "iller": 750,
      "Rao": 751,
      "mak": 752,
      "Pray": 753,
      "eph": 754,
      "ugu": 755,
      "Film": 756,
      "Un": 757,
      "ay_": 758,
      "composer": 759,
      "ean": 760,
      "red": 761,
      "ance": 762,
      "Lau": 763,
      "well": 764,
      "ati": 765,
      "screen": 766,
      "_I": 767,
      "te": 768,
      "ank": 769,
      "e_B": 770,
      "a_M": 771,
      "_Sp": 772,
      "ade": 773,
      "Cana": 774,
      "Carrie_": 775,
      "Carmen_": 776,
      "Calling_All": 777,
      "Girl": 778,
      "mer": 779,
      "inn": 780,
      "oss": 781,
      "br": 782,
      "ett": 783,
      "ke_": 784,
      "ma": 785,
      "off": 786,
      "age_": 787,
      "2007_film": 788,
      "Capric": 789,
      "2018_film": 790,
      "TV_": 791,
      "Dream": 792,
      "dy": 793,
      "vent": 794,
      "Wal": 795,
      "yn": 796,
      "story": 797,
      "er_": 798,
      "ord": 799,
      "a_L": 800,
      "y_R": 801,
      "und": 802,
      "aret_": 803,
      "Calendar_Girl": 804,
      "Calamity_": 805,
      "novel": 806,
      "err": 807,
      "ity": 808,
      "Sp": 809,
      "_language": 810,
      "in_F": 811,
      "Cany": 812,
      "2006_film": 813,
      "All": 814,
      "antic": 815,
      "ful": 816,
      "Carmen": 817,
      "Ger": 818,
      "bl": 819,
      "ff": 820,
      "ot_": 821,
      "ar_": 822,
      "ice_": 823,
      "y_M": 824,
      "Carry_On": 825,
      "James": 826,
      "Ram": 827,
      "aus": 828,
      "bb": 829,
      "yal": 830,
      "eng": 831,
      "rav": 832,
      "romantic": 833,
      "Jan": 834,
      "Lou": 835,
      "mon": 836,
      "ual": 837,
      "Cake_": 838,
      "a_H": 839,
      "y_B": 840,
      "oman": 841,
      "omas": 842,
      "Cabaret_": 843,
      "Jac": 844,
      "eet": 845,
      "uri": 846,
      "ical": 847,
      "Captain": 848,
      "Italian": 849,
      "3F": 850,
      "pre": 851,
      "orn_": 852,
      "one_": 853,
      "e_D": 854,
      "ese": 855,
      "ates": 856,
      "oul": 857,
      "Martin": 858,
      "1967_film": 859,
      "Carolina_": 860,
      "Casino_": 861,
      "Castle_of": 862,
      "Canadian": 863,
      "Ale": 864,
      "If": 865,
      "Sk": 866,
      "Sam": 867,
      "ho": 868,
      "mov": 869,
      "onn": 870,
      "esp": 871,
      "eer": 872,
      "ro": 873,
      "ina": 874,
      "Cair": 875,
      "a_R": 876,
      "out": 877,
      "ound": 878,
      "ock": 879,
      "Caroline_": 880,
      "Carnage_": 881,
      "rime": 882,
      "Juli": 883,
      "Engl": 884,
      "lin": 885,
      "yan": 886,
      "orr": 887,
      "amil": 888,
      "ated": 889,
      "adow": 890,
      "ney": 891,
      "ollow": 892,
      "Cannon": 893,
      "Phil": 894,
      "Col": 895,
      "Harr": 896,
      "Tel": 897,
      "la": 898,
      "any": 899,
      "thr": 900,
      "ris": 901,
      "a_P": 902,
      "y_W": 903,
      "omb": 904,
      "ite": 905,
      "_Ra": 906,
      "i_K": 907,
      "2003_film": 908,
      "neth": 909,
      "_Royal": 910,
      "Williams": 911,
      "Beautiful": 912,
      "Casino_Royal": 913,
      "roles": 914,
      "Kenneth": 915,
      "Calamity_Anne": 916,
      "Casino_Royale_": 917,
      "ball": 918,
      "ler": 919,
      "ward": 920,
      "English": 921,
      "Bed": 922,
      "_Am": 923,
      "ci": 924,
      "gen": 925,
      "mo": 926,
      "ted": 927,
      "ster": 928,
      "ice": 929,
      "rish": 930,
      "_Br": 931,
      "on_Jatt": 932,
      "under": 933,
      "Carry_on_Jatt": 934,
      "which": 935,
      "ious": 936,
      "_You_": 937,
      "Louis": 938,
      "If_You_": 939,
      "Carry_on_Jatta_": 940,
      "Bl": 941,
      "Bill": 942,
      "Hen": 943,
      "Kh": 944,
      "ax": 945,
      "band": 946,
      "ein": 947,
      "gg": 948,
      "iel": 949,
      "land": 950,
      "sk": 951,
      "same": 952,
      "ree": 953,
      "alu": 954,
      "riend": 955,
      "berg": 956,
      "ather": 957,
      "Stev": 958,
      "Camping": 959,
      "Ak": 960,
      "Bar": 961,
      "Bri": 962,
      "Eric": 963,
      "Gre": 964,
      "Kann": 965,
      "Ton": 966,
      "by_": 967,
      "les_": 968,
      "sid": 969,
      "udi": 970,
      "aram": 971,
      "e_L": 972,
      "alk": 973,
      "bert": 974,
      "Ann": 975,
      "cott": 976,
      "_Shadow": 977,
      "Hel": 978,
      "era": 979,
      "that": 980,
      "Amm": 981,
      "acher": 982,
      "Elli": 983,
      "Gr": 984,
      "Ne": 985,
      "Per": 986,
      "Sid": 987,
      "West": 988,
      "he": 989,
      "hi": 990,
      "ham": 991,
      "ij": 992,
      "ner": 993,
      "ve": 994,
      "wo": 995,
      "wor": 996,
      "ina_": 997,
      "an_S": 998,
      "ilent": 999,
      "uss": 1000,
      "_Mar": 1001,
      "agh": 1002,
      "_Raj": 1003,
      "Premak": 1004,
      "irst": 1005,
      "_the_M": 1006,
      "athi": 1007,
      "ictures": 1008,
      "Beauties_": 1009,
      "Telugu": 1010,
      "follow": 1011,
      "lud": 1012,
      "tit": 1013,
      "uth": 1014,
      "ors": 1015,
      "Prelud": 1016,
      "musical": 1017,
      "Casual": 1018,
      "iders": 1019,
      "Lew": 1020,
      "ight": 1021,
      "movie": 1022,
      "Cannonball": 1023,
      "Luck": 1024,
      "Patric": 1025,
      "Pictures": 1026,
      "de_": 1027,
      "ez": 1028,
      "ja": 1029,
      "un_": 1030,
      "a_A": 1031,
      "_Bab": 1032,
      "ited": 1033,
      "Among": 1034,
      "Chand": 1035,
      "1980_film": 1036,
      "American_B": 1037,
      "Carry_On_Up": 1038,
      "Cat_and": 1039,
      "feature": 1040,
      "Carry_On_Up_the_": 1041,
      "Brit": 1042,
      "Fire": 1043,
      "Jon": 1044,
      "ment": 1045,
      "oor": 1046,
      "ale": 1047,
      "adm": 1048,
      "aya": 1049,
      "ever": 1050,
      "Ke": 1051,
      "cat": 1052,
      "kin": 1053,
      "ook": 1054,
      "ari_": 1055,
      "e_to_": 1056,
      "ction": 1057,
      "Calm": 1058,
      "Carson_": 1059,
      "_Sand": 1060,
      "_Man": 1061,
      "itt": 1062,
      "lead": 1063,
      "ake_": 1064,
      "short": 1065,
      "1996_film": 1066,
      "ikk": 1067,
      "1947_film": 1068,
      "appear": 1069,
      "cutt": 1070,
      "TV_series": 1071,
      "Prelude_to_": 1072,
      "British": 1073,
      "Dani": 1074,
      "Em": 1075,
      "Hin": 1076,
      "No": 1077,
      "Nag": 1078,
      "first": 1079,
      "iri": 1080,
      "na": 1081,
      "ty": 1082,
      "Calcutt": 1083,
      "Premi": 1084,
      "ims": 1085,
      "umb": 1086,
      "ots": 1087,
      "orror": 1088,
      ").": 1089,
      "City_": 1090,
      "Fren": 1091,
      "Mad": 1092,
      "Ty": 1093,
      "Tin": 1094,
      "Tal": 1095,
      "kar": 1096,
      "port": 1097,
      "rin": 1098,
      "ut_": 1099,
      "aray": 1100,
      "ile": 1101,
      "e_W": 1102,
      "al_": 1103,
      "el_": 1104,
      "ad_": 1105,
      "ayal": 1106,
      "_the_F": 1107,
      "about": 1108,
      "1987_film": 1109,
      "1975_film": 1110,
      "United": 1111,
      "Cairo_": 1112,
      "Carson_City_": 1113,
      "French": 1114,
      "Bern": 1115,
      "Dev": 1116,
      "Ev": 1117,
      "He": 1118,
      "Me": 1119,
      "Mik": 1120,
      "Te": 1121,
      "wan": 1122,
      "yl": 1123,
      "inem": 1124,
      "rey": 1125,
      "anda": 1126,
      "night": 1127,
      "aur": 1128,
      "odu": 1129,
      "oward": 1130,
      "shack": 1131,
      "ember": 1132,
      "Pratigh": 1133,
      "Caddy": 1134,
      "Jacqu": 1135,
      "Caddyshack": 1136,
      "Jim": 1137,
      "Se": 1138,
      "fer": 1139,
      "o_M": 1140,
      "tr": 1141,
      "uv": 1142,
      "ine_": 1143,
      "ana_": 1144,
      "ers_": 1145,
      "ent_": 1146,
      "ctor": 1147,
      "asi": 1148,
      "ason": 1149,
      "ama": 1150,
      "ely": 1151,
      "191": 1152,
      "ol_": 1153,
      "_Mur": 1154,
      "Cape_F": 1155,
      "Capone_": 1156,
      "2015_film": 1157,
      "Cast_": 1158,
      "hanj": 1159,
      "1952_film": 1160,
      "Pray_": 1161,
      "ear_": 1162,
      "Barb": 1163,
      "Lewis": 1164,
      "Cape_Fear_": 1165,
      "Kev": 1166,
      "Man": 1167,
      "cast": 1168,
      "horror": 1169,
      "ka": 1170,
      "len": 1171,
      "lov": 1172,
      "mith": 1173,
      "made": 1174,
      "anov": 1175,
      "films": 1176,
      "ali": 1177,
      "dia": 1178,
      "ase": 1179,
      "itz": 1180,
      "urn": 1181,
      "make": 1182,
      "thriller": 1183,
      "Hindi": 1184,
      "Jay": 1185,
      "Nor": 1186,
      "Or": 1187,
      "Qu": 1188,
      "Vin": 1189,
      "ton_": 1190,
      "u_": 1191,
      "uch": 1192,
      "rey_": 1193,
      "icol": 1194,
      "y_D": 1195,
      "_Mid": 1196,
      "_Ros": 1197,
      "ayi": 1198,
      "Prem_A": 1199,
      "acomb": 1200,
      "Catacomb": 1201,
      "_Dog": 1202,
      "ally": 1203,
      "oung": 1204,
      "1955_film": 1205,
      "awt": 1206,
      "ight_": 1207,
      "Peop": 1208,
      "in_the_Sk": 1209,
      "Joseph": 1210,
      "Bed_of": 1211,
      "Elliott": 1212,
      "Bernard": 1213,
      "Ag": 1214,
      "Fred": 1215,
      "Sc": 1216,
      "af": 1217,
      "gr": 1218,
      "ix": 1219,
      "ke": 1220,
      "uel": 1221,
      "ston": 1222,
      "rew": 1223,
      "ons": 1224,
      "elli": 1225,
      "ters": 1226,
      "Prep": 1227,
      "its": 1228,
      "action": 1229,
      "iction": 1230,
      "genre": 1231,
      "title": 1232,
      "Daniel": 1233,
      "Kevin": 1234,
      "Barr": 1235,
      "Be_": 1236,
      "Gi": 1237,
      "Uni": 1238,
      "Wend": 1239,
      "_and": 1240,
      "crime": 1241,
      "ec": 1242,
      "ian_": 1243,
      "name": 1244,
      "pi": 1245,
      "ty_": 1246,
      "ines": 1247,
      "ino_": 1248,
      "e_d": 1249,
      "dit": 1250,
      "_Mhanj": 1251,
      "_Run_": 1252,
      "Prem_Mhanj": 1253,
      "_An": 1254,
      "Shar": 1255,
      "_Co": 1256,
      "_Nag": 1257,
      "Bel_Am": 1258,
      "1933_film": 1259,
      "debut": 1260,
      "Before_the_": 1261,
      "features": 1262,
      "Belle_": 1263,
      "Malayal": 1264,
      "Love_": 1265,
      "Candyman_": 1266,
      "venture": 1267,
      "Canyon_": 1268,
      "If_You_Can_": 1269,
      "Prem_Mhanje_": 1270,
      "Bel_Ami_": 1271,
      "Bay": 1272,
      "Dr": 1273,
      "Serg": 1274,
      "aas": 1275,
      "ha": 1276,
      "ts": 1277,
      "ver": 1278,
      "erb": 1279,
      "ille": 1280,
      "agi": 1281,
      "202": 1282,
      "light": 1283,
      "uring": 1284,
      "Marc": 1285,
      "Franc": 1286,
      "Bh": 1287,
      "Bob": 1288,
      "Cor": 1289,
      "Dor": 1290,
      "Gold": 1291,
      "Kath": 1292,
      "Vict": 1293,
      "compos": 1294,
      "io_": 1295,
      "t_B": 1296,
      "ino": 1297,
      "Cade": 1298,
      "onse": 1299,
      "e_R": 1300,
      "rid": 1301,
      "y_F": 1302,
      "y_H": 1303,
      "osaur": 1304,
      "_Sto": 1305,
      "of_": 1306,
      "_Be": 1307,
      "char": 1308,
      "adu": 1309,
      "iti": 1310,
      "usical": 1311,
      "t_G": 1312,
      "raz": 1313,
      "s_H": 1314,
      "_Dream": 1315,
      "ote": 1316,
      "Casting": 1317,
      "_Kid": 1318,
      "Cabin_": 1319,
      "Camping_": 1320,
      "less": 1321,
      "_Jon": 1322,
      "Prema_P": 1323,
      "Beauty_": 1324,
      "Calendar_": 1325,
      "screenplay": 1326,
      "Gerald": 1327,
      "English_language": 1328,
      "Henry": 1329,
      "Catacombs_": 1330,
      "Cadet_": 1331,
      "Hu": 1332,
      "Mc": 1333,
      "Val": 1334,
      "caus": 1335,
      "arth": 1336,
      "ames": 1337,
      "omic": 1338,
      "adap": 1339,
      "idw": 1340,
      "illon": 1341,
      "nett": 1342,
      "Anton": 1343,
      "mann": 1344,
      "que": 1345,
      "Pratidw": 1346,
      "Predat": 1347,
      "inning": 1348,
      "Alex": 1349,
      "esponse": 1350,
      "ield": 1351,
      "Western": 1352,
      "Jacques": 1353,
      "Cle": 1354,
      "Jean": 1355,
      "King": 1356,
      "Pow": 1357,
      "Park": 1358,
      "Sus": 1359,
      "_b": 1360,
      "_Ch": 1361,
      "cious": 1362,
      "da": 1363,
      "eed": 1364,
      "hist": 1365,
      "i_M": 1366,
      "ld": 1367,
      "ling": 1368,
      "me": 1369,
      "po": 1370,
      "sta": 1371,
      "ret": 1372,
      "remake": 1373,
      "e_T": 1374,
      "icam": 1375,
      "a_V": 1376,
      "a_Sh": 1377,
      "y_K": 1378,
      "Precious": 1379,
      "_Se": 1380,
      "_By": 1381,
      "_Response": 1382,
      "raph": 1383,
      "Call_": 1384,
      "Call_Girl": 1385,
      "Call_I": 1386,
      "an_D": 1387,
      "2008_film": 1388,
      "_Hero": 1389,
      "sher": 1390,
      "erson": 1391,
      "Cabin_F": 1392,
      "_That": 1393,
      "_Thomas": 1394,
      "Carnosaur": 1395,
      "Cat_Peop": 1396,
      "e_Musical": 1397,
      "Cars_3": 1398,
      "role": 1399,
      "Predicam": 1400,
      "Girls": 1401,
      "Philip": 1402,
      "Kannada": 1403,
      "_born_": 1404,
      "Call_Girl_": 1405,
      "Call_It_": 1406,
      "Cat_People_": 1407,
      "Bur": 1408,
      "Ice": 1409,
      "Kell": 1410,
      "Mur": 1411,
      "Pier": 1412,
      "Van": 1413,
      "bin": 1414,
      "has": 1415,
      "jud": 1416,
      "low": 1417,
      "ray": 1418,
      "set": 1419,
      "ust": 1420,
      "way": 1421,
      "zz": 1422,
      "ens": 1423,
      "amp": 1424,
      "ate": 1425,
      "ater": 1426,
      "ita": 1427,
      "Becaus": 1428,
      "evi": 1429,
      "ign": 1430,
      "sequ": 1431,
      "aradi": 1432,
      "Donald": 1433,
      "Helen": 1434,
      "follows": 1435,
      "composed": 1436,
      "charact": 1437,
      "Jen": 1438,
      "Mon": 1439,
      "May": 1440,
      "_Le": 1441,
      "_Wild": 1442,
      "friend": 1443,
      "irit": 1444,
      "lo": 1445,
      "ox": 1446,
      "ues": 1447,
      "ild": 1448,
      "illi": 1449,
      "Cach": 1450,
      "ando": 1451,
      "a_Ch": 1452,
      "_Sc": 1453,
      "iranda": 1454,
      "Being": 1455,
      "aun": 1456,
      "on_a_H": 1457,
      "i_V": 1458,
      "i_c": 1459,
      "ima_": 1460,
      "2002_film": 1461,
      "1988_film": 1462,
      "_Fe": 1463,
      "Wilson": 1464,
      "Catch_Me_": 1465,
      "_Roth": 1466,
      "_Roof_": 1467,
      "Carnival_of": 1468,
      "ties_": 1469,
      "Dead": 1470,
      "Cat_on_a_H": 1471,
      "Casino_Ra": 1472,
      "Christop": 1473,
      "Charles_H": 1474,
      "Prayan": 1475,
      "Caprice_": 1476,
      "ot_Tin": 1477,
      "Captain_": 1478,
      "Premium": 1479,
      "Wendy": 1480,
      "histor": 1481,
      "Cat_on_a_Hot_Tin": 1482,
      "Cat_on_a_Hot_Tin_Roof_": 1483,
      "Ap": 1484,
      "As": 1485,
      "Ben": 1486,
      "Cr": 1487,
      "One": 1488,
      "Par": 1489,
      "Ren": 1490,
      "Sun": 1491,
      "ait": 1492,
      "lor": 1493,
      "lanc": 1494,
      "mas": 1495,
      "oir": 1496,
      "rue": 1497,
      "uj": 1498,
      "utt": 1499,
      "aria": 1500,
      "rig": 1501,
      "asse": 1502,
      "Calap": 1503,
      "their": 1504,
      "oved": 1505,
      "abeth": 1506,
      "Steph": 1507,
      "Cabby": 1508,
      "Adam": 1509,
      "eleas": 1510,
      "Victor": 1511,
      "Con": 1512,
      "Mau": 1513,
      "Mah": 1514,
      "Nath": 1515,
      "Pat": 1516,
      "Sar": 1517,
      "bot": 1518,
      "del_": 1519,
      "eav": 1520,
      "ge": 1521,
      "ial": 1522,
      "kash": 1523,
      "octor": 1524,
      "sen": 1525,
      "ying": 1526,
      "aret": 1527,
      "inter": 1528,
      "incl": 1529,
      "Cact": 1530,
      "on_the_": 1531,
      "ala": 1532,
      "andr": 1533,
      "ander": 1534,
      "and_R": 1535,
      "ed_B": 1536,
      "atana": 1537,
      "at_Mid": 1538,
      "oland": 1539,
      "Prejud": 1540,
      "Thomas": 1541,
      "Premon": 1542,
      "Premas": 1543,
      "t_H": 1544,
      "Canada": 1545,
      "Cassher": 1546,
      "Casi_c": 1547,
      "lip": 1548,
      "o_F": 1549,
      "avan": 1550,
      "unt": 1551,
      "Ang": 1552,
      "2010_film": 1553,
      "_Cur": 1554,
      "Carry_On_Cabby": 1555,
      "ival": 1556,
      "udd": 1557,
      "_The_Musical": 1558,
      "California_Dream": 1559,
      "Carnal": 1560,
      "other": 1561,
      "Catch_and_R": 1562,
      "Clark": 1563,
      "James_": 1564,
      "Cash_and": 1565,
      "cond": 1566,
      "Christmas": 1567,
      "Loving": 1568,
      "Jatta": 1569,
      "ence_": 1570,
      "Prathy": 1571,
      "ation_": 1572,
      "Walter": 1573,
      "Canyon": 1574,
      "Castle_of_Sand": 1575,
      "Caroline_at_Mid": 1576,
      "Beautiful_B": 1577,
      "Lucky": 1578,
      "Among_the_": 1579,
      "Calcutta_": 1580,
      "Pratighatana": 1581,
      "Barbara_": 1582,
      "Union": 1583,
      "Malayalam": 1584,
      "Gerald_Thomas": 1585,
      "Predator_": 1586,
      "Carnosaur_": 1587,
      "Prayanam_": 1588,
      "Calapor_": 1589,
      "elease_": 1590,
      "Cactus": 1591,
      "Casshern_": 1592,
      "Casi_casi": 1593,
      "Catch_and_Release_": 1594,
      "Caroline_at_Midnight": 1595,
      "Jung": 1596,
      "Larr": 1597,
      "Max": 1598,
      "Wor": 1599,
      "Young": 1600,
      "bet": 1601,
      "cc": 1602,
      "fl": 1603,
      "ib": 1604,
      "if": 1605,
      "ić": 1606,
      "led": 1607,
      "sol": 1608,
      "tel": 1609,
      "arn": 1610,
      "aro": 1611,
      "arang": 1612,
      "inal": 1613,
      "anish": 1614,
      "iles": 1615,
      "elf": 1616,
      "chi": 1617,
      "ough": 1618,
      "ide": 1619,
      "ace": 1620,
      "ake": 1621,
      "ument": 1622,
      "apoor": 1623,
      "hanam": 1624,
      "score": 1625,
      "eginning": 1626,
      "oyd": 1627,
      "sup": 1628,
      "ational": 1629,
      "anks": 1630,
      "Greg": 1631,
      "1914": 1632,
      "Pierre": 1633,
      "Caché": 1634,
      "Stephen": 1635,
      "77": 1636,
      "Award": 1637,
      "Er": 1638,
      "Eli": 1639,
      "Gab": 1640,
      "Mount": 1641,
      "Nat": 1642,
      "Ros": 1643,
      "Scott": 1644,
      "Tamil": 1645,
      "Wall": 1646,
      "col": 1647,
      "don": 1648,
      "doc": 1649,
      "field": 1650,
      "ife": 1651,
      "kn": 1652,
      "ker": 1653,
      "kumar": 1654,
      "mir": 1655,
      "oot": 1656,
      "silent": 1657,
      "ta": 1658,
      "t_Sto": 1659,
      "war": 1660,
      "ween": 1661,
      "sthanam": 1662,
      "ica": 1663,
      "aly": 1664,
      "rip": 1665,
      "right": 1666,
      "a_of": 1667,
      "aman": 1668,
      "elo": 1669,
      "y_T": 1670,
      "usin": 1671,
      "usband": 1672,
      "_Sw": 1673,
      "_Me": 1674,
      "_Mous": 1675,
      "_Barr": 1676,
      "_Bac": 1677,
      "ada_": 1678,
      "_Rush": 1679,
      "Premal": 1680,
      "Prem_P": 1681,
      "Beef": 1682,
      "Beatric": 1683,
      "life": 1684,
      "s_Dream": 1685,
      "eta_": 1686,
      "_A_Sp": 1687,
      "2009_film": 1688,
      "ill_": 1689,
      "shot": 1690,
      "Capp": 1691,
      "Joe_": 1692,
      "1984_film": 1693,
      "1989_film": 1694,
      "1981_film": 1695,
      "Carry_On_Girls": 1696,
      "Carry_On_Loving": 1697,
      "Stan": 1698,
      "Cabin": 1699,
      "_Roger": 1700,
      "second": 1701,
      "1965_film": 1702,
      "1958_film": 1703,
      "ollerb": 1704,
      "ograph": 1705,
      "Beloved": 1706,
      "1934_film": 1707,
      "Call_Me_Lucky": 1708,
      "_Blood": 1709,
      "22_": 1710,
      "Spanish": 1711,
      "Carry_on_Jatta_2": 1712,
      "Carry_on_Jatta_3": 1713,
      "Tyco": 1714,
      "Talbot": 1715,
      "_Roses_": 1716,
      "_Dog_": 1717,
      "awtrey_": 1718,
      "Bed_of_Roses_": 1719,
      "ition_": 1720,
      "_born_1914": 1721,
      "irited_B": 1722,
      "Charles_Hawtrey_": 1723,
      "Prejudice_": 1724,
      "Premonition_": 1725,
      "Jungle": 1726,
      "World": 1727,
      "between": 1728,
      "support": 1729,
      "Caché_": 1730,
      "_Mouse_": 1731,
      "_A_Spirited_B": 1732,
      "_Rogers_": 1733,
      "_A_Spirited_Beginning": 1734,
      "Cy": 1735,
      "Fest": 1736,
      "Gord": 1737,
      "Nicol": 1738,
      "Pil": 1739,
      "War": 1740,
      "iet": 1741,
      "lis": 1742,
      "my": 1743,
      "maman": 1744,
      "now": 1745,
      "pol": 1746,
      "sal": 1747,
      "ves": 1748,
      "yle": 1749,
      "yber": 1750,
      "anth": 1751,
      "stin": 1752,
      "die": 1753,
      "esar": 1754,
      "ision": 1755,
      "osh": 1756,
      "olog": 1757,
      "add": 1758,
      "Ameer": 1759,
      "iro": 1760,
      "nifer": 1761,
      "ury": 1762,
      "avich": 1763,
      "ichol": 1764,
      "Shak": 1765,
      "allou": 1766,
      "udson": 1767,
      "Leon": 1768,
      "inds": 1769,
      "icks": 1770,
      "Geeth": 1771,
      "Belliss": 1772,
      "eful": 1773,
      "Candyman": 1774,
      "Khyber": 1775,
      "Premakk": 1776,
      "Kelly": 1777,
      "Jennifer": 1778,
      "Christopher": 1779,
      "Mountain": 1780,
      "known": 1781,
      "Festival": 1782,
      "18": 1783,
      "Di": 1784,
      "Din": 1785,
      "Gar": 1786,
      "Jun": 1787,
      "New": 1788,
      "Pick": 1789,
      "Pass": 1790,
      "Rit": 1791,
      "Sou": 1792,
      "Sud": 1793,
      "Wh": 1794,
      "_II": 1795,
      "aal": 1796,
      "aik": 1797,
      "han_": 1798,
      "hav": 1799,
      "jee": 1800,
      "lues": 1801,
      "oj": 1802,
      "p_the_M": 1803,
      "two": 1804,
      "vad": 1805,
      "vers": 1806,
      "were": 1807,
      "ym": 1808,
      "arsh": 1809,
      "anj": 1810,
      "anan": 1811,
      "inger": 1812,
      "Cacc": 1813,
      "ory_": 1814,
      "e_and": 1815,
      "ence": 1816,
      "andran": 1817,
      "a_Rao": 1818,
      "osm": 1819,
      "Caleta_": 1820,
      "_Meet": 1821,
      "_Ballou": 1822,
      "Amb": 1823,
      "Amrit": 1824,
      "ley_": 1825,
      "_Run": 1826,
      "Prem_Nag": 1827,
      "Chan": 1828,
      "Begg": 1829,
      "s_Wendy": 1830,
      "odd": 1831,
      "ode": 1832,
      "an_P": 1833,
      "Cat_Ballou": 1834,
      "i_Ch": 1835,
      "ardless": 1836,
      "_Aadm": 1837,
      "ford": 1838,
      "Capri": 1839,
      "Joan_S": 1840,
      "_Doctor": 1841,
      "2017_film": 1842,
      "_Con": 1843,
      "ult": 1844,
      "ula_": 1845,
      "Carry_On_Camping": 1846,
      "1992": 1847,
      "Rain_": 1848,
      "Cabaret": 1849,
      "1968_film": 1850,
      "1949_film": 1851,
      "1974_film": 1852,
      "Carolina_B": 1853,
      "Canner": 1854,
      "egardless": 1855,
      "George": 1856,
      "George_": 1857,
      "Georges": 1858,
      "Claus": 1859,
      "Calamari_": 1860,
      "Casper_Meet": 1861,
      "Cars_2": 1862,
      "Candy_Mountain": 1863,
      "Candy_Rain_": 1864,
      "Behind_the_": 1865,
      "_One": 1866,
      "screenwriter": 1867,
      "Capricorn_": 1868,
      "Eric_Rogers_": 1869,
      "Cannonball_Run_": 1870,
      "Patrick": 1871,
      "Carry_On_Up_the_Khyber": 1872,
      "Teacher": 1873,
      "Caddyshack_II": 1874,
      "Pray_TV_": 1875,
      "in_the_Sky_": 1876,
      "Belle_maman": 1877,
      "Cabin_in_the_Sky_": 1878,
      "sequel": 1879,
      "aunted": 1880,
      "_Rothwell": 1881,
      "del_sol": 1882,
      "includ": 1883,
      "document": 1884,
      "t_Stop_the_M": 1885,
      "usiness": 1886,
      "Beatrice_": 1887,
      "Talbot_Rothwell": 1888,
      "supporting": 1889,
      "avichandran": 1890,
      "Bellissima_": 1891,
      "Caleta_del_sol": 1892,
      "Prem_Nagar_": 1893,
      "Joan_Sims": 1894,
      "Carolina_Blues": 1895,
      "Calamari_Union": 1896,
      "Casper_Meets_Wendy": 1897,
      "Capricorn_One": 1898,
      "Cannonball_Run_II": 1899,
      "t_Stop_the_Music": 1900,
      "Ash": 1901,
      "Carring": 1902,
      "City": 1903,
      "Cinem": 1904,
      "Dom": 1905,
      "Fe": 1906,
      "Is": 1907,
      "Jap": 1908,
      "Kid": 1909,
      "Lu": 1910,
      "Mor": 1911,
      "Sto": 1912,
      "Ven": 1913,
      "des": 1914,
      "had": 1915,
      "ron": 1916,
      "uction": 1917,
      "vo": 1918,
      "wood": 1919,
      "rev": 1920,
      "along": 1921,
      "andra": 1922,
      "dist": 1923,
      "ison": 1924,
      "ompany": 1925,
      "Cantin": 1926,
      "aum": 1927,
      "Americath": 1928,
      "shall": 1929,
      "Capit": 1930,
      "Joe": 1931,
      "Studi": 1932,
      "Caboc": 1933,
      "India": 1934,
      "perfor": 1935,
      "Caliber": 1936,
      "production": 1937,
      "Ellen": 1938,
      "Bruc": 1939,
      "reaming": 1940,
      "Clau": 1941,
      "bbayi": 1942,
      "hoop": 1943,
      "onnor": 1944,
      "friends": 1945,
      "Passage": 1946,
      "Beggar": 1947,
      "Japan": 1948,
      "Cantinfl": 1949,
      "Americathon": 1950,
      "Cabocla": 1951,
      "0s": 1952,
      "Bab": 1953,
      "Gra": 1954,
      "Jef": 1955,
      "Kar": 1956,
      "Kumar": 1957,
      "Naray": 1958,
      "Post": 1959,
      "Red": 1960,
      "Silent": 1961,
      "To": 1962,
      "Ter": 1963,
      "Tam": 1964,
      "Us_": 1965,
      "Wood": 1966,
      "_7": 1967,
      "_9": 1968,
      "_In": 1969,
      "_Williams": 1970,
      "_Christmas": 1971,
      "car": 1972,
      "cent": 1973,
      "ders": 1974,
      "fon": 1975,
      "kan": 1976,
      "mier": 1977,
      "nold": 1978,
      "rs": 1979,
      "rich": 1980,
      "sl": 1981,
      "woman": 1982,
      "Cain_": 1983,
      "orig": 1984,
      "ther": 1985,
      "ise": 1986,
      "is_M": 1987,
      "am_S": 1988,
      "at_": 1989,
      "ose": 1990,
      "Calig": 1991,
      "_Miranda": 1992,
      "_Ba": 1993,
      "_Bo": 1994,
      "_Bill_": 1995,
      "This": 1996,
      "_Regardless": 1997,
      "Prem_G": 1998,
      "Prem_K": 1999,
      "rab": 2000,
      "Bees": 2001,
      "Casanov": 2002,
      "s_of": 2003,
      "ova": 2004,
      "ava": 2005,
      "own_": 2006,
      "Cat_Run": 2007,
      "America_A": 2008,
      "_Ad": 2009,
      "_Ar": 2010,
      "_At": 2011,
      "to_the_": 2012,
      "evision": 2013,
      "2005_film": 2014,
      "Cape_N": 2015,
      "_Dr": 2016,
      "2012_film": 2017,
      "orest": 2018,
      "_Cl": 2019,
      "ull": 2020,
      "Carry_On_Jatta": 2021,
      "Carry_On_Teacher": 2022,
      "iva_": 2023,
      "Catch_That": 2024,
      "Alan_": 2025,
      "_of_Dream": 2026,
      "_Thapp": 2027,
      "1976_film": 2028,
      "plot": 2029,
      "ekhar": 2030,
      "scrip": 2031,
      "Carny_": 2032,
      "Calling_Dr": 2033,
      "Catch_Us_": 2034,
      "Moon_": 2035,
      "Edward": 2036,
      "1927_film": 2037,
      "Campus_": 2038,
      "y_Ricks": 2039,
      "Carmen_Miranda": 2040,
      "Carry_On_Regardless": 2041,
      "mond": 2042,
      "Carolina_Moon_": 2043,
      "Casino_Tyco": 2044,
      "Kenneth_Williams": 2045,
      "side_": 2046,
      "Amma_": 2047,
      "Premaku": 2048,
      "_Babu": 2049,
      "Carry_On_Up_the_Jungle": 2050,
      "Again": 2051,
      "s_Haunted": 2052,
      "Casting_By": 2053,
      "Cleo": 2054,
      "_Bacon": 2055,
      "Cappy_Ricks": 2056,
      "Caccia_": 2057,
      "Cannery_R": 2058,
      "documentary": 2059,
      "Capitol_": 2060,
      "Caliber_9": 2061,
      "Jeff": 2062,
      "Silent_film": 2063,
      "_Bill_Elliott": 2064,
      "America_Abbayi": 2065,
      "Cape_No": 2066,
      "Catch_That_Kid": 2067,
      "_of_Dreams": 2068,
      "Catch_Us_If_You_Can_": 2069,
      "Casino_Tycoon_": 2070,
      "s_Haunted_Christmas": 2071,
      "Ber": 2072,
      "Dick": 2073,
      "Denn": 2074,
      "Hay": 2075,
      "Howard": 2076,
      "Hudson": 2077,
      "Jr": 2078,
      "Lor": 2079,
      "Luc": 2080,
      "Mat": 2081,
      "Pal": 2082,
      "Ru": 2083,
      "Su": 2084,
      "Sing": 2085,
      "Son": 2086,
      "Sim": 2087,
      "Vs": 2088,
      "back": 2089,
      "cer": 2090,
      "eek": 2091,
      "edit": 2092,
      "kins": 2093,
      "not": 2094,
      "filmmak": 2095,
      "ribut": 2096,
      "amash": 2097,
      "ome": 2098,
      "Preacher": 2099,
      "Cars": 2100,
      "let": 2101,
      "Carri": 2102,
      "Carrot": 2103,
      "akar": 2104,
      "2006": 2105,
      "2007": 2106,
      "illa": 2107,
      "Capot": 2108,
      "orea": 2109,
      "1995": 2110,
      "States": 2111,
      "anca": 2112,
      "fect": 2113,
      "anner": 2114,
      "oodu": 2115,
      "insk": 2116,
      "oster": 2117,
      "blanca": 2118,
      "rishn": 2119,
      "Akkin": 2120,
      "work": 2121,
      "after": 2122,
      "Sunil": 2123,
      "South": 2124,
      "osmos": 2125,
      "Carrotblanca": 2126,
      "Akkinen": 2127,
      "),": 2128,
      "44": 2129,
      "71": 2130,
      "Co": 2131,
      "Das": 2132,
      "Dou": 2133,
      "Ey": 2134,
      "Fre": 2135,
      "Fern": 2136,
      "Gen": 2137,
      "Hal": 2138,
      "Ham": 2139,
      "Hatt": 2140,
      "Ly": 2141,
      "Oli": 2142,
      "Pri": 2143,
      "Rick": 2144,
      "Sol": 2145,
      "Tr": 2146,
      "Ud": 2147,
      "Wong": 2148,
      "_E": 2149,
      "_l": 2150,
      "_p": 2151,
      "adi": 2152,
      "bur": 2153,
      "cen": 2154,
      "den": 2155,
      "during": 2156,
      "ei": 2157,
      "ears": 2158,
      "fiction": 2159,
      "iev": 2160,
      "ly_W": 2161,
      "part": 2162,
      "ra_S": 2163,
      "tz": 2164,
      "uary": 2165,
      "vey": 2166,
      "ya_": 2167,
      "anni": 2168,
      "erman": 2169,
      "orth": 2170,
      "this": 2171,
      "on_B": 2172,
      "oney": 2173,
      "e_V": 2174,
      "e_Le": 2175,
      "a_G": 2176,
      "esw": 2177,
      "olf": 2178,
      "_Sal": 2179,
      "_Sch": 2180,
      "_Saal": 2181,
      "_Bh": 2182,
      "_Banan": 2183,
      "itch": 2184,
      "ouch": 2185,
      "Amor_": 2186,
      "Canv": 2187,
      "Call_of": 2188,
      "s_Kid": 2189,
      "_the_B": 2190,
      "avi": 2191,
      "i_G": 2192,
      "ardly_W": 2193,
      "ime": 2194,
      "for_T": 2195,
      "_Hol": 2196,
      "illai": 2197,
      "Mark": 2198,
      "March": 2199,
      "2011_film": 2200,
      "_Cost": 2201,
      "_Cosmos": 2202,
      "Castles_": 2203,
      "Carry_On_Henry": 2204,
      "Carry_On_Again": 2205,
      "Carry_On_Cleo": 2206,
      "1993_film": 2207,
      "1991_film": 2208,
      "Roger": 2209,
      "1962_film": 2210,
      "Prakash": 2211,
      "1972_film": 2212,
      "_Jack": 2213,
      "_James": 2214,
      "anna": 2215,
      "1939_film": 2216,
      "Call_Me_Claus": 2217,
      "Cannes": 2218,
      "ara_P": 2219,
      "as_is_M": 2220,
      "Andrew": 2221,
      "Carlos": 2222,
      "Lauren": 2223,
      "well_": 2224,
      "_Spying": 2225,
      "Carrie_Pil": 2226,
      "Carry_On_Sc": 2227,
      "Carry_On_Spying": 2228,
      "y_Business": 2229,
      "premier": 2230,
      "Canadian_Bacon": 2231,
      "rishna": 2232,
      "Blood": 2233,
      "Camping_Cosmos": 2234,
      "side": 2235,
      "alkan": 2236,
      "Sid_James": 2237,
      "Before_the_Post": 2238,
      "_Heroes": 2239,
      "Casino_Raiders": 2240,
      "Mauric": 2241,
      "t_Hardly_W": 2242,
      "Carrington_": 2243,
      "Studios": 2244,
      "Cantinflas_": 2245,
      "Caligula_": 2246,
      "_Baad_": 2247,
      "Bees_Saal": 2248,
      "_Bananas_is_M": 2249,
      "Call_of_Heroes": 2250,
      "s_Kid_": 2251,
      "for_Two": 2252,
      "Carry_On_Again_Doctor": 2253,
      "Carrie_Pilby_": 2254,
      "Carry_On_Screaming": 2255,
      "Before_the_Postman": 2256,
      "t_Hardly_Wait": 2257,
      "Bees_Saal_Baad_": 2258,
      "_Bananas_is_My_Business": 2259,
      "Aar": 2260,
      "Cu": 2261,
      "Cur": 2262,
      "Der": 2263,
      "Kat": 2264,
      "Korea": 2265,
      "Lis": 2266,
      "Padm": 2267,
      "Rand": 2268,
      "Sand": 2269,
      "edian": 2270,
      "fire": 2271,
      "fred": 2272,
      "mit": 2273,
      "mur": 2274,
      "mund": 2275,
      "oto": 2276,
      "pse": 2277,
      "pock": 2278,
      "ré": 2279,
      "sp": 2280,
      "vs": 2281,
      "ving": 2282,
      "yc": 2283,
      "year": 2284,
      "zi": 2285,
      "anar": 2286,
      "arren": 2287,
      "reg": 2288,
      "rel": 2289,
      "oro": 2290,
      "thur": 2291,
      "ics": 2292,
      "ola": 2293,
      "ole": 2294,
      "olph": 2295,
      "Prefon": 2296,
      "agavan": 2297,
      "Amour": 2298,
      "Thomp": 2299,
      "2020": 2300,
      "Premin": 2301,
      "aval": 2302,
      "umber": 2303,
      "Marg": 2304,
      "Mario": 2305,
      "ular": 2306,
      "Rock": 2307,
      "Catchfire": 2308,
      "comedian": 2309,
      "ancer": 2310,
      "ution": 2311,
      "release": 2312,
      "Arthur": 2313,
      "appan": 2314,
      "clone": 2315,
      "ewart": 2316,
      "José": 2317,
      "Prayikk": 2318,
      "brand": 2319,
      "worth": 2320,
      "Jones": 2321,
      "Keep": 2322,
      "love": 2323,
      "ixie": 2324,
      "Kathle": 2325,
      "Pratidwani": 2326,
      "historical": 2327,
      "Sarah": 2328,
      "Angel": 2329,
      "television": 2330,
      "Cyclone": 2331,
      "Pickpock": 2332,
      "vaders": 2333,
      "distribut": 2334,
      "filmmaker": 2335,
      "Prefontain": 2336,
      "Amourous": 2337,
      "Thompson": 2338,
      "Pickpocket": 2339,
      "00": 2340,
      "54": 2341,
      "At": 2342,
      "Cind": 2343,
      "Corn": 2344,
      "Cec": 2345,
      "Fox": 2346,
      "Gill": 2347,
      "Hear": 2348,
      "Liv": 2349,
      "Rag": 2350,
      "Sal": 2351,
      "aim": 2352,
      "bi": 2353,
      "hel": 2354,
      "law": 2355,
      "my_": 2356,
      "nes": 2357,
      "nat": 2358,
      "national": 2359,
      "oz": 2360,
      "ooth": 2361,
      "pass": 2362,
      "tes": 2363,
      "ura": 2364,
      "uy_M": 2365,
      "into": 2366,
      "in_Cost": 2367,
      "ans": 2368,
      "film_": 2369,
      "e_I": 2370,
      "e_Love_": 2371,
      "al_S": 2372,
      "escu": 2373,
      "is_B": 2374,
      "aser": 2375,
      "eling": 2376,
      "osed": 2377,
      "osely": 2378,
      "oli": 2379,
      "_Sund": 2380,
      "_Mo": 2381,
      "_Moun": 2382,
      "_My_S": 2383,
      "_Boy": 2384,
      "_Balkan": 2385,
      "_Re": 2386,
      "_Rat": 2387,
      "Can_Th": 2388,
      "Beat": 2389,
      "Call_J": 2390,
      "s_J": 2391,
      "s_Ey": 2392,
      "ods": 2393,
      "oven": 2394,
      "avres": 2395,
      "i_F": 2396,
      "berl": 2397,
      "ard_": 2398,
      "ents": 2399,
      "_Gu": 2400,
      "_Dup": 2401,
      "Mario_": 2402,
      "2015": 2403,
      "2014_film": 2404,
      "ore_": 2405,
      "1985_film": 2406,
      "Casta_D": 2407,
      "Carry_On_Jack": 2408,
      "Carry_On_Pickpocket": 2409,
      "1999": 2410,
      "1995_film": 2411,
      "ive_F": 2412,
      "Catch_My_S": 2413,
      "Carol_I": 2414,
      "Pras": 2415,
      "ept": 2416,
      "_Rog": 2417,
      "Inter": 2418,
      "1958": 2419,
      "1954_film": 2420,
      "_Thamash": 2421,
      "Carnival_St": 2422,
      "_Style": 2423,
      "California": 2424,
      "Belinsk": 2425,
      "producer": 2426,
      "Deb": 2427,
      "Cat_Vs": 2428,
      "Charles_": 2429,
      "in_Capri": 2430,
      "Castle_on_the_": 2431,
      "Castle_Keep": 2432,
      "others": 2433,
      "Cadavres": 2434,
      "y_Sp": 2435,
      "Preethi_M": 2436,
      "Carnival_in_F": 2437,
      "Carnival_in_Cost": 2438,
      "Andy_": 2439,
      "clar": 2440,
      "e_Nodu": 2441,
      "ubl": 2442,
      "to_Korea": 2443,
      "American_Love_": 2444,
      "Cassino_": 2445,
      "ugust": 2446,
      "Calling_All_Cur": 2447,
      "Calendar_Girls": 2448,
      "Calendar_Girl_Mur": 2449,
      "Italian_Style": 2450,
      "e_Dixie": 2451,
      "Casino_Jack": 2452,
      "Canadian_Moun": 2453,
      "Alek": 2454,
      "a_Rica": 2455,
      "landers_": 2456,
      "Kannada_": 2457,
      "Beauties_in_Capri": 2458,
      "American_Born": 2459,
      "Cat_and_Dup": 2460,
      "Jonath": 2461,
      "cats": 2462,
      "arayana": 2463,
      "Carson_City_Cyclone": 2464,
      "Evil": 2465,
      "urns": 2466,
      "Prem_Asta": 2467,
      "Prem_Mhanje_Prem_Mhanje_": 2468,
      "t_Buy_M": 2469,
      "adu_Thamash": 2470,
      "Camping_2": 2471,
      "Cadet_Kelly": 2472,
      "omic_In": 2473,
      "adapt": 2474,
      "Antonio": 2475,
      "Predicament_": 2476,
      "character": 2477,
      "ties_vs": 2478,
      "Caprice_Italian_Style": 2479,
      "Calcutta_71": 2480,
      "Predator_2": 2481,
      "usbands": 2482,
      "Cabaret_Balkan": 2483,
      "_Adventure": 2484,
      "_Atomic_In": 2485,
      "Capote_": 2486,
      "Canvas_": 2487,
      "ara_Pappan": 2488,
      "Prayikkara_Pappan": 2489,
      "Amourous_Adventure": 2490,
      "is_Be_Dixie": 2491,
      "Can_This_Be_Dixie": 2492,
      "Call_Jane": 2493,
      "s_Eye_": 2494,
      "Casta_Diva_": 2495,
      "Catch_My_Soul": 2496,
      "Carol_I_": 2497,
      "Carnival_Story": 2498,
      "Castle_on_the_Hudson": 2499,
      "Preethi_Madu_Thamash": 2500,
      "Carnival_in_Flanders_": 2501,
      "Carnival_in_Costa_Rica": 2502,
      "Cassino_to_Korea": 2503,
      "Calling_All_Curs": 2504,
      "Calendar_Girl_Murders": 2505,
      "Canadian_Mounties_vs": 2506,
      "Cat_and_Dupli": 2507,
      "Prem_Mhanje_Prem_Mhanje_Prem_Asta": 2508,
      "t_Buy_Me_Love_": 2509,
      "_Atomic_Invaders": 2510,
      "Preethi_Madu_Thamashe_Nodu": 2511,
      "Crim": 2512,
      "Craz": 2513,
      "Dem": 2514,
      "Dancer": 2515,
      "Lyn": 2516,
      "Mel": 2517,
      "Pa": 2518,
      "Re": 2519,
      "Ray": 2520,
      "Reg": 2521,
      "Sang": 2522,
      "Winds": 2523,
      "Zero": 2524,
      "aan": 2525,
      "famil": 2526,
      "gi": 2527,
      "iu": 2528,
      "lan": 2529,
      "later": 2530,
      "sist": 2531,
      "tell": 2532,
      "win": 2533,
      "wal": 2534,
      "waas": 2535,
      "rep": 2536,
      "three": 2537,
      "icyc": 2538,
      "omin": 2539,
      "ature": 2540,
      "atyan": 2541,
      "Cart": 2542,
      "Carpo": 2543,
      "Prema": 2544,
      "Best": 2545,
      "Beeth": 2546,
      "ural": 2547,
      "aved": 2548,
      "ows": 2549,
      "sha": 2550,
      "2010": 2551,
      "2013": 2552,
      "allone": 2553,
      "1990": 2554,
      "Raiders": 2555,
      "utters": 2556,
      "peri": 2557,
      "Candles": 2558,
      "Prairi": 2559,
      "Prawaas": 2560,
      "Dec": 2561,
      "Declar": 2562,
      "Your": 2563,
      "erox": 2564,
      "ipp": 2565,
      "Harold": 2566,
      "Phyl": 2567,
      "Cassid": 2568,
      "Cassandra": 2569,
      "Wildcats": 2570,
      "ankar": 2571,
      "German": 2572,
      "Ramesh": 2573,
      "Sky": 2574,
      "Phillip": 2575,
      "Perfect": 2576,
      "ussian": 2577,
      "lights": 2578,
      "loosely": 2579,
      "ootlights": 2580,
      "Ambush": 2581,
      "rself": 2582,
      "certo": 2583,
      "Carried": 2584,
      "Cinders": 2585,
      "Crazy": 2586,
      "Windsor": 2587,
      "Beethoven": 2588,
      "Prairie": 2589,
      "Phyllis": 2590,
      "31": 2591,
      "Af": 2592,
      "Ax": 2593,
      "August": 2594,
      "Bon": 2595,
      "Bhar": 2596,
      "Com": 2597,
      "Del": 2598,
      "Fame": 2599,
      "Hung": 2600,
      "Jer": 2601,
      "Jain": 2602,
      "Jane": 2603,
      "Jason": 2604,
      "Kan": 2605,
      "Law": 2606,
      "Matt": 2607,
      "Madh": 2608,
      "Nanc": 2609,
      "Night_": 2610,
      "Paradi": 2611,
      "Ral": 2612,
      "Rev": 2613,
      "Sov": 2614,
      "Sept": 2615,
      "Tan": 2616,
      "Terr": 2617,
      "Tarang": 2618,
      "Vir": 2619,
      "Yor": 2620,
      "_Carry_": 2621,
      "_Carl": 2622,
      "_Evil": 2623,
      "banner": 2624,
      "cre": 2625,
      "cinem": 2626,
      "eant": 2627,
      "hish": 2628,
      "ient": 2629,
      "jun": 2630,
      "lam": 2631,
      "oh": 2632,
      "oo": 2633,
      "par": 2634,
      "s_M": 2635,
      "sur": 2636,
      "went": 2637,
      "way_": 2638,
      "yn_": 2639,
      "yan_": 2640,
      "yab": 2641,
      "aril": 2642,
      "an_M": 2643,
      "starr": 2644,
      "stev": 2645,
      "stein": 2646,
      "ilv": 2647,
      "or_N": 2648,
      "thir": 2649,
      "e_54": 2650,
      "ala_S": 2651,
      "and_Ro": 2652,
      "and_T": 2653,
      "and_Jack": 2654,
      "rie": 2655,
      "a_Jo": 2656,
      "ed_F": 2657,
      "iss_": 2658,
      "am_B": 2659,
      "y_of": 2660,
      "omen": 2661,
      "ata": 2662,
      "osa_": 2663,
      "olution": 2664,
      "them": 2665,
      "_Sex": 2666,
      "_Mac": 2667,
      "_Mak": 2668,
      "_Bar_": 2669,
      "chi_Ch": 2670,
      "ada_D": 2671,
      "adventure": 2672,
      "_Rom": 2673,
      "_Ravichandran": 2674,
      "aylor": 2675,
      "Premab": 2676,
      "Premature": 2677,
      "t_on_": 2678,
      "irk": 2679,
      "Canada_D": 2680,
      "Chat": 2681,
      "Casqu": 2682,
      "Casey": 2683,
      "Calle_54": 2684,
      "_the_Wildcats": 2685,
      "anger": 2686,
      "Cats": 2687,
      "i_and_Ro": 2688,
      "ardo": 2689,
      "_A_F": 2690,
      "_Away_": 2691,
      "ever_": 2692,
      "for_the_Wildcats": 2693,
      "_Hen": 2694,
      "_Husbands": 2695,
      "Capern": 2696,
      "_Gr": 2697,
      "_Go_": 2698,
      "_De": 2699,
      "_Di": 2700,
      "_Day": 2701,
      "uman_": 2702,
      "Marí": 2703,
      "ott_": 2704,
      "2018": 2705,
      "apas": 2706,
      "apur": 2707,
      "Shir": 2708,
      "1987": 2709,
      "1982_film": 2710,
      "_Crime": 2711,
      "Castle": 2712,
      "endr": 2713,
      "endra": 2714,
      "es_Perfect": 2715,
      "Albert": 2716,
      "_Pati": 2717,
      "ishing": 2718,
      "Carol_": 2719,
      "song": 2720,
      "_New": 2721,
      "_Rock": 2722,
      "ances": 2723,
      "utter": 2724,
      "while": 2725,
      "1942_film": 2726,
      "ethods": 2727,
      "_Whoop": 2728,
      "lesh": 2729,
      "_Shutters": 2730,
      "Caroline": 2731,
      "Call_Me_Crazy": 2732,
      "resslaw": 2733,
      "lyn": 2734,
      "Michel": 2735,
      "Brun": 2736,
      "Arm": 2737,
      "Calling_Wild": 2738,
      "uka": 2739,
      "ourney": 2740,
      "Before_You": 2741,
      "Call_of_the_Ice": 2742,
      "Call_of_the_Prairie": 2743,
      "played": 2744,
      "Casper_": 2745,
      "Edmund": 2746,
      "a_Day": 2747,
      "a_Kiss_": 2748,
      "Harvey": 2749,
      "Behind_the_F": 2750,
      "Behind_Cl": 2751,
      "_Yourself": 2752,
      "Timberl": 2753,
      "of_the_Night_": 2754,
      "Calling_All_Mar": 2755,
      "Calling_All_Husbands": 2756,
      "Calendar_Girls_": 2757,
      "Cabaret_Dancer": 2758,
      "Castle_of_Evil": 2759,
      "hoe": 2760,
      "Caroline_and_Jack": 2761,
      "If_You_Can": 2762,
      "Ground": 2763,
      "Beauties_of_the_Night_": 2764,
      "orses": 2765,
      "Casual_Sex": 2766,
      "Casual_Day": 2767,
      "Cannonball_": 2768,
      "Cat_and_Mouse_": 2769,
      "Calm_Yourself": 2770,
      "appearance": 2771,
      "appearances": 2772,
      "Prelude_to_a_Kiss_": 2773,
      "Emil": 2774,
      "Nagesw": 2775,
      "e_With": 2776,
      "Cairo_Declar": 2777,
      "ent_Zero": 2778,
      "Pray_for_the_Wildcats": 2779,
      "Screen": 2780,
      "Before_the_World": 2781,
      "Canyon_Ambush": 2782,
      "Camping_3": 2783,
      "_Jones": 2784,
      "_Jones_": 2785,
      "Cadet_Girl": 2786,
      "artha": 2787,
      "Precious_": 2788,
      "_Set_on_": 2789,
      "Cabin_Fever": 2790,
      "Cabin_Fever_": 2791,
      "Call_It_Luck": 2792,
      "Call_It_a_Day": 2793,
      "Catch_Me_If_You_Can": 2794,
      "Carnival_of_Crime": 2795,
      "Premium_": 2796,
      "Cash_and_Carry_": 2797,
      "Among_the_Cinders": 2798,
      "Cactus_Mak": 2799,
      "Cabin_Boy": 2800,
      "Gordon_": 2801,
      "Dinesh": 2802,
      "arshini": 2803,
      "_Concerto": 2804,
      "Cinema_of": 2805,
      "Stock": 2806,
      "Dennis": 2807,
      "Cannes_Man": 2808,
      "murder": 2809,
      "2020_film": 2810,
      "Preminchi_Ch": 2811,
      "Prefontaine_": 2812,
      "biograph": 2813,
      "osed_Shutters": 2814,
      "i_Flight": 2815,
      "ive_Film": 2816,
      "Belinsky_": 2817,
      "adaptation": 2818,
      "Carpool_": 2819,
      "Candleshoe": 2820,
      "Cassidy_of": 2821,
      "Carried_Away_": 2822,
      "Beethoven_Concerto": 2823,
      "hishek": 2824,
      "_Bar_20": 2825,
      "Premabhishek": 2826,
      "Canada_Di_Flight": 2827,
      "Casque_d": 2828,
      "i_and_Robin": 2829,
      "_A_Five_Film": 2830,
      "Capernaum": 2831,
      "_Patient_Zero": 2832,
      "_Whoopi_and_Robin": 2833,
      "Calling_Wild_Bill_Elliott": 2834,
      "Before_You_Go_": 2835,
      "Behind_the_Footlights": 2836,
      "Behind_Closed_Shutters": 2837,
      "Timberlane": 2838,
      "Calling_All_Marines": 2839,
      "Caroline_and_Jackie": 2840,
      "Cairo_Declaration_": 2841,
      "Before_the_World_Set_on_": 2842,
      "Cactus_Makes_Perfect": 2843,
      "Preminchi_Choodu": 2844,
      "Cassidy_of_Bar_20": 2845,
      "Before_the_World_Set_on_Fire": 2846,
      "\".": 2847,
      "Ari": 2848,
      "Apr": 2849,
      "Bal": 2850,
      "Bry": 2851,
      "Dumb": 2852,
      "Fly": 2853,
      "Forest": 2854,
      "Gur": 2855,
      "Her": 2856,
      "Hill": 2857,
      "Im": 2858,
      "Iv": 2859,
      "Je": 2860,
      "Kim": 2861,
      "Kesar": 2862,
      "Lind": 2863,
      "Lasse": 2864,
      "My": 2865,
      "Mail": 2866,
      "Nov": 2867,
      "Nair": 2868,
      "Nichol": 2869,
      "Ow": 2870,
      "Oct": 2871,
      "Ruth": 2872,
      "Sre": 2873,
      "Suk": 2874,
      "Sean": 2875,
      "Vish": 2876,
      "Yudd": 2877,
      "ahan": 2878,
      "day": 2879,
      "eu": 2880,
      "father": 2881,
      "gin": 2882,
      "iband": 2883,
      "millon": 2884,
      "no": 2885,
      "sch": 2886,
      "sut": 2887,
      "sound": 2888,
      "ten": 2889,
      "tra": 2890,
      "ery": 2891,
      "ington": 2892,
      "rece": 2893,
      "orussian": 2894,
      "thy": 2895,
      "thon": 2896,
      "ico": 2897,
      "andi": 2898,
      "isabeth": 2899,
      "1919": 2900,
      "tertain": 2901,
      "olid": 2902,
      "Pregg": 2903,
      "adag": 2904,
      "oup": 2905,
      "ago": 2906,
      "Premalu": 2907,
      "Premedit": 2908,
      "Premsut": 2909,
      "ircu": 2910,
      "iranj": 2911,
      "musician": 2912,
      "rac": 2913,
      "raj": 2914,
      "Chak": 2915,
      "Beach": 2916,
      "lier": 2917,
      "aust": 2918,
      "angal": 2919,
      "aker": 2920,
      "berto": 2921,
      "ellill": 2922,
      "icholl": 2923,
      "Caprich": 2924,
      "Anthon": 2925,
      "igyab": 2926,
      "abes": 2927,
      "2016": 2928,
      "1989": 2929,
      "Rach": 2930,
      "ived": 2931,
      "Cabob": 2932,
      "Alb": 2933,
      "ike": 2934,
      "indows": 2935,
      "iew": 2936,
      "Ind": 2937,
      "Carnivel": 2938,
      "ocaust": 2939,
      "olly": 2940,
      "romance": 2941,
      "estin": 2942,
      "Believ": 2943,
      "Belorussian": 2944,
      "aje": 2945,
      "France": 2946,
      "Elisabeth": 2947,
      "Brad": 2948,
      "oyfriends": 2949,
      "Pratiband": 2950,
      "Pratigyab": 2951,
      "Admir": 2952,
      "Moon": 2953,
      "Christian": 2954,
      "André": 2955,
      "before": 2956,
      "pewriter": 2957,
      "izet": 2958,
      "bruary": 2959,
      "ravind": 2960,
      "espie": 2961,
      "anyas": 2962,
      "sky": 2963,
      "orsese": 2964,
      "Firebrand": 2965,
      "Norman": 2966,
      "Bhagavan": 2967,
      "Doroth": 2968,
      "Hugh": 2969,
      "Powder": 2970,
      "lanco": 2971,
      "ujari": 2972,
      "Premasooth": 2973,
      "Premalek": 2974,
      "Beefc": 2975,
      "ollerbabes": 2976,
      "Direct": 2977,
      "February": 2978,
      "premiered": 2979,
      "distributed": 2980,
      "family": 2981,
      "icycles": 2982,
      "December": 2983,
      "Axanar": 2984,
      "Paradis": 2985,
      "Ralph": 2986,
      "September": 2987,
      "Tarangalu": 2988,
      "wenty": 2989,
      "starred": 2990,
      "third": 2991,
      "April": 2992,
      "Flyers": 2993,
      "Lasseter": 2994,
      "Yuddham": 2995,
      "millonaria": 2996,
      "Preggoland": 2997,
      "Premeditated": 2998,
      "Premsutra": 2999,
      "ircuit": 3000,
      "ellillu": 3001,
      "ichollu": 3002,
      "Caboblanco": 3003,
      "Pratibandh": 3004,
      "Pratigyabadh": 3005,
      "Admiral": 3006,
      "Premasoothram": 3007,
      "Ab": 3008,
      "Bum": 3009,
      "Be_S": 3010,
      "For": 3011,
      "Green": 3012,
      "Gallone": 3013,
      "Hong": 3014,
      "Len": 3015,
      "Lang": 3016,
      "Nick": 3017,
      "Pun": 3018,
      "Que": 3019,
      "Rep": 3020,
      "Sy": 3021,
      "Sug": 3022,
      "Srin": 3023,
      "Tur": 3024,
      "Tai": 3025,
      "Vas": 3026,
      "Vac": 3027,
      "_with": 3028,
      "aar": 3029,
      "came": 3030,
      "ey_": 3031,
      "ga": 3032,
      "ge_": 3033,
      "ies_": 3034,
      "ki": 3035,
      "ly_Sp": 3036,
      "ming": 3037,
      "no_": 3038,
      "nja": 3039,
      "ober": 3040,
      "ral": 3041,
      "radh": 3042,
      "spe": 3043,
      "s_Shadow": 3044,
      "tiv": 3045,
      "teen": 3046,
      "vol": 3047,
      "zabeth": 3048,
      "és": 3049,
      "araj": 3050,
      "in_P": 3051,
      "ano": 3052,
      "than_": 3053,
      "only": 3054,
      "e_of_the_": 3055,
      "die_": 3056,
      "a_de_": 3057,
      "a_Dead": 3058,
      "esc": 3059,
      "ame_": 3060,
      "elson": 3061,
      "el_T": 3062,
      "y_millonaria": 3063,
      "ata_": 3064,
      "Cala": 3065,
      "_Sar": 3066,
      "_Serg": 3067,
      "_Soul": 3068,
      "_Smith": 3069,
      "_Sanyas": 3070,
      "_Mah": 3071,
      "_Miller": 3072,
      "_Methods": 3073,
      "_Bar": 3074,
      "_Ber": 3075,
      "_Ben": 3076,
      "_Bur": 3077,
      "_Buri": 3078,
      "ade_": 3079,
      "out_": 3080,
      "aglam": 3081,
      "_Rollerbabes": 3082,
      "Prem_": 3083,
      "Premam": 3084,
      "Premam_": 3085,
      "Prem_Sanyas": 3086,
      "t_or_N": 3087,
      "Can_W": 3088,
      "Chuck": 3089,
      "Bear": 3090,
      "Bett": 3091,
      "Cass_": 3092,
      "Casab": 3093,
      "lif": 3094,
      "ida": 3095,
      "o_D": 3096,
      "acc": 3097,
      "an_F": 3098,
      "ow_W": 3099,
      "eller": 3100,
      "Carry_on": 3101,
      "2008": 3102,
      "_Hay": 3103,
      "_Human_": 3104,
      "_Horses": 3105,
      "illed": 3106,
      "Joan": 3107,
      "abi": 3108,
      "Mary_": 3109,
      "Marines": 3110,
      "2014": 3111,
      "2016_film": 3112,
      "She": 3113,
      "ucci": 3114,
      "athi_V": 3115,
      "_Code": 3116,
      "_Circuit": 3117,
      "American_Methods": 3118,
      "_Father": 3119,
      "_Ferox": 3120,
      "Castelo": 3121,
      "Carry_On_Kesar": 3122,
      "Carry_On_Admiral": 3123,
      "Wilson_": 3124,
      "_Khan": 3125,
      "_Khan_": 3126,
      "1998_film": 3127,
      "1994_film": 3128,
      "ivas": 3129,
      "Cabez": 3130,
      "Cabiri": 3131,
      "Catch_the_F": 3132,
      "_Pol": 3133,
      "_Pep": 3134,
      "_Pere": 3135,
      "_Pellillu": 3136,
      "Carolyn_": 3137,
      "epp": 3138,
      "ep_K": 3139,
      "hane": 3140,
      "hanam_": 3141,
      "Lee": 3142,
      "Leo": 3143,
      "Lee_": 3144,
      "_North": 3145,
      "_Name_": 3146,
      "ut_Sh": 3147,
      "1963_film": 3148,
      "1948_film": 3149,
      "1946_film": 3150,
      "1944_film": 3151,
      "Carnival_Bo": 3152,
      "Carnival_Rock": 3153,
      "ocaly": 3154,
      "_War": 3155,
      "1979_film": 3156,
      "_Station": 3157,
      "_Stone_": 3158,
      "_States": 3159,
      "Prema_Tarangalu": 3160,
      "Prema_Yuddham": 3161,
      "_Shar": 3162,
      "_Show_W": 3163,
      "ekam_S": 3164,
      "Beau_Pere": 3165,
      "California_Gold": 3166,
      "California_Firebrand": 3167,
      "aidi": 3168,
      "Call_Me_by_": 3169,
      "Call_Me_Mad": 3170,
      "Call_Me_Elisabeth": 3171,
      "Cannot_": 3172,
      "Canned_F": 3173,
      "Castle_in_the_": 3174,
      "Castle_in_the_Sk": 3175,
      "super": 3176,
      "ark_Shadow": 3177,
      "adha": 3178,
      "adhi": 3179,
      "ired": 3180,
      "Catch_as_": 3181,
      "Catch_Can_": 3182,
      "geria": 3183,
      "eeing_": 3184,
      "ukka": 3185,
      "ara_L": 3186,
      "ara_Rao": 3187,
      "Cadence_": 3188,
      "Mohan": 3189,
      "Call_of_the_Blood": 3190,
      "Call_of_the_Rock": 3191,
      "Carnival_Que": 3192,
      "man_and_T": 3193,
      "e_He": 3194,
      "e_Heav": 3195,
      "issing_": 3196,
      "Bellman_and_T": 3197,
      "a_Dark_Shadow": 3198,
      "Behind_Show_W": 3199,
      "being": 3200,
      "Love": 3201,
      "_Blu": 3202,
      "American_Hear": 3203,
      "American_Crim": 3204,
      "American_Flyers": 3205,
      "Guy": 3206,
      "encer": 3207,
      "Prathap": 3208,
      "Time": 3209,
      "Campus_Code": 3210,
      "air_One": 3211,
      "Cannibal_Hol": 3212,
      "Cannibal_Rollerbabes": 3213,
      "Cannibal_Ferox": 3214,
      "team": 3215,
      "etty": 3216,
      "Calendar_Girl_": 3217,
      "Carmen_Jones_": 3218,
      "Cabaret_Paradis": 3219,
      "Castle_of_Blood": 3220,
      "Cairo": 3221,
      "a_Pillai": 3222,
      "Brian": 3223,
      "Amma_Pillai": 3224,
      "_the_Missing_": 3225,
      "Beauties_on_B": 3226,
      "Patricia_": 3227,
      "Among_the_Missing_": 3228,
      "Chandra": 3229,
      "American_Bet": 3230,
      "American_Boyfriends": 3231,
      "Calm_with": 3232,
      "ake_a_Jo": 3233,
      "ikkukka": 3234,
      "Prelude_to_Fame": 3235,
      "Prelude_to_Axanar": 3236,
      "ut_Up": 3237,
      "ut_Dumb": 3238,
      "United_States": 3239,
      "_Murder": 3240,
      "Cast_a_Dead": 3241,
      "Cast_a_Dark_Shadow": 3242,
      "Vincent": 3243,
      "Prep_and": 3244,
      "Be_Beautiful_B": 3245,
      "ian_language": 3246,
      "2022_film": 3247,
      "t_Be_Heav": 3248,
      "y_Friend": 3249,
      "_Beau": 3250,
      "Prema_Pichollu": 3251,
      "adapted": 3252,
      "Pratidwandi": 3253,
      "e_Take_a_Jo": 3254,
      "Predicament": 3255,
      "Because_of_the_": 3256,
      "Because_He": 3257,
      "Being_Human_": 3258,
      "Catch_Me_If_You_Can_": 3259,
      "Carnival_of_Soul": 3260,
      "California_Dreamin": 3261,
      "California_Dreaming_": 3262,
      "Carnal_Circuit": 3263,
      "Prathyekam_S": 3264,
      "Beautiful_But_Dumb": 3265,
      "ific": 3266,
      "Elizabeth": 3267,
      "_Rush_": 3268,
      "Prem_Pujari": 3269,
      "Beloved_": 3270,
      "Spanish_language": 3271,
      "ymore": 3272,
      "Behind_the_Screen": 3273,
      "Babu": 3274,
      "Derek": 3275,
      "Live_With": 3276,
      "e_It_or_N": 3277,
      "s_Journey": 3278,
      "ublic": 3279,
      "Your_Name_": 3280,
      "Revolution": 3281,
      "s_My_Friend": 3282,
      "osa_y_millonaria": 3283,
      "Premature_Buri": 3284,
      "Premabhishekam_": 3285,
      "Capernaum_": 3286,
      "received": 3287,
      "Premalu_Pellillu": 3288,
      "Caprichosa_y_millonaria": 3289,
      "Believe_It_or_N": 3290,
      "Belorussian_Station": 3291,
      "Premalekhanam_": 3292,
      "Beefcake_": 3293,
      "Premeditated_Murder": 3294,
      "Be_Seeing_": 3295,
      "ly_Spell": 3296,
      "radhikkukka": 3297,
      "_Sergeant": 3298,
      "out_You": 3299,
      "aglami": 3300,
      "Can_We_Take_a_Jo": 3301,
      "Cass_Timberlane": 3302,
      "Casablanc": 3303,
      "Cabiria": 3304,
      "Catch_the_Fair_One": 3305,
      "ut_Shut_Up": 3306,
      "Carnival_Boat": 3307,
      "California_Gold_Rush_": 3308,
      "Call_Me_by_Your_Name_": 3309,
      "Call_Me_Madam_": 3310,
      "Cannot_Live_With": 3311,
      "Canned_Fishing": 3312,
      "Castle_in_the_Ground": 3313,
      "Castle_in_the_Sky": 3314,
      "Catch_as_Catch_Can_": 3315,
      "Call_of_the_Blood_": 3316,
      "Call_of_the_Rockies_": 3317,
      "Carnival_Queen_": 3318,
      "Bellman_and_True": 3319,
      "Behind_Show_Windows": 3320,
      "American_Heart_": 3321,
      "American_Crime_": 3322,
      "Cannibal_Holocaust": 3323,
      "Beauties_on_Bicycles": 3324,
      "Calm_with_Horses": 3325,
      "Cast_a_Deadly_Spell": 3326,
      "Prep_and_Pep": 3327,
      "Be_Beautiful_But_Shut_Up": 3328,
      "t_Be_Heaven": 3329,
      "Because_of_the_Cats": 3330,
      "Carnival_of_Souls_": 3331,
      "Prathyekam_Sradhikkukka": 3332,
      "Premature_Burial_": 3333,
      "Believe_It_or_Not_": 3334,
      "Be_Seeing_You": 3335,
      "Can_We_Take_a_Joke": 3336,
      "Cannot_Live_Without_You": 3337,
      "\",": 3338,
      "Bw": 3339,
      "Baz": 3340,
      "Braz": 3341,
      "Connor": 3342,
      "Dan": 3343,
      "Gl": 3344,
      "Gil": 3345,
      "Hug": 3346,
      "Kov": 3347,
      "La": 3348,
      "Lo": 3349,
      "Les": 3350,
      "Low": 3351,
      "Nam": 3352,
      "Naan": 3353,
      "Sm": 3354,
      "Srid": 3355,
      "Um": 3356,
      "Women": 3357,
      "Yv": 3358,
      "aadu": 3359,
      "ble": 3360,
      "bau": 3361,
      "bell": 3362,
      "eb": 3363,
      "gatt": 3364,
      "iç": 3365,
      "lel": 3366,
      "lott": 3367,
      "mad": 3368,
      "oob": 3369,
      "ru": 3370,
      "ruth": 3371,
      "sy": 3372,
      "sod": 3373,
      "sim": 3374,
      "tur": 3375,
      "tran": 3376,
      "time": 3377,
      "uom": 3378,
      "won": 3379,
      "za": 3380,
      "ées": 3381,
      "dberg": 3382,
      "ario": 3383,
      "arling": 3384,
      "int": 3385,
      "inst": 3386,
      "inama": 3387,
      "inging": 3388,
      "ilpi": 3389,
      "rest": 3390,
      "real": 3391,
      "Caiç": 3392,
      "oni": 3393,
      "alli": 3394,
      "andma": 3395,
      "esand": 3396,
      "asy": 3397,
      "asak": 3398,
      "aska": 3399,
      "amy": 3400,
      "elop": 3401,
      "elathi": 3402,
      "terjee": 3403,
      "directorial": 3404,
      "Pres": 3405,
      "Preey": 3406,
      "Preach": 3407,
      "Prescrip": 3408,
      "Carth": 3409,
      "Careful": 3410,
      "adem": 3411,
      "adorn": 3412,
      "agg": 3413,
      "agni": 3414,
      "Amor": 3415,
      "Amruth": 3416,
      "aye": 3417,
      "Premash": 3418,
      "Premagni": 3419,
      "Canast": 3420,
      "raig": 3421,
      "Choir": 3422,
      "over": 3423,
      "acific": 3424,
      "aka": 3425,
      "aki": 3426,
      "aksh": 3427,
      "eturns": 3428,
      "ello": 3429,
      "2002": 3430,
      "2009": 3431,
      "form": 3432,
      "Joel": 3433,
      "abel": 3434,
      "uman": 3435,
      "Mara": 3436,
      "Marshall": 3437,
      "2012": 3438,
      "Sha": 3439,
      "ucc": 3440,
      "ranth": 3441,
      "1996": 3442,
      "Stu": 3443,
      "Stra": 3444,
      "Catching": 3445,
      "Ald": 3446,
      "Alan": 3447,
      "ikaram": 3448,
      "Camill": 3449,
      "Candlel": 3450,
      "1942": 3451,
      "1943": 3452,
      "Prasthanam": 3453,
      "Campbell": 3454,
      "ugen": 3455,
      "Below": 3456,
      "Charlott": 3457,
      "obstin": 3458,
      "Prateek": 3459,
      "adhal": 3460,
      "Cadenc": 3461,
      "Preethsod": 3462,
      "Rajkumar": 3463,
      "Rajinama": 3464,
      "III": 3465,
      "orns": 3466,
      "Andre": 3467,
      "Predestin": 3468,
      "Entertain": 3469,
      "glas": 3470,
      "Prathij": 3471,
      "Prathikaram": 3472,
      "Unadorn": 3473,
      "ossom": 3474,
      "black": 3475,
      "road": 3476,
      "Harry": 3477,
      "moon": 3478,
      "Khaidi": 3479,
      "Help": 3480,
      "Ammuv": 3481,
      "Permit": 3482,
      "Noah": 3483,
      "umbher": 3484,
      "Pratigha": 3485,
      "Giov": 3486,
      "Power": 3487,
      "igned": 3488,
      "characters": 3489,
      "Mahesh": 3490,
      "Prathyartha": 3491,
      "777": 3492,
      "nowled": 3493,
      "Shaked": 3494,
      "Geethangal": 3495,
      "Domini": 3496,
      "performan": 3497,
      "original": 3498,
      "Ruins": 3499,
      "Freak": 3500,
      "oneymoon": 3501,
      "Kathleen": 3502,
      "Corners": 3503,
      "tesoro": 3504,
      "Prassthanam": 3505,
      "Sangama": 3506,
      "atyanarayana": 3507,
      "Bonni": 3508,
      "Soviet": 3509,
      "Virgin": 3510,
      "October": 3511,
      "Punj": 3512,
      "Taiwan": 3513,
      "Premamayi": 3514,
      "ocalypse": 3515,
      "Bwana": 3516,
      "Bazoob": 3517,
      "Brazil": 3518,
      "asakhi": 3519,
      "Preeyasakhi": 3520,
      "Premashilpi": 3521,
      "obstinées": 3522,
      "Prateeksha": 3523,
      "Entertainment": 3524,
      "Prathijnja": 3525,
      "Unadorned": 3526,
      "Ammuvagi": 3527,
      "Permitte": 3528,
      "Bazooband": 3529,
      "Ac": 3530,
      "Air": 3531,
      "Ali": 3532,
      "Aust": 3533,
      "Cri": 3534,
      "Cost": 3535,
      "Eugen": 3536,
      "Fa": 3537,
      "Fl": 3538,
      "Farr": 3539,
      "Hawt": 3540,
      "Ir": 3541,
      "Jas": 3542,
      "Jul": 3543,
      "Kent": 3544,
      "Lake": 3545,
      "Mac": 3546,
      "Mrin": 3547,
      "Nodu": 3548,
      "Ok": 3549,
      "Pl": 3550,
      "Rom": 3551,
      "Roman": 3552,
      "Russ": 3553,
      "Sw": 3554,
      "Sat": 3555,
      "Sch": 3556,
      "Ted": 3557,
      "Ush": 3558,
      "VIII": 3559,
      "Woman": 3560,
      "_actor": 3561,
      "aadhal": 3562,
      "both": 3563,
      "comp": 3564,
      "cana_": 3565,
      "dam": 3566,
      "fant": 3567,
      "four": 3568,
      "go": 3569,
      "gar": 3570,
      "i_S": 3571,
      "iang": 3572,
      "ience": 3573,
      "jo": 3574,
      "k_": 3575,
      "kel": 3576,
      "mid": 3577,
      "nam": 3578,
      "oo_": 3579,
      "pocalypse": 3580,
      "sandr": 3581,
      "s_Beau": 3582,
      "te_": 3583,
      "tis": 3584,
      "ts_": 3585,
      "uja": 3586,
      "years": 3587,
      "in_A": 3588,
      "in_Al": 3589,
      "anim": 3590,
      "anike": 3591,
      "ori_": 3592,
      "onz": 3593,
      "e_Car": 3594,
      "and_M": 3595,
      "eddy": 3596,
      "esqu": 3597,
      "y_Ch": 3598,
      "omas_": 3599,
      "ative": 3600,
      "olm": 3601,
      "Calvent": 3602,
      "Caro_M": 3603,
      "_Som": 3604,
      "_Sun": 3605,
      "_Sam_B": 3606,
      "of_Al": 3607,
      "of_War": 3608,
      "_Mart": 3609,
      "_My_D": 3610,
      "_Big": 3611,
      "_Based": 3612,
      "_Be_S": 3613,
      "_Banks": 3614,
      "cher": 3615,
      "child": 3616,
      "ada_K": 3617,
      "oud": 3618,
      "Amy_": 3619,
      "Amster": 3620,
      "leiss": 3621,
      "_Rá": 3622,
      "_Ram": 3623,
      "_Radha": 3624,
      "_Returns": 3625,
      "ayor_": 3626,
      "Premada_K": 3627,
      "Canal": 3628,
      "rah": 3629,
      "Chi": 3630,
      "Chris": 3631,
      "Bees_": 3632,
      "Calle_M": 3633,
      "Call_O": 3634,
      "Call_North": 3635,
      "lie": 3636,
      "the_Marines": 3637,
      "_the_Bel": 3638,
      "odent": 3639,
      "o_G": 3640,
      "o_T": 3641,
      "o_V": 3642,
      "on_I": 3643,
      "on_for": 3644,
      "on_Ice": 3645,
      "on_Par": 3646,
      "avan_": 3647,
      "akir": 3648,
      "Catal": 3649,
      "Cat_Run_": 3650,
      "i_D": 3651,
      "i_P": 3652,
      "berto_": 3653,
      "ella": 3654,
      "_Away": 3655,
      "_Apocalypse": 3656,
      "to_the_F": 3657,
      "ichele": 3658,
      "2003": 3659,
      "_Hu": 3660,
      "_Hop": 3661,
      "_Honeymoon": 3662,
      "illespie": 3663,
      "nest": 3664,
      "ney_": 3665,
      "Captiv": 3666,
      "Capcana_": 3667,
      "_God": 3668,
      "_Gelathi": 3669,
      "_Gillespie": 3670,
      "_Day_": 3671,
      "abhar": 3672,
      "ionati": 3673,
      "otent": 3674,
      "orett": 3675,
      "1980": 3676,
      "1985": 3677,
      "_Cor": 3678,
      "_Company": 3679,
      "American_Blu": 3680,
      "_For": 3681,
      "_Fare": 3682,
      "Cast_Away": 3683,
      "es_obstinées": 3684,
      "rank": 3685,
      "_Knowled": 3686,
      "1991": 3687,
      "1992_film": 3688,
      "1999_film": 3689,
      "Roy": 3690,
      "rick": 3691,
      "emp": 3692,
      "Alfred": 3693,
      "aine": 3694,
      "_No": 3695,
      "1950": 3696,
      "_Thunder": 3697,
      "_Thorns": 3698,
      "1940_film": 3699,
      "attel_T": 3700,
      "Carnival_Sund": 3701,
      "Camp_Blood": 3702,
      "_Wake_": 3703,
      "_Town": 3704,
      "_Twenty": 3705,
      "1974": 3706,
      "1978": 3707,
      "ong_Shadow": 3708,
      "ollins": 3709,
      "earts_": 3710,
      "tion_for": 3711,
      "_Jing": 3712,
      "Prema_Rag": 3713,
      "Prema_Khaidi": 3714,
      "Prema_Geethangal": 3715,
      "Prema_Sangama": 3716,
      "ester": 3717,
      "annah": 3718,
      "science": 3719,
      "herit": 3720,
      "1934": 3721,
      "California_Girl": 3722,
      "California_Joe_": 3723,
      "California_Mail": 3724,
      "Call_Me_Bwana": 3725,
      "William_H": 3726,
      "obb": 3727,
      "ashri": 3728,
      "Castle_Freak": 3729,
      "Brown_": 3730,
      "_Land": 3731,
      "_Life": 3732,
      "orty": 3733,
      "Cash_Mc": 3734,
      "sub": 3735,
      "harib": 3736,
      "eet_": 3737,
      "ing_to_the_": 3738,
      "e_Sai": 3739,
      "Before_I": 3740,
      "Before_Sun": 3741,
      "Calamity": 3742,
      "Call_of_the_Canyon": 3743,
      "y_Scott": 3744,
      "Preethse": 3745,
      "Cars_of_the_": 3746,
      "e_Hearts_": 3747,
      "featuring": 3748,
      "Malcol": 3749,
      "Malashri": 3750,
      "e_Note": 3751,
      "a_Kumbher": 3752,
      "in_the_City": 3753,
      "_Blossom": 3754,
      "of_the_Dead": 3755,
      "of_the_Corners": 3756,
      "1921_film": 3757,
      "Campus_Man": 3758,
      "Campus_Di": 3759,
      "Campus_Honeymoon": 3760,
      "Cannibal_Apocalypse": 3761,
      "iza": 3762,
      "Can_Ellen": 3763,
      "Prayer": 3764,
      "Canadi": 3765,
      "Carmen_on_Ice": 3766,
      "mercen": 3767,
      "innu": 3768,
      "a_Long_Shadow": 3769,
      "Calamity_Jan": 3770,
      "erry_": 3771,
      "Spencer": 3772,
      "Janet": 3773,
      "a_Haadu": 3774,
      "Caroline_in_the_City": 3775,
      "Carnage_Park": 3776,
      "Harry_": 3777,
      "through": 3778,
      "rise_": 3779,
      "iteers": 3780,
      "i_Kapoor": 3781,
      "Beautiful_Dream": 3782,
      "cio_": 3783,
      "Louise_Le": 3784,
      "Tony_": 3785,
      "Gray": 3786,
      "Casualties_": 3787,
      "_Babes": 3788,
      "Cat_and_Dog": 3789,
      "ari_Naray": 3790,
      "_Sandhane": 3791,
      "Typewriter": 3792,
      "ut_the_Marines": 3793,
      "al_tesoro": 3794,
      "Cairo_Time": 3795,
      "ylv": 3796,
      "ana_Rao": 3797,
      "Cast_a_Long_Shadow": 3798,
      "Vinod": 3799,
      "ucho": 3800,
      "ight_in_Al": 3801,
      "Bed_of_Thorns": 3802,
      "Be_Careful": 3803,
      "_Anand": 3804,
      "Belle_of_Al": 3805,
      "Candyman_3": 3806,
      "Bayou": 3807,
      "2021_film": 3808,
      "_Kids": 3809,
      "Beauty_Unadorned": 3810,
      "Beauty_on_Par": 3811,
      "Valer": 3812,
      "a_Varshini": 3813,
      "Precious_Babes": 3814,
      "_Heroine": 3815,
      "ampire": 3816,
      "aradise": 3817,
      "Being_Twenty": 3818,
      "_Feat": 3819,
      "_Feeling": 3820,
      "Premium_Rush": 3821,
      "Appass": 3822,
      "Cross": 3823,
      "rigan": 3824,
      "Premasathi_V": 3825,
      "Carnal_Knowled": 3826,
      "Cash_and_Company": 3827,
      "Among_the_Ruins": 3828,
      "Gregory_": 3829,
      "Ernest": 3830,
      "Gabri": 3831,
      "Prem_Paglami": 3832,
      "polit": 3833,
      "Ameer_Aadm": 3834,
      "Premakkoo_": 3835,
      "Premakke_Sai": 3836,
      "June": 3837,
      "Sudh": 3838,
      "e_and_Sam_B": 3839,
      "Amrita_Kumbher": 3840,
      "_Aadmi": 3841,
      "Luig": 3842,
      "alongside": 3843,
      "Beggars_of": 3844,
      "carto": 3845,
      "Cain_and_M": 3846,
      "Prem_Granth": 3847,
      "Prem_Kahan": 3848,
      "raborty": 3849,
      "Casanova": 3850,
      "_Thappa": 3851,
      "side_777": 3852,
      "Amma_Rajinama": 3853,
      "Cappy_Ricks_Returns": 3854,
      "Caccia_al_tesoro": 3855,
      "Cannery_Rodent": 3856,
      "Dasari_Naray": 3857,
      "Fernand": 3858,
      "Trop": 3859,
      "Wong_Jing": 3860,
      "ra_Suja": 3861,
      "ya_Naan": 3862,
      "i_Gharib": 3863,
      "well_to_the_F": 3864,
      "Aarathi": 3865,
      "Cecil": 3866,
      "natural": 3867,
      "film_director": 3868,
      "Beat_Girl": 3869,
      "Andy_Lau": 3870,
      "Aleksandr": 3871,
      "Kannada_actor": 3872,
      "tells": 3873,
      "York": 3874,
      "arilor": 3875,
      "_Romance": 3876,
      "_Grandma": 3877,
      "Beach_of_Dreams": 3878,
      "Powder_Town": 3879,
      "Bum_": 3880,
      "Republic": 3881,
      "Vaca_": 3882,
      "in_Paradise": 3883,
      "a_de_Vaca_": 3884,
      "Prem_Prem_Paglami": 3885,
      "Bear_Feat": 3886,
      "Castelo_Rá": 3887,
      "Cabeza_de_Vaca_": 3888,
      "Carolyn_of_the_Corners": 3889,
      "Caiçara_": 3890,
      "Preaching_to_the_": 3891,
      "Prescription_for": 3892,
      "Amrutha_Varshini": 3893,
      "Canastra_Suja": 3894,
      "Catching_Feeling": 3895,
      "Candlelight_in_Al": 3896,
      "Below_the_Bel": 3897,
      "Cadences_obstinées": 3898,
      "Preethsod_Thappa": 3899,
      "Predestination_": 3900,
      "Pratighaat_": 3901,
      "Preeyasakhi_Radha": 3902,
      "Ammuvagiya_Naan": 3903,
      "Hawtrey": 3904,
      "Ushakir": 3905,
      "s_Beauty": 3906,
      "esquiteers": 3907,
      "Caro_Michele": 3908,
      "_My_Dog": 3909,
      "_Be_Saved": 3910,
      "Amsterdam": 3911,
      "Premada_Kanike": 3912,
      "Bees_in_Paradise": 3913,
      "Calle_Mayor_": 3914,
      "Call_Out_the_Marines": 3915,
      "Call_Northside_777": 3916,
      "Cat_Run_2": 3917,
      "Captive_Hearts_": 3918,
      "Capcana_mercen": 3919,
      "_Day_of_the_Dead": 3920,
      "American_Blue_Note": 3921,
      "_Farewell_to_the_F": 3922,
      "attel_Te": 3923,
      "Carnival_Sunday": 3924,
      "Prema_Raga_Haadu": 3925,
      "California_Girls_": 3926,
      "Cash_McCall": 3927,
      "Before_I_Wake_": 3928,
      "Before_Sunrise_": 3929,
      "Cars_of_the_Revolution": 3930,
      "Malcolm": 3931,
      "Campus_Diary": 3932,
      "Can_Ellen_Be_Saved": 3933,
      "Calamity_Jane_and_Sam_B": 3934,
      "Beautiful_Dreamers": 3935,
      "Louise_Lester": 3936,
      "Casualties_of_War": 3937,
      "Belle_of_Alaska": 3938,
      "Beauty_on_Parade_": 3939,
      "Appassionati": 3940,
      "Premasathi_Vattel_Te": 3941,
      "Carnal_Knowledge_": 3942,
      "Ameer_Aadmi_Gharib": 3943,
      "Premakkoo_Permitte": 3944,
      "Amrita_Kumbher_Sandhane": 3945,
      "Beggars_of_Life": 3946,
      "Cain_and_Mabel": 3947,
      "Prem_Kahani_": 3948,
      "Dasari_Narayana_Rao": 3949,
      "Preaching_to_the_Choir": 3950,
      "Prescription_for_Romance": 3951,
      "Catching_Feelings_": 3952,
      "Candlelight_in_Algeria": 3953,
      "Below_the_Belt_": 3954,
      "Capcana_mercenarilor": 3955,
      "_Farewell_to_the_Flesh": 3956,
      "Prema_Raga_Haadu_Gelathi": 3957,
      "Calamity_Jane_and_Sam_Bass": 3958,
      "Ameer_Aadmi_Gharib_Aadmi": 3959,
      "Ahe": 3960,
      "Craig": 3961,
      "Dis": 3962,
      "Dant": 3963,
      "Dann": 3964,
      "Flip": 3965,
      "Hem": 3966,
      "Ish": 3967,
      "Jess": 3968,
      "Kal": 3969,
      "Kul": 3970,
      "Khan": 3971,
      "Krist": 3972,
      "Li": 3973,
      "Mex": 3974,
      "Po": 3975,
      "Pour": 3976,
      "Ric": 3977,
      "Rod": 3978,
      "Ryan": 3979,
      "Ragh": 3980,
      "Rollerb": 3981,
      "Sa": 3982,
      "Sach": 3983,
      "Sims": 3984,
      "Smith": 3985,
      "Sme": 3986,
      "Tail": 3987,
      "Todd": 3988,
      "Ver": 3989,
      "Vagh": 3990,
      "Vampire": 3991,
      "Will": 3992,
      "XVIII": 3993,
      "Year": 3994,
      "aqu": 3995,
      "aescu": 3996,
      "bu": 3997,
      "been": 3998,
      "biza": 3999,
      "cant": 4000,
      "cies": 4001,
      "crit": 4002,
      "du": 4003,
      "dom": 4004,
      "dos": 4005,
      "fran": 4006,
      "gu": 4007,
      "gent": 4008,
      "girl": 4009,
      "ié": 4010,
      "iper": 4011,
      "ioc": 4012,
      "last": 4013,
      "loyd": 4014,
      "miss": 4015,
      "nomin": 4016,
      "por": 4017,
      "sm": 4018,
      "sin": 4019,
      "tig": 4020,
      "vah": 4021,
      "vaje": 4022,
      "wife": 4023,
      "young": 4024,
      "inc": 4025,
      "inald": 4026,
      "anana": 4027,
      "str": 4028,
      "star": 4029,
      "stage": 4030,
      "stud": 4031,
      "arris": 4032,
      "ori": 4033,
      "enberg": 4034,
      "enilla": 4035,
      "cted": 4036,
      "alile": 4037,
      "diario": 4038,
      "rian": 4039,
      "riper": 4040,
      "ism": 4041,
      "asam": 4042,
      "amaro": 4043,
      "elay": 4044,
      "elman": 4045,
      "atam": 4046,
      "atsu": 4047,
      "Preah": 4048,
      "Prehistor": 4049,
      "Calim": 4050,
      "Carb": 4051,
      "Carom": 4052,
      "Carioc": 4053,
      "theart": 4054,
      "theatric": 4055,
      "chise": 4056,
      "ader": 4057,
      "itram": 4058,
      "again": 4059,
      "agalu": 4060,
      "agatam": 4061,
      "Amig": 4062,
      "Tharang": 4063,
      "leg": 4064,
      "Premer": 4065,
      "Premig": 4066,
      "Premik": 4067,
      "Premots": 4068,
      "Cant": 4069,
      "rap": 4070,
      "rault": 4071,
      "rastev": 4072,
      "Carrie": 4073,
      "Carroll": 4074,
      "Chaser": 4075,
      "Chiranj": 4076,
      "augh": 4077,
      "odagalu": 4078,
      "aver": 4079,
      "unn": 4080,
      "entry": 4081,
      "imon": 4082,
      "evilled": 4083,
      "2000": 4084,
      "illand": 4085,
      "new": 4086,
      "Caper": 4087,
      "Anup": 4088,
      "abri": 4089,
      "Shr": 4090,
      "Shaw": 4091,
      "allment": 4092,
      "athan": 4093,
      "athsal": 4094,
      "Castel": 4095,
      "endent": 4096,
      "ranaya": 4097,
      "1998": 4098,
      "iven": 4099,
      "ependent": 4100,
      "Inherit": 4101,
      "1963": 4102,
      "1953": 4103,
      "1959": 4104,
      "quié": 4105,
      "Pravah": 4106,
      "ickman": 4107,
      "Belli": 4108,
      "organ": 4109,
      "achra": 4110,
      "Jackson": 4111,
      "oka": 4112,
      "Cashback": 4113,
      "oys": 4114,
      "suit": 4115,
      "rima": 4116,
      "eetheart": 4117,
      "Adel": 4118,
      "Preethis": 4119,
      "Preethig": 4120,
      "Preethsu": 4121,
      "Prediction": 4122,
      "ubb": 4123,
      "CandyFlip": 4124,
      "pecies": 4125,
      "1926": 4126,
      "Cassadag": 4127,
      "Films": 4128,
      "Unwritten": 4129,
      "Walker": 4130,
      "engeful": 4131,
      "monde": 4132,
      "Bedevilled": 4133,
      "cial": 4134,
      "mozz": 4135,
      "einer": 4136,
      "ggan": 4137,
      "Steve": 4138,
      "Tony": 4139,
      "Tonight": 4140,
      "erais": 4141,
      "followed": 4142,
      "featured": 4143,
      "Talagh": 4144,
      "karni": 4145,
      "Jayas": 4146,
      "Queen": 4147,
      "ucha": 4148,
      "Prepotent": 4149,
      "più": 4150,
      "Sergiu": 4151,
      "aasalile": 4152,
      "omicide": 4153,
      "nette": 4154,
      "Vanity": 4155,
      "sets": 4156,
      "René": 4157,
      "Awards": 4158,
      "Walls": 4159,
      "colle": 4160,
      "Premaloka": 4161,
      "salvaje": 4162,
      "Leonard": 4163,
      "aikam": 4164,
      "version": 4165,
      "Japanese": 4166,
      "Graham": 4167,
      "Toons": 4168,
      "Akkineni": 4169,
      "Oliver": 4170,
      "Solo": 4171,
      "International": 4172,
      "Demand": 4173,
      "Lynn": 4174,
      "Paí": 4175,
      "Reginald": 4176,
      "Cartouch": 4177,
      "Kanuka": 4178,
      "Chatterjee": 4179,
      "apasya": 4180,
      "Stockade": 4181,
      "biographical": 4182,
      "Albright": 4183,
      "Sugrue": 4184,
      "supernatural": 4185,
      "Kovil": 4186,
      "uomo": 4187,
      "installment": 4188,
      "esandor": 4189,
      "Shaque": 4190,
      "roads": 4191,
      "fantasy": 4192,
      "animated": 4193,
      "Crossroads": 4194,
      "Gabriel": 4195,
      "cartoon": 4196,
      "Tropics": 4197,
      "Ushakirana": 4198,
      "Ishq": 4199,
      "Rollerboys": 4200,
      "cantando": 4201,
      "tigre": 4202,
      "Prehistoric": 4203,
      "Calimucho": 4204,
      "against": 4205,
      "Amigos": 4206,
      "Tharangaya": 4207,
      "Premotsava": 4208,
      "rastevere": 4209,
      "athsalya": 4210,
      "Inheritance": 4211,
      "Pravaham": 4212,
      "mozze": 4213,
      "Ay": 4214,
      "Based": 4215,
      "Buck": 4216,
      "Cent": 4217,
      "Cesar": 4218,
      "Dian": 4219,
      "Est": 4220,
      "Ele": 4221,
      "Fel": 4222,
      "Gh": 4223,
      "Gri": 4224,
      "Gol": 4225,
      "Jag": 4226,
      "Ky": 4227,
      "Kong": 4228,
      "Lion": 4229,
      "Lane": 4230,
      "Mil": 4231,
      "Mam": 4232,
      "Mitch": 4233,
      "Ol": 4234,
      "Pet": 4235,
      "Poll": 4236,
      "Rug": 4237,
      "Ryan_": 4238,
      "Sri": 4239,
      "Set": 4240,
      "Sai": 4241,
      "Vij": 4242,
      "Zul": 4243,
      "_1": 4244,
      "_Y": 4245,
      "_di": 4246,
      "_feature": 4247,
      "_on_the_": 4248,
      "_on_I": 4249,
      "aagi": 4250,
      "ba": 4251,
      "bar": 4252,
      "by_S": 4253,
      "book": 4254,
      "can": 4255,
      "det": 4256,
      "dda": 4257,
      "eal": 4258,
      "eevi": 4259,
      "fun": 4260,
      "fi_D": 4261,
      "get": 4262,
      "him": 4263,
      "i_R": 4264,
      "jad": 4265,
      "kov": 4266,
      "loc": 4267,
      "lames": 4268,
      "med": 4269,
      "mour": 4270,
      "mother": 4271,
      "nuv": 4272,
      "ois": 4273,
      "psy": 4274,
      "sum": 4275,
      "smith": 4276,
      "se_d": 4277,
      "s_Sw": 4278,
      "s_Big": 4279,
      "ting": 4280,
      "uff": 4281,
      "vi": 4282,
      "ved": 4283,
      "wane": 4284,
      "yay": 4285,
      "z_": 4286,
      "ég": 4287,
      "ón": 4288,
      "invol": 4289,
      "errigan": 4290,
      "ingh": 4291,
      "arrett": 4292,
      "Cather": 4293,
      "filmed": 4294,
      "ories": 4295,
      "e_gatt": 4296,
      "e_mozze": 4297,
      "enk": 4298,
      "en_H": 4299,
      "enerais": 4300,
      "al_C": 4301,
      "alie_": 4302,
      "dith": 4303,
      "di_F": 4304,
      "di_T": 4305,
      "ris_": 4306,
      "rison": 4307,
      "a_Cat": 4308,
      "a_Fire": 4309,
      "a_Brown_": 4310,
      "a_quié": 4311,
      "a_suit": 4312,
      "a_Ushakirana": 4313,
      "a_tigre": 4314,
      "esn": 4315,
      "esco": 4316,
      "esman_": 4317,
      "ise_and": 4318,
      "ask": 4319,
      "am_K": 4320,
      "ama_Ushakirana": 4321,
      "elson_": 4322,
      "omes": 4323,
      "omen_": 4324,
      "at_N": 4325,
      "at_the_B": 4326,
      "wright": 4327,
      "Caro_": 4328,
      "Career": 4329,
      "Car_of_Dreams": 4330,
      "Caravan_": 4331,
      "_Sin": 4332,
      "_Sol": 4333,
      "_Singing": 4334,
      "of_M": 4335,
      "_Mor": 4336,
      "_Mou": 4337,
      "_Music": 4338,
      "_Modagalu": 4339,
      "_Bern": 4340,
      "_Bresslaw": 4341,
      "_Bizet": 4342,
      "chang": 4343,
      "itri": 4344,
      "aga_of": 4345,
      "Amman_": 4346,
      "Amore_": 4347,
      "Amjad": 4348,
      "_Rang": 4349,
      "_Rich": 4350,
      "_Ryan": 4351,
      "_Ragh": 4352,
      "Prem_D": 4353,
      "Prem_T": 4354,
      "Prem_Am": 4355,
      "Prem_Rog": 4356,
      "t_Help": 4357,
      "ira_": 4358,
      "Cani_": 4359,
      "nigh": 4360,
      "Carrier": 4361,
      "Chin": 4362,
      "expl": 4363,
      "Casey_": 4364,
      "Calls_": 4365,
      "Call_the_M": 4366,
      "Call_Me": 4367,
      "the_Lake": 4368,
      "n_su": 4369,
      "s_All": 4370,
      "s_to_the_": 4371,
      "s_for_Two": 4372,
      "s_dos": 4373,
      "s_Vanity": 4374,
      "s_Inheritance": 4375,
      "oduc": 4376,
      "iders_": 4377,
      "urton": 4378,
      "on_Demand": 4379,
      "avith": 4380,
      "aval_": 4381,
      "ow_": 4382,
      "i_language": 4383,
      "i_Prema_P": 4384,
      "i_Cu": 4385,
      "i_Nagesw": 4386,
      "i_Nodu": 4387,
      "i_più": 4388,
      "ardhan": 4389,
      "America_Brown_": 4390,
      "2004": 4391,
      "_Har": 4392,
      "_Hell": 4393,
      "_Heav": 4394,
      "_Hei": 4395,
      "_Homicide": 4396,
      "_Hal_C": 4397,
      "ills": 4398,
      "ney_D": 4399,
      "she": 4400,
      "Anto": 4401,
      "_Generais": 4402,
      "_Des": 4403,
      "_Darling": 4404,
      "able": 4405,
      "Mari": 4406,
      "Mart": 4407,
      "Mary": 4408,
      "Marie_": 4409,
      "all_of": 4410,
      "1981": 4411,
      "1982": 4412,
      "_Connor": 4413,
      "_Comes": 4414,
      "American_Ro": 4415,
      "_Fire": 4416,
      "_Flow": 4417,
      "_Fall_of": 4418,
      "Cast_No": 4419,
      "es_a_L": 4420,
      "rant": 4421,
      "_Kar": 4422,
      "_Kaadhal": 4423,
      "Rob": 4424,
      "Striper": 4425,
      "Catch_Hell": 4426,
      "emi": 4427,
      "_Prim": 4428,
      "opadh": 4429,
      "iko_": 4430,
      "inder": 4431,
      "_Night": 4432,
      "_Number": 4433,
      "_Road_": 4434,
      "Carnies_": 4435,
      "where": 4436,
      "1969": 4437,
      "1951": 4438,
      "1952": 4439,
      "Candles_": 4440,
      "_The_S": 4441,
      "_The_R": 4442,
      "atta": 4443,
      "eymour": 4444,
      "_Winter": 4445,
      "_Women_": 4446,
      "_Taj": 4447,
      "ie_Jacques": 4448,
      "ie_Sugrue": 4449,
      "ernon": 4450,
      "_Stone": 4451,
      "_Stree": 4452,
      "_Story_": 4453,
      "_Stewart": 4454,
      "Prema_Kath": 4455,
      "Prema_Ok": 4456,
      "Prema_Kanuka": 4457,
      "Prema_Ishq": 4458,
      "Prema_Tharangaya": 4459,
      "place": 4460,
      "Geoff": 4461,
      "_Shots": 4462,
      "1932": 4463,
      "1935_film": 4464,
      "Carmine_": 4465,
      "Dean": 4466,
      "California_Passage": 4467,
      "California_Stra": 4468,
      "California_Typewriter": 4469,
      "California_Solo": 4470,
      "Carnaval_": 4471,
      "achar": 4472,
      "Call_Me_King": 4473,
      "Call_Me_Tonight": 4474,
      "Johnn": 4475,
      "Cat_Chaser": 4476,
      "lyric": 4477,
      "Canne_mozze": 4478,
      "Jack_N": 4479,
      "_of_the_Gu": 4480,
      "_of_the_Moon": 4481,
      "_of_the_Rollerboys": 4482,
      "George_B": 4483,
      "Arch": 4484,
      "Arnold": 4485,
      "Peck": 4486,
      "Calling_Homicide": 4487,
      "_Velay": 4488,
      "_Vaasalile": 4489,
      "_Vesandor": 4490,
      "David_B": 4491,
      "Catch_22": 4492,
      "Catch_a_Fire": 4493,
      "ations": 4494,
      "eewane": 4495,
      "Michael_": 4496,
      "Juan_": 4497,
      "umaran": 4498,
      "e_Foster": 4499,
      "Before_Mid": 4500,
      "Before_Winter": 4501,
      "Cada_quié": 4502,
      "Moham": 4503,
      "as_no_": 4504,
      "Call_of_the_Wild": 4505,
      "Call_of_the_South": 4506,
      "Call_of_the_Forest": 4507,
      "Preethi_V": 4508,
      "Preethi_Prema_P": 4509,
      "Cars_Toons": 4510,
      "Carnival_in_the_": 4511,
      "Cash_on_Demand": 4512,
      "Rajesh": 4513,
      "John_Lasseter": 4514,
      "Christian_": 4515,
      "Candy_Striper": 4516,
      "e_Nelson_": 4517,
      "Harve": 4518,
      "a_Barr": 4519,
      "Behind_Stone_": 4520,
      "Roberts": 4521,
      "to_a_V": 4522,
      "in_the_Air": 4523,
      "American_Vampire": 4524,
      "Robert_D": 4525,
      "Prathama_Ushakirana": 4526,
      "Timoth": 4527,
      "of_the_Year": 4528,
      "1925_film": 4529,
      "Italy": 4530,
      "Frankie_": 4531,
      "Peter_B": 4532,
      "Prayer_": 4533,
      "eanie_Sugrue": 4534,
      "e_Burton": 4535,
      "a_Mail": 4536,
      "a_Maikam": 4537,
      "Carmen_di_T": 4538,
      "Calling_All_Pol": 4539,
      "Calling_All_Kids": 4540,
      "ette": 4541,
      "age_in_F": 4542,
      "Capriccio_": 4543,
      "ventura": 4544,
      "Allan": 4545,
      "Allan_D": 4546,
      "ar_2": 4547,
      "ar_e_Nelson_": 4548,
      "ice_Cars": 4549,
      "ice_cantando": 4550,
      "Cabaret_Woman": 4551,
      "Captain_Thunder": 4552,
      "Captain_of_the_Gu": 4553,
      "Samuel": 4554,
      "Colbert": 4555,
      "Columb": 4556,
      "_Rao": 4557,
      "_Raiders": 4558,
      "Beautiful_and": 4559,
      "Kenneth_Connor": 4560,
      "Steve_": 4561,
      "Steven": 4562,
      "by_the_Lake": 4563,
      "_Shadow_": 4564,
      "Neil": 4565,
      "ina_Caper": 4566,
      "de_Br": 4567,
      "a_Aventura": 4568,
      "Calmi_Cu": 4569,
      "_Manthan_": 4570,
      "Calcutta_Mail": 4571,
      "ots_Music": 4572,
      "Carson_City_Raiders": 4573,
      "oduction": 4574,
      "Capone_Cri": 4575,
      "u_monde": 4576,
      "Prem_Aggan": 4577,
      "Prem_Adda": 4578,
      "ight_Ahe": 4579,
      "Bernard_Bresslaw": 4580,
      "Prep_": 4581,
      "Be_Vagh": 4582,
      "_and_the_B": 4583,
      "e_du_monde": 4584,
      "Sharma": 4585,
      "Canyon_Passage": 4586,
      "Canyon_Crossroads": 4587,
      "Bayside_": 4588,
      "Francis": 4589,
      "s_Holid": 4590,
      "Casting_Blossom": 4591,
      "Cabin_by_the_Lake": 4592,
      "Prema_Pasam": 4593,
      "Beauty_No": 4594,
      "Val_Gu": 4595,
      "Parker": 4596,
      "Susan_": 4597,
      "_Seas": 4598,
      "Philip_G": 4599,
      "Murray": 4600,
      "_Lee_": 4601,
      "_Wild_on_I": 4602,
      "a_Chitram": 4603,
      "Casino_Raiders_": 4604,
      "o_Files": 4605,
      "ence_of_M": 4606,
      "Canyon_Raiders": 4607,
      "Barbara_Windsor": 4608,
      "Carnosaur_3": 4609,
      "Cactus_Flow": 4610,
      "Larry_": 4611,
      "dona": 4612,
      "_Swagatam": 4613,
      "Beef_and_the_B": 4614,
      "Beloved_Darling": 4615,
      "ology": 4616,
      "Ameerin_A": 4617,
      "White": 4618,
      "have": 4619,
      "Amrit_Manthan_": 4620,
      "an_Pacific": 4621,
      "Georges_Bizet": 4622,
      "Behind_the_Stockade": 4623,
      "Ashok": 4624,
      "designed": 4625,
      "Bruce_": 4626,
      "Reddy": 4627,
      "Cain_XVIII": 4628,
      "Prem_Geet_": 4629,
      "Prem_Kumar": 4630,
      "Casanova_Cat": 4631,
      "s_of_Fire": 4632,
      "own_2": 4633,
      "_Thappenilla": 4634,
      "Premaku_Velay": 4635,
      "Premaku_Swagatam": 4636,
      "Caccia_all": 4637,
      "Cannery_Row_": 4638,
      "Casino_Tycoon_2": 4639,
      "Simon": 4640,
      "letcher": 4641,
      "Akkineni_Nagesw": 4642,
      "Hattie_Jacques": 4643,
      "_lucha": 4644,
      "_la_suit": 4645,
      "_para_L": 4646,
      "_prima": 4647,
      "_Salesman_": 4648,
      "Amor_salvaje": 4649,
      "Amor_se_d": 4650,
      "Castles_for_Two": 4651,
      "Castles_in_the_Air": 4652,
      "Prakash_Raj": 4653,
      "al_Species": 4654,
      "_Reis": 4655,
      "Jonathan_": 4656,
      "period": 4657,
      "Lawren": 4658,
      "Terry_Scott": 4659,
      "ala_Saval": 4660,
      "_Death": 4661,
      "songs": 4662,
      "utterworth": 4663,
      "Bruno_": 4664,
      "Bryan": 4665,
      "1919_film": 4666,
      "Chakraborty": 4667,
      "iews": 4668,
      "Syd": 4669,
      "arajan": 4670,
      "_Mahal": 4671,
      "_Sharma": 4672,
      "Prathap_": 4673,
      "Cairo_Road_": 4674,
      "Casablanca_": 4675,
      "Women_of_the_Moon": 4676,
      "transl": 4677,
      "Presence_of_M": 4678,
      "Carthage_in_F": 4679,
      "Amorina_": 4680,
      "Camille_": 4681,
      "Giovanni": 4682,
      "Power_Rang": 4683,
      "Shakedown_2": 4684,
      "Dominiqu": 4685,
      "Mrinal": 4686,
      "te_Talagh": 4687,
      "ori_Appassionati": 4688,
      "Calvento_Files": 4689,
      "_Based_on_the_": 4690,
      "Canal_Stree": 4691,
      "Catalina_Caper": 4692,
      "_Landing_": 4693,
      "Prayer_of_the_Rollerboys": 4694,
      "Canadian_Pacific": 4695,
      "Bayou_": 4696,
      "Amsterdam_Heav": 4697,
      "Disney": 4698,
      "Dantas_no_": 4699,
      "Pour_la_suit": 4700,
      "Tails_for_Two": 4701,
      "franchise": 4702,
      "Preah_Vesandor": 4703,
      "Carbon_": 4704,
      "Carom_Shots": 4705,
      "Carioca_tigre": 4706,
      "Premer_Taj": 4707,
      "Premigala_Saval": 4708,
      "Premik_Number": 4709,
      "Cantata_": 4710,
      "Chiranjeevi": 4711,
      "Castelar_e_Nelson_": 4712,
      "Belli_Modagalu": 4713,
      "Cashback_": 4714,
      "Preethisi_Nodu": 4715,
      "Preethigaagi": 4716,
      "Preethsu_Thappenilla": 4717,
      "Predictions_of_Fire": 4718,
      "1926_feature": 4719,
      "Cassadaga_": 4720,
      "Unwritten_Story_": 4721,
      "engeful_God": 4722,
      "Bedevilled_": 4723,
      "Prepotenti_più": 4724,
      "País_dos": 4725,
      "Cartouche_": 4726,
      "Kovil_Vaasalile": 4727,
      "Prehistoric_Women_": 4728,
      "Amigos_para_L": 4729,
      "Rugger": 4730,
      "Zulf": 4731,
      "_di_prima": 4732,
      "by_Seanie_Sugrue": 4733,
      "fi_Dachra": 4734,
      "psych": 4735,
      "s_Sweetheart": 4736,
      "s_Big_Night": 4737,
      "e_gatti": 4738,
      "di_Fleiss": 4739,
      "ise_and_Fall_of": 4740,
      "at_Nine": 4741,
      "at_the_Bat_": 4742,
      "Caro_diario": 4743,
      "Careers_": 4744,
      "aga_of_Hal_C": 4745,
      "Amman_Kovil_Vaasalile": 4746,
      "Amore_amaro": 4747,
      "Prem_Deewane": 4748,
      "Prem_Tapasya": 4749,
      "Prem_Amar_2": 4750,
      "t_Help_Singing": 4751,
      "Cani_e_gatti": 4752,
      "night_": 4753,
      "Carriers_": 4754,
      "Casey_at_the_Bat_": 4755,
      "Call_the_Mesquiteers": 4756,
      "n_su_lucha": 4757,
      "s_to_the_Sky": 4758,
      "oduced": 4759,
      "_Heidi_Fleiss": 4760,
      "American_Roots_Music": 4761,
      "Cast_No_Shadow_": 4762,
      "es_a_Lot": 4763,
      "_Primal_Species": 4764,
      "opadhyay": 4765,
      "Candles_at_Nine": 4766,
      "_The_Saga_of_Hal_C": 4767,
      "_The_Rise_and_Fall_of": 4768,
      "Prema_Katha_Chitram": 4769,
      "Prema_Oka_Maikam": 4770,
      "Prema_Ishq_Kaadhal": 4771,
      "Carmine_Gallone": 4772,
      "California_Straight_Ahe": 4773,
      "Carnaval_fi_Dachra": 4774,
      "Catch_a_Fire_": 4775,
      "Before_Midnight_": 4776,
      "Before_Winter_Comes": 4777,
      "Cada_quién_su_lucha": 4778,
      "Call_of_the_Wild_": 4779,
      "Call_of_the_South_Seas": 4780,
      "Call_of_the_Forest_": 4781,
      "Preethi_Vathsalya": 4782,
      "Preethi_Prema_Pranaya": 4783,
      "Carnival_in_the_Tropics": 4784,
      "Candy_Stripers_": 4785,
      "Behind_Stone_Walls": 4786,
      "to_a_Vengeful_God": 4787,
      "American_Vampire_": 4788,
      "Prayer_to_a_Vengeful_God": 4789,
      "Carmen_di_Trastevere": 4790,
      "Calling_All_Police_Cars": 4791,
      "Allan_Dwan": 4792,
      "Captain_Thunder_": 4793,
      "Captain_of_the_Guard_": 4794,
      "Beautiful_and_Wild_on_I": 4795,
      "Calmi_Cuori_Appassionati": 4796,
      "Capone_Cries_a_Lot": 4797,
      "Be_Vaghte_Talagh": 4798,
      "Bayside_Shakedown_2": 4799,
      "s_Holiday_": 4800,
      "Casting_Blossoms_to_the_Sky": 4801,
      "Val_Guest": 4802,
      "Casino_Raiders_II": 4803,
      "Cactus_Flower_": 4804,
      "Beef_and_the_Banana": 4805,
      "Ameerin_Aadhi": 4806,
      "Prem_Geet_3": 4807,
      "Premaku_Velayera": 4808,
      "Akkineni_Nageswara_Rao": 4809,
      "_Salesman_of_the_Year": 4810,
      "Amor_se_dice_cantando": 4811,
      "Castles_in_the_Air_": 4812,
      "Presence_of_Mind": 4813,
      "Carthage_in_Flames": 4814,
      "Power_Rangers_": 4815,
      "_Based_on_the_Unwritten_Story_": 4816,
      "Canal_Street_": 4817,
      "Canadian_Pacific_": 4818,
      "Amsterdam_Heavy": 4819,
      "Dantas_no_País_dos": 4820,
      "Pour_la_suite_du_monde": 4821,
      "Premer_Taj_Mahal": 4822,
      "Premik_Number_One": 4823,
      "Castelar_e_Nelson_Dantas_no_País_dos": 4824,
      "1926_feature_film": 4825,
      "Prepotenti_più_di_prima": 4826,
      "Amigos_para_La_Aventura": 4827,
      "_The_Rise_and_Fall_of_Heidi_Fleiss": 4828,
      "California_Straight_Ahead_": 4829,
      "Beautiful_and_Wild_on_Ibiza": 4830,
      "_Based_on_the_Unwritten_Story_by_Seanie_Sugrue": 4831,
      "Castelar_e_Nelson_Dantas_no_País_dos_Generais": 4832,
      ".,": 4833,
      "25": 4834,
      "30": 4835,
      "Aut": 4836,
      "Bre": 4837,
      "Bren": 4838,
      "Beng": 4839,
      "Cel": 4840,
      "Crist": 4841,
      "Clif": 4842,
      "Day": 4843,
      "Gipp": 4844,
      "Han": 4845,
      "Hall": 4846,
      "Judd": 4847,
      "Kur": 4848,
      "Kather": 4849,
      "Kapoor": 4850,
      "Liz": 4851,
      "Mir": 4852,
      "Mith": 4853,
      "Mack": 4854,
      "Nik": 4855,
      "Om": 4856,
      "Row": 4857,
      "Run": 4858,
      "Rip": 4859,
      "Sen": 4860,
      "Sure": 4861,
      "Sylv": 4862,
      "Trav": 4863,
      "Vik": 4864,
      "Warren": 4865,
      "Yosh": 4866,
      "ban": 4867,
      "box": 4868,
      "bucci": 4869,
      "ect": 4870,
      "ft": 4871,
      "gava": 4872,
      "hos": 4873,
      "hit": 4874,
      "high": 4875,
      "hail": 4876,
      "hakar": 4877,
      "mil": 4878,
      "mers": 4879,
      "mark": 4880,
      "non": 4881,
      "noir": 4882,
      "ool": 4883,
      "pin": 4884,
      "pos": 4885,
      "pers": 4886,
      "pres": 4887,
      "phan": 4888,
      "pop": 4889,
      "sever": 4890,
      "uer": 4891,
      "vide": 4892,
      "wa": 4893,
      "wick": 4894,
      "zh": 4895,
      "ér": 4896,
      "aras": 4897,
      "around": 4898,
      "iner": 4899,
      "inally": 4900,
      "ingo": 4901,
      "thau": 4902,
      "ont": 4903,
      "onne": 4904,
      "alog": 4905,
      "andam": 4906,
      "dialog": 4907,
      "rise": 4908,
      "ashan": 4909,
      "ela": 4910,
      "ating": 4911,
      "uses": 4912,
      "usud": 4913,
      "osse": 4914,
      "oshi": 4915,
      "Carey": 4916,
      "chn": 4917,
      "itcom": 4918,
      "agis": 4919,
      "20th": 4920,
      "2019": 4921,
      "lex": 4922,
      "ayer": 4923,
      "Beery": 4924,
      "ima": 4925,
      "imp": 4926,
      "Johan": 4927,
      "2011": 4928,
      "2017": 4929,
      "Sher": 4930,
      "Shiv": 4931,
      "allés": 4932,
      "orel": 4933,
      "1983": 4934,
      "ulo": 4935,
      "1993": 4936,
      "1997": 4937,
      "Stone": 4938,
      "Stewart": 4939,
      "rice": 4940,
      "emble": 4941,
      "Production": 4942,
      "Produced": 4943,
      "oper": 4944,
      "opera": 4945,
      "when": 4946,
      "1960": 4947,
      "1955": 4948,
      "1940": 4949,
      "1944": 4950,
      "1948": 4951,
      "early": 4952,
      "ekumar": 4953,
      "1935": 4954,
      "1939": 4955,
      "aiah": 4956,
      "Elmer": 4957,
      "ashekhar": 4958,
      "ega": 4959,
      "Bros": 4960,
      "Arjun": 4961,
      "arker": 4962,
      "aster": 4963,
      "insp": 4964,
      "Moore": 4965,
      "plays": 4966,
      "Edgar": 4967,
      "Andy": 4968,
      "class": 4969,
      "ouse": 4970,
      "otty": 4971,
      "Walters": 4972,
      "ravarth": 4973,
      "ould": 4974,
      "Cole": 4975,
      "Harrison": 4976,
      "mootty": 4977,
      "Grewal": 4978,
      "Emman": 4979,
      "Noel": 4980,
      "Evans": 4981,
      "Heather": 4982,
      "Mikhail": 4983,
      "Barbara": 4984,
      "anović": 4985,
      "itzer": 4986,
      "gross": 4987,
      "group": 4988,
      "onso": 4989,
      "Serge": 4990,
      "Corbucci": 4991,
      "Alexander": 4992,
      "staff": 4993,
      "return": 4994,
      "Philipp": 4995,
      "Vaness": 4996,
      "ensemble": 4997,
      "ampan": 4998,
      "illion": 4999,
      "Cros": 5000,
      "until": 5001,
      "Stanley": 5002,
      "Gordon": 5003,
      "myster": 5004,
      "ological": 5005,
      "including": 5006,
      "includes": 5007,
      "Palma": 5008,
      "Andrews": 5009,
      "Randolph": 5010,
      "cinemat": 5011,
      "Nicholas": 5012,
      "Srinath": 5013,
      "ademy": 5014,
      "Academy": 5015,
      "Kulkarni": 5016,
      "Sachin": 5017,
      "abrizi": 5018,
      "Century": 5019,
      "Lionel": 5020,
      "Mammootty": 5021,
      "Chinese": 5022,
      "Columbia": 5023,
      "Bengali": 5024,
      "several": 5025,
      "usudhan": 5026,
      "ravarthy": 5027,
      "10": 5028,
      "21": 5029,
      "24": 5030,
      "Ani": 5031,
      "Billi": 5032,
      "Binnu": 5033,
      "Cour": 5034,
      "Cyn": 5035,
      "Conn": 5036,
      "Code": 5037,
      "Den": 5038,
      "Dan_": 5039,
      "Don_": 5040,
      "Dutt": 5041,
      "Eth": 5042,
      "Far": 5043,
      "Flor": 5044,
      "Gain": 5045,
      "Hop": 5046,
      "Haw": 5047,
      "Il": 5048,
      "Ian": 5049,
      "Jerry_": 5050,
      "Kon": 5051,
      "Kavith": 5052,
      "Lat": 5053,
      "Lol": 5054,
      "Ladd": 5055,
      "Laksh": 5056,
      "Music": 5057,
      "Math": 5058,
      "Ned": 5059,
      "Nad": 5060,
      "Nina_": 5061,
      "National": 5062,
      "Pen": 5063,
      "Page": 5064,
      "Pall": 5065,
      "Ran": 5066,
      "Radh": 5067,
      "Rub": 5068,
      "Ravichandran": 5069,
      "Rolf": 5070,
      "Ravi": 5071,
      "Sav": 5072,
      "Silv": 5073,
      "Seymour": 5074,
      "Tor": 5075,
      "Tig": 5076,
      "Taylor": 5077,
      "UK": 5078,
      "Viv": 5079,
      "Wu": 5080,
      "Win": 5081,
      "_John": 5082,
      "aï": 5083,
      "aid": 5084,
      "aish": 5085,
      "bir": 5086,
      "ces": 5087,
      "call": 5088,
      "dh": 5089,
      "din": 5090,
      "del": 5091,
      "de_M": 5092,
      "fem": 5093,
      "final": 5094,
      "gan": 5095,
      "hy": 5096,
      "hard": 5097,
      "hillon": 5098,
      "husband": 5099,
      "iy": 5100,
      "idi": 5101,
      "ifer": 5102,
      "jit": 5103,
      "lad": 5104,
      "lman": 5105,
      "lass": 5106,
      "lickman": 5107,
      "mol": 5108,
      "maj": 5109,
      "oad": 5110,
      "rí": 5111,
      "rne": 5112,
      "sat": 5113,
      "soc": 5114,
      "singer": 5115,
      "uni": 5116,
      "uli": 5117,
      "vious": 5118,
      "wr": 5119,
      "winder": 5120,
      "yot": 5121,
      "ère": 5122,
      "èle_": 5123,
      "én": 5124,
      "ía": 5125,
      "ink": 5126,
      "ine_D": 5127,
      "anand": 5128,
      "stant": 5129,
      "arri": 5130,
      "Cav": 5131,
      "orter": 5132,
      "orne": 5133,
      "orah": 5134,
      "onic": 5135,
      "e_P": 5136,
      "e_Ch": 5137,
      "e_Colbert": 5138,
      "ici": 5139,
      "ened": 5140,
      "diga": 5141,
      "die_Foster": 5142,
      "ried": 5143,
      "ries": 5144,
      "rie_Colbert": 5145,
      "a_Al": 5146,
      "a_Jain": 5147,
      "esse": 5148,
      "is_P": 5149,
      "els": 5150,
      "elen": 5151,
      "atr": 5152,
      "use": 5153,
      "usu": 5154,
      "usey": 5155,
      "Carson": 5156,
      "_Mel": 5157,
      "_Band": 5158,
      "ches": 5159,
      "chit": 5160,
      "itive": 5161,
      "agn": 5162,
      "Amand": 5163,
      "Amend": 5164,
      "Amico": 5165,
      "_Ray": 5166,
      "ayn": 5167,
      "ayya": 5168,
      "nier": 5169,
      "raush": 5170,
      "rakash": 5171,
      "Chap": 5172,
      "Chris_": 5173,
      "the_Cab": 5174,
      "aux": 5175,
      "tton": 5176,
      "ović": 5177,
      "o_L": 5178,
      "o_Le": 5179,
      "aki_K": 5180,
      "ower": 5181,
      "bert_": 5182,
      "ardson_": 5183,
      "_Aravind": 5184,
      "2005": 5185,
      "neur": 5186,
      "Ann_": 5187,
      "Jodie_Foster": 5188,
      "_Gar": 5189,
      "_Gil": 5190,
      "_Gold": 5191,
      "_Gord": 5192,
      "_Dev": 5193,
      "abi_language": 5194,
      "Maria_": 5195,
      "apri": 5196,
      "Sheen": 5197,
      "Shashan": 5198,
      "alla": 5199,
      "_Far": 5200,
      "_King": 5201,
      "_Kumar": 5202,
      "_Krishn": 5203,
      "_Kerrigan": 5204,
      "_Kraush": 5205,
      "Ray_": 5206,
      "Ray_M": 5207,
      "Raoul": 5208,
      "itha": 5209,
      "_Prab": 5210,
      "_Prakash": 5211,
      "opal": 5212,
      "ika": 5213,
      "ikumar": 5214,
      "independent": 5215,
      "iemann": 5216,
      "_Nicol": 5217,
      "_Nelson": 5218,
      "white": 5219,
      "1962": 5220,
      "1965": 5221,
      "1967": 5222,
      "1947": 5223,
      "attemp": 5224,
      "anta": 5225,
      "_West": 5226,
      "_Walk": 5227,
      "_Warren": 5228,
      "le_Guy": 5229,
      "_Ter": 5230,
      "1976": 5231,
      "earlier": 5232,
      "ughan": 5233,
      "uggi": 5234,
      "Dean_": 5235,
      "Dave_": 5236,
      "aired": 5237,
      "John_S": 5238,
      "William_A": 5239,
      "Ellis": 5240,
      "Charan": 5241,
      "en_Wilson": 5242,
      "Jackie_": 5243,
      "okan": 5244,
      "_Lang": 5245,
      "George_S": 5246,
      "oyle": 5247,
      "astian": 5248,
      "David_": 5249,
      "gerald": 5250,
      "Michael_M": 5251,
      "Juan": 5252,
      "Adam_": 5253,
      "uez": 5254,
      "e_Mc": 5255,
      "Eddie_": 5256,
      "consist": 5257,
      "Rajas": 5258,
      "ucker": 5259,
      "azir": 5260,
      "Anderson": 5261,
      "a_Katta": 5262,
      "ubh": 5263,
      "ergen": 5264,
      "a_Ben": 5265,
      "_Or": 5266,
      "_Black": 5267,
      "_Blanc": 5268,
      "Annett": 5269,
      "otti": 5270,
      "Kent_": 5271,
      "Josh": 5272,
      "Italian_language": 5273,
      "Tom_H": 5274,
      "makes": 5275,
      "Laurie_Colbert": 5276,
      "Allen": 5277,
      "ice_actor": 5278,
      "raves": 5279,
      "y_Bur": 5280,
      "previous": 5281,
      "Martin_B": 5282,
      "Martin_Sc": 5283,
      "a_Reddy": 5284,
      "olloway": 5285,
      "_Brothers": 5286,
      "Louise": 5287,
      "ski": 5288,
      "Brian_": 5289,
      "Tony_T": 5290,
      "_Raju": 5291,
      "Telugu_actor": 5292,
      "Madsen": 5293,
      "rinivas": 5294,
      "French_language": 5295,
      "Deva_Katta": 5296,
      "Jacques_": 5297,
      "Sean_": 5298,
      "itzgerald": 5299,
      "Norman_": 5300,
      "Giuli": 5301,
      "Univers": 5302,
      "Malayalam_": 5303,
      "Franco_": 5304,
      "Francesco": 5305,
      "_Beck": 5306,
      "t_Glickman": 5307,
      "Clement": 5308,
      "Bennett": 5309,
      "Nathan": 5310,
      "Nathalie_": 5311,
      "o_Fabrizi": 5312,
      "Warner": 5313,
      "Mort_Glickman": 5314,
      "voice": 5315,
      "voice_actor": 5316,
      "reviews": 5317,
      "script": 5318,
      "Bertr": 5319,
      "Doug": 5320,
      "Fernando": 5321,
      "Hammer": 5322,
      "Hattie": 5323,
      "Udapur": 5324,
      "Laurenc": 5325,
      "_Moore": 5326,
      "Mario_Amend": 5327,
      "Deborah": 5328,
      "Mel_Blanc": 5329,
      "sister": 5330,
      "Ramesh_Aravind": 5331,
      "Afric": 5332,
      "Jerem": 5333,
      "Shirle": 5334,
      "_Newman_": 5335,
      "Gurpre": 5336,
      "Owen_Wilson": 5337,
      "Sukumaran": 5338,
      "Vishnuv": 5339,
      "racy": 5340,
      "ollywood": 5341,
      "Directed": 5342,
      "cameo": 5343,
      "Chuck_Jones": 5344,
      "ep_Kang": 5345,
      "Sridevi": 5346,
      "Aldo_Fabrizi": 5347,
      "Charlotte_Burton": 5348,
      "performance": 5349,
      "Bonnie_H": 5350,
      "Punjabi_language": 5351,
      "Austral": 5352,
      "Irving": 5353,
      "Jaswinder": 5354,
      "Russell": 5355,
      "Saty": 5356,
      "e_Cardona": 5357,
      "oretti": 5358,
      "political": 5359,
      "Smeep_Kang": 5360,
      "aughter": 5361,
      "avernier": 5362,
      "Sergiu_Nicol": 5363,
      "Amjad_Khan_": 5364,
      "_Richardson_": 5365,
      "_Raghav": 5366,
      "lyrics": 5367,
      "Larry_the_Cab": 5368,
      "Dominique_Cardona": 5369,
      "popular": 5370,
      "video": 5371,
      "Productions": 5372,
      "inspired": 5373,
      "mystery": 5374,
      "Lakshm": 5375,
      "Nina_U": 5376,
      "yoti": 5377,
      "Chaplin": 5378,
      "_Kraushaar": 5379,
      "Raoul_Kraushaar": 5380,
      "_Warren_Kerrigan": 5381,
      "Martin_Scorsese": 5382,
      "Tony_Todd": 5383,
      "Udapurkar": 5384,
      "Mario_Amendola": 5385,
      "Sergiu_Nicolaescu": 5386,
      "Larry_the_Cable_Guy": 5387,
      "12": 5388,
      "16": 5389,
      "AB": 5390,
      "Av": 5391,
      "Ba": 5392,
      "Bas": 5393,
      "Bouch": 5394,
      "Cre": 5395,
      "Darr": 5396,
      "Eber": 5397,
      "Foster": 5398,
      "Gor": 5399,
      "Gér": 5400,
      "Hil": 5401,
      "Hoff": 5402,
      "Hein": 5403,
      "Jar": 5404,
      "Jud": 5405,
      "Jeet": 5406,
      "KO": 5407,
      "Ka": 5408,
      "Ker": 5409,
      "Kier": 5410,
      "Karam": 5411,
      "Kaik": 5412,
      "Krishna": 5413,
      "Kirk": 5414,
      "Kagis": 5415,
      "Language": 5416,
      "Lanc": 5417,
      "Lenn": 5418,
      "Laine": 5419,
      "Lloyd": 5420,
      "Mas": 5421,
      "Mov": 5422,
      "Mig": 5423,
      "Mish": 5424,
      "Muk": 5425,
      "Mason": 5426,
      "Mille": 5427,
      "Ni": 5428,
      "Nav": 5429,
      "Nanni": 5430,
      "Naras": 5431,
      "Pear": 5432,
      "Penn": 5433,
      "Param": 5434,
      "Piper": 5435,
      "Riz": 5436,
      "RKO": 5437,
      "Sv": 5438,
      "Sig": 5439,
      "Sab": 5440,
      "Seth": 5441,
      "Sund": 5442,
      "Sound": 5443,
      "Suj": 5444,
      "Tol": 5445,
      "Tell": 5446,
      "US": 5447,
      "Vis": 5448,
      "Vla": 5449,
      "Vitt": 5450,
      "Whoop": 5451,
      "Yu": 5452,
      "Yuri": 5453,
      "añ": 5454,
      "aff": 5455,
      "bel": 5456,
      "bie": 5457,
      "boy": 5458,
      "dle": 5459,
      "dev": 5460,
      "dubb": 5461,
      "daughter": 5462,
      "fall": 5463,
      "find": 5464,
      "gn": 5465,
      "gang": 5466,
      "goy": 5467,
      "hart": 5468,
      "jan": 5469,
      "kh": 5470,
      "long": 5471,
      "leng": 5472,
      "min": 5473,
      "main": 5474,
      "net": 5475,
      "number": 5476,
      "pit": 5477,
      "sport": 5478,
      "six": 5479,
      "succ": 5480,
      "tol": 5481,
      "von": 5482,
      "vis": 5483,
      "vir": 5484,
      "studi": 5485,
      "ilver": 5486,
      "Cah": 5487,
      "orman": 5488,
      "though": 5489,
      "onor": 5490,
      "ican": 5491,
      "ene": 5492,
      "enson": 5493,
      "andy": 5494,
      "anders": 5495,
      "dis": 5496,
      "disc": 5497,
      "dimir": 5498,
      "ritt": 5499,
      "edd": 5500,
      "ised": 5501,
      "asan": 5502,
      "amb": 5503,
      "190": 5504,
      "atra": 5505,
      "aters": 5506,
      "olt": 5507,
      "olff": 5508,
      "chron": 5509,
      "ition": 5510,
      "ouston": 5511,
      "agar": 5512,
      "agli": 5513,
      "Amy": 5514,
      "Ching": 5515,
      "lives": 5516,
      "tta": 5517,
      "activ": 5518,
      "ident": 5519,
      "Theod": 5520,
      "ave": 5521,
      "bera": 5522,
      "ards": 5523,
      "ellini": 5524,
      "imer": 5525,
      "2001": 5526,
      "illy": 5527,
      "Anand": 5528,
      "Its": 5529,
      "abaki": 5530,
      "ione": 5531,
      "Shash": 5532,
      "oren": 5533,
      "ores": 5534,
      "oreno": 5535,
      "1984": 5536,
      "ulars": 5537,
      "endran": 5538,
      "1994": 5539,
      "Rog": 5540,
      "Robb": 5541,
      "Step": 5542,
      "rico": 5543,
      "acker": 5544,
      "Alph": 5545,
      "udha": 5546,
      "ished": 5547,
      "epper": 5548,
      "Lester": 5549,
      "opra": 5550,
      "ief": 5551,
      "Ing": 5552,
      "utes": 5553,
      "utch": 5554,
      "utive": 5555,
      "1961": 5556,
      "1964": 5557,
      "1966": 5558,
      "1968": 5559,
      "1956": 5560,
      "1949": 5561,
      "atton": 5562,
      "1970": 5563,
      "1971": 5564,
      "erner": 5565,
      "plac": 5566,
      "annel": 5567,
      "Carolina": 5568,
      "awa": 5569,
      "away": 5570,
      "awla": 5571,
      "1936": 5572,
      "Franco": 5573,
      "death": 5574,
      "artel": 5575,
      "Brook": 5576,
      "Argent": 5577,
      "arkar": 5578,
      "astr": 5579,
      "uke": 5580,
      "uki": 5581,
      "aneous": 5582,
      "playwright": 5583,
      "conc": 5584,
      "Raju": 5585,
      "photo": 5586,
      "upt": 5587,
      "Robertson": 5588,
      "Tomm": 5589,
      "Carlo": 5590,
      "screened": 5591,
      "brook": 5592,
      "etti": 5593,
      "office": 5594,
      "ynes": 5595,
      "Spain": 5596,
      "bbins": 5597,
      "Jacob": 5598,
      "ombardo": 5599,
      "Black": 5600,
      "Neal": 5601,
      "shorts": 5602,
      "Nagar": 5603,
      "Seb": 5604,
      "1913": 5605,
      "Scorsese": 5606,
      "dition": 5607,
      "Sharon": 5608,
      "Baye": 5609,
      "Drago": 5610,
      "tsev": 5611,
      "Goldsmith": 5612,
      "Susan": 5613,
      "Murali": 5614,
      "Monic": 5615,
      "ultaneous": 5616,
      "Luis": 5617,
      "Terry": 5618,
      "Woods": 5619,
      "originally": 5620,
      "Lorra": 5621,
      "Suhas": 5622,
      "Douglas": 5623,
      "avalas": 5624,
      "held": 5625,
      "Raymond": 5626,
      "Germany": 5627,
      "Phillips": 5628,
      "Phillippe": 5629,
      "Tanaka": 5630,
      "cinema": 5631,
      "murdered": 5632,
      "Gurung": 5633,
      "Imog": 5634,
      "November": 5635,
      "Owen": 5636,
      "euil": 5637,
      "Anthony": 5638,
      "special": 5639,
      "Umberto": 5640,
      "simultaneous": 5641,
      "Stuart": 5642,
      "Brazilian": 5643,
      "Mexican": 5644,
      "theatrical": 5645,
      "rapher": 5646,
      "Jayasudha": 5647,
      "Jagath": 5648,
      "égret": 5649,
      "explores": 5650,
      "Autry": 5651,
      "positive": 5652,
      "Emmanuel": 5653,
      "ampanini": 5654,
      "Konstant": 5655,
      "Latin": 5656,
      "female": 5657,
      "Eberle": 5658,
      "Gérard": 5659,
      "Vladimir": 5660,
      "dubbed": 5661,
      "goyan": 5662,
      "length": 5663,
      "sports": 5664,
      "success": 5665,
      "simultaneously": 5666,
      "29": 5667,
      "Abb": 5668,
      "Bang": 5669,
      "Bhan": 5670,
      "Bog": 5671,
      "Boyd": 5672,
      "Bresslaw": 5673,
      "Brah": 5674,
      "Cook": 5675,
      "Dar": 5676,
      "Dow": 5677,
      "Die": 5678,
      "Dai": 5679,
      "Dale": 5680,
      "Dillon": 5681,
      "Ear": 5682,
      "Ezz": 5683,
      "Fle": 5684,
      "Fero": 5685,
      "Friend": 5686,
      "Fabi": 5687,
      "Gang": 5688,
      "Gum": 5689,
      "Good": 5690,
      "Gast": 5691,
      "Gary": 5692,
      "Gail": 5693,
      "Gosse": 5694,
      "Hard": 5695,
      "Hob": 5696,
      "Hollywood": 5697,
      "Ian_": 5698,
      "Jon_": 5699,
      "Kam": 5700,
      "Kay": 5701,
      "Kok": 5702,
      "Kee": 5703,
      "Kaz": 5704,
      "Kay_": 5705,
      "Kerr": 5706,
      "Koh": 5707,
      "Los": 5708,
      "Lag": 5709,
      "Lev": 5710,
      "Loc": 5711,
      "Lok": 5712,
      "Lock": 5713,
      "Met": 5714,
      "Mass": 5715,
      "Meen": 5716,
      "Myl": 5717,
      "Miranda": 5718,
      "Nig": 5719,
      "Nish": 5720,
      "Nia_": 5721,
      "Nive": 5722,
      "Nelson": 5723,
      "Os": 5724,
      "Oleg": 5725,
      "Pá": 5726,
      "Pan": 5727,
      "Ped": 5728,
      "Port": 5729,
      "Paz": 5730,
      "Peng": 5731,
      "Price": 5732,
      "Rang": 5733,
      "Rab": 5734,
      "Rud": 5735,
      "Rush": 5736,
      "Reed": 5737,
      "Sl": 5738,
      "San": 5739,
      "Sall": 5740,
      "Sonn": 5741,
      "Tar": 5742,
      "Tit": 5743,
      "Tour": 5744,
      "Trey_": 5745,
      "Var": 5746,
      "Vill": 5747,
      "Vernon": 5748,
      "We": 5749,
      "Wah": 5750,
      "Wash": 5751,
      "Wade": 5752,
      "Yau": 5753,
      "Zim": 5754,
      "Zolt": 5755,
      "_Wilson": 5756,
      "beg": 5757,
      "boj": 5758,
      "card": 5759,
      "ce_D": 5760,
      "company": 5761,
      "cott_": 5762,
      "coup": 5763,
      "do": 5764,
      "dr": 5765,
      "derson": 5766,
      "eig": 5767,
      "eot": 5768,
      "eep": 5769,
      "et_G": 5770,
      "ga_": 5771,
      "ges": 5772,
      "hol": 5773,
      "het": 5774,
      "hite": 5775,
      "hmann": 5776,
      "hta": 5777,
      "huggi": 5778,
      "iele": 5779,
      "jö": 5780,
      "ject": 5781,
      "lv": 5782,
      "ly_H": 5783,
      "ms": 5784,
      "met": 5785,
      "more": 5786,
      "mem": 5787,
      "most": 5788,
      "marri": 5789,
      "nell": 5790,
      "ne_D": 5791,
      "oepp": 5792,
      "pict": 5793,
      "ry_": 5794,
      "run": 5795,
      "rost": 5796,
      "ss": 5797,
      "sa_": 5798,
      "sel": 5799,
      "sex": 5800,
      "some": 5801,
      "semi": 5802,
      "tor": 5803,
      "try": 5804,
      "trav": 5805,
      "uy": 5806,
      "uzz": 5807,
      "vid": 5808,
      "vill": 5809,
      "ville": 5810,
      "week": 5811,
      "wamb": 5812,
      "yon": 5813,
      "ypers": 5814,
      "zen": 5815,
      "Álv": 5816,
      "ène_D": 5817,
      "éry": 5818,
      "ín": 5819,
      "aran": 5820,
      "art_": 5821,
      "ana_P": 5822,
      "stories": 5823,
      "ered": 5824,
      "ery_": 5825,
      "erby": 5826,
      "eriti": 5827,
      "arrell": 5828,
      "ilp": 5829,
      "ily": 5830,
      "il_K": 5831,
      "ilog": 5832,
      "ilip": 5833,
      "rey_S": 5834,
      "remade": 5835,
      "replac": 5836,
      "tha": 5837,
      "onov": 5838,
      "e_K": 5839,
      "e_Y": 5840,
      "e_Z": 5841,
      "e_Mara": 5842,
      "icar": 5843,
      "enes": 5844,
      "enov": 5845,
      "andar": 5846,
      "andro": 5847,
      "andaram": 5848,
      "dited": 5849,
      "ribe": 5850,
      "a_F": 5851,
      "a_W": 5852,
      "a_Thompson": 5853,
      "asp": 5854,
      "ases": 5855,
      "ams": 5856,
      "amel": 5857,
      "elander": 5858,
      "y_film": 5859,
      "y_Sh": 5860,
      "y_Grewal": 5861,
      "ato": 5862,
      "atthau": 5863,
      "terling": 5864,
      "olk": 5865,
      "olin": 5866,
      "olte": 5867,
      "thew": 5868,
      "they": 5869,
      "_Sad": 5870,
      "_Sab": 5871,
      "_Shan": 5872,
      "_Soman": 5873,
      "_Scott": 5874,
      "_Mil": 5875,
      "_Mag": 5876,
      "_Mir": 5877,
      "_Madh": 5878,
      "_Mitch": 5879,
      "_Moretti": 5880,
      "_Matthau": 5881,
      "_Bre": 5882,
      "_Bhan": 5883,
      "_Bhar": 5884,
      "_Bail": 5885,
      "_Beer": 5886,
      "_Brid": 5887,
      "_Boyd": 5888,
      "_Baker": 5889,
      "chi_": 5890,
      "adav": 5891,
      "itar": 5892,
      "ouglas": 5893,
      "agan": 5894,
      "The_S": 5895,
      "Thomas_": 5896,
      "lev": 5897,
      "lein": 5898,
      "lect": 5899,
      "_Ren": 5900,
      "_Rey": 5901,
      "_Rai": 5902,
      "_Ray_": 5903,
      "_Reed": 5904,
      "nie_": 5905,
      "rael": 5906,
      "Carril": 5907,
      "Chev": 5908,
      "Chester": 5909,
      "Chief": 5910,
      "Channel": 5911,
      "exp": 5912,
      "exec": 5913,
      "lim": 5914,
      "live": 5915,
      "likar": 5916,
      "odandaram": 5917,
      "ovac": 5918,
      "o_P": 5919,
      "o_Cec": 5920,
      "acy": 5921,
      "acLaine": 5922,
      "an_K": 5923,
      "an_Nair": 5924,
      "an_Lane": 5925,
      "aves": 5926,
      "aken": 5927,
      "akov": 5928,
      "akrishn": 5929,
      "akrishna": 5930,
      "owan": 5931,
      "owdh": 5932,
      "i_Leo": 5933,
      "eto": 5934,
      "etz": 5935,
      "etlan": 5936,
      "arde": 5937,
      "ellman": 5938,
      "ently": 5939,
      "iman": 5940,
      "imhar": 5941,
      "icher": 5942,
      "ichael": 5943,
      "eves": 5944,
      "_Hy": 5945,
      "_Hoff": 5946,
      "illan_": 5947,
      "neg": 5948,
      "neo": 5949,
      "ship": 5950,
      "shown": 5951,
      "Capone": 5952,
      "Anu": 5953,
      "Anit": 5954,
      "Anub": 5955,
      "_Gre": 5956,
      "_Green": 5957,
      "_Grant": 5958,
      "_Del": 5959,
      "_Dou": 5960,
      "_Dub": 5961,
      "_Denn": 5962,
      "_Dale": 5963,
      "_Dhillon": 5964,
      "abell": 5965,
      "umi": 5966,
      "umathi": 5967,
      "umming": 5968,
      "umont": 5969,
      "manandam": 5970,
      "apa": 5971,
      "aph": 5972,
      "Shal": 5973,
      "Shah": 5974,
      "Shankar": 5975,
      "Shatr": 5976,
      "Shilp": 5977,
      "ucqu": 5978,
      "1988": 5979,
      "_Cook": 5980,
      "_Cole": 5981,
      "_Collins": 5982,
      "_Cobb": 5983,
      "_Fur": 5984,
      "_Frank": 5985,
      "ulin": 5986,
      "ended": 5987,
      "rani": 5988,
      "_Krishna": 5989,
      "_Koh": 5990,
      "Robin": 5991,
      "Rah": 5992,
      "Star": 5993,
      "ives": 5994,
      "emm": 5995,
      "ement": 5996,
      "emong": 5997,
      "emheld": 5998,
      "Alice": 5999,
      "_Per": 6000,
      "_Poll": 6001,
      "_Pull": 6002,
      "epis": 6003,
      "coming": 6004,
      "pring": 6005,
      "prov": 6006,
      "indh": 6007,
      "_Niven": 6008,
      "_Robert": 6009,
      "_Roemheld": 6010,
      "1954": 6011,
      "1957": 6012,
      "gheriti": 6013,
      "_Thomas_": 6014,
      "atten": 6015,
      "quez": 6016,
      "anti": 6017,
      "ants": 6018,
      "ttenberg": 6019,
      "Prab": 6020,
      "_Ward": 6021,
      "fee": 6022,
      "_Tal": 6023,
      "_Tri": 6024,
      "_Torn": 6025,
      "_Taylor": 6026,
      "1975": 6027,
      "ah_": 6028,
      "ogelman": 6029,
      "ogovac": 6030,
      "icker": 6031,
      "_Stu": 6032,
      "_Steiner": 6033,
      "_Jr": 6034,
      "cox": 6035,
      "_Sheen": 6036,
      "ekha": 6037,
      "scar": 6038,
      "ajwa": 6039,
      "awd": 6040,
      "Willi_For": 6041,
      "Franz": 6042,
      "Franç": 6043,
      "Davis": 6044,
      "John_B": 6045,
      "Williams_": 6046,
      "William_Boyd": 6047,
      "Brand": 6048,
      "Brown": 6049,
      "_Lov": 6050,
      "Art": 6051,
      "Artur": 6052,
      "assman": 6053,
      "_Vá": 6054,
      "countries": 6055,
      "haran": 6056,
      "othari": 6057,
      "David_D": 6058,
      "David_K": 6059,
      "David_Niven": 6060,
      "rent": 6061,
      "ieri": 6062,
      "Justin": 6063,
      "umar_": 6064,
      "Adrian": 6065,
      "arya": 6066,
      "Moe_H": 6067,
      "Mohan_": 6068,
      "Jamie_": 6069,
      "y_Sch": 6070,
      "y_Savalas": 6071,
      "Eddie": 6072,
      "conv": 6073,
      "Raj_K": 6074,
      "John_G": 6075,
      "alsam": 6076,
      "_McG": 6077,
      "_McDonald": 6078,
      "_McNam": 6079,
      "upper": 6080,
      "upta": 6081,
      "Paul_": 6082,
      "e_Niro": 6083,
      "a_Kar": 6084,
      "Onten": 6085,
      "ergus": 6086,
      "ergman": 6087,
      "a_Bh": 6088,
      "became": 6089,
      "arif": 6090,
      "arien": 6091,
      "Richard_B": 6092,
      "pect": 6093,
      "Robert_A": 6094,
      "22_Barr": 6095,
      "22Red": 6096,
      "Guttenberg": 6097,
      "glas_": 6098,
      "_Allégret": 6099,
      "Frank_R": 6100,
      "Cassel": 6101,
      "Tom_": 6102,
      "Carlo_": 6103,
      "Wild_Bill_Elliott": 6104,
      "ized": 6105,
      "ennet": 6106,
      "innelli": 6107,
      "ossi_": 6108,
      "madi": 6109,
      "Walsh": 6110,
      "errill": 6111,
      "ffer": 6112,
      "y_MacLaine": 6113,
      "Ramarajan": 6114,
      "enge": 6115,
      "y_Busey": 6116,
      "Martin_Sheen": 6117,
      "a_Ran": 6118,
      "Julie_": 6119,
      "Juliett": 6120,
      "orrupt": 6121,
      "y_Wong": 6122,
      "i_Kumar_": 6123,
      "English_": 6124,
      "_Brand": 6125,
      "_Brun": 6126,
      "Louis_D": 6127,
      "Henri": 6128,
      "axon": 6129,
      "axter": 6130,
      "lands": 6131,
      "reeman": 6132,
      "Steve_B": 6133,
      "Brian_D": 6134,
      "Eric_B": 6135,
      "Elliott_": 6136,
      "Neboj": 6137,
      "Sidney_D": 6138,
      "Westerby": 6139,
      "world": 6140,
      "an_Scott_": 6141,
      "_Marshall": 6142,
      "_Rajkumar": 6143,
      "un_Chakraborty": 6144,
      "leader": 6145,
      "iley_Bur": 6146,
      "Dev_Anand": 6147,
      "Heung": 6148,
      "Media": 6149,
      "reys": 6150,
      "Jimmy_": 6151,
      "Jim_Dale": 6152,
      "_Murray": 6153,
      "Manish": 6154,
      "Manuel": 6155,
      "lovo": 6156,
      "Jayanth": 6157,
      "Jayabhar": 6158,
      "Quent": 6159,
      "People": 6160,
      "Bernard_H": 6161,
      "Barry": 6162,
      "Barry_": 6163,
      "Girish": 6164,
      "_Anderson": 6165,
      "Sharada_": 6166,
      "Marcel": 6167,
      "Marc_Allégret": 6168,
      "Francesc": 6169,
      "Corpor": 6170,
      "Doro": 6171,
      "y_Fine": 6172,
      "Alexandr": 6173,
      "Suso_Cec": 6174,
      "_Chak": 6175,
      "a_Shankar": 6176,
      "zzard": 6177,
      "ensive": 6178,
      "ampton": 6179,
      "Mont": 6180,
      "Mayo": 6181,
      "oirala": 6182,
      "Victoria_": 6183,
      "Const": 6184,
      "Nathan_Scott_": 6185,
      "_Curtis": 6186,
      "Walter_Matthau": 6187,
      "Larry": 6188,
      "Larry_Fine": 6189,
      "Max_Steiner": 6190,
      "Young_": 6191,
      "arnad": 6192,
      "Gabby": 6193,
      "_Barrymore": 6194,
      "ography": 6195,
      "anthology": 6196,
      "Christopher_H": 6197,
      "Gary_Busey": 6198,
      "Newman": 6199,
      "Rita_M": 6200,
      "having": 6201,
      "Patrick_D": 6202,
      "Ashley_": 6203,
      "Domingo": 6204,
      "Venk": 6205,
      "desc": 6206,
      "Joey_K": 6207,
      "Claud": 6208,
      "Claude_": 6209,
      "Grac": 6210,
      "Karen": 6211,
      "Toole": 6212,
      "nolds": 6213,
      "therton": 6214,
      "_Arnold": 6215,
      "_Clair": 6216,
      "Sonj": 6217,
      "Sunil_Kumar": 6218,
      "Cooper": 6219,
      "Dasari": 6220,
      "Oliv": 6221,
      "burg": 6222,
      "_Schr": 6223,
      "_Bhalla": 6224,
      "Carlos_V": 6225,
      "Carlos_Al": 6226,
      "Cuypers": 6227,
      "Curly_H": 6228,
      "Randy_": 6229,
      "regulars": 6230,
      "rell": 6231,
      "Margaret_": 6232,
      "Mario_M": 6233,
      "Kathleen_": 6234,
      "000": 6235,
      "help": 6236,
      "_Rogell": 6237,
      "Charles_Chaplin": 6238,
      "Alekse": 6239,
      "Kannada_actress": 6240,
      "Jonathan": 6241,
      "Jerry": 6242,
      "Nancy": 6243,
      "Nancy_": 6244,
      "iente": 6245,
      "ala_Satyanarayana": 6246,
      "angerfield": 6247,
      "_Henry": 6248,
      "María": 6249,
      "endra_Rao": 6250,
      "Albert_S": 6251,
      "Bruno": 6252,
      "Nageswara": 6253,
      "Dennis_Hop": 6254,
      "Herbert": 6255,
      "Jean_": 6256,
      "Jean_D": 6257,
      "track": 6258,
      "Turtur": 6259,
      "o_Di_Leo": 6260,
      "_Hayes": 6261,
      "_Khanna": 6262,
      "Hugo_": 6263,
      "Smiley_Bur": 6264,
      "Yvonn": 6265,
      "mad_A": 6266,
      "Stuar": 6267,
      "Noah_Beer": 6268,
      "Virginia_": 6269,
      "Farrow": 6270,
      "July": 6271,
      "k_Udapurkar": 6272,
      "named": 6273,
      "_Somashekhar": 6274,
      "_Martin_": 6275,
      "_Hugh": 6276,
      "Alfred_Newman_": 6277,
      "William_Hanna": 6278,
      "Valerie_": 6279,
      "Fernando_Di_Leo": 6280,
      "Sai_Kumar_": 6281,
      "critics": 6282,
      "guest": 6283,
      "mission": 6284,
      "nominated": 6285,
      "student": 6286,
      "Anupam_K": 6287,
      "Shrut": 6288,
      "Ayres": 6289,
      "Eleonor": 6290,
      "Pete_": 6291,
      "Ryan_Phillippe": 6292,
      "Vijay": 6293,
      "cannibal": 6294,
      "_Sinha": 6295,
      "_Bernstein": 6296,
      "_Desai": 6297,
      "Johnny_M": 6298,
      "Robert_De_Niro": 6299,
      "Timothy_": 6300,
      "Peter_Butterworth": 6301,
      "Philip_Glass": 6302,
      "_Lee_Thompson": 6303,
      "Lawrence": 6304,
      "Bruno_Corbucci": 6305,
      "Sydney_": 6306,
      "Mrinal_Dev": 6307,
      "Zulficar": 6308,
      "psychological": 6309,
      "Brend": 6310,
      "Gippy_Grewal": 6311,
      "Mithun_Chakraborty": 6312,
      "Rip_Torn": 6313,
      "Suresh": 6314,
      "highest": 6315,
      "dialogue": 6316,
      "Sherri": 6317,
      "uloch": 6318,
      "Elmer_Bernstein": 6319,
      "grossing": 6320,
      "usudhana_Rao": 6321,
      "Binnu_Dhillon": 6322,
      "Cynth": 6323,
      "Dan_Eberle": 6324,
      "Rolf_H": 6325,
      "Tiger": 6326,
      "called": 6327,
      "ladesh": 6328,
      "wrote": 6329,
      "_Bandopadhyay": 6330,
      "o_Lediga": 6331,
      "apriya": 6332,
      "Shashank_Udapurkar": 6333,
      "_Krishna_Reddy": 6334,
      "_Prabhakar": 6335,
      "Dave_Clark": 6336,
      "Charan_Raj": 6337,
      "Rajasekhar": 6338,
      "_Ortol": 6339,
      "Tom_Hanks": 6340,
      "rinivasa_Rao": 6341,
      "Universal": 6342,
      "Nathalie_Baye": 6343,
      "Bertrand": 6344,
      "Shirley_MacLaine": 6345,
      "Gurpreet_G": 6346,
      "Bonnie_Hunt": 6347,
      "Jaswinder_Bhalla": 6348,
      "Satyaj": 6349,
      "Jeetendra": 6350,
      "Karamjit": 6351,
      "Kaikala_Satyanarayana": 6352,
      "Kagiso_Lediga": 6353,
      "Miguel": 6354,
      "Mukesh": 6355,
      "Nanni_Moretti": 6356,
      "Narasimhar": 6357,
      "Pearl": 6358,
      "Riz_Ortol": 6359,
      "Svetlan": 6360,
      "Soundarya": 6361,
      "Telly_Savalas": 6362,
      "Vittor": 6363,
      "affair": 6364,
      "develop": 6365,
      "studio": 6366,
      "photog": 6367,
      "Bangladesh": 6368,
      "Brahmanandam": 6369,
      "Dowell": 6370,
      "Feroz": 6371,
      "Gummadi": 6372,
      "Gossett": 6373,
      "Laglen": 6374,
      "Lokesh": 6375,
      "Massim": 6376,
      "Mylène_D": 6377,
      "Nigel": 6378,
      "Nivedit": 6379,
      "Pál": 6380,
      "Tourneur": 6381,
      "Trey_Parker": 6382,
      "jös": 6383,
      "picture": 6384,
      "wambharan": 6385,
      "ilogy": 6386,
      "enovela": 6387,
      "_Madhusudhana_Rao": 6388,
      "_Bhargava": 6389,
      "chi_d": 6390,
      "executive": 6391,
      "owdhury": 6392,
      "Anubhav": 6393,
      "Shatrughan": 6394,
      "emongeot": 6395,
      "Willi_Forst": 6396,
      "William_Boyd_": 6397,
      "Moe_Howard": 6398,
      "Onteniente": 6399,
      "22_Barry": 6400,
      "Nebojš": 6401,
      "Sidney_Drew": 6402,
      "Jayabharathi": 6403,
      "Corporation": 6404,
      "Suso_Cecchi_d": 6405,
      "Sunil_Kumar_Desai": 6406,
      "Curly_Howard": 6407,
      "Dennis_Hopper": 6408,
      "Turturro": 6409,
      "Smiley_Burnette": 6410,
      "Anupam_Kher": 6411,
      "Gurpreet_Ghuggi": 6412,
      "Narasimharaj": 6413,
      "Riz_Ortolani": 6414,
      "Mylène_Demongeot": 6415,
      "11": 6416,
      "17": 6417,
      "1st": 6418,
      "23": 6419,
      "26": 6420,
      "Au": 6421,
      "Az": 6422,
      "Ach": 6423,
      "Aud": 6424,
      "Aravind": 6425,
      "By": 6426,
      "Balu": 6427,
      "Bij": 6428,
      "Bizet": 6429,
      "Cer": 6430,
      "Cine": 6431,
      "Company": 6432,
      "Collins": 6433,
      "DV": 6434,
      "Des": 6435,
      "Drama": 6436,
      "Dwan": 6437,
      "Drew": 6438,
      "Dmit": 6439,
      "Eri": 6440,
      "Estev": 6441,
      "Fat": 6442,
      "Fore": 6443,
      "Fann": 6444,
      "Five": 6445,
      "First": 6446,
      "Fever": 6447,
      "Gian": 6448,
      "Glen": 6449,
      "Grig": 6450,
      "Ginger": 6451,
      "Gonz": 6452,
      "Haya": 6453,
      "Hannah": 6454,
      "Himan": 6455,
      "Iren": 6456,
      "Jorg": 6457,
      "Jenn": 6458,
      "Jij": 6459,
      "Jyoti": 6460,
      "Ki": 6461,
      "Kl": 6462,
      "Kin": 6463,
      "Kern": 6464,
      "Kali": 6465,
      "Krishn": 6466,
      "Kerman": 6467,
      "Ling": 6468,
      "Lon": 6469,
      "Lam": 6470,
      "Long": 6471,
      "Light": 6472,
      "Luch": 6473,
      "Ma": 6474,
      "Min": 6475,
      "Mak": 6476,
      "Meg": 6477,
      "Miller": 6478,
      "Meet": 6479,
      "Morgan": 6480,
      "Mandar": 6481,
      "Nin": 6482,
      "Nand": 6483,
      "Nas": 6484,
      "Net": 6485,
      "Nep": 6486,
      "Nando": 6487,
      "Oh": 6488,
      "Ot": 6489,
      "Our": 6490,
      "Orol": 6491,
      "Pand": 6492,
      "Pul": 6493,
      "Puri": 6494,
      "Ry": 6495,
      "Ron": 6496,
      "Rat": 6497,
      "Rum": 6498,
      "Rish": 6499,
      "Ross": 6500,
      "Rhe": 6501,
      "Rez": 6502,
      "Rita": 6503,
      "Ranj": 6504,
      "Sor": 6505,
      "Som": 6506,
      "Spe": 6507,
      "Serb": 6508,
      "Ti": 6509,
      "Tanner": 6510,
      "Tapas": 6511,
      "Toshi": 6512,
      "Urs": 6513,
      "Vo": 6514,
      "Vic": 6515,
      "Ved": 6516,
      "Vera": 6517,
      "Vallés": 6518,
      "Wright": 6519,
      "Wolf": 6520,
      "Yud": 6521,
      "Yok": 6522,
      "Zain": 6523,
      "bour": 6524,
      "cr": 6525,
      "cid": 6526,
      "coll": 6527,
      "cia": 6528,
      "corrupt": 6529,
      "dul": 6530,
      "drich": 6531,
      "eele": 6532,
      "fam": 6533,
      "fig": 6534,
      "gy": 6535,
      "gian": 6536,
      "guez": 6537,
      "hand": 6538,
      "hom": 6539,
      "hra": 6540,
      "how": 6541,
      "hap": 6542,
      "hims": 6543,
      "human": 6544,
      "ien": 6545,
      "ias": 6546,
      "ibal": 6547,
      "ji": 6548,
      "jam": 6549,
      "janović": 6550,
      "ko": 6551,
      "key": 6552,
      "mä": 6553,
      "mation": 6554,
      "mez": 6555,
      "million": 6556,
      "nd": 6557,
      "ning": 6558,
      "odi": 6559,
      "py": 6560,
      "prison": 6561,
      "raser": 6562,
      "send": 6563,
      "sele": 6564,
      "sitcom": 6565,
      "tar": 6566,
      "tega": 6567,
      "uz": 6568,
      "vin": 6569,
      "vra": 6570,
      "vary": 6571,
      "wu": 6572,
      "west": 6573,
      "witz": 6574,
      "water": 6575,
      "wait": 6576,
      "xel": 6577,
      "xley": 6578,
      "ze": 6579,
      "zv": 6580,
      "zeg": 6581,
      "Örne": 6582,
      "àto": 6583,
      "är": 6584,
      "ädrich": 6585,
      "ómez": 6586,
      "öder": 6587,
      "inz": 6588,
      "intsev": 6589,
      "anya": 6590,
      "erot": 6591,
      "ingwater": 6592,
      "reat": 6593,
      "reak": 6594,
      "reet": 6595,
      "reia": 6596,
      "Caine": 6597,
      "orm": 6598,
      "then": 6599,
      "thvir": 6600,
      "threat": 6601,
      "ones": 6602,
      "onah": 6603,
      "onym": 6604,
      "icz": 6605,
      "icle": 6606,
      "icago": 6607,
      "enon": 6608,
      "alt": 6609,
      "aled": 6610,
      "andarkar": 6611,
      "dio": 6612,
      "rib": 6613,
      "asing": 6614,
      "asikumar": 6615,
      "amu": 6616,
      "amagan": 6617,
      "elet": 6618,
      "19th": 6619,
      "omura": 6620,
      "ator": 6621,
      "atoro": 6622,
      "usch": 6623,
      "osa": 6624,
      "olta": 6625,
      "olhap": 6626,
      "writing": 6627,
      "Carter": 6628,
      "ofess": 6629,
      "che": 6630,
      "chu": 6631,
      "chin": 6632,
      "chlow": 6633,
      "ado": 6634,
      "adine": 6635,
      "adice": 6636,
      "itel": 6637,
      "itra": 6638,
      "itti": 6639,
      "itary": 6640,
      "oub": 6641,
      "oust": 6642,
      "ague": 6643,
      "Ames": 6644,
      "Ambr": 6645,
      "Thom": 6646,
      "Three": 6647,
      "2022": 6648,
      "ayev": 6649,
      "irc": 6650,
      "race": 6651,
      "Carradine": 6652,
      "Chase": 6653,
      "Chhet": 6654,
      "Chicago": 6655,
      "exter": 6656,
      "Beck": 6657,
      "aud": 6658,
      "auris": 6659,
      "idden": 6660,
      "ovina": 6661,
      "ange": 6662,
      "avin": 6663,
      "aku": 6664,
      "owers": 6665,
      "owley": 6666,
      "unter": 6667,
      "ety": 6668,
      "etime": 6669,
      "ardin": 6670,
      "took": 6671,
      "even": 6672,
      "eville": 6673,
      "show": 6674,
      "Capote": 6675,
      "Anat": 6676,
      "ige": 6677,
      "actors": 6678,
      "abor": 6679,
      "ions": 6680,
      "ume": 6681,
      "ummer": 6682,
      "Maris": 6683,
      "Marathi": 6684,
      "Marvin": 6685,
      "ota": 6686,
      "apore": 6687,
      "Shy": 6688,
      "Shin": 6689,
      "Shan": 6690,
      "Sham": 6691,
      "Shel": 6692,
      "Shadow": 6693,
      "athkumar": 6694,
      "oret": 6695,
      "1986": 6696,
      "ula": 6697,
      "endon": 6698,
      "endle": 6699,
      "Wilton": 6700,
      "Wilho": 6701,
      "Wilhel": 6702,
      "Wilcox": 6703,
      "Sté": 6704,
      "Steele": 6705,
      "Aless": 6706,
      "Alberto": 6707,
      "Leigh": 6708,
      "oph": 6709,
      "ople": 6710,
      "anco": 6711,
      "ancini": 6712,
      "ghlin": 6713,
      "gharia": 6714,
      "iana": 6715,
      "1946": 6716,
      "antam": 6717,
      "eyer": 6718,
      "eyder": 6719,
      "eymann": 6720,
      "Campog": 6721,
      "oca": 6722,
      "few": 6723,
      "1979": 6724,
      "ollin": 6725,
      "olled": 6726,
      "ogan": 6727,
      "ographer": 6728,
      "cost": 6729,
      "ekar": 6730,
      "producers": 6731,
      "awn": 6732,
      "award": 6733,
      "1937": 6734,
      "Johnson": 6735,
      "Johnston": 6736,
      "Charlie": 6737,
      "obu": 6738,
      "oble": 6739,
      "ashi": 6740,
      "eger": 6741,
      "okar": 6742,
      "oker": 6743,
      "assi": 6744,
      "arklow": 6745,
      "asterson": 6746,
      "hary": 6747,
      "harband": 6748,
      "Prates": 6749,
      "rimal": 6750,
      "Clar": 6751,
      "Clay": 6752,
      "rens": 6753,
      "ists": 6754,
      "ierig": 6755,
      "Judith": 6756,
      "Adler": 6757,
      "appears": 6758,
      "playing": 6759,
      "ueiro": 6760,
      "conti": 6761,
      "consid": 6762,
      "azz": 6763,
      "azaki": 6764,
      "araf": 6765,
      "upon": 6766,
      "Harsh": 6767,
      "Harish": 6768,
      "ariety": 6769,
      "people": 6770,
      "1928": 6771,
      "making": 6772,
      "Filmed": 6773,
      "ankesh": 6774,
      "offic": 6775,
      "Walk": 6776,
      "Walt": 6777,
      "orda": 6778,
      "block": 6779,
      "engupta": 6780,
      "Jansen": 6781,
      "mont": 6782,
      "month": 6783,
      "Jaclyn": 6784,
      "atesw": 6785,
      "onnard": 6786,
      "Julius": 6787,
      "Harris": 6788,
      "moeller": 6789,
      "Louisiana": 6790,
      "einhard": 6791,
      "Brid": 6792,
      "alke": 6793,
      "Elliot": 6794,
      "usselman": 6795,
      "following": 6796,
      "titled": 6797,
      "jadi": 6798,
      "Chandran": 6799,
      "every": 6800,
      "Keir": 6801,
      "ittle": 6802,
      "leading": 6803,
      "iriya": 6804,
      "Calcutta": 6805,
      "Tinto": 6806,
      "portray": 6807,
      "Heath": 6808,
      "Mikael": 6809,
      "Techn": 6810,
      "true": 6811,
      "trilogy": 6812,
      "uval": 6813,
      "Manoj": 6814,
      "Jayam": 6815,
      "North": 6816,
      "Ortega": 6817,
      "icolor": 6818,
      "ixit": 6819,
      "Barrymore": 6820,
      "pied": 6821,
      "2021": 6822,
      "Corman": 6823,
      "Valent": 6824,
      "Predator": 6825,
      "Susannah": 6826,
      "Burton": 6827,
      "rayer": 6828,
      "Christoph": 6829,
      "Asrani": 6830,
      "Parv": 6831,
      "assett": 6832,
      "asseur": 6833,
      "Adams": 6834,
      "Mahon": 6835,
      "international": 6836,
      "Angelo": 6837,
      "Maxwell": 6838,
      "ilescu": 6839,
      "Gregor": 6840,
      "Gregory": 6841,
      "Natal": 6842,
      "Wallace": 6843,
      "Nicolá": 6844,
      "police": 6845,
      "dieu": 6846,
      "Geethapriya": 6847,
      "Whip": 6848,
      "Isa": 6849,
      "Venice": 6850,
      "revol": 6851,
      "Bruce": 6852,
      "Berlin": 6853,
      "Matthew": 6854,
      "Palit": 6855,
      "Singeet": 6856,
      "Singapore": 6857,
      "worked": 6858,
      "Hambur": 6859,
      "Lytton": 6860,
      "Prisc": 6861,
      "Prithvir": 6862,
      "Solberg": 6863,
      "premiere": 6864,
      "Curtis": 6865,
      "Lisa": 6866,
      "Padmamagan": 6867,
      "regular": 6868,
      "Angeles": 6869,
      "Atom": 6870,
      "Gillingwater": 6871,
      "ozintsev": 6872,
      "passant": 6873,
      "Meliss": 6874,
      "reprise": 6875,
      "Afz": 6876,
      "Madhuri": 6877,
      "parents": 6878,
      "surv": 6879,
      "riedberg": 6880,
      "Chatmon": 6881,
      "lynn": 6882,
      "biography": 6883,
      "Balach": 6884,
      "Sreekumar": 6885,
      "Vishal": 6886,
      "school": 6887,
      "soundtrack": 6888,
      "Chakravarthy": 6889,
      "Rachael": 6890,
      "Indovina": 6891,
      "Dorothy": 6892,
      "Director": 6893,
      "Srinivas": 6894,
      "Vasilescu": 6895,
      "Glory": 6896,
      "Gilbert": 6897,
      "alliani": 6898,
      "performances": 6899,
      "Punjabi": 6900,
      "Taiwanese": 6901,
      "Costa": 6902,
      "Fais": 6903,
      "Florest": 6904,
      "Floren": 6905,
      "Romanian": 6906,
      "Tedd": 6907,
      "keley": 6908,
      "midt": 6909,
      "onzo": 6910,
      "oudhary": 6911,
      "abharana": 6912,
      "subject": 6913,
      "Sudhir": 6914,
      "Poe": 6915,
      "aquin": 6916,
      "Shroff": 6917,
      "collection": 6918,
      "Ghost": 6919,
      "Srivid": 6920,
      "deti": 6921,
      "funkel": 6922,
      "esnard": 6923,
      "esnick": 6924,
      "Nikol": 6925,
      "Travolta": 6926,
      "Viktor": 6927,
      "Yoshitar": 6928,
      "hospit": 6929,
      "marked": 6930,
      "Johannes": 6931,
      "cinematographer": 6932,
      "Animation": 6933,
      "Court": 6934,
      "Ethel": 6935,
      "Gains": 6936,
      "Penelop": 6937,
      "Pallavi": 6938,
      "Savitri": 6939,
      "Winston": 6940,
      "iyazaki": 6941,
      "major": 6942,
      "social": 6943,
      "Cava": 6944,
      "ABC": 6945,
      "Avani": 6946,
      "Bouchet": 6947,
      "Movie": 6948,
      "Paramount": 6949,
      "Visconti": 6950,
      "Alphonso": 6951,
      "Argentine": 6952,
      "Nagarjun": 6953,
      "Imogen": 6954,
      "Kazu": 6955,
      "Metro": 6956,
      "couple": 6957,
      "negative": 6958,
      "François": 6959,
      "Venkat": 6960,
      "Satyajit": 6961,
      "Auley": 6962,
      "Bijibal": 6963,
      "DVD": 6964,
      "Foreign": 6965,
      "Gonzal": 6966,
      "Himansu": 6967,
      "Jiju": 6968,
      "Otakar": 6969,
      "Serbian": 6970,
      "Vedantam": 6971,
      "famous": 6972,
      "himself": 6973,
      "jamin": 6974,
      "mäki": 6975,
      "selected": 6976,
      "western": 6977,
      "zegvary": 6978,
      "Örnek": 6979,
      "erotic": 6980,
      "eleti": 6981,
      "olhapure": 6982,
      "chlowicz": 6983,
      "aurismäki": 6984,
      "Wilhoite": 6985,
      "Wilhelm": 6986,
      "Campogalliani": 6987,
      "harbanda": 6988,
      "Technicolor": 6989,
      "Hamburger": 6990,
      "Prithviraj": 6991,
      "Srividya": 6992,
      "hospital": 6993,
      "14": 6994,
      "Aj": 6995,
      "Act": 6996,
      "Audi": 6997,
      "Actor": 6998,
      "Aadhi": 6999,
      "Bi": 7000,
      "Bo": 7001,
      "Bá": 7002,
      "Bor": 7003,
      "Big": 7004,
      "Ben_": 7005,
      "Boy": 7006,
      "Baker": 7007,
      "Butterworth": 7008,
      "Bergman": 7009,
      "CB": 7010,
      "Cly": 7011,
      "Cold": 7012,
      "Crime": 7013,
      "Cobb": 7014,
      "Cumming": 7015,
      "Dh": 7016,
      "Dy": 7017,
      "De_": 7018,
      "Dal": 7019,
      "Dur": 7020,
      "Dog": 7021,
      "Dhar": 7022,
      "Dine_": 7023,
      "Dwar": 7024,
      "Dan_F": 7025,
      "Duff": 7026,
      "Doyle": 7027,
      "Dutch": 7028,
      "Darien": 7029,
      "Ex": 7030,
      "Ethan_": 7031,
      "Fer": 7032,
      "Fard": 7033,
      "Ful": 7034,
      "Fair": 7035,
      "Ford": 7036,
      "Ferr": 7037,
      "Fried": 7038,
      "Fergus": 7039,
      "Gau": 7040,
      "Graves": 7041,
      "Ho": 7042,
      "Hy": 7043,
      "Hol": 7044,
      "Hav": 7045,
      "Haj": 7046,
      "Hass": 7047,
      "Hero": 7048,
      "Hudi": 7049,
      "Hale": 7050,
      "Horror": 7051,
      "Haas": 7052,
      "Hild": 7053,
      "Hunt": 7054,
      "Herman": 7055,
      "Holm": 7056,
      "Holloway": 7057,
      "Hunter": 7058,
      "Ig": 7059,
      "Ivo": 7060,
      "Jing": 7061,
      "Jes": 7062,
      "Jew": 7063,
      "Jay_": 7064,
      "Jord": 7065,
      "Jym": 7066,
      "Jaim": 7067,
      "Jarrett": 7068,
      "Kr": 7069,
      "Kel": 7070,
      "Kip": 7071,
      "Kous": 7072,
      "Kari_": 7073,
      "Kate": 7074,
      "Kander": 7075,
      "Land": 7076,
      "Lad": 7077,
      "Lem": 7078,
      "Lio": 7079,
      "Lax": 7080,
      "Linds": 7081,
      "Lorett": 7082,
      "Little": 7083,
      "Mer": 7084,
      "Ma_": 7085,
      "Mos": 7086,
      "Mou": 7087,
      "Mag": 7088,
      "Miss": 7089,
      "Maur": 7090,
      "Millan_": 7091,
      "Nil": 7092,
      "Niv": 7093,
      "Nip": 7094,
      "Night": 7095,
      "Niranj": 7096,
      "Nazir": 7097,
      "Og": 7098,
      "Ov": 7099,
      "Oth": 7100,
      "Ott": 7101,
      "Orig": 7102,
      "Pes": 7103,
      "Pol": 7104,
      "Pab": 7105,
      "Patt": 7106,
      "Pine": 7107,
      "Pino_": 7108,
      "Pione": 7109,
      "Pamel": 7110,
      "Ră": 7111,
      "Rid": 7112,
      "Rak": 7113,
      "Riv": 7114,
      "Roland": 7115,
      "Rome": 7116,
      "Sath": 7117,
      "Soman": 7118,
      "Suth": 7119,
      "Sandr": 7120,
      "Sitcom": 7121,
      "Santa": 7122,
      "Sterling": 7123,
      "Sindh": 7124,
      "Slovo": 7125,
      "Suloch": 7126,
      "Tun": 7127,
      "Trev": 7128,
      "Tatyan": 7129,
      "Tracy": 7130,
      "Tavernier": 7131,
      "Uk": 7132,
      "Ut": 7133,
      "Vi": 7134,
      "Ví": 7135,
      "Vich": 7136,
      "Ward": 7137,
      "Witt": 7138,
      "Winter": 7139,
      "Xav": 7140,
      "Xia": 7141,
      "Yū": 7142,
      "Yur": 7143,
      "Yev": 7144,
      "Yusu": 7145,
      "Zor": 7146,
      "Zah": 7147,
      "Zsa_": 7148,
      "_Carr": 7149,
      "_El": 7150,
      "_de_": 7151,
      "_Young": 7152,
      "_Christopher": 7153,
      "_Ud": 7154,
      "_Chandra": 7155,
      "_Cah": 7156,
      "_Cassel": 7157,
      "ao_": 7158,
      "aak": 7159,
      "bo": 7160,
      "bol": 7161,
      "bay": 7162,
      "best": 7163,
      "burn": 7164,
      "bury": 7165,
      "bards": 7166,
      "bdul": 7167,
      "bidden": 7168,
      "cy": 7169,
      "ced": 7170,
      "cim": 7171,
      "cap": 7172,
      "care": 7173,
      "cent_": 7174,
      "crew": 7175,
      "circ": 7176,
      "eo": 7177,
      "ead": 7178,
      "eer_": 7179,
      "ebb": 7180,
      "fir": 7181,
      "foc": 7182,
      "fight": 7183,
      "foot": 7184,
      "finds": 7185,
      "fron": 7186,
      "gom": 7187,
      "go_": 7188,
      "gant": 7189,
      "gari": 7190,
      "hal": 7191,
      "hini": 7192,
      "he_Musical": 7193,
      "hi_Ch": 7194,
      "home": 7195,
      "hmed": 7196,
      "ior": 7197,
      "iep": 7198,
      "iari": 7199,
      "ibl": 7200,
      "ju": 7201,
      "jar": 7202,
      "ji_": 7203,
      "jens": 7204,
      "j_Tri": 7205,
      "kk": 7206,
      "kiles": 7207,
      "lat": 7208,
      "l_H": 7209,
      "ler_": 7210,
      "look": 7211,
      "logovac": 7212,
      "men": 7213,
      "mes": 7214,
      "mo_": 7215,
      "mik": 7216,
      "my_T": 7217,
      "ns": 7218,
      "nan": 7219,
      "na_": 7220,
      "nur": 7221,
      "nino": 7222,
      "n_Mag": 7223,
      "oan": 7224,
      "oom": 7225,
      "o_S": 7226,
      "oo_M": 7227,
      "pt": 7228,
      "pra": 7229,
      "post": 7230,
      "pine": 7231,
      "publ": 7232,
      "pstein": 7233,
      "power": 7234,
      "pierig": 7235,
      "ra_": 7236,
      "ro_": 7237,
      "ra_D": 7238,
      "royd": 7239,
      "rgant": 7240,
      "so": 7241,
      "sent": 7242,
      "sini": 7243,
      "sung": 7244,
      "sy_R": 7245,
      "spi": 7246,
      "sokan": 7247,
      "tak": 7248,
      "talk": 7249,
      "toward": 7250,
      "ti_Kapoor": 7251,
      "tjens": 7252,
      "ui": 7253,
      "uang": 7254,
      "val": 7255,
      "von_": 7256,
      "view": 7257,
      "wy": 7258,
      "wid": 7259,
      "waj": 7260,
      "wen_": 7261,
      "wyn": 7262,
      "winning": 7263,
      "would": 7264,
      "yar": 7265,
      "yman": 7266,
      "yce": 7267,
      "yub": 7268,
      "yuki": 7269,
      "zo": 7270,
      "zanar": 7271,
      "z_Roemheld": 7272,
      "án": 7273,
      "áre": 7274,
      "än": 7275,
      "arian": 7276,
      "arina_": 7277,
      "arfunkel": 7278,
      "inv": 7279,
      "inn_": 7280,
      "ine_H": 7281,
      "inina": 7282,
      "ini_K": 7283,
      "ine_L": 7284,
      "intr": 7285,
      "inagi": 7286,
      "aner": 7287,
      "ane_L": 7288,
      "ano_V": 7289,
      "anski": 7290,
      "stand": 7291,
      "stat": 7292,
      "stick": 7293,
      "steen": 7294,
      "stair": 7295,
      "eral": 7296,
      "erra": 7297,
      "erue": 7298,
      "erlman": 7299,
      "arra": 7300,
      "arrie": 7301,
      "arrier": 7302,
      "ili": 7303,
      "ilt": 7304,
      "iley": 7305,
      "ilipp": 7306,
      "ref": 7307,
      "reed": 7308,
      "reis": 7309,
      "rey_W": 7310,
      "reason": 7311,
      "reekumar": 7312,
      "Cao_": 7313,
      "ora": 7314,
      "or_L": 7315,
      "orpe": 7316,
      "ori_K": 7317,
      "than": 7318,
      "tham": 7319,
      "those": 7320,
      "thorne": 7321,
      "ona": 7322,
      "onet": 7323,
      "ontes": 7324,
      "ondo": 7325,
      "ondeti": 7326,
      "e_film": 7327,
      "e_language": 7328,
      "e_Lewis": 7329,
      "e_Thomas": 7330,
      "e_Co": 7331,
      "e_de_Br": 7332,
      "e_Beery": 7333,
      "e_Palma": 7334,
      "e_Andrews": 7335,
      "e_Autry": 7336,
      "e_Wilton": 7337,
      "ices": 7338,
      "ician": 7339,
      "ice_F": 7340,
      "ica_L": 7341,
      "ically": 7342,
      "ening": 7343,
      "alam": 7344,
      "alter": 7345,
      "alle": 7346,
      "alov": 7347,
      "and_D": 7348,
      "andolph": 7349,
      "did": 7350,
      "differ": 7351,
      "riv": 7352,
      "rix": 7353,
      "ribbins": 7354,
      "a_E": 7355,
      "a_T": 7356,
      "a_Am": 7357,
      "a_St": 7358,
      "a_De": 7359,
      "a_Gu": 7360,
      "a_of_": 7361,
      "a_Roy": 7362,
      "a_Gray": 7363,
      "edic": 7364,
      "edy_film": 7365,
      "is_": 7366,
      "ising": 7367,
      "asu": 7368,
      "amon": 7369,
      "amama": 7370,
      "eli": 7371,
      "el_R": 7372,
      "elav": 7373,
      "rector": 7374,
      "y_G": 7375,
      "y_Chan": 7376,
      "y_Wilson_": 7377,
      "y_de_M": 7378,
      "y_Allen": 7379,
      "atre": 7380,
      "aton": 7381,
      "atres": 7382,
      "ators": 7383,
      "osc": 7384,
      "oseph": 7385,
      "oles": 7386,
      "ol_N": 7387,
      "olfe": 7388,
      "olberg": 7389,
      "oldberg": 7390,
      "theatres": 7391,
      "_Sr": 7392,
      "_Sil": 7393,
      "_Sam": 7394,
      "_Sid": 7395,
      "_Sov": 7396,
      "_Srid": 7397,
      "_Satyanarayana": 7398,
      "_Simon": 7399,
      "_Sbar": 7400,
      "_Simp": 7401,
      "_Sagar": 7402,
      "_Sasikumar": 7403,
      "_Saraf": 7404,
      "_Skiles": 7405,
      "_Mer": 7406,
      "_Mas": 7407,
      "_Mos": 7408,
      "_Mul": 7409,
      "_Muk": 7410,
      "_Mush": 7411,
      "_Morgan": 7412,
      "_Metz": 7413,
      "_Michael": 7414,
      "_Bry": 7415,
      "_Beth": 7416,
      "_Brit": 7417,
      "_Bald": 7418,
      "_Brol": 7419,
      "_Buck": 7420,
      "_Baum": 7421,
      "_Blier": 7422,
      "_Brault": 7423,
      "_Britt": 7424,
      "_Backer": 7425,
      "_Bartel": 7426,
      "_Bucqu": 7427,
      "_Barklow": 7428,
      "_Bonnard": 7429,
      "ch_": 7430,
      "chest": 7431,
      "advent": 7432,
      "itter": 7433,
      "it_K": 7434,
      "ities": 7435,
      "itail": 7436,
      "ita_M": 7437,
      "aga": 7438,
      "agid": 7439,
      "agher": 7440,
      "Amber": 7441,
      "Amrish": 7442,
      "Ameer_": 7443,
      "Thur": 7444,
      "Thorpe": 7445,
      "lea": 7446,
      "ley_S": 7447,
      "ley_H": 7448,
      "_Ravi": 7449,
      "_Riemann": 7450,
      "_Radice": 7451,
      "_Reinhard": 7452,
      "_Ritter": 7453,
      "ayed": 7454,
      "aylin": 7455,
      "aykin": 7456,
      "aya_G": 7457,
      "aya_Shankar": 7458,
      "Prem_N": 7459,
      "ompson_": 7460,
      "t_L": 7461,
      "t_Ne": 7462,
      "iro_": 7463,
      "irkan": 7464,
      "nia": 7465,
      "raw": 7466,
      "raham": 7467,
      "Chie_": 7468,
      "Chick": 7469,
      "Chinn": 7470,
      "China": 7471,
      "expe": 7472,
      "lie_": 7473,
      "living": 7474,
      "li_Sad": 7475,
      "n_Anderson": 7476,
      "s_Har": 7477,
      "auer": 7478,
      "aupassant": 7479,
      "ody": 7480,
      "odes": 7481,
      "odrí": 7482,
      "ido": 7483,
      "idan": 7484,
      "ov_": 7485,
      "ove": 7486,
      "o_E": 7487,
      "o_H": 7488,
      "o_Jr": 7489,
      "o_Ortega": 7490,
      "acqu": 7491,
      "ace_Beery": 7492,
      "an_G": 7493,
      "an_actor": 7494,
      "an_Dev": 7495,
      "an_Fre": 7496,
      "an_Gurung": 7497,
      "an_Vasilescu": 7498,
      "anged": 7499,
      "urst": 7500,
      "on_Harvey": 7501,
      "on_Craig": 7502,
      "avy": 7503,
      "avatt": 7504,
      "akk": 7505,
      "akth": 7506,
      "akish": 7507,
      "akash": 7508,
      "owden": 7509,
      "une": 7510,
      "berman": 7511,
      "bert_H": 7512,
      "ets": 7513,
      "et_M": 7514,
      "ardhan_": 7515,
      "ell_": 7516,
      "elly": 7517,
      "elly_": 7518,
      "ell_L": 7519,
      "ella_L": 7520,
      "ellamy": 7521,
      "America": 7522,
      "_Alex": 7523,
      "_Aumont": 7524,
      "_Asokan": 7525,
      "imer_": 7526,
      "events": 7527,
      "former": 7528,
      "_Hat": 7529,
      "_Hall": 7530,
      "_Huss": 7531,
      "_Hudson": 7532,
      "_Hans": 7533,
      "_Heb": 7534,
      "_Harris": 7535,
      "_Hynes": 7536,
      "illis": 7537,
      "illatoro": 7538,
      "shanti": 7539,
      "Cape": 7540,
      "Anita": 7541,
      "Joann": 7542,
      "Joe_W": 7543,
      "Jodie": 7544,
      "_Gi": 7545,
      "_Good": 7546,
      "_Grey": 7547,
      "_German": 7548,
      "_Graves": 7549,
      "_Du": 7550,
      "_Den": 7551,
      "_Dav": 7552,
      "_Dun": 7553,
      "_Donn": 7554,
      "_Dutt": 7555,
      "_Dixit": 7556,
      "abu": 7557,
      "abil": 7558,
      "umm": 7559,
      "um_Sov": 7560,
      "Maril": 7561,
      "Marth": 7562,
      "Marion": 7563,
      "Marie": 7564,
      "Marlin": 7565,
      "erson_Craig": 7566,
      "mane_": 7567,
      "apudi": 7568,
      "Show": 7569,
      "Shann": 7570,
      "Shaf": 7571,
      "Shiva_": 7572,
      "Sherman": 7573,
      "Sharif": 7574,
      "alls": 7575,
      "allas": 7576,
      "atha_": 7577,
      "athi_": 7578,
      "oreau": 7579,
      "_Cris": 7580,
      "_Coker": 7581,
      "_Cribbins": 7582,
      "_Farr": 7583,
      "_Fran": 7584,
      "_Five": 7585,
      "_Foster": 7586,
      "_Fitzgerald": 7587,
      "_Fraser": 7588,
      "_Feyder": 7589,
      "_Friedberg": 7590,
      "ulescu": 7591,
      "uléry": 7592,
      "endra_S": 7593,
      "respect": 7594,
      "es_d": 7595,
      "es_White": 7596,
      "Wilde": 7597,
      "rans": 7598,
      "_Kh": 7599,
      "_Kong": 7600,
      "_Knight": 7601,
      "_Kodandaram": 7602,
      "_Karnad": 7603,
      "_Kaylin": 7604,
      "Royal": 7605,
      "Roy_W": 7606,
      "Rae": 7607,
      "Stein": 7608,
      "Stagg": 7609,
      "Street": 7610,
      "Stan_Fre": 7611,
      "Cable": 7612,
      "ricker": 7613,
      "Alice_": 7614,
      "Alan_S": 7615,
      "Alme": 7616,
      "Alberto_": 7617,
      "Alois": 7618,
      "Alice_F": 7619,
      "udmil": 7620,
      "_Pil": 7621,
      "_Pat": 7622,
      "_Park": 7623,
      "_Patric": 7624,
      "_Parker": 7625,
      "Pré": 7626,
      "eping": 7627,
      "Leon_": 7628,
      "Lehmann": 7629,
      "Lea_Thompson": 7630,
      "Leelav": 7631,
      "opp": 7632,
      "opened": 7633,
      "ikar": 7634,
      "ika_": 7635,
      "ikov": 7636,
      "ika_Sh": 7637,
      "comb": 7638,
      "comm": 7639,
      "comes": 7640,
      "proc": 7641,
      "profess": 7642,
      "inda_": 7643,
      "ieb": 7644,
      "iet_": 7645,
      "iego_": 7646,
      "_Nichol": 7647,
      "_Nolte": 7648,
      "_Neville": 7649,
      "_Nibl": 7650,
      "_Roy": 7651,
      "_Robards": 7652,
      "Indi": 7653,
      "ance_film": 7654,
      "sec": 7655,
      "what": 7656,
      "whose": 7657,
      "1960s": 7658,
      "peroli": 7659,
      "ghese": 7660,
      "_Thiele": 7661,
      "_Thompson_": 7662,
      "iano": 7663,
      "ian_M": 7664,
      "1945": 7665,
      "atty": 7666,
      "attan": 7667,
      "ethi": 7668,
      "ether": 7669,
      "ante": 7670,
      "eyes": 7671,
      "_We": 7672,
      "_Wein": 7673,
      "_Wright": 7674,
      "_Ward_": 7675,
      "_Wolff": 7676,
      "_Wellman": 7677,
      "_Ti": 7678,
      "_Tom": 7679,
      "_Tol": 7680,
      "_Tul": 7681,
      "_Tracy": 7682,
      "ie_Hammer": 7683,
      "ie_Robertson": 7684,
      "1972": 7685,
      "1977": 7686,
      "erno": 7687,
      "ernando": 7688,
      "ongress": 7689,
      "eare": 7690,
      "icki": 7691,
      "tist": 7692,
      "_Str": 7693,
      "_Stutter": 7694,
      "_Ja": 7695,
      "_Jun": 7696,
      "_Joshi": 7697,
      "_Joseph": 7698,
      "co_M": 7699,
      "estic": 7700,
      "estri": 7701,
      "Belgi": 7702,
      "_Shep": 7703,
      "_Shetty": 7704,
      "ekh": 7705,
      "scene": 7706,
      "hero": 7707,
      "herjee": 7708,
      "ajima": 7709,
      "Beauty": 7710,
      "1938": 7711,
      "Deep": 7712,
      "Deann": 7713,
      "Franck": 7714,
      "igh_Cook": 7715,
      "Dave": 7716,
      "ach_": 7717,
      "io_Metz": 7718,
      "aif": 7719,
      "dead": 7720,
      "debrand": 7721,
      "served": 7722,
      "John_Mc": 7723,
      "John_Sto": 7724,
      "William_Sh": 7725,
      "William_Hen": 7726,
      "arty": 7727,
      "artin": 7728,
      "artek": 7729,
      "in_Campbell": 7730,
      "in_Chinese": 7731,
      "lyn_": 7732,
      "en_Onteniente": 7733,
      "Michell": 7734,
      "Michèle_": 7735,
      "iaz": 7736,
      "Jack_L": 7737,
      "Jacki_P": 7738,
      "Jack_Richardson_": 7739,
      "oks": 7740,
      "Broad": 7741,
      "_Lord": 7742,
      "_Lloyd": 7743,
      "_Lombardo": 7744,
      "ritz": 7745,
      "Georges_": 7746,
      "Georgia_": 7747,
      "George_H": 7748,
      "George_D": 7749,
      "George_L": 7750,
      "Arun": 7751,
      "Art_G": 7752,
      "Arno_": 7753,
      "_Var": 7754,
      "_Ven": 7755,
      "_Vitt": 7756,
      "_Venk": 7757,
      "_Vega": 7758,
      "ia_B": 7759,
      "ia_G": 7760,
      "harani": 7761,
      "David_S": 7762,
      "David_R": 7763,
      "David_W": 7764,
      "David_J": 7765,
      "David_Sch": 7766,
      "aniels": 7767,
      "irez": 7768,
      "ationship": 7769,
      "Clin": 7770,
      "Michael_O": 7771,
      "Michael_Ben": 7772,
      "Michael_Gold": 7773,
      "ckwell_": 7774,
      "ours": 7775,
      "Juan_D": 7776,
      "Juhi_Ch": 7777,
      "e_For": 7778,
      "e_Fletcher": 7779,
      "e_Smith": 7780,
      "e_Seig": 7781,
      "Mouse": 7782,
      "or_Young": 7783,
      "Jamie": 7784,
      "balist": 7785,
      "y_Sreekumar": 7786,
      "e_Magid": 7787,
      "e_Moreau": 7788,
      "Edwin": 7789,
      "contin": 7790,
      "contr": 7791,
      "Rajan": 7792,
      "Rajendra_S": 7793,
      "e_Hav": 7794,
      "John_F": 7795,
      "John_Kent_": 7796,
      "John_Clement": 7797,
      "John_Thomas_": 7798,
      "John_English_": 7799,
      "John_Farrow": 7800,
      "John_Turturro": 7801,
      "John_Travolta": 7802,
      "Christy_": 7803,
      "aza": 7804,
      "azel": 7805,
      "phy": 7806,
      "_McC": 7807,
      "_McDowell": 7808,
      "_McLaglen": 7809,
      "_McAuley": 7810,
      "_McMillan_": 7811,
      "claim": 7812,
      "upe_": 7813,
      "Bell_": 7814,
      "Paul_H": 7815,
      "Paul_Roth": 7816,
      "Paul_New": 7817,
      "Paul_Black": 7818,
      "Paul_Schr": 7819,
      "Paul_Martin_": 7820,
      "Paul_Bartel": 7821,
      "e_Nichol": 7822,
      "e_Noble": 7823,
      "a_Dru": 7824,
      "a_Douglas": 7825,
      "a_Koirala": 7826,
      "Enni": 7827,
      "Enrico": 7828,
      "ubien": 7829,
      "a_Sar": 7830,
      "a_Sof": 7831,
      "a_Singh": 7832,
      "a_Sawd": 7833,
      "a_Solberg": 7834,
      "Hardie_": 7835,
      "a_Bassett": 7836,
      "a_Babu": 7837,
      "Robert_Mc": 7838,
      "Robert_Bl": 7839,
      "Robert_Mitch": 7840,
      "becoming": 7841,
      "_Owen_": 7842,
      "Richard_C": 7843,
      "Richard_N": 7844,
      "Charles_Sp": 7845,
      "Donn": 7846,
      "Don_R": 7847,
      "Donagg": 7848,
      "Robert_F": 7849,
      "Robert_Low": 7850,
      "Robert_Westerby": 7851,
      "Robert_Young_": 7852,
      "Robert_Kerman": 7853,
      "22Gabby": 7854,
      "22_Hayes": 7855,
      "Guard": 7856,
      "Gujar": 7857,
      "Guerra": 7858,
      "Guy_de_M": 7859,
      "Guido": 7860,
      "Jose": 7861,
      "Josef": 7862,
      "Joshi": 7863,
      "ences": 7864,
      "encoun": 7865,
      "eley_": 7866,
      "eleine_": 7867,
      "1921": 7868,
      "1924": 7869,
      "Frank_D": 7870,
      "Frank_J": 7871,
      "Frank_Re": 7872,
      "Frank_Sin": 7873,
      "Frank_Lloyd": 7874,
      "Peter_F": 7875,
      "Peterson": 7876,
      "Peter_W": 7877,
      "Peter_Graves": 7878,
      "Upasan": 7879,
      "airns": 7880,
      "ownsend": 7881,
      "Tommy": 7882,
      "Tommy_": 7883,
      "izz": 7884,
      "iller_": 7885,
      "illermo": 7886,
      "uguese": 7887,
      "Film_Di": 7888,
      "Lau_Kar": 7889,
      "techn": 7890,
      "e_Baxter": 7891,
      "e_Bairns": 7892,
      "a_Mc": 7893,
      "a_Menon": 7894,
      "brother": 7895,
      "broad": 7896,
      "yn_S": 7897,
      "ording": 7898,
      "ordon": 7899,
      "a_Lankesh": 7900,
      "undin": 7901,
      "errmann": 7902,
      "Spirit": 7903,
      "Allan_Lane": 7904,
      "ffith": 7905,
      "Ramanand": 7906,
      "Ramirez": 7907,
      "Jane_F": 7908,
      "January": 7909,
      "y_Barrie": 7910,
      "Jaccard": 7911,
      "eeta": 7912,
      "Captain_Raju": 7913,
      "pregn": 7914,
      "one_Ren": 7915,
      "Alec": 7916,
      "Samson": 7917,
      "Sam_W": 7918,
      "Sammo_": 7919,
      "espite": 7920,
      "espeare": 7921,
      "ro_B": 7922,
      "rooks": 7923,
      "a_Rod": 7924,
      "a_Reed": 7925,
      "a_Rossi_": 7926,
      "Julia": 7927,
      "Julian": 7928,
      "Juliette": 7929,
      "amilton": 7930,
      "amilton_": 7931,
      "Colin_": 7932,
      "Harry_W": 7933,
      "anya_": 7934,
      "rises": 7935,
      "a_Perlman": 7936,
      "y_War": 7937,
      "i_Kaurismäki": 7938,
      "i_Kinagi": 7939,
      "Kenneth_McMillan_": 7940,
      "_Bros": 7941,
      "_Brad": 7942,
      "_Brass": 7943,
      "_Brown": 7944,
      "Louise_Fletcher": 7945,
      "Bill_Far": 7946,
      "Bill_Owen_": 7947,
      "Henr": 7948,
      "Khaled": 7949,
      "skey": 7950,
      "skaya": 7951,
      "Akira_": 7952,
      "Aki_Kaurismäki": 7953,
      "Brian_F": 7954,
      "Eric_P": 7955,
      "Great": 7956,
      "Tonino_": 7957,
      "e_La": 7958,
      "e_Law": 7959,
      "e_Ladd": 7960,
      "Anne_": 7961,
      "Anna_M": 7962,
      "Anne_Baxter": 7963,
      "Gross": 7964,
      "Neill": 7965,
      "an_Sto": 7966,
      "ussell": 7967,
      "_Marches": 7968,
      "_Margheriti": 7969,
      "_Rajendr": 7970,
      "_Raj_Anand": 7971,
      "Patricia": 7972,
      "_Babu_": 7973,
      "_Baboo": 7974,
      "Chandler": 7975,
      "Chandu_": 7976,
      "Chandra_S": 7977,
      "Chandoo_M": 7978,
      "Chandra_": 7979,
      "Jones_": 7980,
      "oor_Denn": 7981,
      "kins_": 7982,
      "Danièle_": 7983,
      "Hintjens": 7984,
      "Madeleine_": 7985,
      "Eve_": 7986,
      "Mehta": 7987,
      "Mike_": 7988,
      "Mike_Magid": 7989,
      "Mike_Nichol": 7990,
      "Jim_Thomas_": 7991,
      "Jim_Ward_": 7992,
      "Seeth": 7993,
      "o_Macc": 7994,
      "o_Miyazaki": 7995,
      "trag": 7996,
      "ine_Cuypers": 7997,
      "Lewis_D": 7998,
      "Lewis_Gil": 7999,
      "castle": 8000,
      "lover": 8001,
      "Orsini": 8002,
      "Quaid": 8003,
      "Vincen": 8004,
      "Vincent_": 8005,
      "u_Chatterjee": 8006,
      "_Rose": 8007,
      "_Rosi": 8008,
      "Catacombs": 8009,
      "Joseph_K": 8010,
      "Joseph_Bar": 8011,
      "Bernard_Cribbins": 8012,
      "Agnes": 8013,
      "Fred_Koh": 8014,
      "Fred_Ward": 8015,
      "Fred_Nibl": 8016,
      "ground": 8017,
      "Daniel_B": 8018,
      "Kevin_J": 8019,
      "Kevin_Poll": 8020,
      "Barrie": 8021,
      "Wendy_Barrie": 8022,
      "ino_Visconti": 8023,
      "_Ang": 8024,
      "_Anmol": 8025,
      "_Coates": 8026,
      "_Nagy": 8027,
      "_Nagabharana": 8028,
      "Drag": 8029,
      "vert": 8030,
      "Marcello": 8031,
      "Goldwyn": 8032,
      "Victor_Young": 8033,
      "inoche": 8034,
      "e_Ran": 8035,
      "e_Ronet": 8036,
      "y_Fole": 8037,
      "y_Hart": 8038,
      "_Beatty": 8039,
      "t_Gordon": 8040,
      "McQueen": 8041,
      "Antonio_": 8042,
      "Alexis": 8043,
      "Jacques_Beck": 8044,
      "Jacques_Feyder": 8045,
      "Kingdom": 8046,
      "_Chalke": 8047,
      "_Chiari": 8048,
      "e_Tucker": 8049,
      "a_Shetty": 8050,
      "y_King_": 8051,
      "y_Korman": 8052,
      "_Seitz": 8053,
      "an_Dy": 8054,
      "_Thomas_Hynes": 8055,
      "_born_1939": 8056,
      "Burt": 8057,
      "Burnett": 8058,
      "Murthy": 8059,
      "sequently": 8060,
      "Donald_O": 8061,
      "Donald_Britt": 8062,
      "Helen_Mir": 8063,
      "Helena_Solberg": 8064,
      "Mayer": 8065,
      "Mayum": 8066,
      "_Lee": 8067,
      "_Leigh_Cook": 8068,
      "ilde_Seig": 8069,
      "a_Choudhary": 8070,
      "_Fejös": 8071,
      "Apte": 8072,
      "Asim": 8073,
      "Paris": 8074,
      "uttolph": 8075,
      "Adams_": 8076,
      "Adam_Simon": 8077,
      "Victor_McLaglen": 8078,
      "Conchit": 8079,
      "Patsy_R": 8080,
      "del_Carril": 8081,
      "eaver": 8082,
      "inclair": 8083,
      "andra_Menon": 8084,
      "Thomas_Hugh": 8085,
      "o_Fernando": 8086,
      "Clarkson": 8087,
      "James_Woods": 8088,
      "Walter_Lang": 8089,
      "Walter_Chiari": 8090,
      "Barbara_Bouchet": 8091,
      "telenovela": 8092,
      "arna_S": 8093,
      "Pierre_Per": 8094,
      "Pierre_Aumont": 8095,
      "Stephen_Som": 8096,
      "Stephen_Mil": 8097,
      "Natash": 8098,
      "Rosa": 8099,
      "Rosen": 8100,
      "Rosa_": 8101,
      "Scott_Me": 8102,
      "Scott_Brad": 8103,
      "Tamil_language": 8104,
      "Wallace_Beery": 8105,
      "_Meter": 8106,
      "_Barrett": 8107,
      "Stanwy": 8108,
      "Stanley_H": 8109,
      "Tycoon": 8110,
      "Nicolai": 8111,
      "oshi_": 8112,
      "Shakti_Kapoor": 8113,
      "Leonardo": 8114,
      "Geetha_": 8115,
      "Gary_": 8116,
      "Ritesh": 8117,
      "Sudharani": 8118,
      "ley_and_D": 8119,
      "_Doctorz": 8120,
      "George_K": 8121,
      "Georges_Del": 8122,
      "included": 8123,
      "Cinema_of_": 8124,
      "Israel": 8125,
      "Isabell": 8126,
      "Mori": 8127,
      "Venant": 8128,
      "performer": 8129,
      "Bruce_Bairns": 8130,
      "Claude": 8131,
      "Claude_Br": 8132,
      "Japanes": 8133,
      "Narayana": 8134,
      "Terenc": 8135,
      "Woody_Allen": 8136,
      "century": 8137,
      "am_Srinivasa_Rao": 8138,
      "_Arm": 8139,
      "_Atkins": 8140,
      "Alan_Williams": 8141,
      "ekhar_Y": 8142,
      "Edwards": 8143,
      "Jefferson_Craig": 8144,
      "Bert": 8145,
      "Howard_Jack": 8146,
      "Howard_Bre": 8147,
      "Lorimer_": 8148,
      "Suz": 8149,
      "Singh": 8150,
      "Sonam_B": 8151,
      "Simon_": 8152,
      "Douglas_": 8153,
      "Gene": 8154,
      "Gene_Autry": 8155,
      "Hal_Hol": 8156,
      "Lydi": 8157,
      "Lyudmil": 8158,
      "Rick_Friedberg": 8159,
      "Uddin": 8160,
      "_Egoyan": 8161,
      "_Epstein": 8162,
      "adim": 8163,
      "burn_Anderson": 8164,
      "fictional": 8165,
      "partic": 8166,
      "on_Bennet": 8167,
      "e_Vernon": 8168,
      "e_Vallés": 8169,
      "a_Glogovac": 8170,
      "_Salvad": 8171,
      "_Bhagavan": 8172,
      "i_Goldberg": 8173,
      "Mark_T": 8174,
      "Roger_V": 8175,
      "Roger_Cor": 8176,
      "Maurice": 8177,
      "Maurice_Noble": 8178,
      "Maurice_Ronet": 8179,
      "Aaron_Harvey": 8180,
      "Lisa_G": 8181,
      "Padmarajan": 8182,
      "Padmini_K": 8183,
      "Sandy_Wilson_": 8184,
      "spy": 8185,
      "relationship": 8186,
      "Marguer": 8187,
      "Mario_Bonnard": 8188,
      "comedians": 8189,
      "Arthur_H": 8190,
      "Sarah_Chalke": 8191,
      "Angela_Douglas": 8192,
      "Atkins": 8193,
      "Gilles": 8194,
      "Living": 8195,
      "Salim": 8196,
      "Salerno": 8197,
      "my_Yau": 8198,
      "film_producer": 8199,
      "al_Saif": 8200,
      "_Modi": 8201,
      "_Mohan": 8202,
      "Intertitle": 8203,
      "Debraj": 8204,
      "Charles_W": 8205,
      "Charles_Williams_": 8206,
      "Antonio_Sab": 8207,
      "Antonio_Margheriti": 8208,
      "Paige": 8209,
      "Phyllis_Coates": 8210,
      "Phyllis_Nagy": 8211,
      "Augusto_": 8212,
      "Bharathan": 8213,
      "Comedy_film": 8214,
      "Delia_": 8215,
      "Del_Lord": 8216,
      "Hungarian": 8217,
      "Jainendr": 8218,
      "Janet_G": 8219,
      "Jason_Stutter": 8220,
      "created": 8221,
      "credited": 8222,
      "arily": 8223,
      "ilvestri": 8224,
      "_MacDonald": 8225,
      "_Romero": 8226,
      "Shirley_and_D": 8227,
      "Michel_Brault": 8228,
      "Armen": 8229,
      "Armie_Hammer": 8230,
      "Edmund_Cris": 8231,
      "Gordon_Chan": 8232,
      "Gordon_Douglas_": 8233,
      "Dinesh_Babu": 8234,
      "Dinesh_Baboo": 8235,
      "Cinema_of_German": 8236,
      "Cinema_of_Fran": 8237,
      "Hill_Har": 8238,
      "Imperoli": 8239,
      "Linda": 8240,
      "Linda_Bassett": 8241,
      "Nichols": 8242,
      "Sukhe_Musical": 8243,
      "Sean_McNam": 8244,
      "adagnino": 8245,
      "raj_Hans": 8246,
      "Anthony_": 8247,
      "Brady": 8248,
      "Norman_S": 8249,
      "Dorothy_": 8250,
      "Ralph_B": 8251,
      "Forrest": 8252,
      "Greenland": 8253,
      "Hong_Kong": 8254,
      "Leno": 8255,
      "Langrick": 8256,
      "Nick_Nolte": 8257,
      "Turner": 8258,
      "teenag": 8259,
      "teenage": 8260,
      "_Sarja": 8261,
      "_Sargharia": 8262,
      "_Mahendar": 8263,
      "_Berk": 8264,
      "Chuck_Wein": 8265,
      "Shea_": 8266,
      "_Sharp": 8267,
      "Mohan_Babu": 8268,
      "Patricia_Clarkson": 8269,
      "Derek_H": 8270,
      "Casablanca": 8271,
      "Hugo_Fernando": 8272,
      "LaCava": 8273,
      "Lesley_S": 8274,
      "Lowell_L": 8275,
      "Umberto_": 8276,
      "Yves_d": 8277,
      "ebastian": 8278,
      "Joel_Thomas_Hynes": 8279,
      "umann_": 8280,
      "Campbell_": 8281,
      "Mahesh_Rao": 8282,
      "Mahesh_Babu_": 8283,
      "Virginia": 8284,
      "Taiwanes": 8285,
      "Eugene_": 8286,
      "Faison": 8287,
      "Farrell": 8288,
      "Ira_": 8289,
      "Jason_": 8290,
      "Jules": 8291,
      "MacDonald": 8292,
      "Romance_film": 8293,
      "i_Sethi": 8294,
      "middle": 8295,
      "y_Chase": 8296,
      "y_Chaykin": 8297,
      "Amy_Irving": 8298,
      "Amy_Loc": 8299,
      "_Ramakrishn": 8300,
      "Chih": 8301,
      "berto_Prates": 8302,
      "_Huxley": 8303,
      "_Correia": 8304,
      "subsequently": 8305,
      "Spencer_Gord": 8306,
      "Harry_von": 8307,
      "Tony_Vallés": 8308,
      "Tony_Joe_W": 8309,
      "Gregory_Peck": 8310,
      "Gregory_Alan_Williams": 8311,
      "Gregory_LaCava": 8312,
      "Sudheer": 8313,
      "Luigi_": 8314,
      "Cecilia_": 8315,
      "Malcolm_McDowell": 8316,
      "Hema_Choudhary": 8317,
      "Jessica_L": 8318,
      "Kaloor_Denn": 8319,
      "Mexico": 8320,
      "Ricard": 8321,
      "Rodney_D": 8322,
      "Veronic": 8323,
      "buster": 8324,
      "duo": 8325,
      "domestic": 8326,
      "missing": 8327,
      "small": 8328,
      "students": 8329,
      "theatrically": 8330,
      "Adele_Mara": 8331,
      "René_Clair": 8332,
      "college": 8333,
      "Leonardo_": 8334,
      "Buck_Henry": 8335,
      "Cesare_Z": 8336,
      "Cesar_Romero": 8337,
      "Diane_Ladd": 8338,
      "Griffith": 8339,
      "Goldberg": 8340,
      "Kyle_": 8341,
      "Mitchell": 8342,
      "Olg": 8343,
      "Pollack": 8344,
      "Saiju": 8345,
      "Vijaya": 8346,
      "funović": 8347,
      "i_Reddy": 8348,
      "viol": 8349,
      "involving": 8350,
      "ingh_Babu": 8351,
      "en_Hamama": 8352,
      "_Mouret": 8353,
      "_Ryan_Barrett": 8354,
      "Antoine_D": 8355,
      "Antoine_Cuypers": 8356,
      "Marion_": 8357,
      "Martin_Campbell": 8358,
      "Robitail": 8359,
      "Geoffrey": 8360,
      "Jack_Neo": 8361,
      "George_Bassman": 8362,
      "Archie_": 8363,
      "David_Buttolph": 8364,
      "Juan_Orol": 8365,
      "Mohammad_A": 8366,
      "Rajesh_Khanna": 8367,
      "Christian_Clark": 8368,
      "Christian_Gossett": 8369,
      "Harvey_Korman": 8370,
      "a_Barrie": 8371,
      "Frankie_Chan": 8372,
      "Frankie_Faison": 8373,
      "Samuel_Kaylin": 8374,
      "Steve_James_": 8375,
      "Steve_Guttenberg": 8376,
      "Francis_D": 8377,
      "Francisco_M": 8378,
      "Ashok_Saraf": 8379,
      "Simone_S": 8380,
      "_Reiser": 8381,
      "Lawrence_D": 8382,
      "Bruno_Nicolai": 8383,
      "Sydney": 8384,
      "Giovanni_Lombardo": 8385,
      "Ruggero": 8386,
      "Ruggero_Macc": 8387,
      "Zulfikar": 8388,
      "Clifton_": 8389,
      "Judd_Nelson": 8390,
      "Kurt_Ne": 8391,
      "Katherine_": 8392,
      "Liz_Fraser": 8393,
      "Om_Prakash": 8394,
      "Travis": 8395,
      "Vikram": 8396,
      "hosla": 8397,
      "military": 8398,
      "zhinina": 8399,
      "Shiva": 8400,
      "orell": 8401,
      "Arjun_Sarja": 8402,
      "Edgar_Neville": 8403,
      "classic": 8404,
      "Noel_M": 8405,
      "Sergei_": 8406,
      "Sergej_Tri": 8407,
      "Philippe_de_Br": 8408,
      "Vanessa_": 8409,
      "Randolph_Scott": 8410,
      "cinematography": 8411,
      "Lionel_Barrymore": 8412,
      "Billie_Thomas": 8413,
      "Connor_": 8414,
      "Denis_P": 8415,
      "Farhad": 8416,
      "Hopper": 8417,
      "Ils": 8418,
      "Jerry_Goldsmith": 8419,
      "Kavitha_Lankesh": 8420,
      "Mathes": 8421,
      "Mathilde_Seig": 8422,
      "Nadine_L": 8423,
      "Rana_Ran": 8424,
      "Silvana_P": 8425,
      "Seymour_Cassel": 8426,
      "Vivian": 8427,
      "aïs": 8428,
      "idibe": 8429,
      "satova": 8430,
      "anandan": 8431,
      "onicelli": 8432,
      "Amanda_": 8433,
      "Amanda_Barrie": 8434,
      "Chris_Cooper": 8435,
      "aki_Kiriya": 8436,
      "_Garner": 8437,
      "_Gordon": 8438,
      "Ray_Milland": 8439,
      "_Prakash_Rao": 8440,
      "attempts": 8441,
      "_Walker": 8442,
      "John_Saxon": 8443,
      "Jackie_Shroff": 8444,
      "_Lang_": 8445,
      "George_Sanders": 8446,
      "Michael_Malt": 8447,
      "Adam_Christian_Clark": 8448,
      "consisting": 8449,
      "a_Bennett": 8450,
      "Annette_": 8451,
      "Martin_Balsam": 8452,
      "Martin_Bell_": 8453,
      "Jacques_Tourneur": 8454,
      "Sean_Ellis": 8455,
      "Norman_Hudi": 8456,
      "Giulian": 8457,
      "Malayalam_actress": 8458,
      "Franco_Indovina": 8459,
      "Francesco_Rosi": 8460,
      "Deborah_K": 8461,
      "Africa": 8462,
      "African": 8463,
      "Jeremy_Fole": 8464,
      "Vishnuvardhan": 8465,
      "Vishnuvardhan_": 8466,
      "Australian": 8467,
      "Australia": 8468,
      "_Raghavaiah": 8469,
      "_Raghavendra_Rao": 8470,
      "Lakshmi": 8471,
      "Lakshmi_": 8472,
      "Nina_Urgant": 8473,
      "Nina_Usatova": 8474,
      "Heinz_Roemheld": 8475,
      "Lenny_": 8476,
      "Misha_Sawd": 8477,
      "Seth_Green": 8478,
      "Tolga_": 8479,
      "Whoopi_Goldberg": 8480,
      "aglia": 8481,
      "Chingmy_Yau": 8482,
      "Theodore_": 8483,
      "Robbie_Robertson": 8484,
      "Ingrid": 8485,
      "Brooks": 8486,
      "astrone": 8487,
      "Tomm_Coker": 8488,
      "Sebastian": 8489,
      "Sharon_Stone": 8490,
      "Lorraine_": 8491,
      "Suhasini": 8492,
      "Jagathy_Sreekumar": 8493,
      "Emmanuel_Mouret": 8494,
      "Konstantin_": 8495,
      "Earl": 8496,
      "Ezz_El": 8497,
      "Friendly": 8498,
      "Fabien_Onteniente": 8499,
      "Hobart": 8500,
      "Jon_Vo": 8501,
      "Kerr_": 8502,
      "Portuguese": 8503,
      "Paz_Vega": 8504,
      "Rabi_Kinagi": 8505,
      "Sally_": 8506,
      "Zimbalist": 8507,
      "_Shannon": 8508,
      "_Bhanumathi": 8509,
      "_Bailey": 8510,
      "_Bridges": 8511,
      "The_Spierig": 8512,
      "_Reynolds": 8513,
      "Chevy_Chase": 8514,
      "_Hoffman": 8515,
      "_Dubosc": 8516,
      "_Pullayya": 8517,
      "episodes": 8518,
      "Arturo": 8519,
      "_Vávra": 8520,
      "David_Koepp": 8521,
      "Raj_Khosla": 8522,
      "_McGowan": 8523,
      "uppertz": 8524,
      "a_Bhatt": 8525,
      "Richard_Brooks": 8526,
      "Frank_Ryan_": 8527,
      "Tom_Wil": 8528,
      "Carlo_Campogalliani": 8529,
      "Julie_Walters": 8530,
      "Juliette_Lewis": 8531,
      "_Bruno": 8532,
      "Louis_Daquin": 8533,
      "Steve_Bartek": 8534,
      "Brian_De_Palma": 8535,
      "Eric_Besnard": 8536,
      "Jimmy_Heung": 8537,
      "Manisha_Koirala": 8538,
      "Jayanthi_": 8539,
      "Quentin": 8540,
      "Bernard_Herrmann": 8541,
      "Girish_Karnad": 8542,
      "Alexandra_": 8543,
      "_Chakravarthy": 8544,
      "Constanc": 8545,
      "Christopher_Hampton": 8546,
      "Rita_Moreno": 8547,
      "Ashley_Judd": 8548,
      "Joey_Klein": 8549,
      "Claude_Gillingwater": 8550,
      "Karen_Black": 8551,
      "Sonja_Bennett": 8552,
      "Carlos_Villatoro": 8553,
      "Carlos_Alberto_Prates": 8554,
      "Randy_Newman": 8555,
      "Mario_Monicelli": 8556,
      "Kathleen_Wilhoite": 8557,
      "Jean_Yves_d": 8558,
      "Hugo_del_Carril": 8559,
      "Stuart_Gordon": 8560,
      "Noah_Beery": 8561,
      "Virginia_Madsen": 8562,
      "Eleonora_Rossi_": 8563,
      "Pete_Chatmon": 8564,
      "Vijayshanti": 8565,
      "Suresh_Heb": 8566,
      "Cynthia_": 8567,
      "Rolf_Hädrich": 8568,
      "Tiger_Prabhakar": 8569,
      "Dave_Clark_Five": 8570,
      "Rajasekhar_": 8571,
      "Bertrand_Blier": 8572,
      "Karamjit_Anmol": 8573,
      "Mukesh_": 8574,
      "Svetlana_Dru": 8575,
      "Vittorio_Metz": 8576,
      "photograph": 8577,
      "Feroz_Khan_": 8578,
      "Nivedita_Jain": 8579,
      "Pál_Fejös": 8580,
      "Shatrughan_Sinha": 8581,
      "Nebojša_Glogovac": 8582,
      "Narasimharaju_": 8583,
      "Faten_Hamama": 8584,
      "Gianni": 8585,
      "Glenn_": 8586,
      "Grigori_K": 8587,
      "Hayao_Miyazaki": 8588,
      "Jyotii_Sethi": 8589,
      "Kali_Reis": 8590,
      "London": 8591,
      "Lightning": 8592,
      "Luchino_Visconti": 8593,
      "Mandarin_Chinese": 8594,
      "Network": 8595,
      "Nando_Bruno": 8596,
      "Rishi_Kapoor": 8597,
      "Rhea_Perlman": 8598,
      "Tanner_Barklow": 8599,
      "Tapas_Sargharia": 8600,
      "collabor": 8601,
      "figure": 8602,
      "zvan_Vasilescu": 8603,
      "Thom_Fitzgerald": 8604,
      "Chhetan_Gurung": 8605,
      "Anatol": 8606,
      "Shyam_": 8607,
      "Stéphan": 8608,
      "rimaldi": 8609,
      "considered": 8610,
      "official": 8611,
      "Walker_": 8612,
      "blockbuster": 8613,
      "Jaclyn_Beth": 8614,
      "ateswara_Rao": 8615,
      "Tinto_Brass": 8616,
      "Susannah_Grant": 8617,
      "Nicolás_": 8618,
      "Palito_Ortega": 8619,
      "Singeetam_Srinivasa_Rao": 8620,
      "Atom_Egoyan": 8621,
      "Madhuri_Dixit": 8622,
      "Balachandra_Menon": 8623,
      "Rachael_Leigh_Cook": 8624,
      "Faisal_Saif": 8625,
      "Florestano_V": 8626,
      "Florenc": 8627,
      "Johannes_Riemann": 8628,
      "Penelope_Wilton": 8629,
      "Savitri_": 8630,
      "Avani_Modi": 8631,
      "Alphonso_McAuley": 8632,
      "Kazuaki_Kiriya": 8633,
      "Venkatesh": 8634,
      "Satyajit_Ray": 8635,
      "Himansu_Rai": 8636,
      "Jiju_Asokan": 8637,
      "Otakar_Vávra": 8638,
      "Vedantam_Raghavaiah": 8639,
      "Wilhelm_Thiele": 8640,
      "Ben_Queen": 8641,
      "Cummings": 8642,
      "Dine_Zulficar": 8643,
      "Dwarakish": 8644,
      "Dan_Fogelman": 8645,
      "Fardeen": 8646,
      "Horror_film": 8647,
      "Jess_Har": 8648,
      "Jymn_Mag": 8649,
      "Jaime_Vallés": 8650,
      "Kousuk": 8651,
      "Laxmik": 8652,
      "Lindsay_": 8653,
      "Maury_Chaykin": 8654,
      "Pesci": 8655,
      "Pabón": 8656,
      "Pino_Donagg": 8657,
      "Pioneers": 8658,
      "Răzvan_Vasilescu": 8659,
      "Tunes": 8660,
      "Víctor": 8661,
      "Vichy": 8662,
      "Xavier": 8663,
      "Yury_": 8664,
      "Yevgen": 8665,
      "Yusuf": 8666,
      "_Carrol_N": 8667,
      "_Udaya_Shankar": 8668,
      "career": 8669,
      "oane_Tucker": 8670,
      "published": 8671,
      "spirit": 8672,
      "anerjee": 8673,
      "Cao_Hamburger": 8674,
      "different": 8675,
      "_Sridhar": 8676,
      "_Bryan": 8677,
      "_Brolin": 8678,
      "adventures": 8679,
      "Prem_Nazir": 8680,
      "li_Sadjadi": 8681,
      "odríguez": 8682,
      "avattini": 8683,
      "_Hussain": 8684,
      "Marlin_Skiles": 8685,
      "Shiva_Rajkumar": 8686,
      "_Kodandarami_Reddy": 8687,
      "Roy_Webb": 8688,
      "Stan_Freberg": 8689,
      "Alan_Silvestri": 8690,
      "Almeida": 8691,
      "Alois_Reiser": 8692,
      "_Patrick": 8693,
      "Belgium": 8694,
      "Franck_Dubosc": 8695,
      "John_Stockwell_": 8696,
      "William_Henry_": 8697,
      "Jacki_Piper": 8698,
      "Broadway": 8699,
      "George_Loane_Tucker": 8700,
      "Art_Garfunkel": 8701,
      "Arno_Hintjens": 8702,
      "_Vittal": 8703,
      "David_Schmoeller": 8704,
      "Michael_Benson_": 8705,
      "Michael_Goldenberg": 8706,
      "Juan_Diego_": 8707,
      "Juhi_Chawla": 8708,
      "Rajendra_Singh_Babu": 8709,
      "John_Kent_Harrison": 8710,
      "John_Clements_": 8711,
      "Paul_Rotha": 8712,
      "Paul_Newman": 8713,
      "Paul_Black_": 8714,
      "Paul_Schrader": 8715,
      "Hardie_Albright": 8716,
      "Robert_Blake_": 8717,
      "Robert_Mitchum": 8718,
      "Charles_Spaak": 8719,
      "Robert_Lowery_": 8720,
      "Guy_de_Maupassant": 8721,
      "Frank_Reicher": 8722,
      "Frank_Sinatra": 8723,
      "Upasana_Singh": 8724,
      "Film_Director": 8725,
      "broadcast": 8726,
      "Ramanand_Sagar": 8727,
      "Sammo_Hung": 8728,
      "Bill_Farmer": 8729,
      "Brian_Fee": 8730,
      "Tonino_Guerra": 8731,
      "_Marchesi": 8732,
      "_Rajendra_Babu": 8733,
      "Chandra_Sekhar_Y": 8734,
      "Chandoo_Mondeti": 8735,
      "Chandra_Mohan_": 8736,
      "Mike_Magidson": 8737,
      "Mike_Nichols": 8738,
      "Lewis_Gilbert": 8739,
      "Joseph_Barbera": 8740,
      "Fred_Kohler": 8741,
      "Kevin_Pollak": 8742,
      "Marcello_Marchesi": 8743,
      "Jacques_Becker": 8744,
      "Donald_Brittain": 8745,
      "Helen_Mirren": 8746,
      "Thomas_Hughes_": 8747,
      "Pierre_Perrault": 8748,
      "Stephen_Sommers": 8749,
      "Stephen_Milburn_Anderson": 8750,
      "Scott_Mechlowicz": 8751,
      "Stanwyck": 8752,
      "Georges_Delerue": 8753,
      "Cinema_of_Italy": 8754,
      "Bruce_Bairnsfather": 8755,
      "Claude_Brasseur": 8756,
      "Howard_Jackson_": 8757,
      "Howard_Bretherton": 8758,
      "Lorimer_Johnston": 8759,
      "Sonam_Bajwa": 8760,
      "Hal_Holbrook": 8761,
      "Roger_Corman": 8762,
      "Padmini_Kolhapure": 8763,
      "Marguerit": 8764,
      "Antonio_Sabàto": 8765,
      "Jainendra_Jain": 8766,
      "Shirley_and_Dino": 8767,
      "Edmund_Crispin": 8768,
      "Cinema_of_Germany": 8769,
      "Cinema_of_France": 8770,
      "Hill_Harper": 8771,
      "Sukhe_Musical_Doctorz": 8772,
      "Sean_McNamara_": 8773,
      "Lesley_Selander": 8774,
      "Lowell_Lo": 8775,
      "Amy_Locane": 8776,
      "_Ramakrishna_Rao": 8777,
      "Spencer_Gordon_Bennet": 8778,
      "Harry_von_Meter": 8779,
      "Tony_Joe_White": 8780,
      "Jessica_Lange": 8781,
      "Kaloor_Dennis": 8782,
      "Rodney_Dangerfield": 8783,
      "Cesare_Zavattini": 8784,
      "Antoine_Duléry": 8785,
      "Robitaille": 8786,
      "Mohammad_Ali_Sadjadi": 8787,
      "Giovanni_Lombardo_Radice": 8788,
      "Ruggero_Maccari": 8789,
      "Kurt_Neumann_": 8790,
      "Sergej_Trifunović": 8791,
      "Philippe_de_Broca": 8792,
      "Mathilde_Seigner": 8793,
      "Nadine_Labaki": 8794,
      "Rana_Ranbir": 8795,
      "Silvana_Pampanini": 8796,
      "Michael_Maltese": 8797,
      "Norman_Hudis": 8798,
      "Jeremy_Foley_": 8799,
      "Tolga_Örnek": 8800,
      "Jon_Voight": 8801,
      "The_Spierig_Brothers": 8802,
      "Carlos_Alberto_Prates_Correia": 8803,
      "Eleonora_Rossi_Drago": 8804,
      "Suresh_Heblikar": 8805,
      "Svetlana_Druzhinina": 8806,
      "Grigori_Kozintsev": 8807,
      "Jaclyn_Bethany": 8808,
      "Florestano_Vancini": 8809,
      "Jess_Harnell": 8810,
      "Jymn_Magon": 8811,
      "Laxmikant": 8812,
      "Pino_Donaggio": 8813,
      "_Carrol_Naish": 8814,
      "Chandra_Sekhar_Yeleti": 8815,
      "27": 8816,
      "28": 8817,
      "2nd": 8818,
      "500": 8819,
      "75": 8820,
      "7th": 8821,
      "8th": 8822,
      "Are": 8823,
      "Aam": 8824,
      "Aber": 8825,
      "Ade": 8826,
      "Astin": 8827,
      "Bos": 8828,
      "Bid": 8829,
      "Bac": 8830,
      "Bul": 8831,
      "But": 8832,
      "Borg": 8833,
      "Bart": 8834,
      "Both": 8835,
      "Bapp": 8836,
      "Bess": 8837,
      "Benn": 8838,
      "Banks": 8839,
      "Barker": 8840,
      "Bartel": 8841,
      "Buzz": 8842,
      "Cic": 8843,
      "Core": 8844,
      "Cul": 8845,
      "Count": 8846,
      "Coff": 8847,
      "Comb": 8848,
      "Comic": 8849,
      "Cosm": 8850,
      "Colly": 8851,
      "Cés": 8852,
      "Clive": 8853,
      "Cinz": 8854,
      "Congress": 8855,
      "Da": 8856,
      "Doc": 8857,
      "Dub": 8858,
      "Dway": 8859,
      "Dough": 8860,
      "Darsh": 8861,
      "Dodd": 8862,
      "Dirk": 8863,
      "Dool": 8864,
      "Dimp": 8865,
      "Dily": 8866,
      "Dexter": 8867,
      "Ech": 8868,
      "Eur": 8869,
      "Esh": 8870,
      "East": 8871,
      "Eyal": 8872,
      "Ewan": 8873,
      "Earth": 8874,
      "Edith": 8875,
      "Egoyan": 8876,
      "Egy": 8877,
      "Efir": 8878,
      "FI": 8879,
      "Fon": 8880,
      "Fen": 8881,
      "Fed": 8882,
      "Faj": 8883,
      "Fare": 8884,
      "Faz": 8885,
      "Fons": 8886,
      "Flesh": 8887,
      "Fuzz": 8888,
      "Gy": 8889,
      "Garr": 8890,
      "Gas": 8891,
      "Gir": 8892,
      "Gov": 8893,
      "Gem": 8894,
      "Gop": 8895,
      "Gort": 8896,
      "Grim": 8897,
[...]
