{
  "version": "1.0",
  "truncation": null,
  "padding": null,
  "added_tokens": [
    {
      "id": 0,
      "content": "<unk>",
      "single_word": false,
      "lstrip": false,
      "rstrip": false,
      "normalized": false,
      "special": true
    },
    {
      "id": 1,
      "content": "<pad>",
      "single_word": false,
      "lstrip": false,
      "rstrip": false,
      "normalized": false,
      "special": true
    },
    {
      "id": 2,
      "content": "<SOT>",
      "single_word": false,
      "lstrip": false,
      "rstrip": false,
      "normalized": false,
      "special": true
    },
    {
      "id": 3,
      "content": "<EOT>",
      "single_word": false,
      "lstrip": false,
      "rstrip": false,
      "normalized": false,
      "special": true
    },
    {
      "id": 4,
      "content": "<SUBJ>",
      "single_word": false,
      "lstrip": false,
      "rstrip": false,
      "normalized": false,
      "special": true
    },
    {
      "id": 5,
      "content": "<PRED>",
      "single_word": false,
      "lstrip": false,
      "rstrip": false,
      "normalized": false,
      "special": true
    },
    {
      "id": 6,
      "content": "<OBJ>",
      "single_word": false,
      "lstrip": false,
      "rstrip": false,
      "normalized": false,
      "special": true
    },
    {
      "id": 7,
      "content": "<OBJ_LIST>",
      "single_word": false,
      "lstrip": false,
      "rstrip": false,
      "normalized": false,
      "special": true
    },
    {
      "id": 8,
      "content": "|",
      "single_word": false,
      "lstrip": false,
      "rstrip": false,
      "normalized": false,
      "special": true
    },
    {
      "id": 9,
      "content": "<RDF2Text>",
      "single_word": false,
      "lstrip": false,
      "rstrip": false,
      "normalized": false,
      "special": true
    },
    {
      "id": 10,
      "content": "<Text2RDF>",
      "single_word": false,
      "lstrip": false,
      "rstrip": false,
      "normalized": false,
      "special": true
    },
    {
      "id": 11,
      "content": "<CONTINUERDF>",
      "single_word": false,
      "lstrip": false,
      "rstrip": false,
      "normalized": false,
      "special": true
    },
    {
      "id": 12,
      "content": "<MASK>",
      "single_word": false,
      "lstrip": false,
      "rstrip": false,
      "normalized": false,
      "special": true
    },
    {
      "id": 13,
      "content": "dbr:",
      "single_word": false,
      "lstrip": false,
      "rstrip": false,
      "normalized": false,
      "special": true
    },
    {
      "id": 14,
      "content": "dbo:",
      "single_word": false,
      "lstrip": false,
      "rstrip": false,
      "normalized": false,
      "special": true
    }
  ],
  "normalizer": null,
  "pre_tokenizer": {
    "type": "Whitespace"
  },
  "post_processor": {
    "type": "TemplateProcessing",
    "single": [
      {
        "Sequence": {
          "id": "A",
          "type_id": 0
        }
      }
    ],
    "pair": [
      {
        "Sequence": {
          "id": "A",
          "type_id": 0
        }
      },
      {
        "Sequence": {
          "id": "B",
          "type_id": 1
        }
      }
    ],
    "special_tokens": {
      "<pad>": {
        "id": "<pad>",
        "ids": [
          1
        ],
        "tokens": [
          "<pad>"
        ]
      }
    }
  },
  "decoder": null,
  "model": {
    "type": "BPE",
    "dropout": null,
    "unk_token": "<unk>",
    "continuing_subword_prefix": null,
    "end_of_word_suffix": null,
    "fuse_unk": false,
    "byte_fallback": false,
    "ignore_merges": false,
    "vocab": {
      "<unk>": 0,
      "<pad>": 1,
      "<SOT>": 2,
      "<EOT>": 3,
      "<SUBJ>": 4,
      "<PRED>": 5,
      "<OBJ>": 6,
      "<OBJ_LIST>": 7,
      "|": 8,
      "<RDF2Text>": 9,
      "<Text2RDF>": 10,
      "<CONTINUERDF>": 11,
      "<MASK>": 12,
      "dbr:": 13,
      "dbo:": 14,
      "!": 15,
      "\"": 16,
      "#": 17,
      "$": 18,
      "%": 19,
      "&": 20,
      "'": 21,
      "(": 22,
      ")": 23,
      "+": 24,
      ",": 25,
      "-": 26,
      ".": 27,
      "/": 28,
      "0": 29,
      "1": 30,
      "2": 31,
      "3": 32,
      "4": 33,
      "5": 34,
      "6": 35,
      "7": 36,
      "8": 37,
      "9": 38,
      ":": 39,
      ";": 40,
      "<": 41,
      ">": 42,
      "?": 43,
      "A": 44,
      "B": 45,
      "C": 46,
      "D": 47,
      "E": 48,
      "F": 49,
      "G": 50,
      "H": 51,
      "I": 52,
      "J": 53,
      "K": 54,
      "L": 55,
      "M": 56,
      "N": 57,
      "O": 58,
      "P": 59,
      "Q": 60,
      "R": 61,
      "S": 62,
      "T": 63,
      "U": 64,
      "V": 65,
      "W": 66,
      "X": 67,
      "Y": 68,
      "Z": 69,
      "_": 70,
      "a": 71,
      "b": 72,
      "c": 73,
      "d": 74,
      "e": 75,
      "f": 76,
      "g": 77,
      "h": 78,
      "i": 79,
      "j": 80,
      "k": 81,
      "l": 82,
      "m": 83,
      "n": 84,
      "o": 85,
      "p": 86,
      "q": 87,
      "r": 88,
      "s": 89,
      "t": 90,
      "u": 91,
      "v": 92,
      "w": 93,
      "x": 94,
      "y": 95,
      "z": 96,
      "¥": 97,
      "½": 98,
      "À": 99,
      "Á": 100,
      "Å": 101,
      "É": 102,
      "Ó": 103,
      "Ô": 104,
      "Ö": 105,
      "à": 106,
      "á": 107,
      "â": 108,
      "ä": 109,
      "å": 110,
      "ç": 111,
      "è": 112,
      "é": 113,
      "ë": 114,
      "í": 115,
      "ï": 116,
      "ñ": 117,
      "ò": 118,
      "ó": 119,
      "ô": 120,
      "ö": 121,
      "ø": 122,
      "ù": 123,
      "ú": 124,
      "ü": 125,
      "ý": 126,
      "ă": 127,
      "ć": 128,
      "č": 129,
      "ō": 130,
      "ş": 131,
      "š": 132,
      "ū": 133,
      "Ž": 134,
      "ž": 135,
      "ș": 136,
      "Б": 137,
      "а": 138,
      "б": 139,
      "е": 140,
      "р": 141,
      "т": 142,
      "у": 143,
      "–": 144,
      "—": 145,
      "’": 146,
      "“": 147,
      "一": 148,
      "之": 149,
      "亨": 150,
      "傳": 151,
      "哥": 152,
      "城": 153,
      "大": 154,
      "奇": 155,
      "宏": 156,
      "情": 157,
      "愛": 158,
      "新": 159,
      "果": 160,
      "糖": 161,
      "賭": 162,
      "陳": 163,
      "雨": 164,
      "db": 165,
      "BJ": 166,
      "OT": 167,
      "dbr": 168,
      "ar": 169,
      "in": 170,
      "an": 171,
      "dbo": 172,
      "PR": 173,
      "PRE": 174,
      "EOT": 175,
      "OBJ": 176,
      "SU": 177,
      "SOT": 178,
      "PRED": 179,
      "SUBJ": 180,
      "st": 181,
      "er": 182,
      "ing": 183,
      "arr": 184,
      "il": 185,
      "arring": 186,
      "starring": 187,
      "re": 188,
      "ilm": 189,
      "Ca": 190,
      "film": 191,
      "or": 192,
      "th": 193,
      "on": 194,
      "e_": 195,
      "ic": 196,
      "en": 197,
      "ct": 198,
      "al": 199,
      "and": 200,
      "di": 201,
      "ri": 202,
      "a_": 203,
      "ed": 204,
      "es": 205,
      "is": 206,
      "as": 207,
      "am": 208,
      "el": 209,
      "rect": 210,
      "y_": 211,
      "direct": 212,
      "19": 213,
      "om": 214,
      "at": 215,
      "_film": 216,
      "ter": 217,
      "us": 218,
      "os": 219,
      "ol": 220,
      "wri": 221,
      "director": 222,
      "Pre": 223,
      "Cal": 224,
      "Car": 225,
      "the": 226,
      "by": 227,
      "_S": 228,
      "of": 229,
      "writer": 230,
      "_M": 231,
      "_B": 232,
      "ch": 233,
      "ad": 234,
      "it": 235,
      "ou": 236,
      "ag": 237,
      "Am": 238,
      "Th": 239,
      "20": 240,
      "DF": 241,
      "RDF": 242,
      "le": 243,
      "_R": 244,
      "ay": 245,
      "Prem": 246,
      "usic": 247,
      "omp": 248,
      "t_": 249,
      "ompos": 250,
      "ir": 251,
      "music": 252,
      "omposer": 253,
      "Can": 254,
      "ni": 255,
      "ra": 256,
      "Carr": 257,
      "Ch": 258,
      "ex": 259,
      "Be": 260,
      "Composer": 261,
      "musicComposer": 262,
      "Cas": 263,
      "Call": 264,
      "li": 265,
      "the_": 266,
      "n_": 267,
      "s_": 268,
      "_the_": 269,
      "au": 270,
      "tt": 271,
      "ext": 272,
      "AS": 273,
      "MAS": 274,
      "Text": 275,
      "od": 276,
      "MASK": 277,
      "act": 278,
      "id": 279,
      "ov": 280,
      "o_": 281,
      "ac": 282,
      "an_": 283,
      "ang": 284,
      "The": 285,
      "ur": 286,
      "on_": 287,
      "directed": 288,
      "av": 289,
      "ak": 290,
      "ow": 291,
      "Cat": 292,
      "un": 293,
      "i_": 294,
      "ber": 295,
      "eric": 296,
      "et": 297,
      "ard": 298,
      "ell": 299,
      "Americ": 300,
      "Carry_": 301,
      "_A": 302,
      "ent": 303,
      "to": 304,
      "im": 305,
      "ich": 306,
      "ev": 307,
      "age": 308,
      "200": 309,
      "for": 310,
      "_H": 311,
      "ill": 312,
      "ne": 313,
      "sh": 314,
      "Cap": 315,
      "An": 316,
      "Jo": 317,
      "ig": 318,
      "actor": 319,
      "_G": 320,
      "It": 321,
      "was": 322,
      "_D": 323,
      "ab": 324,
      "ion": 325,
      "um": 326,
      "Mar": 327,
      "Carry_O": 328,
      "ers": 329,
      "ot": 330,
      "man": 331,
      "201": 332,
      "ap": 333,
      "angu": 334,
      "anguage": 335,
      "Sh": 336,
      "language": 337,
      "uc": 338,
      "all": 339,
      "ath": 340,
      "ore": 341,
      "198": 342,
      "_C": 343,
      "American": 344,
      "_F": 345,
      "Cast": 346,
      "ul": 347,
      "end": 348,
      "Carry_On_": 349,
      "res": 350,
      "es_": 351,
      "Wil": 352,
      "CO": 353,
      "NT": 354,
      "ran": 355,
      "2RDF": 356,
      "2Text": 357,
      "ERDF": 358,
      "IN": 359,
      "UERDF": 360,
      "RDF2Text": 361,
      "Text2RDF": 362,
      "CONT": 363,
      "INUERDF": 364,
      "CONTINUERDF": 365,
      "_K": 366,
      "199": 367,
      "Ro": 368,
      "Ra": 369,
      "ith": 370,
      "St": 371,
      "iv": 372,
      "Cab": 373,
      "ased": 374,
      "Catch": 375,
      "ric": 376,
      "ack": 377,
      "oun": 378,
      "em": 379,
      "Al": 380,
      "ud": 381,
      "_P": 382,
      "ish": 383,
      "Carol": 384,
      "Pr": 385,
      "ain": 386,
      "7_film": 387,
      "ep": 388,
      "han": 389,
      "son": 390,
      "Le": 391,
      "_of": 392,
      "op": 393,
      "ik": 394,
      "com": 395,
      "pr": 396,
      "ind": 397,
      "ie": 398,
      "Joh": 399,
      "ars": 400,
      "ram": 401,
      "_N": 402,
      "_Ro": 403,
      "ry": 404,
      "In": 405,
      "anc": 406,
      "Carni": 407,
      "se": 408,
      "ut": 409,
      "wh": 410,
      "196": 411,
      "per": 412,
      "Cam": 413,
      "195": 414,
      "5_film": 415,
      "gh": 416,
      "Cand": 417,
      "_Th": 418,
      "ian": 419,
      "194": 420,
      "att": 421,
      "Carniv": 422,
      "qu": 423,
      "eth": 424,
      "ant": 425,
      "tten": 426,
      "8_film": 427,
      "Pra": 428,
      "stars": 429,
      "written": 430,
      "Carnival": 431,
      "ey": 432,
      "Camp": 433,
      "oc": 434,
      "_W": 435,
      "fe": 436,
      "Cali": 437,
      "le_": 438,
      "_T": 439,
      "ie_": 440,
      "197": 441,
      "irl": 442,
      "2_film": 443,
      "ern": 444,
      "edy": 445,
      "ah": 446,
      "ong": 447,
      "oll": 448,
      "ear": 449,
      "les": 450,
      "og": 451,
      "prod": 452,
      "ick": 453,
      "comedy": 454,
      "ti": 455,
      "_St": 456,
      "_Me_": 457,
      "rama": 458,
      "_J": 459,
      "ies": 460,
      "rom": 461,
      "co": 462,
      "forni": 463,
      "Californi": 464,
      "Prema_": 465,
      "drama": 466,
      "est": 467,
      "pl": 468,
      "ug": 469,
      "with": 470,
      "dian": 471,
      "Rober": 472,
      "Bel": 473,
      "Ge": 474,
      "rele": 475,
      "_Sh": 476,
      "ann": 477,
      "ek": 478,
      "sc": 479,
      "Carolin": 480,
      "produc": 481,
      "her": 482,
      "aj": 483,
      "aw": 484,
      "Beau": 485,
      "ount": 486,
      "6_film": 487,
      "193": 488,
      "Carm": 489,
      "Casin": 490,
      "Willi": 491,
      "De": 492,
      "Fran": 493,
      "org": 494,
      "igh": 495,
      "California_": 496,
      "Dav": 497,
      "Carn": 498,
      "ton": 499,
      "ach": 500,
      "io": 501,
      "ai": 502,
      "de": 503,
      "Call_Me_": 504,
      "ress": 505,
      "ser": 506,
      "John": 507,
      "Cat_": 508,
      "William": 509,
      "El": 510,
      "art": 511,
      "Char": 512,
      "ob": 513,
      "ce": 514,
      "ash": 515,
      "in_": 516,
      "released": 517,
      "You": 518,
      "4_film": 519,
      "ly": 520,
      "are": 521,
      "en_": 522,
      "Mich": 523,
      "ia": 524,
      "Cann": 525,
      "Jack": 526,
      "ood": 527,
      "ict": 528,
      "produced": 529,
      "ure": 530,
      "ael": 531,
      "eg": 532,
      "ok": 533,
      "Castle_": 534,
      "Br": 535,
      "_L": 536,
      "der": 537,
      "_of_the_": 538,
      "rit": 539,
      "ort": 540,
      "Cash": 541,
      "Georg": 542,
      "Ar": 543,
      "Pe": 544,
      "oy": 545,
      "ass": 546,
      "su": 547,
      "Calling": 548,
      "series": 549,
      "his": 550,
      "ame": 551,
      "ark": 552,
      "ream": 553,
      "3_film": 554,
      "_V": 555,
      "count": 556,
      "ia_": 557,
      "ast": 558,
      "fore": 559,
      "9_film": 560,
      "har": 561,
      "one": 562,
      "rist": 563,
      "Prat": 564,
      "oth": 565,
      "David": 566,
      "_Al": 567,
      "based": 568,
      "ani": 569,
      "adh": 570,
      "who": 571,
      "ght": 572,
      "country": 573,
      "een": 574,
      "ire": 575,
      "esh": 576,
      "endar": 577,
      "Catch_": 578,
      "rim": 579,
      "ation": 580,
      "actress": 581,
      "ger": 582,
      "ana": 583,
      "ory": 584,
      "ee": 585,
      "uk": 586,
      "ins": 587,
      "Cl": 588,
      "reen": 589,
      "Michael": 590,
      "ing_": 591,
      "ity_": 592,
      "_Girl": 593,
      "ost": 594,
      "ren": 595,
      "ist": 596,
      "ier": 597,
      "am_": 598,
      "ck": 599,
      "ine": 600,
      "Calendar": 601,
      "our": 602,
      "Ju": 603,
      "ara_": 604,
      "umar": 605,
      "Beauti": 606,
      "Ad": 607,
      "e_F": 608,
      "e_S": 609,
      "Before": 610,
      "ary": 611,
      "Cad": 612,
      "old": 613,
      "Calam": 614,
      "app": 615,
      "Mo": 616,
      "ini": 617,
      "ane": 618,
      "ero": 619,
      "or_": 620,
      "ald": 621,
      "as_": 622,
      "Call_of_the_": 623,
      "play": 624,
      "Jam": 625,
      "tain": 626,
      "bal": 627,
      "y_S": 628,
      "Casper": 629,
      "Preeth": 630,
      "son_": 631,
      "ue": 632,
      "e_M": 633,
      "Cars_": 634,
      "Carnival_": 635,
      "Casino": 636,
      "Cash_": 637,
      "Ed": 638,
      "con": 639,
      "rol": 640,
      "Raj": 641,
      "II": 642,
      "man_": 643,
      "e_H": 644,
      "John_": 645,
      "Christ": 646,
      "aul": 647,
      "feat": 648,
      "ip": 649,
      "als": 650,
      "uck": 651,
      "Candy_": 652,
      "Rich": 653,
      "ess": 654,
      "iss": 655,
      "az": 656,
      "ph": 657,
      "ara": 658,
      "orn": 659,
      "_Mc": 660,
      "And": 661,
      "cl": 662,
      "up": 663,
      "ures": 664,
      "1_film": 665,
      "Bell": 666,
      "Mal": 667,
      "Paul": 668,
      "cu": 669,
      "ef": 670,
      "from": 671,
      "e_N": 672,
      "a_D": 673,
      "a_K": 674,
      "hind": 675,
      "ous": 676,
      "Pred": 677,
      "Indian": 678,
      "En": 679,
      "ub": 680,
      "a_S": 681,
      "atric": 682,
      "Har": 683,
      "On": 684,
      "erg": 685,
      "ush": 686,
      "ley": 687,
      "0_film": 688,
      "a_B": 689,
      "Behind": 690,
      "Robert": 691,
      "be": 692,
      "tin": 693,
      "Lov": 694,
      "_O": 695,
      "_You": 696,
      "to_": 697,
      "in_the_": 698,
      "_Bl": 699,
      "Candy": 700,
      "ari": 701,
      "ere": 702,
      "nibal": 703,
      "Anne": 704,
      "Richard": 705,
      "American_": 706,
      "ew": 707,
      "ott": 708,
      "Charles": 709,
      "Don": 710,
      "Jatt": 711,
      "Ken": 712,
      "TV": 713,
      "pe": 714,
      "ada": 715,
      "Robert_": 716,
      "22": 717,
      "Gu": 718,
      "Jos": 719,
      "Ph": 720,
      "gl": 721,
      "nov": 722,
      "enc": 723,
      "ele": 724,
      "Prath": 725,
      "Tim": 726,
      "ail": 727,
      "of_the_": 728,
      "ung": 729,
      "_All": 730,
      "192": 731,
      "Ital": 732,
      "Campus": 733,
      "Frank": 734,
      "Peter": 735,
      "Up": 736,
      "air": 737,
      "but": 738,
      "Cannibal": 739,
      "Cass": 740,
      "own": 741,
      "ive": 742,
      "Tom": 743,
      "Carl": 744,
      "Carry": 745,
      "Wild": 746,
      "also": 747,
      "iz": 748,
      "ya": 749,
      "enn": 750,
      "Can_": 751,
      "iller": 752,
      "Rao": 753,
      "mak": 754,
      "Pray": 755,
      "eph": 756,
      "ugu": 757,
      "Film": 758,
      "Un": 759,
      "ay_": 760,
      "composer": 761,
      "ean": 762,
      "red": 763,
      "ance": 764,
      "Lau": 765,
      "well": 766,
      "ati": 767,
      "screen": 768,
      "_I": 769,
      "te": 770,
      "ank": 771,
      "e_B": 772,
      "a_M": 773,
      "_Sp": 774,
      "ade": 775,
      "Cana": 776,
      "Carrie_": 777,
      "Carmen_": 778,
      "Calling_All": 779,
      "Girl": 780,
      "mer": 781,
      "inn": 782,
      "oss": 783,
      "br": 784,
      "ett": 785,
      "ke_": 786,
      "ma": 787,
      "off": 788,
      "age_": 789,
      "2007_film": 790,
      "Capric": 791,
      "2018_film": 792,
      "TV_": 793,
      "Dream": 794,
      "dy": 795,
      "vent": 796,
      "Wal": 797,
      "yn": 798,
      "story": 799,
      "er_": 800,
      "ord": 801,
      "a_L": 802,
      "y_R": 803,
      "und": 804,
      "aret_": 805,
      "Calendar_Girl": 806,
      "Calamity_": 807,
      "novel": 808,
      "err": 809,
      "ity": 810,
      "Sp": 811,
      "_language": 812,
      "in_F": 813,
      "Cany": 814,
      "2006_film": 815,
      "All": 816,
      "antic": 817,
      "ful": 818,
      "Carmen": 819,
      "Ger": 820,
      "bl": 821,
      "ff": 822,
      "ot_": 823,
      "ar_": 824,
      "ice_": 825,
      "y_M": 826,
      "Carry_On": 827,
      "James": 828,
      "Ram": 829,
      "aus": 830,
      "bb": 831,
      "yal": 832,
      "eng": 833,
      "rav": 834,
      "romantic": 835,
      "Jan": 836,
      "Lou": 837,
      "mon": 838,
      "ual": 839,
      "Cake_": 840,
      "a_H": 841,
      "y_B": 842,
      "oman": 843,
      "omas": 844,
      "Cabaret_": 845,
      "Jac": 846,
      "eet": 847,
      "uri": 848,
      "ical": 849,
      "Captain": 850,
      "Italian": 851,
      "3F": 852,
      "pre": 853,
      "orn_": 854,
      "one_": 855,
      "e_D": 856,
      "ese": 857,
      "ates": 858,
      "oul": 859,
      "Martin": 860,
      "1967_film": 861,
      "Carolina_": 862,
      "Casino_": 863,
      "Castle_of": 864,
      "Canadian": 865,
      "Ale": 866,
      "If": 867,
      "Sk": 868,
      "Sam": 869,
      "ho": 870,
      "mov": 871,
      "onn": 872,
      "esp": 873,
      "eer": 874,
      "ro": 875,
      "ina": 876,
      "Cair": 877,
      "a_R": 878,
      "out": 879,
      "ound": 880,
      "ock": 881,
      "Caroline_": 882,
      "Carnage_": 883,
      "rime": 884,
      "Juli": 885,
      "Engl": 886,
      "lin": 887,
      "yan": 888,
      "orr": 889,
      "amil": 890,
      "ated": 891,
      "adow": 892,
      "ney": 893,
      "ollow": 894,
      "Cannon": 895,
      "Phil": 896,
      "Col": 897,
      "Harr": 898,
      "Tel": 899,
      "la": 900,
      "any": 901,
      "thr": 902,
      "ris": 903,
      "a_P": 904,
      "y_W": 905,
      "omb": 906,
      "ite": 907,
      "_Ra": 908,
      "i_K": 909,
      "2003_film": 910,
      "neth": 911,
      "_Royal": 912,
      "Williams": 913,
      "Beautiful": 914,
      "Casino_Royal": 915,
      "roles": 916,
      "Kenneth": 917,
      "Calamity_Anne": 918,
      "Casino_Royale_": 919,
      "ball": 920,
      "ler": 921,
      "ward": 922,
      "English": 923,
      "Bed": 924,
      "_Am": 925,
      "ci": 926,
      "gen": 927,
      "mo": 928,
      "ted": 929,
      "ster": 930,
      "ice": 931,
      "rish": 932,
      "_Br": 933,
      "on_Jatt": 934,
      "under": 935,
      "Carry_on_Jatt": 936,
      "which": 937,
      "ious": 938,
      "_You_": 939,
      "Louis": 940,
      "If_You_": 941,
      "Carry_on_Jatta_": 942,
      "Bl": 943,
      "Bill": 944,
      "Hen": 945,
      "Kh": 946,
      "ax": 947,
      "band": 948,
      "ein": 949,
      "gg": 950,
      "iel": 951,
      "land": 952,
      "sk": 953,
      "same": 954,
      "ree": 955,
      "alu": 956,
      "riend": 957,
      "berg": 958,
      "ather": 959,
      "Stev": 960,
      "Camping": 961,
      "Ak": 962,
      "Bar": 963,
      "Bri": 964,
      "Eric": 965,
      "Gre": 966,
      "Kann": 967,
      "Ton": 968,
      "by_": 969,
      "les_": 970,
      "sid": 971,
      "udi": 972,
      "aram": 973,
      "e_L": 974,
      "alk": 975,
      "bert": 976,
      "Ann": 977,
      "cott": 978,
      "_Shadow": 979,
      "Hel": 980,
      "era": 981,
      "that": 982,
      "Amm": 983,
      "acher": 984,
      "Elli": 985,
      "Gr": 986,
      "Ne": 987,
      "Per": 988,
      "Sid": 989,
      "West": 990,
      "he": 991,
      "hi": 992,
      "ham": 993,
      "ij": 994,
      "ner": 995,
      "ve": 996,
      "wo": 997,
      "wor": 998,
      "ina_": 999,
      "an_S": 1000,
      "ilent": 1001,
      "uss": 1002,
      "_Mar": 1003,
      "agh": 1004,
      "_Raj": 1005,
      "Premak": 1006,
      "irst": 1007,
      "_the_M": 1008,
      "athi": 1009,
      "ictures": 1010,
      "Beauties_": 1011,
      "Telugu": 1012,
      "follow": 1013,
      "lud": 1014,
      "tit": 1015,
      "uth": 1016,
      "ors": 1017,
      "Prelud": 1018,
      "musical": 1019,
      "Casual": 1020,
      "iders": 1021,
      "Lew": 1022,
      "ight": 1023,
      "movie": 1024,
      "Cannonball": 1025,
      "Luck": 1026,
      "Patric": 1027,
      "Pictures": 1028,
      "de_": 1029,
      "ez": 1030,
      "ja": 1031,
      "un_": 1032,
      "a_A": 1033,
      "_Bab": 1034,
      "ited": 1035,
      "Among": 1036,
      "Chand": 1037,
      "1980_film": 1038,
      "American_B": 1039,
      "Carry_On_Up": 1040,
      "Cat_and": 1041,
      "feature": 1042,
      "Carry_On_Up_the_": 1043,
      "Brit": 1044,
      "Fire": 1045,
      "Jon": 1046,
      "ment": 1047,
      "oor": 1048,
      "ale": 1049,
      "adm": 1050,
      "aya": 1051,
      "ever": 1052,
      "Ke": 1053,
      "cat": 1054,
      "kin": 1055,
      "ook": 1056,
      "ari_": 1057,
      "e_to_": 1058,
      "ction": 1059,
      "Calm": 1060,
      "Carson_": 1061,
      "_Sand": 1062,
      "_Man": 1063,
      "itt": 1064,
      "lead": 1065,
      "ake_": 1066,
      "short": 1067,
      "1996_film": 1068,
      "ikk": 1069,
      "1947_film": 1070,
      "appear": 1071,
      "cutt": 1072,
      "TV_series": 1073,
      "Prelude_to_": 1074,
      "British": 1075,
      "Dani": 1076,
      "Em": 1077,
      "Hin": 1078,
      "No": 1079,
      "Nag": 1080,
      "first": 1081,
      "iri": 1082,
      "na": 1083,
      "ty": 1084,
      "Calcutt": 1085,
      "Premi": 1086,
      "ims": 1087,
      "umb": 1088,
      "ots": 1089,
      "orror": 1090,
      ").": 1091,
      "City_": 1092,
      "Fren": 1093,
      "Mad": 1094,
      "Ty": 1095,
      "Tin": 1096,
      "Tal": 1097,
      "kar": 1098,
      "port": 1099,
      "rin": 1100,
      "ut_": 1101,
      "aray": 1102,
      "ile": 1103,
      "e_W": 1104,
      "al_": 1105,
      "el_": 1106,
      "ad_": 1107,
      "ayal": 1108,
      "_the_F": 1109,
      "about": 1110,
      "1987_film": 1111,
      "1975_film": 1112,
      "United": 1113,
      "Cairo_": 1114,
      "Carson_City_": 1115,
      "French": 1116,
      "Bern": 1117,
      "Dev": 1118,
      "Ev": 1119,
      "He": 1120,
      "Me": 1121,
      "Mik": 1122,
      "Te": 1123,
      "wan": 1124,
      "yl": 1125,
      "inem": 1126,
      "rey": 1127,
      "anda": 1128,
      "night": 1129,
      "aur": 1130,
      "odu": 1131,
      "oward": 1132,
      "shack": 1133,
      "ember": 1134,
      "Pratigh": 1135,
      "Caddy": 1136,
      "Jacqu": 1137,
      "Caddyshack": 1138,
      "Jim": 1139,
      "Se": 1140,
      "fer": 1141,
      "o_M": 1142,
      "tr": 1143,
      "uv": 1144,
      "ine_": 1145,
      "ana_": 1146,
      "ers_": 1147,
      "ent_": 1148,
      "ctor": 1149,
      "asi": 1150,
      "ason": 1151,
      "ama": 1152,
      "ely": 1153,
      "191": 1154,
      "ol_": 1155,
      "_Mur": 1156,
      "Cape_F": 1157,
      "Capone_": 1158,
      "2015_film": 1159,
      "Cast_": 1160,
      "hanj": 1161,
      "1952_film": 1162,
      "Pray_": 1163,
      "ear_": 1164,
      "Barb": 1165,
      "Lewis": 1166,
      "Cape_Fear_": 1167,
      "Kev": 1168,
      "Man": 1169,
      "cast": 1170,
      "horror": 1171,
      "ka": 1172,
      "len": 1173,
      "lov": 1174,
      "mith": 1175,
      "made": 1176,
      "anov": 1177,
      "films": 1178,
      "ali": 1179,
      "dia": 1180,
      "ase": 1181,
      "itz": 1182,
      "urn": 1183,
      "make": 1184,
      "thriller": 1185,
      "Hindi": 1186,
      "Jay": 1187,
      "Nor": 1188,
      "Or": 1189,
      "Qu": 1190,
      "Vin": 1191,
      "ton_": 1192,
      "u_": 1193,
      "uch": 1194,
      "rey_": 1195,
      "icol": 1196,
      "y_D": 1197,
      "_Mid": 1198,
      "_Ros": 1199,
      "ayi": 1200,
      "Prem_A": 1201,
      "acomb": 1202,
      "Catacomb": 1203,
      "_Dog": 1204,
      "ally": 1205,
      "oung": 1206,
      "1955_film": 1207,
      "awt": 1208,
      "ight_": 1209,
      "Peop": 1210,
      "in_the_Sk": 1211,
      "Joseph": 1212,
      "Bed_of": 1213,
      "Elliott": 1214,
      "Bernard": 1215,
      "Ag": 1216,
      "Fred": 1217,
      "Sc": 1218,
      "af": 1219,
      "gr": 1220,
      "ix": 1221,
      "ke": 1222,
      "uel": 1223,
      "ston": 1224,
      "rew": 1225,
      "ons": 1226,
      "elli": 1227,
      "ters": 1228,
      "Prep": 1229,
      "its": 1230,
      "action": 1231,
      "iction": 1232,
      "genre": 1233,
      "title": 1234,
      "Daniel": 1235,
      "Kevin": 1236,
      "Barr": 1237,
      "Be_": 1238,
      "Gi": 1239,
      "Uni": 1240,
      "Wend": 1241,
      "_and": 1242,
      "crime": 1243,
      "ec": 1244,
      "ian_": 1245,
      "name": 1246,
      "pi": 1247,
      "ty_": 1248,
      "ines": 1249,
      "ino_": 1250,
      "e_d": 1251,
      "dit": 1252,
      "_Mhanj": 1253,
      "_Run_": 1254,
      "Prem_Mhanj": 1255,
      "_An": 1256,
      "Shar": 1257,
      "_Co": 1258,
      "_Nag": 1259,
      "Bel_Am": 1260,
      "1933_film": 1261,
      "debut": 1262,
      "Before_the_": 1263,
      "features": 1264,
      "Belle_": 1265,
      "Malayal": 1266,
      "Love_": 1267,
      "Candyman_": 1268,
      "venture": 1269,
      "Canyon_": 1270,
      "If_You_Can_": 1271,
      "Prem_Mhanje_": 1272,
      "Bel_Ami_": 1273,
      "Bay": 1274,
      "Dr": 1275,
      "Serg": 1276,
      "aas": 1277,
      "ha": 1278,
      "ts": 1279,
      "ver": 1280,
      "erb": 1281,
      "ille": 1282,
      "agi": 1283,
      "202": 1284,
      "light": 1285,
      "uring": 1286,
      "Marc": 1287,
      "Franc": 1288,
      "Bh": 1289,
      "Bob": 1290,
      "Cor": 1291,
      "Dor": 1292,
      "Gold": 1293,
      "Kath": 1294,
      "Vict": 1295,
      "compos": 1296,
      "io_": 1297,
      "t_B": 1298,
      "ino": 1299,
      "Cade": 1300,
      "onse": 1301,
      "e_R": 1302,
      "rid": 1303,
      "y_F": 1304,
      "y_H": 1305,
      "osaur": 1306,
      "_Sto": 1307,
      "of_": 1308,
      "_Be": 1309,
      "char": 1310,
      "adu": 1311,
      "iti": 1312,
      "usical": 1313,
      "t_G": 1314,
      "raz": 1315,
      "s_H": 1316,
      "_Dream": 1317,
      "ote": 1318,
      "Casting": 1319,
      "_Kid": 1320,
      "Cabin_": 1321,
      "Camping_": 1322,
      "less": 1323,
      "_Jon": 1324,
      "Prema_P": 1325,
      "Beauty_": 1326,
      "Calendar_": 1327,
      "screenplay": 1328,
      "Gerald": 1329,
      "English_language": 1330,
      "Henry": 1331,
      "Catacombs_": 1332,
      "Cadet_": 1333,
      "Hu": 1334,
      "Mc": 1335,
      "Val": 1336,
      "caus": 1337,
      "arth": 1338,
      "ames": 1339,
      "omic": 1340,
      "adap": 1341,
      "idw": 1342,
      "illon": 1343,
      "nett": 1344,
      "Anton": 1345,
      "mann": 1346,
      "que": 1347,
      "Pratidw": 1348,
      "Predat": 1349,
      "inning": 1350,
      "Alex": 1351,
      "esponse": 1352,
      "ield": 1353,
      "Western": 1354,
      "Jacques": 1355,
      "Cle": 1356,
      "Jean": 1357,
      "King": 1358,
      "Pow": 1359,
      "Park": 1360,
      "Sus": 1361,
      "_b": 1362,
      "_Ch": 1363,
      "cious": 1364,
      "da": 1365,
      "eed": 1366,
      "hist": 1367,
      "i_M": 1368,
      "ld": 1369,
      "ling": 1370,
      "me": 1371,
      "po": 1372,
      "sta": 1373,
      "ret": 1374,
      "remake": 1375,
      "e_T": 1376,
      "icam": 1377,
      "a_V": 1378,
      "a_Sh": 1379,
      "y_K": 1380,
      "Precious": 1381,
      "_Se": 1382,
      "_By": 1383,
      "_Response": 1384,
      "raph": 1385,
      "Call_": 1386,
      "Call_Girl": 1387,
      "Call_I": 1388,
      "an_D": 1389,
      "2008_film": 1390,
      "_Hero": 1391,
      "sher": 1392,
      "erson": 1393,
      "Cabin_F": 1394,
      "_That": 1395,
      "_Thomas": 1396,
      "Carnosaur": 1397,
      "Cat_Peop": 1398,
      "e_Musical": 1399,
      "Cars_3": 1400,
      "role": 1401,
      "Predicam": 1402,
      "Girls": 1403,
      "Philip": 1404,
      "Kannada": 1405,
      "_born_": 1406,
      "Call_Girl_": 1407,
      "Call_It_": 1408,
      "Cat_People_": 1409,
      "Bur": 1410,
      "Ice": 1411,
      "Kell": 1412,
      "Mur": 1413,
      "Pier": 1414,
      "Van": 1415,
      "bin": 1416,
      "has": 1417,
      "jud": 1418,
      "low": 1419,
      "ray": 1420,
      "set": 1421,
      "ust": 1422,
      "way": 1423,
      "zz": 1424,
      "ens": 1425,
      "amp": 1426,
      "ate": 1427,
      "ater": 1428,
      "ita": 1429,
      "Becaus": 1430,
      "evi": 1431,
      "ign": 1432,
      "sequ": 1433,
      "aradi": 1434,
      "Donald": 1435,
      "Helen": 1436,
      "follows": 1437,
      "composed": 1438,
      "charact": 1439,
      "Jen": 1440,
      "Mon": 1441,
      "May": 1442,
      "_Le": 1443,
      "_Wild": 1444,
      "friend": 1445,
      "irit": 1446,
      "lo": 1447,
      "ox": 1448,
      "ues": 1449,
      "ild": 1450,
      "illi": 1451,
      "Cach": 1452,
      "ando": 1453,
      "a_Ch": 1454,
      "_Sc": 1455,
      "iranda": 1456,
      "Being": 1457,
      "aun": 1458,
      "on_a_H": 1459,
      "i_V": 1460,
      "i_c": 1461,
      "ima_": 1462,
      "2002_film": 1463,
      "1988_film": 1464,
      "_Fe": 1465,
      "Wilson": 1466,
      "Catch_Me_": 1467,
      "_Roth": 1468,
      "_Roof_": 1469,
      "Carnival_of": 1470,
      "ties_": 1471,
      "Dead": 1472,
      "Cat_on_a_H": 1473,
      "Casino_Ra": 1474,
      "Christop": 1475,
      "Charles_H": 1476,
      "Prayan": 1477,
      "Caprice_": 1478,
      "ot_Tin": 1479,
      "Captain_": 1480,
      "Premium": 1481,
      "Wendy": 1482,
      "histor": 1483,
      "Cat_on_a_Hot_Tin": 1484,
      "Cat_on_a_Hot_Tin_Roof_": 1485,
      "Ap": 1486,
      "As": 1487,
      "Ben": 1488,
      "Cr": 1489,
      "One": 1490,
      "Par": 1491,
      "Ren": 1492,
      "Sun": 1493,
      "ait": 1494,
      "lor": 1495,
      "lanc": 1496,
      "mas": 1497,
      "oir": 1498,
      "rue": 1499,
      "uj": 1500,
      "utt": 1501,
      "aria": 1502,
      "rig": 1503,
      "asse": 1504,
      "Calap": 1505,
      "their": 1506,
      "oved": 1507,
      "abeth": 1508,
      "Steph": 1509,
      "Cabby": 1510,
      "Adam": 1511,
      "eleas": 1512,
      "Victor": 1513,
      "Con": 1514,
      "Mau": 1515,
      "Mah": 1516,
      "Nath": 1517,
      "Pat": 1518,
      "Sar": 1519,
      "bot": 1520,
      "del_": 1521,
      "eav": 1522,
      "ge": 1523,
      "ial": 1524,
      "kash": 1525,
      "octor": 1526,
      "sen": 1527,
      "ying": 1528,
      "aret": 1529,
      "inter": 1530,
      "incl": 1531,
      "Cact": 1532,
      "on_the_": 1533,
      "ala": 1534,
      "andr": 1535,
      "ander": 1536,
      "and_R": 1537,
      "ed_B": 1538,
      "atana": 1539,
      "at_Mid": 1540,
      "oland": 1541,
      "Prejud": 1542,
      "Thomas": 1543,
      "Premon": 1544,
      "Premas": 1545,
      "t_H": 1546,
      "Canada": 1547,
      "Cassher": 1548,
      "Casi_c": 1549,
      "lip": 1550,
      "o_F": 1551,
      "avan": 1552,
      "unt": 1553,
      "Ang": 1554,
      "2010_film": 1555,
      "_Cur": 1556,
      "Carry_On_Cabby": 1557,
      "ival": 1558,
      "udd": 1559,
      "_The_Musical": 1560,
      "California_Dream": 1561,
      "Carnal": 1562,
      "other": 1563,
      "Catch_and_R": 1564,
      "Clark": 1565,
      "James_": 1566,
      "Cash_and": 1567,
      "cond": 1568,
      "Christmas": 1569,
      "Loving": 1570,
      "Jatta": 1571,
      "ence_": 1572,
      "Prathy": 1573,
      "ation_": 1574,
      "Walter": 1575,
      "Canyon": 1576,
      "Castle_of_Sand": 1577,
      "Caroline_at_Mid": 1578,
      "Beautiful_B": 1579,
      "Lucky": 1580,
      "Among_the_": 1581,
      "Calcutta_": 1582,
      "Pratighatana": 1583,
      "Barbara_": 1584,
      "Union": 1585,
      "Malayalam": 1586,
      "Gerald_Thomas": 1587,
      "Predator_": 1588,
      "Carnosaur_": 1589,
      "Prayanam_": 1590,
      "Calapor_": 1591,
      "elease_": 1592,
      "Cactus": 1593,
      "Casshern_": 1594,
      "Casi_casi": 1595,
      "Catch_and_Release_": 1596,
      "Caroline_at_Midnight": 1597,
      "Jung": 1598,
      "Larr": 1599,
      "Max": 1600,
      "Wor": 1601,
      "Young": 1602,
      "bet": 1603,
      "cc": 1604,
      "fl": 1605,
      "ib": 1606,
      "if": 1607,
      "ić": 1608,
      "led": 1609,
      "sol": 1610,
      "tel": 1611,
      "arn": 1612,
      "aro": 1613,
      "arang": 1614,
      "inal": 1615,
      "anish": 1616,
      "iles": 1617,
      "elf": 1618,
      "chi": 1619,
      "ough": 1620,
      "ide": 1621,
      "ace": 1622,
      "ake": 1623,
      "ument": 1624,
      "apoor": 1625,
      "hanam": 1626,
      "score": 1627,
      "eginning": 1628,
      "oyd": 1629,
      "sup": 1630,
      "ational": 1631,
      "anks": 1632,
      "Greg": 1633,
      "1914": 1634,
      "Pierre": 1635,
      "Caché": 1636,
      "Stephen": 1637,
      "77": 1638,
      "Award": 1639,
      "Er": 1640,
      "Eli": 1641,
      "Gab": 1642,
      "Mount": 1643,
      "Nat": 1644,
      "Ros": 1645,
      "Scott": 1646,
      "Tamil": 1647,
      "Wall": 1648,
      "col": 1649,
      "don": 1650,
      "doc": 1651,
      "field": 1652,
      "ife": 1653,
      "kn": 1654,
      "ker": 1655,
      "kumar": 1656,
      "mir": 1657,
      "oot": 1658,
      "silent": 1659,
      "ta": 1660,
      "t_Sto": 1661,
      "war": 1662,
      "ween": 1663,
      "sthanam": 1664,
      "ica": 1665,
      "aly": 1666,
      "rip": 1667,
      "right": 1668,
      "a_of": 1669,
      "aman": 1670,
      "elo": 1671,
      "y_T": 1672,
      "usin": 1673,
      "usband": 1674,
      "_Sw": 1675,
      "_Me": 1676,
      "_Mous": 1677,
      "_Barr": 1678,
      "_Bac": 1679,
      "ada_": 1680,
      "_Rush": 1681,
      "Premal": 1682,
      "Prem_P": 1683,
      "Beef": 1684,
      "Beatric": 1685,
      "life": 1686,
      "s_Dream": 1687,
      "eta_": 1688,
      "_A_Sp": 1689,
      "2009_film": 1690,
      "ill_": 1691,
      "shot": 1692,
      "Capp": 1693,
      "Joe_": 1694,
      "1984_film": 1695,
      "1989_film": 1696,
      "1981_film": 1697,
      "Carry_On_Girls": 1698,
      "Carry_On_Loving": 1699,
      "Stan": 1700,
      "Cabin": 1701,
      "_Roger": 1702,
      "second": 1703,
      "1965_film": 1704,
      "1958_film": 1705,
      "ollerb": 1706,
      "ograph": 1707,
      "Beloved": 1708,
      "1934_film": 1709,
      "Call_Me_Lucky": 1710,
      "_Blood": 1711,
      "22_": 1712,
      "Spanish": 1713,
      "Carry_on_Jatta_2": 1714,
      "Carry_on_Jatta_3": 1715,
      "Tyco": 1716,
      "Talbot": 1717,
      "_Roses_": 1718,
      "_Dog_": 1719,
      "awtrey_": 1720,
      "Bed_of_Roses_": 1721,
      "ition_": 1722,
      "_born_1914": 1723,
      "irited_B": 1724,
      "Charles_Hawtrey_": 1725,
      "Prejudice_": 1726,
      "Premonition_": 1727,
      "Jungle": 1728,
      "World": 1729,
      "between": 1730,
      "support": 1731,
      "Caché_": 1732,
      "_Mouse_": 1733,
      "_A_Spirited_B": 1734,
      "_Rogers_": 1735,
      "_A_Spirited_Beginning": 1736,
      "Cy": 1737,
      "Fest": 1738,
      "Gord": 1739,
      "Nicol": 1740,
      "Pil": 1741,
      "War": 1742,
      "iet": 1743,
      "lis": 1744,
      "my": 1745,
      "maman": 1746,
      "now": 1747,
      "pol": 1748,
      "sal": 1749,
      "ves": 1750,
      "yle": 1751,
      "yber": 1752,
      "anth": 1753,
      "stin": 1754,
      "die": 1755,
      "esar": 1756,
      "ision": 1757,
      "osh": 1758,
      "olog": 1759,
      "add": 1760,
      "Ameer": 1761,
      "iro": 1762,
      "nifer": 1763,
      "ury": 1764,
      "avich": 1765,
      "ichol": 1766,
      "Shak": 1767,
      "allou": 1768,
      "udson": 1769,
      "Leon": 1770,
      "inds": 1771,
      "icks": 1772,
      "Geeth": 1773,
      "Belliss": 1774,
      "eful": 1775,
      "Candyman": 1776,
      "Khyber": 1777,
      "Premakk": 1778,
      "Kelly": 1779,
      "Jennifer": 1780,
      "Christopher": 1781,
      "Mountain": 1782,
      "known": 1783,
      "Festival": 1784,
      "18": 1785,
      "Di": 1786,
      "Din": 1787,
      "Gar": 1788,
      "Jun": 1789,
      "New": 1790,
      "Pick": 1791,
      "Pass": 1792,
      "Rit": 1793,
      "Sou": 1794,
      "Sud": 1795,
      "Wh": 1796,
      "_II": 1797,
      "aal": 1798,
      "aik": 1799,
      "han_": 1800,
      "hav": 1801,
      "jee": 1802,
      "lues": 1803,
      "oj": 1804,
      "p_the_M": 1805,
      "two": 1806,
      "vad": 1807,
      "vers": 1808,
      "were": 1809,
      "ym": 1810,
      "arsh": 1811,
      "anj": 1812,
      "anan": 1813,
      "inger": 1814,
      "Cacc": 1815,
      "ory_": 1816,
      "e_and": 1817,
      "ence": 1818,
      "andran": 1819,
      "a_Rao": 1820,
      "osm": 1821,
      "Caleta_": 1822,
      "_Meet": 1823,
      "_Ballou": 1824,
      "Amb": 1825,
      "Amrit": 1826,
      "ley_": 1827,
      "_Run": 1828,
      "Prem_Nag": 1829,
      "Chan": 1830,
      "Begg": 1831,
      "s_Wendy": 1832,
      "odd": 1833,
      "ode": 1834,
      "an_P": 1835,
      "Cat_Ballou": 1836,
      "i_Ch": 1837,
      "ardless": 1838,
      "_Aadm": 1839,
      "ford": 1840,
      "Capri": 1841,
      "Joan_S": 1842,
      "_Doctor": 1843,
      "2017_film": 1844,
      "_Con": 1845,
      "ult": 1846,
      "ula_": 1847,
      "Carry_On_Camping": 1848,
      "1992": 1849,
      "Rain_": 1850,
      "Cabaret": 1851,
      "1968_film": 1852,
      "1949_film": 1853,
      "1974_film": 1854,
      "Carolina_B": 1855,
      "Canner": 1856,
      "egardless": 1857,
      "George": 1858,
      "George_": 1859,
      "Georges": 1860,
      "Claus": 1861,
      "Calamari_": 1862,
      "Casper_Meet": 1863,
      "Cars_2": 1864,
      "Candy_Mountain": 1865,
      "Candy_Rain_": 1866,
      "Behind_the_": 1867,
      "_One": 1868,
      "screenwriter": 1869,
      "Capricorn_": 1870,
      "Eric_Rogers_": 1871,
      "Cannonball_Run_": 1872,
      "Patrick": 1873,
      "Carry_On_Up_the_Khyber": 1874,
      "Teacher": 1875,
      "Caddyshack_II": 1876,
      "Pray_TV_": 1877,
      "in_the_Sky_": 1878,
      "Belle_maman": 1879,
      "Cabin_in_the_Sky_": 1880,
      "sequel": 1881,
      "aunted": 1882,
      "_Rothwell": 1883,
      "del_sol": 1884,
      "includ": 1885,
      "document": 1886,
      "t_Stop_the_M": 1887,
      "usiness": 1888,
      "Beatrice_": 1889,
      "Talbot_Rothwell": 1890,
      "supporting": 1891,
      "avichandran": 1892,
      "Bellissima_": 1893,
      "Caleta_del_sol": 1894,
      "Prem_Nagar_": 1895,
      "Joan_Sims": 1896,
      "Carolina_Blues": 1897,
      "Calamari_Union": 1898,
      "Casper_Meets_Wendy": 1899,
      "Capricorn_One": 1900,
      "Cannonball_Run_II": 1901,
      "t_Stop_the_Music": 1902,
      "Ash": 1903,
      "Carring": 1904,
      "City": 1905,
      "Cinem": 1906,
      "Dom": 1907,
      "Fe": 1908,
      "Is": 1909,
      "Jap": 1910,
      "Kid": 1911,
      "Lu": 1912,
      "Mor": 1913,
      "Sto": 1914,
      "Ven": 1915,
      "des": 1916,
      "had": 1917,
      "ron": 1918,
      "uction": 1919,
      "vo": 1920,
      "wood": 1921,
      "rev": 1922,
      "along": 1923,
      "andra": 1924,
      "dist": 1925,
      "ison": 1926,
      "ompany": 1927,
      "Cantin": 1928,
      "aum": 1929,
      "Americath": 1930,
      "shall": 1931,
      "Capit": 1932,
      "Joe": 1933,
      "Studi": 1934,
      "Caboc": 1935,
      "India": 1936,
      "perfor": 1937,
      "Caliber": 1938,
      "production": 1939,
      "Ellen": 1940,
      "Bruc": 1941,
      "reaming": 1942,
      "Clau": 1943,
      "bbayi": 1944,
      "hoop": 1945,
      "onnor": 1946,
      "friends": 1947,
      "Passage": 1948,
      "Beggar": 1949,
      "Japan": 1950,
      "Cantinfl": 1951,
      "Americathon": 1952,
      "Cabocla": 1953,
      "0s": 1954,
      "Bab": 1955,
      "Gra": 1956,
      "Jef": 1957,
      "Kar": 1958,
      "Kumar": 1959,
      "Naray": 1960,
      "Post": 1961,
      "Red": 1962,
      "Silent": 1963,
      "To": 1964,
      "Ter": 1965,
      "Tam": 1966,
      "Us_": 1967,
      "Wood": 1968,
      "_7": 1969,
      "_9": 1970,
      "_In": 1971,
      "_Williams": 1972,
      "_Christmas": 1973,
      "car": 1974,
      "cent": 1975,
      "ders": 1976,
      "fon": 1977,
      "kan": 1978,
      "mier": 1979,
      "nold": 1980,
      "rs": 1981,
      "rich": 1982,
      "sl": 1983,
      "woman": 1984,
      "Cain_": 1985,
      "orig": 1986,
      "ther": 1987,
      "ise": 1988,
      "is_M": 1989,
      "am_S": 1990,
      "at_": 1991,
      "ose": 1992,
      "Calig": 1993,
      "_Miranda": 1994,
      "_Ba": 1995,
      "_Bo": 1996,
      "_Bill_": 1997,
      "This": 1998,
      "_Regardless": 1999,
      "Prem_G": 2000,
      "Prem_K": 2001,
      "rab": 2002,
      "Bees": 2003,
      "Casanov": 2004,
      "s_of": 2005,
      "ova": 2006,
      "ava": 2007,
      "own_": 2008,
      "Cat_Run": 2009,
      "America_A": 2010,
      "_Ad": 2011,
      "_Ar": 2012,
      "_At": 2013,
      "to_the_": 2014,
      "evision": 2015,
      "2005_film": 2016,
      "Cape_N": 2017,
      "_Dr": 2018,
      "2012_film": 2019,
      "orest": 2020,
      "_Cl": 2021,
      "ull": 2022,
      "Carry_On_Jatta": 2023,
      "Carry_On_Teacher": 2024,
      "iva_": 2025,
      "Catch_That": 2026,
      "Alan_": 2027,
      "_of_Dream": 2028,
      "_Thapp": 2029,
      "1976_film": 2030,
      "plot": 2031,
      "ekhar": 2032,
      "scrip": 2033,
      "Carny_": 2034,
      "Calling_Dr": 2035,
      "Catch_Us_": 2036,
      "Moon_": 2037,
      "Edward": 2038,
      "1927_film": 2039,
      "Campus_": 2040,
      "y_Ricks": 2041,
      "Carmen_Miranda": 2042,
      "Carry_On_Regardless": 2043,
      "mond": 2044,
      "Carolina_Moon_": 2045,
      "Casino_Tyco": 2046,
      "Kenneth_Williams": 2047,
      "side_": 2048,
      "Amma_": 2049,
      "Premaku": 2050,
      "_Babu": 2051,
      "Carry_On_Up_the_Jungle": 2052,
      "Again": 2053,
      "s_Haunted": 2054,
      "Casting_By": 2055,
      "Cleo": 2056,
      "_Bacon": 2057,
      "Cappy_Ricks": 2058,
      "Caccia_": 2059,
      "Cannery_R": 2060,
      "documentary": 2061,
      "Capitol_": 2062,
      "Caliber_9": 2063,
      "Jeff": 2064,
      "Silent_film": 2065,
      "_Bill_Elliott": 2066,
      "America_Abbayi": 2067,
      "Cape_No": 2068,
      "Catch_That_Kid": 2069,
      "_of_Dreams": 2070,
      "Catch_Us_If_You_Can_": 2071,
      "Casino_Tycoon_": 2072,
      "s_Haunted_Christmas": 2073,
      "Ber": 2074,
      "Dick": 2075,
      "Denn": 2076,
      "Hay": 2077,
      "Howard": 2078,
      "Hudson": 2079,
      "Jr": 2080,
      "Lor": 2081,
      "Luc": 2082,
      "Mat": 2083,
      "Pal": 2084,
      "Ru": 2085,
      "Su": 2086,
      "Sing": 2087,
      "Son": 2088,
      "Sim": 2089,
      "Vs": 2090,
      "back": 2091,
      "cer": 2092,
      "eek": 2093,
      "edit": 2094,
      "kins": 2095,
      "not": 2096,
      "filmmak": 2097,
      "ribut": 2098,
      "amash": 2099,
      "ome": 2100,
      "Preacher": 2101,
      "Cars": 2102,
      "let": 2103,
      "Carri": 2104,
      "Carrot": 2105,
      "akar": 2106,
      "2006": 2107,
      "2007": 2108,
      "illa": 2109,
      "Capot": 2110,
      "orea": 2111,
      "1995": 2112,
      "States": 2113,
      "anca": 2114,
      "fect": 2115,
      "anner": 2116,
      "oodu": 2117,
      "insk": 2118,
      "oster": 2119,
      "blanca": 2120,
      "rishn": 2121,
      "Akkin": 2122,
      "work": 2123,
      "after": 2124,
      "Sunil": 2125,
      "South": 2126,
      "osmos": 2127,
      "Carrotblanca": 2128,
      "Akkinen": 2129,
      "),": 2130,
      "44": 2131,
      "71": 2132,
      "Co": 2133,
      "Das": 2134,
      "Dou": 2135,
      "Ey": 2136,
      "Fre": 2137,
      "Fern": 2138,
      "Gen": 2139,
      "Hal": 2140,
      "Ham": 2141,
      "Hatt": 2142,
      "Ly": 2143,
      "Oli": 2144,
      "Pri": 2145,
      "Rick": 2146,
      "Sol": 2147,
      "Tr": 2148,
      "Ud": 2149,
      "Wong": 2150,
      "_E": 2151,
      "_l": 2152,
      "_p": 2153,
      "adi": 2154,
      "bur": 2155,
      "cen": 2156,
      "den": 2157,
      "during": 2158,
      "ei": 2159,
      "ears": 2160,
      "fiction": 2161,
      "iev": 2162,
      "ly_W": 2163,
      "part": 2164,
      "ra_S": 2165,
      "tz": 2166,
      "uary": 2167,
      "vey": 2168,
      "ya_": 2169,
      "anni": 2170,
      "erman": 2171,
      "orth": 2172,
      "this": 2173,
      "on_B": 2174,
      "oney": 2175,
      "e_V": 2176,
      "e_Le": 2177,
      "a_G": 2178,
      "esw": 2179,
      "olf": 2180,
      "_Sal": 2181,
      "_Sch": 2182,
      "_Saal": 2183,
      "_Bh": 2184,
      "_Banan": 2185,
      "itch": 2186,
      "ouch": 2187,
      "Amor_": 2188,
      "Canv": 2189,
      "Call_of": 2190,
      "s_Kid": 2191,
      "_the_B": 2192,
      "avi": 2193,
      "i_G": 2194,
      "ardly_W": 2195,
      "ime": 2196,
      "for_T": 2197,
      "_Hol": 2198,
      "illai": 2199,
      "Mark": 2200,
      "March": 2201,
      "2011_film": 2202,
      "_Cost": 2203,
      "_Cosmos": 2204,
      "Castles_": 2205,
      "Carry_On_Henry": 2206,
      "Carry_On_Again": 2207,
      "Carry_On_Cleo": 2208,
      "1993_film": 2209,
      "1991_film": 2210,
      "Roger": 2211,
      "1962_film": 2212,
      "Prakash": 2213,
      "1972_film": 2214,
      "_Jack": 2215,
      "_James": 2216,
      "anna": 2217,
      "1939_film": 2218,
      "Call_Me_Claus": 2219,
      "Cannes": 2220,
      "ara_P": 2221,
      "as_is_M": 2222,
      "Andrew": 2223,
      "Carlos": 2224,
      "Lauren": 2225,
      "well_": 2226,
      "_Spying": 2227,
      "Carrie_Pil": 2228,
      "Carry_On_Sc": 2229,
      "Carry_On_Spying": 2230,
      "y_Business": 2231,
      "premier": 2232,
      "Canadian_Bacon": 2233,
      "rishna": 2234,
      "Blood": 2235,
      "Camping_Cosmos": 2236,
      "side": 2237,
      "alkan": 2238,
      "Sid_James": 2239,
      "Before_the_Post": 2240,
      "_Heroes": 2241,
      "Casino_Raiders": 2242,
      "Mauric": 2243,
      "t_Hardly_W": 2244,
      "Carrington_": 2245,
      "Studios": 2246,
      "Cantinflas_": 2247,
      "Caligula_": 2248,
      "_Baad_": 2249,
      "Bees_Saal": 2250,
      "_Bananas_is_M": 2251,
      "Call_of_Heroes": 2252,
      "s_Kid_": 2253,
      "for_Two": 2254,
      "Carry_On_Again_Doctor": 2255,
      "Carrie_Pilby_": 2256,
      "Carry_On_Screaming": 2257,
      "Before_the_Postman": 2258,
      "t_Hardly_Wait": 2259,
      "Bees_Saal_Baad_": 2260,
      "_Bananas_is_My_Business": 2261,
      "Aar": 2262,
      "Cu": 2263,
      "Cur": 2264,
      "Der": 2265,
      "Kat": 2266,
      "Korea": 2267,
      "Lis": 2268,
      "Padm": 2269,
      "Rand": 2270,
      "Sand": 2271,
      "edian": 2272,
      "fire": 2273,
      "fred": 2274,
      "mit": 2275,
      "mur": 2276,
      "mund": 2277,
      "oto": 2278,
      "pse": 2279,
      "pock": 2280,
      "ré": 2281,
      "sp": 2282,
      "vs": 2283,
      "ving": 2284,
      "yc": 2285,
      "year": 2286,
      "zi": 2287,
      "anar": 2288,
      "arren": 2289,
      "reg": 2290,
      "rel": 2291,
      "oro": 2292,
      "thur": 2293,
      "ics": 2294,
      "ola": 2295,
      "ole": 2296,
      "olph": 2297,
      "Prefon": 2298,
      "agavan": 2299,
      "Amour": 2300,
      "Thomp": 2301,
      "2020": 2302,
      "Premin": 2303,
      "aval": 2304,
      "umber": 2305,
      "Marg": 2306,
      "Mario": 2307,
      "ular": 2308,
      "Rock": 2309,
      "Catchfire": 2310,
      "comedian": 2311,
      "ancer": 2312,
      "ution": 2313,
      "release": 2314,
      "Arthur": 2315,
      "appan": 2316,
      "clone": 2317,
      "ewart": 2318,
      "José": 2319,
      "Prayikk": 2320,
      "brand": 2321,
      "worth": 2322,
      "Jones": 2323,
      "Keep": 2324,
      "love": 2325,
      "ixie": 2326,
      "Kathle": 2327,
      "Pratidwani": 2328,
      "historical": 2329,
      "Sarah": 2330,
      "Angel": 2331,
      "television": 2332,
      "Cyclone": 2333,
      "Pickpock": 2334,
      "vaders": 2335,
      "distribut": 2336,
      "filmmaker": 2337,
      "Prefontain": 2338,
      "Amourous": 2339,
      "Thompson": 2340,
      "Pickpocket": 2341,
      "00": 2342,
      "54": 2343,
      "At": 2344,
      "Cind": 2345,
      "Corn": 2346,
      "Cec": 2347,
      "Fox": 2348,
      "Gill": 2349,
      "Hear": 2350,
      "Liv": 2351,
      "Rag": 2352,
      "Sal": 2353,
      "aim": 2354,
      "bi": 2355,
      "hel": 2356,
      "law": 2357,
      "my_": 2358,
      "nes": 2359,
      "nat": 2360,
      "national": 2361,
      "oz": 2362,
      "ooth": 2363,
      "pass": 2364,
      "tes": 2365,
      "ura": 2366,
      "uy_M": 2367,
      "into": 2368,
      "in_Cost": 2369,
      "ans": 2370,
      "film_": 2371,
      "e_I": 2372,
      "e_Love_": 2373,
      "al_S": 2374,
      "escu": 2375,
      "is_B": 2376,
      "aser": 2377,
      "eling": 2378,
      "osed": 2379,
      "osely": 2380,
      "oli": 2381,
      "_Sund": 2382,
      "_Mo": 2383,
      "_Moun": 2384,
      "_My_S": 2385,
      "_Boy": 2386,
      "_Balkan": 2387,
      "_Re": 2388,
      "_Rat": 2389,
      "Can_Th": 2390,
      "Beat": 2391,
      "Call_J": 2392,
      "s_J": 2393,
      "s_Ey": 2394,
      "ods": 2395,
      "oven": 2396,
      "avres": 2397,
      "i_F": 2398,
      "berl": 2399,
      "ard_": 2400,
      "ents": 2401,
      "_Gu": 2402,
      "_Dup": 2403,
      "Mario_": 2404,
      "2015": 2405,
      "2014_film": 2406,
      "ore_": 2407,
      "1985_film": 2408,
      "Casta_D": 2409,
      "Carry_On_Jack": 2410,
      "Carry_On_Pickpocket": 2411,
      "1999": 2412,
      "1995_film": 2413,
      "ive_F": 2414,
      "Catch_My_S": 2415,
      "Carol_I": 2416,
      "Pras": 2417,
      "ept": 2418,
      "_Rog": 2419,
      "Inter": 2420,
      "1958": 2421,
      "1954_film": 2422,
      "_Thamash": 2423,
      "Carnival_St": 2424,
      "_Style": 2425,
      "California": 2426,
      "Belinsk": 2427,
      "producer": 2428,
      "Deb": 2429,
      "Cat_Vs": 2430,
      "Charles_": 2431,
      "in_Capri": 2432,
      "Castle_on_the_": 2433,
      "Castle_Keep": 2434,
      "others": 2435,
      "Cadavres": 2436,
      "y_Sp": 2437,
      "Preethi_M": 2438,
      "Carnival_in_F": 2439,
      "Carnival_in_Cost": 2440,
      "Andy_": 2441,
      "clar": 2442,
      "e_Nodu": 2443,
      "ubl": 2444,
      "to_Korea": 2445,
      "American_Love_": 2446,
      "Cassino_": 2447,
      "ugust": 2448,
      "Calling_All_Cur": 2449,
      "Calendar_Girls": 2450,
      "Calendar_Girl_Mur": 2451,
      "Italian_Style": 2452,
      "e_Dixie": 2453,
      "Casino_Jack": 2454,
      "Canadian_Moun": 2455,
      "Alek": 2456,
      "a_Rica": 2457,
      "landers_": 2458,
      "Kannada_": 2459,
      "Beauties_in_Capri": 2460,
      "American_Born": 2461,
      "Cat_and_Dup": 2462,
      "Jonath": 2463,
      "cats": 2464,
      "arayana": 2465,
      "Carson_City_Cyclone": 2466,
      "Evil": 2467,
      "urns": 2468,
      "Prem_Asta": 2469,
      "Prem_Mhanje_Prem_Mhanje_": 2470,
      "t_Buy_M": 2471,
      "adu_Thamash": 2472,
      "Camping_2": 2473,
      "Cadet_Kelly": 2474,
      "omic_In": 2475,
      "adapt": 2476,
      "Antonio": 2477,
      "Predicament_": 2478,
      "character": 2479,
      "ties_vs": 2480,
      "Caprice_Italian_Style": 2481,
      "Calcutta_71": 2482,
      "Predator_2": 2483,
      "usbands": 2484,
      "Cabaret_Balkan": 2485,
      "_Adventure": 2486,
      "_Atomic_In": 2487,
      "Capote_": 2488,
      "Canvas_": 2489,
      "ara_Pappan": 2490,
      "Prayikkara_Pappan": 2491,
      "Amourous_Adventure": 2492,
      "is_Be_Dixie": 2493,
      "Can_This_Be_Dixie": 2494,
      "Call_Jane": 2495,
      "s_Eye_": 2496,
      "Casta_Diva_": 2497,
      "Catch_My_Soul": 2498,
      "Carol_I_": 2499,
      "Carnival_Story": 2500,
      "Castle_on_the_Hudson": 2501,
      "Preethi_Madu_Thamash": 2502,
      "Carnival_in_Flanders_": 2503,
      "Carnival_in_Costa_Rica": 2504,
      "Cassino_to_Korea": 2505,
      "Calling_All_Curs": 2506,
      "Calendar_Girl_Murders": 2507,
      "Canadian_Mounties_vs": 2508,
      "Cat_and_Dupli": 2509,
      "Prem_Mhanje_Prem_Mhanje_Prem_Asta": 2510,
      "t_Buy_Me_Love_": 2511,
      "_Atomic_Invaders": 2512,
      "Preethi_Madu_Thamashe_Nodu": 2513,
      "Crim": 2514,
      "Craz": 2515,
      "Dem": 2516,
      "Dancer": 2517,
      "Lyn": 2518,
      "Mel": 2519,
      "Pa": 2520,
      "Re": 2521,
      "Ray": 2522,
      "Reg": 2523,
      "Sang": 2524,
      "Winds": 2525,
      "Zero": 2526,
      "aan": 2527,
      "famil": 2528,
      "gi": 2529,
      "iu": 2530,
      "lan": 2531,
      "later": 2532,
      "sist": 2533,
      "tell": 2534,
      "win": 2535,
      "wal": 2536,
      "waas": 2537,
      "rep": 2538,
      "three": 2539,
      "icyc": 2540,
      "omin": 2541,
      "ature": 2542,
      "atyan": 2543,
      "Cart": 2544,
      "Carpo": 2545,
      "Prema": 2546,
      "Best": 2547,
      "Beeth": 2548,
      "ural": 2549,
      "aved": 2550,
      "ows": 2551,
      "sha": 2552,
      "2010": 2553,
      "2013": 2554,
      "allone": 2555,
      "1990": 2556,
      "Raiders": 2557,
      "utters": 2558,
      "peri": 2559,
      "Candles": 2560,
      "Prairi": 2561,
      "Prawaas": 2562,
      "Dec": 2563,
      "Declar": 2564,
      "Your": 2565,
      "erox": 2566,
      "ipp": 2567,
      "Harold": 2568,
      "Phyl": 2569,
      "Cassid": 2570,
      "Cassandra": 2571,
      "Wildcats": 2572,
      "ankar": 2573,
      "German": 2574,
      "Ramesh": 2575,
      "Sky": 2576,
      "Phillip": 2577,
      "Perfect": 2578,
      "ussian": 2579,
      "lights": 2580,
      "loosely": 2581,
      "ootlights": 2582,
      "Ambush": 2583,
      "rself": 2584,
      "certo": 2585,
      "Carried": 2586,
      "Cinders": 2587,
      "Crazy": 2588,
      "Windsor": 2589,
      "Beethoven": 2590,
      "Prairie": 2591,
      "Phyllis": 2592,
      "31": 2593,
      "Af": 2594,
      "Ax": 2595,
      "August": 2596,
      "Bon": 2597,
      "Bhar": 2598,
      "Com": 2599,
      "Del": 2600,
      "Fame": 2601,
      "Hung": 2602,
      "Jer": 2603,
      "Jain": 2604,
      "Jane": 2605,
      "Jason": 2606,
      "Kan": 2607,
      "Law": 2608,
      "Matt": 2609,
      "Madh": 2610,
      "Nanc": 2611,
      "Night_": 2612,
      "Paradi": 2613,
      "Ral": 2614,
      "Rev": 2615,
      "Sov": 2616,
      "Sept": 2617,
      "Tan": 2618,
      "Terr": 2619,
      "Tarang": 2620,
      "Vir": 2621,
      "Yor": 2622,
      "_Carry_": 2623,
      "_Carl": 2624,
      "_Evil": 2625,
      "banner": 2626,
      "cre": 2627,
      "cinem": 2628,
      "eant": 2629,
      "hish": 2630,
      "ient": 2631,
      "jun": 2632,
      "lam": 2633,
      "oh": 2634,
      "oo": 2635,
      "par": 2636,
      "s_M": 2637,
      "sur": 2638,
      "went": 2639,
      "way_": 2640,
      "yn_": 2641,
      "yan_": 2642,
      "yab": 2643,
      "aril": 2644,
      "an_M": 2645,
      "starr": 2646,
      "stev": 2647,
      "stein": 2648,
      "ilv": 2649,
      "or_N": 2650,
      "thir": 2651,
      "e_54": 2652,
      "ala_S": 2653,
      "and_Ro": 2654,
      "and_T": 2655,
      "and_Jack": 2656,
      "rie": 2657,
      "a_Jo": 2658,
      "ed_F": 2659,
      "iss_": 2660,
      "am_B": 2661,
      "y_of": 2662,
      "omen": 2663,
      "ata": 2664,
      "osa_": 2665,
      "olution": 2666,
      "them": 2667,
      "_Sex": 2668,
      "_Mac": 2669,
      "_Mak": 2670,
      "_Bar_": 2671,
      "chi_Ch": 2672,
      "ada_D": 2673,
      "adventure": 2674,
      "_Rom": 2675,
      "_Ravichandran": 2676,
      "aylor": 2677,
      "Premab": 2678,
      "Premature": 2679,
      "t_on_": 2680,
      "irk": 2681,
      "Canada_D": 2682,
      "Chat": 2683,
      "Casqu": 2684,
      "Casey": 2685,
      "Calle_54": 2686,
      "_the_Wildcats": 2687,
      "anger": 2688,
      "Cats": 2689,
      "i_and_Ro": 2690,
      "ardo": 2691,
      "_A_F": 2692,
      "_Away_": 2693,
      "ever_": 2694,
      "for_the_Wildcats": 2695,
      "_Hen": 2696,
      "_Husbands": 2697,
      "Capern": 2698,
      "_Gr": 2699,
      "_Go_": 2700,
      "_De": 2701,
      "_Di": 2702,
      "_Day": 2703,
      "uman_": 2704,
      "Marí": 2705,
      "ott_": 2706,
      "2018": 2707,
      "apas": 2708,
      "apur": 2709,
      "Shir": 2710,
      "1987": 2711,
      "1982_film": 2712,
      "_Crime": 2713,
      "Castle": 2714,
      "endr": 2715,
      "endra": 2716,
      "es_Perfect": 2717,
      "Albert": 2718,
      "_Pati": 2719,
      "ishing": 2720,
      "Carol_": 2721,
      "song": 2722,
      "_New": 2723,
      "_Rock": 2724,
      "ances": 2725,
      "utter": 2726,
      "while": 2727,
      "1942_film": 2728,
      "ethods": 2729,
      "_Whoop": 2730,
      "lesh": 2731,
      "_Shutters": 2732,
      "Caroline": 2733,
      "Call_Me_Crazy": 2734,
      "resslaw": 2735,
      "lyn": 2736,
      "Michel": 2737,
      "Brun": 2738,
      "Arm": 2739,
      "Calling_Wild": 2740,
      "uka": 2741,
      "ourney": 2742,
      "Before_You": 2743,
      "Call_of_the_Ice": 2744,
      "Call_of_the_Prairie": 2745,
      "played": 2746,
      "Casper_": 2747,
      "Edmund": 2748,
      "a_Day": 2749,
      "a_Kiss_": 2750,
      "Harvey": 2751,
      "Behind_the_F": 2752,
      "Behind_Cl": 2753,
      "_Yourself": 2754,
      "Timberl": 2755,
      "of_the_Night_": 2756,
      "Calling_All_Mar": 2757,
      "Calling_All_Husbands": 2758,
      "Calendar_Girls_": 2759,
      "Cabaret_Dancer": 2760,
      "Castle_of_Evil": 2761,
      "hoe": 2762,
      "Caroline_and_Jack": 2763,
      "If_You_Can": 2764,
      "Ground": 2765,
      "Beauties_of_the_Night_": 2766,
      "orses": 2767,
      "Casual_Sex": 2768,
      "Casual_Day": 2769,
      "Cannonball_": 2770,
      "Cat_and_Mouse_": 2771,
      "Calm_Yourself": 2772,
      "appearance": 2773,
      "appearances": 2774,
      "Prelude_to_a_Kiss_": 2775,
      "Emil": 2776,
      "Nagesw": 2777,
      "e_With": 2778,
      "Cairo_Declar": 2779,
      "ent_Zero": 2780,
      "Pray_for_the_Wildcats": 2781,
      "Screen": 2782,
      "Before_the_World": 2783,
      "Canyon_Ambush": 2784,
      "Camping_3": 2785,
      "_Jones": 2786,
      "_Jones_": 2787,
      "Cadet_Girl": 2788,
      "artha": 2789,
      "Precious_": 2790,
      "_Set_on_": 2791,
      "Cabin_Fever": 2792,
      "Cabin_Fever_": 2793,
      "Call_It_Luck": 2794,
      "Call_It_a_Day": 2795,
      "Catch_Me_If_You_Can": 2796,
      "Carnival_of_Crime": 2797,
      "Premium_": 2798,
      "Cash_and_Carry_": 2799,
      "Among_the_Cinders": 2800,
      "Cactus_Mak": 2801,
      "Cabin_Boy": 2802,
      "Gordon_": 2803,
      "Dinesh": 2804,
      "arshini": 2805,
      "_Concerto": 2806,
      "Cinema_of": 2807,
      "Stock": 2808,
      "Dennis": 2809,
      "Cannes_Man": 2810,
      "murder": 2811,
      "2020_film": 2812,
      "Preminchi_Ch": 2813,
      "Prefontaine_": 2814,
      "biograph": 2815,
      "osed_Shutters": 2816,
      "i_Flight": 2817,
      "ive_Film": 2818,
      "Belinsky_": 2819,
      "adaptation": 2820,
      "Carpool_": 2821,
      "Candleshoe": 2822,
      "Cassidy_of": 2823,
      "Carried_Away_": 2824,
      "Beethoven_Concerto": 2825,
      "hishek": 2826,
      "_Bar_20": 2827,
      "Premabhishek": 2828,
      "Canada_Di_Flight": 2829,
      "Casque_d": 2830,
      "i_and_Robin": 2831,
      "_A_Five_Film": 2832,
      "Capernaum": 2833,
      "_Patient_Zero": 2834,
      "_Whoopi_and_Robin": 2835,
      "Calling_Wild_Bill_Elliott": 2836,
      "Before_You_Go_": 2837,
      "Behind_the_Footlights": 2838,
      "Behind_Closed_Shutters": 2839,
      "Timberlane": 2840,
      "Calling_All_Marines": 2841,
      "Caroline_and_Jackie": 2842,
      "Cairo_Declaration_": 2843,
      "Before_the_World_Set_on_": 2844,
      "Cactus_Makes_Perfect": 2845,
      "Preminchi_Choodu": 2846,
      "Cassidy_of_Bar_20": 2847,
      "Before_the_World_Set_on_Fire": 2848,
      "\".": 2849,
      "Ari": 2850,
      "Apr": 2851,
      "Bal": 2852,
      "Bry": 2853,
      "Dumb": 2854,
      "Fly": 2855,
      "Forest": 2856,
      "Gur": 2857,
      "Her": 2858,
      "Hill": 2859,
      "Im": 2860,
      "Iv": 2861,
      "Je": 2862,
      "Kim": 2863,
      "Kesar": 2864,
      "Lind": 2865,
      "Lasse": 2866,
      "My": 2867,
      "Mail": 2868,
      "Nov": 2869,
      "Nair": 2870,
      "Nichol": 2871,
      "Ow": 2872,
      "Oct": 2873,
      "Ruth": 2874,
      "Sre": 2875,
      "Suk": 2876,
      "Sean": 2877,
      "Vish": 2878,
      "Yudd": 2879,
      "ahan": 2880,
      "day": 2881,
      "eu": 2882,
      "father": 2883,
      "gin": 2884,
      "iband": 2885,
      "millon": 2886,
      "no": 2887,
      "sch": 2888,
      "sut": 2889,
      "sound": 2890,
      "ten": 2891,
      "tra": 2892,
      "ery": 2893,
      "ington": 2894,
      "rece": 2895,
      "orussian": 2896,
      "thy": 2897,
      "thon": 2898,
      "ico": 2899,
      "andi": 2900,
      "isabeth": 2901,
      "1919": 2902,
      "tertain": 2903,
      "olid": 2904,
      "Pregg": 2905,
      "adag": 2906,
      "oup": 2907,
      "ago": 2908,
      "Premalu": 2909,
      "Premedit": 2910,
      "Premsut": 2911,
      "ircu": 2912,
      "iranj": 2913,
      "musician": 2914,
      "rac": 2915,
      "raj": 2916,
      "Chak": 2917,
      "Beach": 2918,
      "lier": 2919,
      "aust": 2920,
      "angal": 2921,
      "aker": 2922,
      "berto": 2923,
      "ellill": 2924,
      "icholl": 2925,
      "Caprich": 2926,
      "Anthon": 2927,
      "igyab": 2928,
      "abes": 2929,
      "2016": 2930,
      "1989": 2931,
      "Rach": 2932,
      "ived": 2933,
      "Cabob": 2934,
      "Alb": 2935,
      "ike": 2936,
      "indows": 2937,
      "iew": 2938,
      "Ind": 2939,
      "Carnivel": 2940,
      "ocaust": 2941,
      "olly": 2942,
      "romance": 2943,
      "estin": 2944,
      "Believ": 2945,
      "Belorussian": 2946,
      "aje": 2947,
      "France": 2948,
      "Elisabeth": 2949,
      "Brad": 2950,
      "oyfriends": 2951,
      "Pratiband": 2952,
      "Pratigyab": 2953,
      "Admir": 2954,
      "Moon": 2955,
      "Christian": 2956,
      "André": 2957,
      "before": 2958,
      "pewriter": 2959,
      "izet": 2960,
      "bruary": 2961,
      "ravind": 2962,
      "espie": 2963,
      "anyas": 2964,
      "sky": 2965,
      "orsese": 2966,
      "Firebrand": 2967,
      "Norman": 2968,
      "Bhagavan": 2969,
      "Doroth": 2970,
      "Hugh": 2971,
      "Powder": 2972,
      "lanco": 2973,
      "ujari": 2974,
      "Premasooth": 2975,
      "Premalek": 2976,
      "Beefc": 2977,
      "ollerbabes": 2978,
      "Direct": 2979,
      "February": 2980,
      "premiered": 2981,
      "distributed": 2982,
      "family": 2983,
      "icycles": 2984,
      "December": 2985,
      "Axanar": 2986,
      "Paradis": 2987,
      "Ralph": 2988,
      "September": 2989,
      "Tarangalu": 2990,
      "wenty": 2991,
      "starred": 2992,
      "third": 2993,
      "April": 2994,
      "Flyers": 2995,
      "Lasseter": 2996,
      "Yuddham": 2997,
      "millonaria": 2998,
      "Preggoland": 2999,
      "Premeditated": 3000,
      "Premsutra": 3001,
      "ircuit": 3002,
      "ellillu": 3003,
      "ichollu": 3004,
      "Caboblanco": 3005,
      "Pratibandh": 3006,
      "Pratigyabadh": 3007,
      "Admiral": 3008,
      "Premasoothram": 3009,
      "Ab": 3010,
      "Bum": 3011,
      "Be_S": 3012,
      "For": 3013,
      "Green": 3014,
      "Gallone": 3015,
      "Hong": 3016,
      "Len": 3017,
      "Lang": 3018,
      "Nick": 3019,
      "Pun": 3020,
      "Que": 3021,
      "Rep": 3022,
      "Sy": 3023,
      "Sug": 3024,
      "Srin": 3025,
      "Tur": 3026,
      "Tai": 3027,
      "Vas": 3028,
      "Vac": 3029,
      "_with": 3030,
      "aar": 3031,
      "came": 3032,
      "ey_": 3033,
      "ga": 3034,
      "ge_": 3035,
      "ies_": 3036,
      "ki": 3037,
      "ly_Sp": 3038,
      "ming": 3039,
      "no_": 3040,
      "nja": 3041,
      "ober": 3042,
      "ral": 3043,
      "radh": 3044,
      "spe": 3045,
      "s_Shadow": 3046,
      "tiv": 3047,
      "teen": 3048,
      "vol": 3049,
      "zabeth": 3050,
      "és": 3051,
      "araj": 3052,
      "in_P": 3053,
      "ano": 3054,
      "than_": 3055,
      "only": 3056,
      "e_of_the_": 3057,
      "die_": 3058,
      "a_de_": 3059,
      "a_Dead": 3060,
      "esc": 3061,
      "ame_": 3062,
      "elson": 3063,
      "el_T": 3064,
      "y_millonaria": 3065,
      "ata_": 3066,
      "Cala": 3067,
      "_Sar": 3068,
      "_Serg": 3069,
      "_Soul": 3070,
      "_Smith": 3071,
      "_Sanyas": 3072,
      "_Mah": 3073,
      "_Miller": 3074,
      "_Methods": 3075,
      "_Bar": 3076,
      "_Ber": 3077,
      "_Ben": 3078,
      "_Bur": 3079,
      "_Buri": 3080,
      "ade_": 3081,
      "out_": 3082,
      "aglam": 3083,
      "_Rollerbabes": 3084,
      "Prem_": 3085,
      "Premam": 3086,
      "Premam_": 3087,
      "Prem_Sanyas": 3088,
      "t_or_N": 3089,
      "Can_W": 3090,
      "Chuck": 3091,
      "Bear": 3092,
      "Bett": 3093,
      "Cass_": 3094,
      "Casab": 3095,
      "lif": 3096,
      "ida": 3097,
      "o_D": 3098,
      "acc": 3099,
      "an_F": 3100,
      "ow_W": 3101,
      "eller": 3102,
      "Carry_on": 3103,
      "2008": 3104,
      "_Hay": 3105,
      "_Human_": 3106,
      "_Horses": 3107,
      "illed": 3108,
      "Joan": 3109,
      "abi": 3110,
      "Mary_": 3111,
      "Marines": 3112,
      "2014": 3113,
      "2016_film": 3114,
      "She": 3115,
      "ucci": 3116,
      "athi_V": 3117,
      "_Code": 3118,
      "_Circuit": 3119,
      "American_Methods": 3120,
      "_Father": 3121,
      "_Ferox": 3122,
      "Castelo": 3123,
      "Carry_On_Kesar": 3124,
      "Carry_On_Admiral": 3125,
      "Wilson_": 3126,
      "_Khan": 3127,
      "_Khan_": 3128,
      "1998_film": 3129,
      "1994_film": 3130,
      "ivas": 3131,
      "Cabez": 3132,
      "Cabiri": 3133,
      "Catch_the_F": 3134,
      "_Pol": 3135,
      "_Pep": 3136,
      "_Pere": 3137,
      "_Pellillu": 3138,
      "Carolyn_": 3139,
      "epp": 3140,
      "ep_K": 3141,
      "hane": 3142,
      "hanam_": 3143,
      "Lee": 3144,
      "Leo": 3145,
      "Lee_": 3146,
      "_North": 3147,
      "_Name_": 3148,
      "ut_Sh": 3149,
      "1963_film": 3150,
      "1948_film": 3151,
      "1946_film": 3152,
      "1944_film": 3153,
      "Carnival_Bo": 3154,
      "Carnival_Rock": 3155,
      "ocaly": 3156,
      "_War": 3157,
      "1979_film": 3158,
      "_Station": 3159,
      "_Stone_": 3160,
      "_States": 3161,
      "Prema_Tarangalu": 3162,
      "Prema_Yuddham": 3163,
      "_Shar": 3164,
      "_Show_W": 3165,
      "ekam_S": 3166,
      "Beau_Pere": 3167,
      "California_Gold": 3168,
      "California_Firebrand": 3169,
      "aidi": 3170,
      "Call_Me_by_": 3171,
      "Call_Me_Mad": 3172,
      "Call_Me_Elisabeth": 3173,
      "Cannot_": 3174,
      "Canned_F": 3175,
      "Castle_in_the_": 3176,
      "Castle_in_the_Sk": 3177,
      "super": 3178,
      "ark_Shadow": 3179,
      "adha": 3180,
      "adhi": 3181,
      "ired": 3182,
      "Catch_as_": 3183,
      "Catch_Can_": 3184,
      "geria": 3185,
      "eeing_": 3186,
      "ukka": 3187,
      "ara_L": 3188,
      "ara_Rao": 3189,
      "Cadence_": 3190,
      "Mohan": 3191,
      "Call_of_the_Blood": 3192,
      "Call_of_the_Rock": 3193,
      "Carnival_Que": 3194,
      "man_and_T": 3195,
      "e_He": 3196,
      "e_Heav": 3197,
      "issing_": 3198,
      "Bellman_and_T": 3199,
      "a_Dark_Shadow": 3200,
      "Behind_Show_W": 3201,
      "being": 3202,
      "Love": 3203,
      "_Blu": 3204,
      "American_Hear": 3205,
      "American_Crim": 3206,
      "American_Flyers": 3207,
      "Guy": 3208,
      "encer": 3209,
      "Prathap": 3210,
      "Time": 3211,
      "Campus_Code": 3212,
      "air_One": 3213,
      "Cannibal_Hol": 3214,
      "Cannibal_Rollerbabes": 3215,
      "Cannibal_Ferox": 3216,
      "team": 3217,
      "etty": 3218,
      "Calendar_Girl_": 3219,
      "Carmen_Jones_": 3220,
      "Cabaret_Paradis": 3221,
      "Castle_of_Blood": 3222,
      "Cairo": 3223,
      "a_Pillai": 3224,
      "Brian": 3225,
      "Amma_Pillai": 3226,
      "_the_Missing_": 3227,
      "Beauties_on_B": 3228,
      "Patricia_": 3229,
      "Among_the_Missing_": 3230,
      "Chandra": 3231,
      "American_Bet": 3232,
      "American_Boyfriends": 3233,
      "Calm_with": 3234,
      "ake_a_Jo": 3235,
      "ikkukka": 3236,
      "Prelude_to_Fame": 3237,
      "Prelude_to_Axanar": 3238,
      "ut_Up": 3239,
      "ut_Dumb": 3240,
      "United_States": 3241,
      "_Murder": 3242,
      "Cast_a_Dead": 3243,
      "Cast_a_Dark_Shadow": 3244,
      "Vincent": 3245,
      "Prep_and": 3246,
      "Be_Beautiful_B": 3247,
      "ian_language": 3248,
      "2022_film": 3249,
      "t_Be_Heav": 3250,
      "y_Friend": 3251,
      "_Beau": 3252,
      "Prema_Pichollu": 3253,
      "adapted": 3254,
      "Pratidwandi": 3255,
      "e_Take_a_Jo": 3256,
      "Predicament": 3257,
      "Because_of_the_": 3258,
      "Because_He": 3259,
      "Being_Human_": 3260,
      "Catch_Me_If_You_Can_": 3261,
      "Carnival_of_Soul": 3262,
      "California_Dreamin": 3263,
      "California_Dreaming_": 3264,
      "Carnal_Circuit": 3265,
      "Prathyekam_S": 3266,
      "Beautiful_But_Dumb": 3267,
      "ific": 3268,
      "Elizabeth": 3269,
      "_Rush_": 3270,
      "Prem_Pujari": 3271,
      "Beloved_": 3272,
      "Spanish_language": 3273,
      "ymore": 3274,
      "Behind_the_Screen": 3275,
      "Babu": 3276,
      "Derek": 3277,
      "Live_With": 3278,
      "e_It_or_N": 3279,
      "s_Journey": 3280,
      "ublic": 3281,
      "Your_Name_": 3282,
      "Revolution": 3283,
      "s_My_Friend": 3284,
      "osa_y_millonaria": 3285,
      "Premature_Buri": 3286,
      "Premabhishekam_": 3287,
      "Capernaum_": 3288,
      "received": 3289,
      "Premalu_Pellillu": 3290,
      "Caprichosa_y_millonaria": 3291,
      "Believe_It_or_N": 3292,
      "Belorussian_Station": 3293,
      "Premalekhanam_": 3294,
      "Beefcake_": 3295,
      "Premeditated_Murder": 3296,
      "Be_Seeing_": 3297,
      "ly_Spell": 3298,
      "radhikkukka": 3299,
      "_Sergeant": 3300,
      "out_You": 3301,
      "aglami": 3302,
      "Can_We_Take_a_Jo": 3303,
      "Cass_Timberlane": 3304,
      "Casablanc": 3305,
      "Cabiria": 3306,
      "Catch_the_Fair_One": 3307,
      "ut_Shut_Up": 3308,
      "Carnival_Boat": 3309,
      "California_Gold_Rush_": 3310,
      "Call_Me_by_Your_Name_": 3311,
      "Call_Me_Madam_": 3312,
      "Cannot_Live_With": 3313,
      "Canned_Fishing": 3314,
      "Castle_in_the_Ground": 3315,
      "Castle_in_the_Sky": 3316,
      "Catch_as_Catch_Can_": 3317,
      "Call_of_the_Blood_": 3318,
      "Call_of_the_Rockies_": 3319,
      "Carnival_Queen_": 3320,
      "Bellman_and_True": 3321,
      "Behind_Show_Windows": 3322,
      "American_Heart_": 3323,
      "American_Crime_": 3324,
      "Cannibal_Holocaust": 3325,
      "Beauties_on_Bicycles": 3326,
      "Calm_with_Horses": 3327,
      "Cast_a_Deadly_Spell": 3328,
      "Prep_and_Pep": 3329,
      "Be_Beautiful_But_Shut_Up": 3330,
      "t_Be_Heaven": 3331,
      "Because_of_the_Cats": 3332,
      "Carnival_of_Souls_": 3333,
      "Prathyekam_Sradhikkukka": 3334,
      "Premature_Burial_": 3335,
      "Believe_It_or_Not_": 3336,
      "Be_Seeing_You": 3337,
      "Can_We_Take_a_Joke": 3338,
      "Cannot_Live_Without_You": 3339,
      "\",": 3340,
      "Bw": 3341,
      "Baz": 3342,
      "Braz": 3343,
      "Connor": 3344,
      "Dan": 3345,
      "Gl": 3346,
      "Gil": 3347,
      "Hug": 3348,
      "Kov": 3349,
      "La": 3350,
      "Lo": 3351,
      "Les": 3352,
      "Low": 3353,
      "Nam": 3354,
      "Naan": 3355,
      "Sm": 3356,
      "Srid": 3357,
      "Um": 3358,
      "Women": 3359,
      "Yv": 3360,
      "aadu": 3361,
      "ble": 3362,
      "bau": 3363,
      "bell": 3364,
      "eb": 3365,
      "gatt": 3366,
      "iç": 3367,
      "lel": 3368,
      "lott": 3369,
      "mad": 3370,
      "oob": 3371,
      "ru": 3372,
      "ruth": 3373,
      "sy": 3374,
      "sod": 3375,
      "sim": 3376,
      "tur": 3377,
      "tran": 3378,
      "time": 3379,
      "uom": 3380,
      "won": 3381,
      "za": 3382,
      "ées": 3383,
      "dberg": 3384,
      "ario": 3385,
      "arling": 3386,
      "int": 3387,
      "inst": 3388,
      "inama": 3389,
      "inging": 3390,
      "ilpi": 3391,
      "rest": 3392,
      "real": 3393,
      "Caiç": 3394,
      "oni": 3395,
      "alli": 3396,
      "andma": 3397,
      "esand": 3398,
      "asy": 3399,
      "asak": 3400,
      "aska": 3401,
      "amy": 3402,
      "elop": 3403,
      "elathi": 3404,
      "terjee": 3405,
      "directorial": 3406,
      "Pres": 3407,
      "Preey": 3408,
      "Preach": 3409,
      "Prescrip": 3410,
      "Carth": 3411,
      "Careful": 3412,
      "adem": 3413,
      "adorn": 3414,
      "agg": 3415,
      "agni": 3416,
      "Amor": 3417,
      "Amruth": 3418,
      "aye": 3419,
      "Premash": 3420,
      "Premagni": 3421,
      "Canast": 3422,
      "raig": 3423,
      "Choir": 3424,
      "over": 3425,
      "acific": 3426,
      "aka": 3427,
      "aki": 3428,
      "aksh": 3429,
      "eturns": 3430,
      "ello": 3431,
      "2002": 3432,
      "2009": 3433,
      "form": 3434,
      "Joel": 3435,
      "abel": 3436,
      "uman": 3437,
      "Mara": 3438,
      "Marshall": 3439,
      "2012": 3440,
      "Sha": 3441,
      "ucc": 3442,
      "ranth": 3443,
      "1996": 3444,
      "Stu": 3445,
      "Stra": 3446,
      "Catching": 3447,
      "Ald": 3448,
      "Alan": 3449,
      "ikaram": 3450,
      "Camill": 3451,
      "Candlel": 3452,
      "1942": 3453,
      "1943": 3454,
      "Prasthanam": 3455,
      "Campbell": 3456,
      "ugen": 3457,
      "Below": 3458,
      "Charlott": 3459,
      "obstin": 3460,
      "Prateek": 3461,
      "adhal": 3462,
      "Cadenc": 3463,
      "Preethsod": 3464,
      "Rajkumar": 3465,
      "Rajinama": 3466,
      "III": 3467,
      "orns": 3468,
      "Andre": 3469,
      "Predestin": 3470,
      "Entertain": 3471,
      "glas": 3472,
      "Prathij": 3473,
      "Prathikaram": 3474,
      "Unadorn": 3475,
      "ossom": 3476,
      "black": 3477,
      "road": 3478,
      "Harry": 3479,
      "moon": 3480,
      "Khaidi": 3481,
      "Help": 3482,
      "Ammuv": 3483,
      "Permit": 3484,
      "Noah": 3485,
      "umbher": 3486,
      "Pratigha": 3487,
      "Giov": 3488,
      "Power": 3489,
      "igned": 3490,
      "characters": 3491,
      "Mahesh": 3492,
      "Prathyartha": 3493,
      "777": 3494,
      "nowled": 3495,
      "Shaked": 3496,
      "Geethangal": 3497,
      "Domini": 3498,
      "performan": 3499,
      "original": 3500,
      "Ruins": 3501,
      "Freak": 3502,
      "oneymoon": 3503,
      "Kathleen": 3504,
      "Corners": 3505,
      "tesoro": 3506,
      "Prassthanam": 3507,
      "Sangama": 3508,
      "atyanarayana": 3509,
      "Bonni": 3510,
      "Soviet": 3511,
      "Virgin": 3512,
      "October": 3513,
      "Punj": 3514,
      "Taiwan": 3515,
      "Premamayi": 3516,
      "ocalypse": 3517,
      "Bwana": 3518,
      "Bazoob": 3519,
      "Brazil": 3520,
      "asakhi": 3521,
      "Preeyasakhi": 3522,
      "Premashilpi": 3523,
      "obstinées": 3524,
      "Prateeksha": 3525,
      "Entertainment": 3526,
      "Prathijnja": 3527,
      "Unadorned": 3528,
      "Ammuvagi": 3529,
      "Permitte": 3530,
      "Bazooband": 3531,
      "Ac": 3532,
      "Air": 3533,
      "Ali": 3534,
      "Aust": 3535,
      "Cri": 3536,
      "Cost": 3537,
      "Eugen": 3538,
      "Fa": 3539,
      "Fl": 3540,
      "Farr": 3541,
      "Hawt": 3542,
      "Ir": 3543,
      "Jas": 3544,
      "Jul": 3545,
      "Kent": 3546,
      "Lake": 3547,
      "Mac": 3548,
      "Mrin": 3549,
      "Nodu": 3550,
      "Ok": 3551,
      "Pl": 3552,
      "Rom": 3553,
      "Roman": 3554,
      "Russ": 3555,
      "Sw": 3556,
      "Sat": 3557,
      "Sch": 3558,
      "Ted": 3559,
      "Ush": 3560,
      "VIII": 3561,
      "Woman": 3562,
      "_actor": 3563,
      "aadhal": 3564,
      "both": 3565,
      "comp": 3566,
      "cana_": 3567,
      "dam": 3568,
      "fant": 3569,
      "four": 3570,
      "go": 3571,
      "gar": 3572,
      "i_S": 3573,
      "iang": 3574,
      "ience": 3575,
      "jo": 3576,
      "k_": 3577,
      "kel": 3578,
      "mid": 3579,
      "nam": 3580,
      "oo_": 3581,
      "pocalypse": 3582,
      "sandr": 3583,
      "s_Beau": 3584,
      "te_": 3585,
      "tis": 3586,
      "ts_": 3587,
      "uja": 3588,
      "years": 3589,
      "in_A": 3590,
      "in_Al": 3591,
      "anim": 3592,
      "anike": 3593,
      "ori_": 3594,
      "onz": 3595,
      "e_Car": 3596,
      "and_M": 3597,
      "eddy": 3598,
      "esqu": 3599,
      "y_Ch": 3600,
      "omas_": 3601,
      "ative": 3602,
      "olm": 3603,
      "Calvent": 3604,
      "Caro_M": 3605,
      "_Som": 3606,
      "_Sun": 3607,
      "_Sam_B": 3608,
      "of_Al": 3609,
      "of_War": 3610,
      "_Mart": 3611,
      "_My_D": 3612,
      "_Big": 3613,
      "_Based": 3614,
      "_Be_S": 3615,
      "_Banks": 3616,
      "cher": 3617,
      "child": 3618,
      "ada_K": 3619,
      "oud": 3620,
      "Amy_": 3621,
      "Amster": 3622,
      "leiss": 3623,
      "_Rá": 3624,
      "_Ram": 3625,
      "_Radha": 3626,
      "_Returns": 3627,
      "ayor_": 3628,
      "Premada_K": 3629,
      "Canal": 3630,
      "rah": 3631,
      "Chi": 3632,
      "Chris": 3633,
      "Bees_": 3634,
      "Calle_M": 3635,
      "Call_O": 3636,
      "Call_North": 3637,
      "lie": 3638,
      "the_Marines": 3639,
      "_the_Bel": 3640,
      "odent": 3641,
      "o_G": 3642,
      "o_T": 3643,
      "o_V": 3644,
      "on_I": 3645,
      "on_for": 3646,
      "on_Ice": 3647,
      "on_Par": 3648,
      "avan_": 3649,
      "akir": 3650,
      "Catal": 3651,
      "Cat_Run_": 3652,
      "i_D": 3653,
      "i_P": 3654,
      "berto_": 3655,
      "ella": 3656,
      "_Away": 3657,
      "_Apocalypse": 3658,
      "to_the_F": 3659,
      "ichele": 3660,
      "2003": 3661,
      "_Hu": 3662,
      "_Hop": 3663,
      "_Honeymoon": 3664,
      "illespie": 3665,
      "nest": 3666,
      "ney_": 3667,
      "Captiv": 3668,
      "Capcana_": 3669,
      "_God": 3670,
      "_Gelathi": 3671,
      "_Gillespie": 3672,
      "_Day_": 3673,
      "abhar": 3674,
      "ionati": 3675,
      "otent": 3676,
      "orett": 3677,
      "1980": 3678,
      "1985": 3679,
      "_Cor": 3680,
      "_Company": 3681,
      "American_Blu": 3682,
      "_For": 3683,
      "_Fare": 3684,
      "Cast_Away": 3685,
      "es_obstinées": 3686,
      "rank": 3687,
      "_Knowled": 3688,
      "1991": 3689,
      "1992_film": 3690,
      "1999_film": 3691,
      "Roy": 3692,
      "rick": 3693,
      "emp": 3694,
      "Alfred": 3695,
      "aine": 3696,
      "_No": 3697,
      "1950": 3698,
      "_Thunder": 3699,
      "_Thorns": 3700,
      "1940_film": 3701,
      "attel_T": 3702,
      "Carnival_Sund": 3703,
      "Camp_Blood": 3704,
      "_Wake_": 3705,
      "_Town": 3706,
      "_Twenty": 3707,
      "1974": 3708,
      "1978": 3709,
      "ong_Shadow": 3710,
      "ollins": 3711,
      "earts_": 3712,
      "tion_for": 3713,
      "_Jing": 3714,
      "Prema_Rag": 3715,
      "Prema_Khaidi": 3716,
      "Prema_Geethangal": 3717,
      "Prema_Sangama": 3718,
      "ester": 3719,
      "annah": 3720,
      "science": 3721,
      "herit": 3722,
      "1934": 3723,
      "California_Girl": 3724,
      "California_Joe_": 3725,
      "California_Mail": 3726,
      "Call_Me_Bwana": 3727,
      "William_H": 3728,
      "obb": 3729,
      "ashri": 3730,
      "Castle_Freak": 3731,
      "Brown_": 3732,
      "_Land": 3733,
      "_Life": 3734,
      "orty": 3735,
      "Cash_Mc": 3736,
      "sub": 3737,
      "harib": 3738,
      "eet_": 3739,
      "ing_to_the_": 3740,
      "e_Sai": 3741,
      "Before_I": 3742,
      "Before_Sun": 3743,
      "Calamity": 3744,
      "Call_of_the_Canyon": 3745,
      "y_Scott": 3746,
      "Preethse": 3747,
      "Cars_of_the_": 3748,
      "e_Hearts_": 3749,
      "featuring": 3750,
      "Malcol": 3751,
      "Malashri": 3752,
      "e_Note": 3753,
      "a_Kumbher": 3754,
      "in_the_City": 3755,
      "_Blossom": 3756,
      "of_the_Dead": 3757,
      "of_the_Corners": 3758,
      "1921_film": 3759,
      "Campus_Man": 3760,
      "Campus_Di": 3761,
      "Campus_Honeymoon": 3762,
      "Cannibal_Apocalypse": 3763,
      "iza": 3764,
      "Can_Ellen": 3765,
      "Prayer": 3766,
      "Canadi": 3767,
      "Carmen_on_Ice": 3768,
      "mercen": 3769,
      "innu": 3770,
      "a_Long_Shadow": 3771,
      "Calamity_Jan": 3772,
      "erry_": 3773,
      "Spencer": 3774,
      "Janet": 3775,
      "a_Haadu": 3776,
      "Caroline_in_the_City": 3777,
      "Carnage_Park": 3778,
      "Harry_": 3779,
      "through": 3780,
      "rise_": 3781,
      "iteers": 3782,
      "i_Kapoor": 3783,
      "Beautiful_Dream": 3784,
      "cio_": 3785,
      "Louise_Le": 3786,
      "Tony_": 3787,
      "Gray": 3788,
      "Casualties_": 3789,
      "_Babes": 3790,
      "Cat_and_Dog": 3791,
      "ari_Naray": 3792,
      "_Sandhane": 3793,
      "Typewriter": 3794,
      "ut_the_Marines": 3795,
      "al_tesoro": 3796,
      "Cairo_Time": 3797,
      "ylv": 3798,
      "ana_Rao": 3799,
      "Cast_a_Long_Shadow": 3800,
      "Vinod": 3801,
      "ucho": 3802,
      "ight_in_Al": 3803,
      "Bed_of_Thorns": 3804,
      "Be_Careful": 3805,
      "_Anand": 3806,
      "Belle_of_Al": 3807,
      "Candyman_3": 3808,
      "Bayou": 3809,
      "2021_film": 3810,
      "_Kids": 3811,
      "Beauty_Unadorned": 3812,
      "Beauty_on_Par": 3813,
      "Valer": 3814,
      "a_Varshini": 3815,
      "Precious_Babes": 3816,
      "_Heroine": 3817,
      "ampire": 3818,
      "aradise": 3819,
      "Being_Twenty": 3820,
      "_Feat": 3821,
      "_Feeling": 3822,
      "Premium_Rush": 3823,
      "Appass": 3824,
      "Cross": 3825,
      "rigan": 3826,
      "Premasathi_V": 3827,
      "Carnal_Knowled": 3828,
      "Cash_and_Company": 3829,
      "Among_the_Ruins": 3830,
      "Gregory_": 3831,
      "Ernest": 3832,
      "Gabri": 3833,
      "Prem_Paglami": 3834,
      "polit": 3835,
      "Ameer_Aadm": 3836,
      "Premakkoo_": 3837,
      "Premakke_Sai": 3838,
      "June": 3839,
      "Sudh": 3840,
      "e_and_Sam_B": 3841,
      "Amrita_Kumbher": 3842,
      "_Aadmi": 3843,
      "Luig": 3844,
      "alongside": 3845,
      "Beggars_of": 3846,
      "carto": 3847,
      "Cain_and_M": 3848,
      "Prem_Granth": 3849,
      "Prem_Kahan": 3850,
      "raborty": 3851,
      "Casanova": 3852,
      "_Thappa": 3853,
      "side_777": 3854,
      "Amma_Rajinama": 3855,
      "Cappy_Ricks_Returns": 3856,
      "Caccia_al_tesoro": 3857,
      "Cannery_Rodent": 3858,
      "Dasari_Naray": 3859,
      "Fernand": 3860,
      "Trop": 3861,
      "Wong_Jing": 3862,
      "ra_Suja": 3863,
      "ya_Naan": 3864,
      "i_Gharib": 3865,
      "well_to_the_F": 3866,
      "Aarathi": 3867,
      "Cecil": 3868,
      "natural": 3869,
      "film_director": 3870,
      "Beat_Girl": 3871,
      "Andy_Lau": 3872,
      "Aleksandr": 3873,
      "Kannada_actor": 3874,
      "tells": 3875,
      "York": 3876,
      "arilor": 3877,
      "_Romance": 3878,
      "_Grandma": 3879,
      "Beach_of_Dreams": 3880,
      "Powder_Town": 3881,
      "Bum_": 3882,
      "Republic": 3883,
      "Vaca_": 3884,
      "in_Paradise": 3885,
      "a_de_Vaca_": 3886,
      "Prem_Prem_Paglami": 3887,
      "Bear_Feat": 3888,
      "Castelo_Rá": 3889,
      "Cabeza_de_Vaca_": 3890,
      "Carolyn_of_the_Corners": 3891,
      "Caiçara_": 3892,
      "Preaching_to_the_": 3893,
      "Prescription_for": 3894,
      "Amrutha_Varshini": 3895,
      "Canastra_Suja": 3896,
      "Catching_Feeling": 3897,
      "Candlelight_in_Al": 3898,
      "Below_the_Bel": 3899,
      "Cadences_obstinées": 3900,
      "Preethsod_Thappa": 3901,
      "Predestination_": 3902,
      "Pratighaat_": 3903,
      "Preeyasakhi_Radha": 3904,
      "Ammuvagiya_Naan": 3905,
      "Hawtrey": 3906,
      "Ushakir": 3907,
      "s_Beauty": 3908,
      "esquiteers": 3909,
      "Caro_Michele": 3910,
      "_My_Dog": 3911,
      "_Be_Saved": 3912,
      "Amsterdam": 3913,
      "Premada_Kanike": 3914,
      "Bees_in_Paradise": 3915,
      "Calle_Mayor_": 3916,
      "Call_Out_the_Marines": 3917,
      "Call_Northside_777": 3918,
      "Cat_Run_2": 3919,
      "Captive_Hearts_": 3920,
      "Capcana_mercen": 3921,
      "_Day_of_the_Dead": 3922,
      "American_Blue_Note": 3923,
      "_Farewell_to_the_F": 3924,
      "attel_Te": 3925,
      "Carnival_Sunday": 3926,
      "Prema_Raga_Haadu": 3927,
      "California_Girls_": 3928,
      "Cash_McCall": 3929,
      "Before_I_Wake_": 3930,
      "Before_Sunrise_": 3931,
      "Cars_of_the_Revolution": 3932,
      "Malcolm": 3933,
      "Campus_Diary": 3934,
      "Can_Ellen_Be_Saved": 3935,
      "Calamity_Jane_and_Sam_B": 3936,
      "Beautiful_Dreamers": 3937,
      "Louise_Lester": 3938,
      "Casualties_of_War": 3939,
      "Belle_of_Alaska": 3940,
      "Beauty_on_Parade_": 3941,
      "Appassionati": 3942,
      "Premasathi_Vattel_Te": 3943,
      "Carnal_Knowledge_": 3944,
      "Ameer_Aadmi_Gharib": 3945,
      "Premakkoo_Permitte": 3946,
      "Amrita_Kumbher_Sandhane": 3947,
      "Beggars_of_Life": 3948,
      "Cain_and_Mabel": 3949,
      "Prem_Kahani_": 3950,
      "Dasari_Narayana_Rao": 3951,
      "Preaching_to_the_Choir": 3952,
      "Prescription_for_Romance": 3953,
      "Catching_Feelings_": 3954,
      "Candlelight_in_Algeria": 3955,
      "Below_the_Belt_": 3956,
      "Capcana_mercenarilor": 3957,
      "_Farewell_to_the_Flesh": 3958,
      "Prema_Raga_Haadu_Gelathi": 3959,
      "Calamity_Jane_and_Sam_Bass": 3960,
      "Ameer_Aadmi_Gharib_Aadmi": 3961,
      "Ahe": 3962,
      "Craig": 3963,
      "Dis": 3964,
      "Dant": 3965,
      "Dann": 3966,
      "Flip": 3967,
      "Hem": 3968,
      "Ish": 3969,
      "Jess": 3970,
      "Kal": 3971,
      "Kul": 3972,
      "Khan": 3973,
      "Krist": 3974,
      "Li": 3975,
      "Mex": 3976,
      "Po": 3977,
      "Pour": 3978,
      "Ric": 3979,
      "Rod": 3980,
      "Ryan": 3981,
      "Ragh": 3982,
      "Rollerb": 3983,
      "Sa": 3984,
      "Sach": 3985,
      "Sims": 3986,
      "Smith": 3987,
      "Sme": 3988,
      "Tail": 3989,
      "Todd": 3990,
      "Ver": 3991,
      "Vagh": 3992,
      "Vampire": 3993,
      "Will": 3994,
      "XVIII": 3995,
      "Year": 3996,
      "aqu": 3997,
      "aescu": 3998,
      "bu": 3999,
      "been": 4000,
      "biza": 4001,
      "cant": 4002,
      "cies": 4003,
      "crit": 4004,
      "du": 4005,
      "dom": 4006,
      "dos": 4007,
      "fran": 4008,
      "gu": 4009,
      "gent": 4010,
      "girl": 4011,
      "ié": 4012,
      "iper": 4013,
      "ioc": 4014,
      "last": 4015,
      "loyd": 4016,
      "miss": 4017,
      "nomin": 4018,
      "por": 4019,
      "sm": 4020,
      "sin": 4021,
      "tig": 4022,
      "vah": 4023,
      "vaje": 4024,
      "wife": 4025,
      "young": 4026,
      "inc": 4027,
      "inald": 4028,
      "anana": 4029,
      "str": 4030,
      "star": 4031,
      "stage": 4032,
      "stud": 4033,
      "arris": 4034,
      "ori": 4035,
      "enberg": 4036,
      "enilla": 4037,
      "cted": 4038,
      "alile": 4039,
      "diario": 4040,
      "rian": 4041,
      "riper": 4042,
      "ism": 4043,
      "asam": 4044,
      "amaro": 4045,
      "elay": 4046,
      "elman": 4047,
      "atam": 4048,
      "atsu": 4049,
      "Preah": 4050,
      "Prehistor": 4051,
      "Calim": 4052,
      "Carb": 4053,
      "Carom": 4054,
      "Carioc": 4055,
      "theart": 4056,
      "theatric": 4057,
      "chise": 4058,
      "ader": 4059,
      "itram": 4060,
      "again": 4061,
      "agalu": 4062,
      "agatam": 4063,
      "Amig": 4064,
      "Tharang": 4065,
      "leg": 4066,
      "Premer": 4067,
      "Premig": 4068,
      "Premik": 4069,
      "Premots": 4070,
      "Cant": 4071,
      "rap": 4072,
      "rault": 4073,
      "rastev": 4074,
      "Carrie": 4075,
      "Carroll": 4076,
      "Chaser": 4077,
      "Chiranj": 4078,
      "augh": 4079,
      "odagalu": 4080,
      "aver": 4081,
      "unn": 4082,
      "entry": 4083,
      "imon": 4084,
      "evilled": 4085,
      "2000": 4086,
      "illand": 4087,
      "new": 4088,
      "Caper": 4089,
      "Anup": 4090,
      "abri": 4091,
      "Shr": 4092,
      "Shaw": 4093,
      "allment": 4094,
      "athan": 4095,
      "athsal": 4096,
      "Castel": 4097,
      "endent": 4098,
      "ranaya": 4099,
      "1998": 4100,
      "iven": 4101,
      "ependent": 4102,
      "Inherit": 4103,
      "1963": 4104,
      "1953": 4105,
      "1959": 4106,
      "quié": 4107,
      "Pravah": 4108,
      "ickman": 4109,
      "Belli": 4110,
      "organ": 4111,
      "achra": 4112,
      "Jackson": 4113,
      "oka": 4114,
      "Cashback": 4115,
      "oys": 4116,
      "suit": 4117,
      "rima": 4118,
      "eetheart": 4119,
      "Adel": 4120,
      "Preethis": 4121,
      "Preethig": 4122,
      "Preethsu": 4123,
      "Prediction": 4124,
      "ubb": 4125,
      "CandyFlip": 4126,
      "pecies": 4127,
      "1926": 4128,
      "Cassadag": 4129,
      "Films": 4130,
      "Unwritten": 4131,
      "Walker": 4132,
      "engeful": 4133,
      "monde": 4134,
      "Bedevilled": 4135,
      "cial": 4136,
      "mozz": 4137,
      "einer": 4138,
      "ggan": 4139,
      "Steve": 4140,
      "Tony": 4141,
      "Tonight": 4142,
      "erais": 4143,
      "followed": 4144,
      "featured": 4145,
      "Talagh": 4146,
      "karni": 4147,
      "Jayas": 4148,
      "Queen": 4149,
      "ucha": 4150,
      "Prepotent": 4151,
      "più": 4152,
      "Sergiu": 4153,
      "aasalile": 4154,
      "omicide": 4155,
      "nette": 4156,
      "Vanity": 4157,
      "sets": 4158,
      "René": 4159,
      "Awards": 4160,
      "Walls": 4161,
      "colle": 4162,
      "Premaloka": 4163,
      "salvaje": 4164,
      "Leonard": 4165,
      "aikam": 4166,
      "version": 4167,
      "Japanese": 4168,
      "Graham": 4169,
      "Toons": 4170,
      "Akkineni": 4171,
      "Oliver": 4172,
      "Solo": 4173,
      "International": 4174,
      "Demand": 4175,
      "Lynn": 4176,
      "Paí": 4177,
      "Reginald": 4178,
      "Cartouch": 4179,
      "Kanuka": 4180,
      "Chatterjee": 4181,
      "apasya": 4182,
      "Stockade": 4183,
      "biographical": 4184,
      "Albright": 4185,
      "Sugrue": 4186,
      "supernatural": 4187,
      "Kovil": 4188,
      "uomo": 4189,
      "installment": 4190,
      "esandor": 4191,
      "Shaque": 4192,
      "roads": 4193,
      "fantasy": 4194,
      "animated": 4195,
      "Crossroads": 4196,
      "Gabriel": 4197,
      "cartoon": 4198,
      "Tropics": 4199,
      "Ushakirana": 4200,
      "Ishq": 4201,
      "Rollerboys": 4202,
      "cantando": 4203,
      "tigre": 4204,
      "Prehistoric": 4205,
      "Calimucho": 4206,
      "against": 4207,
      "Amigos": 4208,
      "Tharangaya": 4209,
      "Premotsava": 4210,
      "rastevere": 4211,
      "athsalya": 4212,
      "Inheritance": 4213,
      "Pravaham": 4214,
      "mozze": 4215,
      "Ay": 4216,
      "Based": 4217,
      "Buck": 4218,
      "Cent": 4219,
      "Cesar": 4220,
      "Dian": 4221,
      "Est": 4222,
      "Ele": 4223,
      "Fel": 4224,
      "Gh": 4225,
      "Gri": 4226,
      "Gol": 4227,
      "Jag": 4228,
      "Ky": 4229,
      "Kong": 4230,
      "Lion": 4231,
      "Lane": 4232,
      "Mil": 4233,
      "Mam": 4234,
      "Mitch": 4235,
      "Ol": 4236,
      "Pet": 4237,
      "Poll": 4238,
      "Rug": 4239,
      "Ryan_": 4240,
      "Sri": 4241,
      "Set": 4242,
      "Sai": 4243,
      "Vij": 4244,
      "Zul": 4245,
      "_1": 4246,
      "_Y": 4247,
      "_di": 4248,
      "_feature": 4249,
      "_on_the_": 4250,
      "_on_I": 4251,
      "aagi": 4252,
      "ba": 4253,
      "bar": 4254,
      "by_S": 4255,
      "book": 4256,
      "can": 4257,
      "det": 4258,
      "dda": 4259,
      "eal": 4260,
      "eevi": 4261,
      "fun": 4262,
      "fi_D": 4263,
      "get": 4264,
      "him": 4265,
      "i_R": 4266,
      "jad": 4267,
      "kov": 4268,
      "loc": 4269,
      "lames": 4270,
      "med": 4271,
      "mour": 4272,
      "mother": 4273,
      "nuv": 4274,
      "ois": 4275,
      "psy": 4276,
      "sum": 4277,
      "smith": 4278,
      "se_d": 4279,
      "s_Sw": 4280,
      "s_Big": 4281,
      "ting": 4282,
      "uff": 4283,
      "vi": 4284,
      "ved": 4285,
      "wane": 4286,
      "yay": 4287,
      "z_": 4288,
      "ég": 4289,
      "ón": 4290,
      "invol": 4291,
      "errigan": 4292,
      "ingh": 4293,
      "arrett": 4294,
      "Cather": 4295,
      "filmed": 4296,
      "ories": 4297,
      "e_gatt": 4298,
      "e_mozze": 4299,
      "enk": 4300,
      "en_H": 4301,
      "enerais": 4302,
      "al_C": 4303,
      "alie_": 4304,
      "dith": 4305,
      "di_F": 4306,
      "di_T": 4307,
      "ris_": 4308,
      "rison": 4309,
      "a_Cat": 4310,
      "a_Fire": 4311,
      "a_Brown_": 4312,
      "a_quié": 4313,
      "a_suit": 4314,
      "a_Ushakirana": 4315,
      "a_tigre": 4316,
      "esn": 4317,
      "esco": 4318,
      "esman_": 4319,
      "ise_and": 4320,
      "ask": 4321,
      "am_K": 4322,
      "ama_Ushakirana": 4323,
      "elson_": 4324,
      "omes": 4325,
      "omen_": 4326,
      "at_N": 4327,
      "at_the_B": 4328,
      "wright": 4329,
      "Caro_": 4330,
      "Career": 4331,
      "Car_of_Dreams": 4332,
      "Caravan_": 4333,
      "_Sin": 4334,
      "_Sol": 4335,
      "_Singing": 4336,
      "of_M": 4337,
      "_Mor": 4338,
      "_Mou": 4339,
      "_Music": 4340,
      "_Modagalu": 4341,
      "_Bern": 4342,
      "_Bresslaw": 4343,
      "_Bizet": 4344,
      "chang": 4345,
      "itri": 4346,
      "aga_of": 4347,
      "Amman_": 4348,
      "Amore_": 4349,
      "Amjad": 4350,
      "_Rang": 4351,
      "_Rich": 4352,
      "_Ryan": 4353,
      "_Ragh": 4354,
      "Prem_D": 4355,
      "Prem_T": 4356,
      "Prem_Am": 4357,
      "Prem_Rog": 4358,
      "t_Help": 4359,
      "ira_": 4360,
      "Cani_": 4361,
      "nigh": 4362,
      "Carrier": 4363,
      "Chin": 4364,
      "expl": 4365,
      "Casey_": 4366,
      "Calls_": 4367,
      "Call_the_M": 4368,
      "Call_Me": 4369,
      "the_Lake": 4370,
      "n_su": 4371,
      "s_All": 4372,
      "s_to_the_": 4373,
      "s_for_Two": 4374,
      "s_dos": 4375,
      "s_Vanity": 4376,
      "s_Inheritance": 4377,
      "oduc": 4378,
      "iders_": 4379,
      "urton": 4380,
      "on_Demand": 4381,
      "avith": 4382,
      "aval_": 4383,
      "ow_": 4384,
      "i_language": 4385,
      "i_Prema_P": 4386,
      "i_Cu": 4387,
      "i_Nagesw": 4388,
      "i_Nodu": 4389,
      "i_più": 4390,
      "ardhan": 4391,
      "America_Brown_": 4392,
      "2004": 4393,
      "_Har": 4394,
      "_Hell": 4395,
      "_Heav": 4396,
      "_Hei": 4397,
      "_Homicide": 4398,
      "_Hal_C": 4399,
      "ills": 4400,
      "ney_D": 4401,
      "she": 4402,
      "Anto": 4403,
      "_Generais": 4404,
      "_Des": 4405,
      "_Darling": 4406,
      "able": 4407,
      "Mari": 4408,
      "Mart": 4409,
      "Mary": 4410,
      "Marie_": 4411,
      "all_of": 4412,
      "1981": 4413,
      "1982": 4414,
      "_Connor": 4415,
      "_Comes": 4416,
      "American_Ro": 4417,
      "_Fire": 4418,
      "_Flow": 4419,
      "_Fall_of": 4420,
      "Cast_No": 4421,
      "es_a_L": 4422,
      "rant": 4423,
      "_Kar": 4424,
      "_Kaadhal": 4425,
      "Rob": 4426,
      "Striper": 4427,
      "Catch_Hell": 4428,
      "emi": 4429,
      "_Prim": 4430,
      "opadh": 4431,
      "iko_": 4432,
      "inder": 4433,
      "_Night": 4434,
      "_Number": 4435,
      "_Road_": 4436,
      "Carnies_": 4437,
      "where": 4438,
      "1969": 4439,
      "1951": 4440,
      "1952": 4441,
      "Candles_": 4442,
      "_The_S": 4443,
      "_The_R": 4444,
      "atta": 4445,
      "eymour": 4446,
      "_Winter": 4447,
      "_Women_": 4448,
      "_Taj": 4449,
      "ie_Jacques": 4450,
      "ie_Sugrue": 4451,
      "ernon": 4452,
      "_Stone": 4453,
      "_Stree": 4454,
      "_Story_": 4455,
      "_Stewart": 4456,
      "Prema_Kath": 4457,
      "Prema_Ok": 4458,
      "Prema_Kanuka": 4459,
      "Prema_Ishq": 4460,
      "Prema_Tharangaya": 4461,
      "place": 4462,
      "Geoff": 4463,
      "_Shots": 4464,
      "1932": 4465,
      "1935_film": 4466,
      "Carmine_": 4467,
      "Dean": 4468,
      "California_Passage": 4469,
      "California_Stra": 4470,
      "California_Typewriter": 4471,
      "California_Solo": 4472,
      "Carnaval_": 4473,
      "achar": 4474,
      "Call_Me_King": 4475,
      "Call_Me_Tonight": 4476,
      "Johnn": 4477,
      "Cat_Chaser": 4478,
      "lyric": 4479,
      "Canne_mozze": 4480,
      "Jack_N": 4481,
      "_of_the_Gu": 4482,
      "_of_the_Moon": 4483,
      "_of_the_Rollerboys": 4484,
      "George_B": 4485,
      "Arch": 4486,
      "Arnold": 4487,
      "Peck": 4488,
      "Calling_Homicide": 4489,
      "_Velay": 4490,
      "_Vaasalile": 4491,
      "_Vesandor": 4492,
      "David_B": 4493,
      "Catch_22": 4494,
      "Catch_a_Fire": 4495,
      "ations": 4496,
      "eewane": 4497,
      "Michael_": 4498,
      "Juan_": 4499,
      "umaran": 4500,
      "e_Foster": 4501,
      "Before_Mid": 4502,
      "Before_Winter": 4503,
      "Cada_quié": 4504,
      "Moham": 4505,
      "as_no_": 4506,
      "Call_of_the_Wild": 4507,
      "Call_of_the_South": 4508,
      "Call_of_the_Forest": 4509,
      "Preethi_V": 4510,
      "Preethi_Prema_P": 4511,
      "Cars_Toons": 4512,
      "Carnival_in_the_": 4513,
      "Cash_on_Demand": 4514,
      "Rajesh": 4515,
      "John_Lasseter": 4516,
      "Christian_": 4517,
      "Candy_Striper": 4518,
      "e_Nelson_": 4519,
      "Harve": 4520,
      "a_Barr": 4521,
      "Behind_Stone_": 4522,
      "Roberts": 4523,
      "to_a_V": 4524,
      "in_the_Air": 4525,
      "American_Vampire": 4526,
      "Robert_D": 4527,
      "Prathama_Ushakirana": 4528,
      "Timoth": 4529,
      "of_the_Year": 4530,
      "1925_film": 4531,
      "Italy": 4532,
      "Frankie_": 4533,
      "Peter_B": 4534,
      "Prayer_": 4535,
      "eanie_Sugrue": 4536,
      "e_Burton": 4537,
      "a_Mail": 4538,
      "a_Maikam": 4539,
      "Carmen_di_T": 4540,
      "Calling_All_Pol": 4541,
      "Calling_All_Kids": 4542,
      "ette": 4543,
      "age_in_F": 4544,
      "Capriccio_": 4545,
      "ventura": 4546,
      "Allan": 4547,
      "Allan_D": 4548,
      "ar_2": 4549,
      "ar_e_Nelson_": 4550,
      "ice_Cars": 4551,
      "ice_cantando": 4552,
      "Cabaret_Woman": 4553,
      "Captain_Thunder": 4554,
      "Captain_of_the_Gu": 4555,
      "Samuel": 4556,
      "Colbert": 4557,
      "Columb": 4558,
      "_Rao": 4559,
      "_Raiders": 4560,
      "Beautiful_and": 4561,
      "Kenneth_Connor": 4562,
      "Steve_": 4563,
      "Steven": 4564,
      "by_the_Lake": 4565,
      "_Shadow_": 4566,
      "Neil": 4567,
      "ina_Caper": 4568,
      "de_Br": 4569,
      "a_Aventura": 4570,
      "Calmi_Cu": 4571,
      "_Manthan_": 4572,
      "Calcutta_Mail": 4573,
      "ots_Music": 4574,
      "Carson_City_Raiders": 4575,
      "oduction": 4576,
      "Capone_Cri": 4577,
      "u_monde": 4578,
      "Prem_Aggan": 4579,
      "Prem_Adda": 4580,
      "ight_Ahe": 4581,
      "Bernard_Bresslaw": 4582,
      "Prep_": 4583,
      "Be_Vagh": 4584,
      "_and_the_B": 4585,
      "e_du_monde": 4586,
      "Sharma": 4587,
      "Canyon_Passage": 4588,
      "Canyon_Crossroads": 4589,
      "Bayside_": 4590,
      "Francis": 4591,
      "s_Holid": 4592,
      "Casting_Blossom": 4593,
      "Cabin_by_the_Lake": 4594,
      "Prema_Pasam": 4595,
      "Beauty_No": 4596,
      "Val_Gu": 4597,
      "Parker": 4598,
      "Susan_": 4599,
      "_Seas": 4600,
      "Philip_G": 4601,
      "Murray": 4602,
      "_Lee_": 4603,
      "_Wild_on_I": 4604,
      "a_Chitram": 4605,
      "Casino_Raiders_": 4606,
      "o_Files": 4607,
      "ence_of_M": 4608,
      "Canyon_Raiders": 4609,
      "Barbara_Windsor": 4610,
      "Carnosaur_3": 4611,
      "Cactus_Flow": 4612,
      "Larry_": 4613,
      "dona": 4614,
      "_Swagatam": 4615,
      "Beef_and_the_B": 4616,
      "Beloved_Darling": 4617,
      "ology": 4618,
      "Ameerin_A": 4619,
      "White": 4620,
      "have": 4621,
      "Amrit_Manthan_": 4622,
      "an_Pacific": 4623,
      "Georges_Bizet": 4624,
      "Behind_the_Stockade": 4625,
      "Ashok": 4626,
      "designed": 4627,
      "Bruce_": 4628,
      "Reddy": 4629,
      "Cain_XVIII": 4630,
      "Prem_Geet_": 4631,
      "Prem_Kumar": 4632,
      "Casanova_Cat": 4633,
      "s_of_Fire": 4634,
      "own_2": 4635,
      "_Thappenilla": 4636,
      "Premaku_Velay": 4637,
      "Premaku_Swagatam": 4638,
      "Caccia_all": 4639,
      "Cannery_Row_": 4640,
      "Casino_Tycoon_2": 4641,
      "Simon": 4642,
      "letcher": 4643,
      "Akkineni_Nagesw": 4644,
      "Hattie_Jacques": 4645,
      "_lucha": 4646,
      "_la_suit": 4647,
      "_para_L": 4648,
      "_prima": 4649,
      "_Salesman_": 4650,
      "Amor_salvaje": 4651,
      "Amor_se_d": 4652,
      "Castles_for_Two": 4653,
      "Castles_in_the_Air": 4654,
      "Prakash_Raj": 4655,
      "al_Species": 4656,
      "_Reis": 4657,
      "Jonathan_": 4658,
      "period": 4659,
      "Lawren": 4660,
      "Terry_Scott": 4661,
      "ala_Saval": 4662,
      "_Death": 4663,
      "songs": 4664,
      "utterworth": 4665,
      "Bruno_": 4666,
      "Bryan": 4667,
      "1919_film": 4668,
      "Chakraborty": 4669,
      "iews": 4670,
      "Syd": 4671,
      "arajan": 4672,
      "_Mahal": 4673,
      "_Sharma": 4674,
      "Prathap_": 4675,
      "Cairo_Road_": 4676,
      "Casablanca_": 4677,
      "Women_of_the_Moon": 4678,
      "transl": 4679,
      "Presence_of_M": 4680,
      "Carthage_in_F": 4681,
      "Amorina_": 4682,
      "Camille_": 4683,
      "Giovanni": 4684,
      "Power_Rang": 4685,
      "Shakedown_2": 4686,
      "Dominiqu": 4687,
      "Mrinal": 4688,
      "te_Talagh": 4689,
      "ori_Appassionati": 4690,
      "Calvento_Files": 4691,
      "_Based_on_the_": 4692,
      "Canal_Stree": 4693,
      "Catalina_Caper": 4694,
      "_Landing_": 4695,
      "Prayer_of_the_Rollerboys": 4696,
      "Canadian_Pacific": 4697,
      "Bayou_": 4698,
      "Amsterdam_Heav": 4699,
      "Disney": 4700,
      "Dantas_no_": 4701,
      "Pour_la_suit": 4702,
      "Tails_for_Two": 4703,
      "franchise": 4704,
      "Preah_Vesandor": 4705,
      "Carbon_": 4706,
      "Carom_Shots": 4707,
      "Carioca_tigre": 4708,
      "Premer_Taj": 4709,
      "Premigala_Saval": 4710,
      "Premik_Number": 4711,
      "Cantata_": 4712,
      "Chiranjeevi": 4713,
      "Castelar_e_Nelson_": 4714,
      "Belli_Modagalu": 4715,
      "Cashback_": 4716,
      "Preethisi_Nodu": 4717,
      "Preethigaagi": 4718,
      "Preethsu_Thappenilla": 4719,
      "Predictions_of_Fire": 4720,
      "1926_feature": 4721,
      "Cassadaga_": 4722,
      "Unwritten_Story_": 4723,
      "engeful_God": 4724,
      "Bedevilled_": 4725,
      "Prepotenti_più": 4726,
      "País_dos": 4727,
      "Cartouche_": 4728,
      "Kovil_Vaasalile": 4729,
      "Prehistoric_Women_": 4730,
      "Amigos_para_L": 4731,
      "Rugger": 4732,
      "Zulf": 4733,
      "_di_prima": 4734,
      "by_Seanie_Sugrue": 4735,
      "fi_Dachra": 4736,
      "psych": 4737,
      "s_Sweetheart": 4738,
      "s_Big_Night": 4739,
      "e_gatti": 4740,
      "di_Fleiss": 4741,
      "ise_and_Fall_of": 4742,
      "at_Nine": 4743,
      "at_the_Bat_": 4744,
      "Caro_diario": 4745,
      "Careers_": 4746,
      "aga_of_Hal_C": 4747,
      "Amman_Kovil_Vaasalile": 4748,
      "Amore_amaro": 4749,
      "Prem_Deewane": 4750,
      "Prem_Tapasya": 4751,
      "Prem_Amar_2": 4752,
      "t_Help_Singing": 4753,
      "Cani_e_gatti": 4754,
      "night_": 4755,
      "Carriers_": 4756,
      "Casey_at_the_Bat_": 4757,
      "Call_the_Mesquiteers": 4758,
      "n_su_lucha": 4759,
      "s_to_the_Sky": 4760,
      "oduced": 4761,
      "_Heidi_Fleiss": 4762,
      "American_Roots_Music": 4763,
      "Cast_No_Shadow_": 4764,
      "es_a_Lot": 4765,
      "_Primal_Species": 4766,
      "opadhyay": 4767,
      "Candles_at_Nine": 4768,
      "_The_Saga_of_Hal_C": 4769,
      "_The_Rise_and_Fall_of": 4770,
      "Prema_Katha_Chitram": 4771,
      "Prema_Oka_Maikam": 4772,
      "Prema_Ishq_Kaadhal": 4773,
      "Carmine_Gallone": 4774,
      "California_Straight_Ahe": 4775,
      "Carnaval_fi_Dachra": 4776,
      "Catch_a_Fire_": 4777,
      "Before_Midnight_": 4778,
      "Before_Winter_Comes": 4779,
      "Cada_quién_su_lucha": 4780,
      "Call_of_the_Wild_": 4781,
      "Call_of_the_South_Seas": 4782,
      "Call_of_the_Forest_": 4783,
      "Preethi_Vathsalya": 4784,
      "Preethi_Prema_Pranaya": 4785,
      "Carnival_in_the_Tropics": 4786,
      "Candy_Stripers_": 4787,
      "Behind_Stone_Walls": 4788,
      "to_a_Vengeful_God": 4789,
      "American_Vampire_": 4790,
      "Prayer_to_a_Vengeful_God": 4791,
      "Carmen_di_Trastevere": 4792,
      "Calling_All_Police_Cars": 4793,
      "Allan_Dwan": 4794,
      "Captain_Thunder_": 4795,
      "Captain_of_the_Guard_": 4796,
      "Beautiful_and_Wild_on_I": 4797,
      "Calmi_Cuori_Appassionati": 4798,
      "Capone_Cries_a_Lot": 4799,
      "Be_Vaghte_Talagh": 4800,
      "Bayside_Shakedown_2": 4801,
      "s_Holiday_": 4802,
      "Casting_Blossoms_to_the_Sky": 4803,
      "Val_Guest": 4804,
      "Casino_Raiders_II": 4805,
      "Cactus_Flower_": 4806,
      "Beef_and_the_Banana": 4807,
      "Ameerin_Aadhi": 4808,
      "Prem_Geet_3": 4809,
      "Premaku_Velayera": 4810,
      "Akkineni_Nageswara_Rao": 4811,
      "_Salesman_of_the_Year": 4812,
      "Amor_se_dice_cantando": 4813,
      "Castles_in_the_Air_": 4814,
      "Presence_of_Mind": 4815,
      "Carthage_in_Flames": 4816,
      "Power_Rangers_": 4817,
      "_Based_on_the_Unwritten_Story_": 4818,
      "Canal_Street_": 4819,
      "Canadian_Pacific_": 4820,
      "Amsterdam_Heavy": 4821,
      "Dantas_no_País_dos": 4822,
      "Pour_la_suite_du_monde": 4823,
      "Premer_Taj_Mahal": 4824,
      "Premik_Number_One": 4825,
      "Castelar_e_Nelson_Dantas_no_País_dos": 4826,
      "1926_feature_film": 4827,
      "Prepotenti_più_di_prima": 4828,
      "Amigos_para_La_Aventura": 4829,
      "_The_Rise_and_Fall_of_Heidi_Fleiss": 4830,
      "California_Straight_Ahead_": 4831,
      "Beautiful_and_Wild_on_Ibiza": 4832,
      "_Based_on_the_Unwritten_Story_by_Seanie_Sugrue": 4833,
      "Castelar_e_Nelson_Dantas_no_País_dos_Generais": 4834,
      ".,": 4835,
      "25": 4836,
      "30": 4837,
      "Aut": 4838,
      "Bre": 4839,
      "Bren": 4840,
      "Beng": 4841,
      "Cel": 4842,
      "Crist": 4843,
      "Clif": 4844,
      "Day": 4845,
      "Gipp": 4846,
      "Han": 4847,
      "Hall": 4848,
      "Judd": 4849,
      "Kur": 4850,
      "Kather": 4851,
      "Kapoor": 4852,
      "Liz": 4853,
      "Mir": 4854,
      "Mith": 4855,
      "Mack": 4856,
      "Nik": 4857,
      "Om": 4858,
      "Row": 4859,
      "Run": 4860,
      "Rip": 4861,
      "Sen": 4862,
      "Sure": 4863,
      "Sylv": 4864,
      "Trav": 4865,
      "Vik": 4866,
      "Warren": 4867,
      "Yosh": 4868,
      "ban": 4869,
      "box": 4870,
      "bucci": 4871,
      "ect": 4872,
      "ft": 4873,
      "gava": 4874,
      "hos": 4875,
      "hit": 4876,
      "high": 4877,
      "hail": 4878,
      "hakar": 4879,
      "mil": 4880,
      "mers": 4881,
      "mark": 4882,
      "non": 4883,
      "noir": 4884,
      "ool": 4885,
      "pin": 4886,
      "pos": 4887,
      "pers": 4888,
      "pres": 4889,
      "phan": 4890,
      "pop": 4891,
      "sever": 4892,
      "uer": 4893,
      "vide": 4894,
      "wa": 4895,
      "wick": 4896,
      "zh": 4897,
      "ér": 4898,
      "aras": 4899,
      "around": 4900,
      "iner": 4901,
      "inally": 4902,
      "ingo": 4903,
      "thau": 4904,
      "ont": 4905,
      "onne": 4906,
      "alog": 4907,
      "andam": 4908,
      "dialog": 4909,
      "rise": 4910,
      "ashan": 4911,
      "ela": 4912,
      "ating": 4913,
      "uses": 4914,
      "usud": 4915,
      "osse": 4916,
      "oshi": 4917,
      "Carey": 4918,
      "chn": 4919,
      "itcom": 4920,
      "agis": 4921,
      "20th": 4922,
      "2019": 4923,
      "lex": 4924,
      "ayer": 4925,
      "Beery": 4926,
      "ima": 4927,
      "imp": 4928,
      "Johan": 4929,
      "2011": 4930,
      "2017": 4931,
      "Sher": 4932,
      "Shiv": 4933,
      "allés": 4934,
      "orel": 4935,
      "1983": 4936,
      "ulo": 4937,
      "1993": 4938,
      "1997": 4939,
      "Stone": 4940,
      "Stewart": 4941,
      "rice": 4942,
      "emble": 4943,
      "Production": 4944,
      "Produced": 4945,
      "oper": 4946,
      "opera": 4947,
      "when": 4948,
      "1960": 4949,
      "1955": 4950,
      "1940": 4951,
      "1944": 4952,
      "1948": 4953,
      "early": 4954,
      "ekumar": 4955,
      "1935": 4956,
      "1939": 4957,
      "aiah": 4958,
      "Elmer": 4959,
      "ashekhar": 4960,
      "ega": 4961,
      "Bros": 4962,
      "Arjun": 4963,
      "arker": 4964,
      "aster": 4965,
      "insp": 4966,
      "Moore": 4967,
      "plays": 4968,
      "Edgar": 4969,
      "Andy": 4970,
      "class": 4971,
      "ouse": 4972,
      "otty": 4973,
      "Walters": 4974,
      "ravarth": 4975,
      "ould": 4976,
      "Cole": 4977,
      "Harrison": 4978,
      "mootty": 4979,
      "Grewal": 4980,
      "Emman": 4981,
      "Noel": 4982,
      "Evans": 4983,
      "Heather": 4984,
      "Mikhail": 4985,
      "Barbara": 4986,
      "anović": 4987,
      "itzer": 4988,
      "gross": 4989,
      "group": 4990,
      "onso": 4991,
      "Serge": 4992,
      "Corbucci": 4993,
      "Alexander": 4994,
      "staff": 4995,
      "return": 4996,
      "Philipp": 4997,
      "Vaness": 4998,
      "ensemble": 4999,
      "ampan": 5000,
      "illion": 5001,
      "Cros": 5002,
      "until": 5003,
      "Stanley": 5004,
      "Gordon": 5005,
      "myster": 5006,
      "ological": 5007,
      "including": 5008,
      "includes": 5009,
      "Palma": 5010,
      "Andrews": 5011,
      "Randolph": 5012,
      "cinemat": 5013,
      "Nicholas": 5014,
      "Srinath": 5015,
      "ademy": 5016,
      "Academy": 5017,
      "Kulkarni": 5018,
      "Sachin": 5019,
      "abrizi": 5020,
      "Century": 5021,
      "Lionel": 5022,
      "Mammootty": 5023,
      "Chinese": 5024,
      "Columbia": 5025,
      "Bengali": 5026,
      "several": 5027,
      "usudhan": 5028,
      "ravarthy": 5029,
      "10": 5030,
      "21": 5031,
      "24": 5032,
      "Ani": 5033,
      "Billi": 5034,
      "Binnu": 5035,
      "Cour": 5036,
      "Cyn": 5037,
      "Conn": 5038,
      "Code": 5039,
      "Den": 5040,
      "Dan_": 5041,
      "Don_": 5042,
      "Dutt": 5043,
      "Eth": 5044,
      "Far": 5045,
      "Flor": 5046,
      "Gain": 5047,
      "Hop": 5048,
      "Haw": 5049,
      "Il": 5050,
      "Ian": 5051,
      "Jerry_": 5052,
      "Kon": 5053,
      "Kavith": 5054,
      "Lat": 5055,
      "Lol": 5056,
      "Ladd": 5057,
      "Laksh": 5058,
      "Music": 5059,
      "Math": 5060,
      "Ned": 5061,
      "Nad": 5062,
      "Nina_": 5063,
      "National": 5064,
      "Pen": 5065,
      "Page": 5066,
      "Pall": 5067,
      "Ran": 5068,
      "Radh": 5069,
      "Rub": 5070,
      "Ravichandran": 5071,
      "Rolf": 5072,
      "Ravi": 5073,
      "Sav": 5074,
      "Silv": 5075,
      "Seymour": 5076,
      "Tor": 5077,
      "Tig": 5078,
      "Taylor": 5079,
      "UK": 5080,
      "Viv": 5081,
      "Wu": 5082,
      "Win": 5083,
      "_John": 5084,
      "aï": 5085,
      "aid": 5086,
      "aish": 5087,
      "bir": 5088,
      "ces": 5089,
      "call": 5090,
      "dh": 5091,
      "din": 5092,
      "del": 5093,
      "de_M": 5094,
      "fem": 5095,
      "final": 5096,
      "gan": 5097,
      "hy": 5098,
      "hard": 5099,
      "hillon": 5100,
      "husband": 5101,
      "iy": 5102,
      "idi": 5103,
      "ifer": 5104,
      "jit": 5105,
      "lad": 5106,
      "lman": 5107,
      "lass": 5108,
      "lickman": 5109,
      "mol": 5110,
      "maj": 5111,
      "oad": 5112,
      "rí": 5113,
      "rne": 5114,
      "sat": 5115,
      "soc": 5116,
      "singer": 5117,
      "uni": 5118,
      "uli": 5119,
      "vious": 5120,
      "wr": 5121,
      "winder": 5122,
      "yot": 5123,
      "ère": 5124,
      "èle_": 5125,
      "én": 5126,
      "ía": 5127,
      "ink": 5128,
      "ine_D": 5129,
      "anand": 5130,
      "stant": 5131,
      "arri": 5132,
      "Cav": 5133,
      "orter": 5134,
      "orne": 5135,
      "orah": 5136,
      "onic": 5137,
      "e_P": 5138,
      "e_Ch": 5139,
      "e_Colbert": 5140,
      "ici": 5141,
      "ened": 5142,
      "diga": 5143,
      "die_Foster": 5144,
      "ried": 5145,
      "ries": 5146,
      "rie_Colbert": 5147,
      "a_Al": 5148,
      "a_Jain": 5149,
      "esse": 5150,
      "is_P": 5151,
      "els": 5152,
      "elen": 5153,
      "atr": 5154,
      "use": 5155,
      "usu": 5156,
      "usey": 5157,
      "Carson": 5158,
      "_Mel": 5159,
      "_Band": 5160,
      "ches": 5161,
      "chit": 5162,
      "itive": 5163,
      "agn": 5164,
      "Amand": 5165,
      "Amend": 5166,
      "Amico": 5167,
      "_Ray": 5168,
      "ayn": 5169,
      "ayya": 5170,
      "nier": 5171,
      "raush": 5172,
      "rakash": 5173,
      "Chap": 5174,
      "Chris_": 5175,
      "the_Cab": 5176,
      "aux": 5177,
      "tton": 5178,
      "ović": 5179,
      "o_L": 5180,
      "o_Le": 5181,
      "aki_K": 5182,
      "ower": 5183,
      "bert_": 5184,
      "ardson_": 5185,
      "_Aravind": 5186,
      "2005": 5187,
      "neur": 5188,
      "Ann_": 5189,
      "Jodie_Foster": 5190,
      "_Gar": 5191,
      "_Gil": 5192,
      "_Gold": 5193,
      "_Gord": 5194,
      "_Dev": 5195,
      "abi_language": 5196,
      "Maria_": 5197,
      "apri": 5198,
      "Sheen": 5199,
      "Shashan": 5200,
      "alla": 5201,
      "_Far": 5202,
      "_King": 5203,
      "_Kumar": 5204,
      "_Krishn": 5205,
      "_Kerrigan": 5206,
      "_Kraush": 5207,
      "Ray_": 5208,
      "Ray_M": 5209,
      "Raoul": 5210,
      "itha": 5211,
      "_Prab": 5212,
      "_Prakash": 5213,
      "opal": 5214,
      "ika": 5215,
      "ikumar": 5216,
      "independent": 5217,
      "iemann": 5218,
      "_Nicol": 5219,
      "_Nelson": 5220,
      "white": 5221,
      "1962": 5222,
      "1965": 5223,
      "1967": 5224,
      "1947": 5225,
      "attemp": 5226,
      "anta": 5227,
      "_West": 5228,
      "_Walk": 5229,
      "_Warren": 5230,
      "le_Guy": 5231,
      "_Ter": 5232,
      "1976": 5233,
      "earlier": 5234,
      "ughan": 5235,
      "uggi": 5236,
      "Dean_": 5237,
      "Dave_": 5238,
      "aired": 5239,
      "John_S": 5240,
      "William_A": 5241,
      "Ellis": 5242,
      "Charan": 5243,
      "en_Wilson": 5244,
      "Jackie_": 5245,
      "okan": 5246,
      "_Lang": 5247,
      "George_S": 5248,
      "oyle": 5249,
      "astian": 5250,
      "David_": 5251,
      "gerald": 5252,
      "Michael_M": 5253,
      "Juan": 5254,
      "Adam_": 5255,
      "uez": 5256,
      "e_Mc": 5257,
      "Eddie_": 5258,
      "consist": 5259,
      "Rajas": 5260,
      "ucker": 5261,
      "azir": 5262,
      "Anderson": 5263,
      "a_Katta": 5264,
      "ubh": 5265,
      "ergen": 5266,
      "a_Ben": 5267,
      "_Or": 5268,
      "_Black": 5269,
      "_Blanc": 5270,
      "Annett": 5271,
      "otti": 5272,
      "Kent_": 5273,
      "Josh": 5274,
      "Italian_language": 5275,
      "Tom_H": 5276,
      "makes": 5277,
      "Laurie_Colbert": 5278,
      "Allen": 5279,
      "ice_actor": 5280,
      "raves": 5281,
      "y_Bur": 5282,
      "previous": 5283,
      "Martin_B": 5284,
      "Martin_Sc": 5285,
      "a_Reddy": 5286,
      "olloway": 5287,
      "_Brothers": 5288,
      "Louise": 5289,
      "ski": 5290,
      "Brian_": 5291,
      "Tony_T": 5292,
      "_Raju": 5293,
      "Telugu_actor": 5294,
      "Madsen": 5295,
      "rinivas": 5296,
      "French_language": 5297,
      "Deva_Katta": 5298,
      "Jacques_": 5299,
      "Sean_": 5300,
      "itzgerald": 5301,
      "Norman_": 5302,
      "Giuli": 5303,
      "Univers": 5304,
      "Malayalam_": 5305,
      "Franco_": 5306,
      "Francesco": 5307,
      "_Beck": 5308,
      "t_Glickman": 5309,
      "Clement": 5310,
      "Bennett": 5311,
      "Nathan": 5312,
      "Nathalie_": 5313,
      "o_Fabrizi": 5314,
      "Warner": 5315,
      "Mort_Glickman": 5316,
      "voice": 5317,
      "voice_actor": 5318,
      "reviews": 5319,
      "script": 5320,
      "Bertr": 5321,
      "Doug": 5322,
      "Fernando": 5323,
      "Hammer": 5324,
      "Hattie": 5325,
      "Udapur": 5326,
      "Laurenc": 5327,
      "_Moore": 5328,
      "Mario_Amend": 5329,
      "Deborah": 5330,
      "Mel_Blanc": 5331,
      "sister": 5332,
      "Ramesh_Aravind": 5333,
      "Afric": 5334,
      "Jerem": 5335,
      "Shirle": 5336,
      "_Newman_": 5337,
      "Gurpre": 5338,
      "Owen_Wilson": 5339,
      "Sukumaran": 5340,
      "Vishnuv": 5341,
      "racy": 5342,
      "ollywood": 5343,
      "Directed": 5344,
      "cameo": 5345,
      "Chuck_Jones": 5346,
      "ep_Kang": 5347,
      "Sridevi": 5348,
      "Aldo_Fabrizi": 5349,
      "Charlotte_Burton": 5350,
      "performance": 5351,
      "Bonnie_H": 5352,
      "Punjabi_language": 5353,
      "Austral": 5354,
      "Irving": 5355,
      "Jaswinder": 5356,
      "Russell": 5357,
      "Saty": 5358,
      "e_Cardona": 5359,
      "oretti": 5360,
      "political": 5361,
      "Smeep_Kang": 5362,
      "aughter": 5363,
      "avernier": 5364,
      "Sergiu_Nicol": 5365,
      "Amjad_Khan_": 5366,
      "_Richardson_": 5367,
      "_Raghav": 5368,
      "lyrics": 5369,
      "Larry_the_Cab": 5370,
      "Dominique_Cardona": 5371,
      "popular": 5372,
      "video": 5373,
      "Productions": 5374,
      "inspired": 5375,
      "mystery": 5376,
      "Lakshm": 5377,
      "Nina_U": 5378,
      "yoti": 5379,
      "Chaplin": 5380,
      "_Kraushaar": 5381,
      "Raoul_Kraushaar": 5382,
      "_Warren_Kerrigan": 5383,
      "Martin_Scorsese": 5384,
      "Tony_Todd": 5385,
      "Udapurkar": 5386,
      "Mario_Amendola": 5387,
      "Sergiu_Nicolaescu": 5388,
      "Larry_the_Cable_Guy": 5389,
      "12": 5390,
      "16": 5391,
      "AB": 5392,
      "Av": 5393,
      "Ba": 5394,
      "Bas": 5395,
      "Bouch": 5396,
      "Cre": 5397,
      "Darr": 5398,
      "Eber": 5399,
      "Foster": 5400,
      "Gor": 5401,
      "Gér": 5402,
      "Hil": 5403,
      "Hoff": 5404,
      "Hein": 5405,
      "Jar": 5406,
      "Jud": 5407,
      "Jeet": 5408,
      "KO": 5409,
      "Ka": 5410,
      "Ker": 5411,
      "Kier": 5412,
      "Karam": 5413,
      "Kaik": 5414,
      "Krishna": 5415,
      "Kirk": 5416,
      "Kagis": 5417,
      "Language": 5418,
      "Lanc": 5419,
      "Lenn": 5420,
      "Laine": 5421,
      "Lloyd": 5422,
      "Mas": 5423,
      "Mov": 5424,
      "Mig": 5425,
      "Mish": 5426,
      "Muk": 5427,
      "Mason": 5428,
      "Mille": 5429,
      "Ni": 5430,
      "Nav": 5431,
      "Nanni": 5432,
      "Naras": 5433,
      "Pear": 5434,
      "Penn": 5435,
      "Param": 5436,
      "Piper": 5437,
      "Riz": 5438,
      "RKO": 5439,
      "Sv": 5440,
      "Sig": 5441,
      "Sab": 5442,
      "Seth": 5443,
      "Sund": 5444,
      "Sound": 5445,
      "Suj": 5446,
      "Tol": 5447,
      "Tell": 5448,
      "US": 5449,
      "Vis": 5450,
      "Vla": 5451,
      "Vitt": 5452,
      "Whoop": 5453,
      "Yu": 5454,
      "Yuri": 5455,
      "añ": 5456,
      "aff": 5457,
      "bel": 5458,
      "bie": 5459,
      "boy": 5460,
      "dle": 5461,
      "dev": 5462,
      "dubb": 5463,
      "daughter": 5464,
      "fall": 5465,
      "find": 5466,
      "gn": 5467,
      "gang": 5468,
      "goy": 5469,
      "hart": 5470,
      "jan": 5471,
      "kh": 5472,
      "long": 5473,
      "leng": 5474,
      "min": 5475,
      "main": 5476,
      "net": 5477,
      "number": 5478,
      "pit": 5479,
      "sport": 5480,
      "six": 5481,
      "succ": 5482,
      "tol": 5483,
      "von": 5484,
      "vis": 5485,
      "vir": 5486,
      "studi": 5487,
      "ilver": 5488,
      "Cah": 5489,
      "orman": 5490,
      "though": 5491,
      "onor": 5492,
      "ican": 5493,
      "ene": 5494,
      "enson": 5495,
      "andy": 5496,
      "anders": 5497,
      "dis": 5498,
      "disc": 5499,
      "dimir": 5500,
      "ritt": 5501,
      "edd": 5502,
      "ised": 5503,
      "asan": 5504,
      "amb": 5505,
      "190": 5506,
      "atra": 5507,
      "aters": 5508,
      "olt": 5509,
      "olff": 5510,
      "chron": 5511,
      "ition": 5512,
      "ouston": 5513,
      "agar": 5514,
      "agli": 5515,
      "Amy": 5516,
      "Ching": 5517,
      "lives": 5518,
      "tta": 5519,
      "activ": 5520,
      "ident": 5521,
      "Theod": 5522,
      "ave": 5523,
      "bera": 5524,
      "ards": 5525,
      "ellini": 5526,
      "imer": 5527,
      "2001": 5528,
      "illy": 5529,
      "Anand": 5530,
      "Its": 5531,
      "abaki": 5532,
      "ione": 5533,
      "Shash": 5534,
      "oren": 5535,
      "ores": 5536,
      "oreno": 5537,
      "1984": 5538,
      "ulars": 5539,
      "endran": 5540,
      "1994": 5541,
      "Rog": 5542,
      "Robb": 5543,
      "Step": 5544,
      "rico": 5545,
      "acker": 5546,
      "Alph": 5547,
      "udha": 5548,
      "ished": 5549,
      "epper": 5550,
      "Lester": 5551,
      "opra": 5552,
      "ief": 5553,
      "Ing": 5554,
      "utes": 5555,
      "utch": 5556,
      "utive": 5557,
      "1961": 5558,
      "1964": 5559,
      "1966": 5560,
      "1968": 5561,
      "1956": 5562,
      "1949": 5563,
      "atton": 5564,
      "1970": 5565,
      "1971": 5566,
      "erner": 5567,
      "plac": 5568,
      "annel": 5569,
      "Carolina": 5570,
      "awa": 5571,
      "away": 5572,
      "awla": 5573,
      "1936": 5574,
      "Franco": 5575,
      "death": 5576,
      "artel": 5577,
      "Brook": 5578,
      "Argent": 5579,
      "arkar": 5580,
      "astr": 5581,
      "uke": 5582,
      "uki": 5583,
      "aneous": 5584,
      "playwright": 5585,
      "conc": 5586,
      "Raju": 5587,
      "photo": 5588,
      "upt": 5589,
      "Robertson": 5590,
      "Tomm": 5591,
      "Carlo": 5592,
      "screened": 5593,
      "brook": 5594,
      "etti": 5595,
      "office": 5596,
      "ynes": 5597,
      "Spain": 5598,
      "bbins": 5599,
      "Jacob": 5600,
      "ombardo": 5601,
      "Black": 5602,
      "Neal": 5603,
      "shorts": 5604,
      "Nagar": 5605,
      "Seb": 5606,
      "1913": 5607,
      "Scorsese": 5608,
      "dition": 5609,
      "Sharon": 5610,
      "Baye": 5611,
      "Drago": 5612,
      "tsev": 5613,
      "Goldsmith": 5614,
      "Susan": 5615,
      "Murali": 5616,
      "Monic": 5617,
      "ultaneous": 5618,
      "Luis": 5619,
      "Terry": 5620,
      "Woods": 5621,
      "originally": 5622,
      "Lorra": 5623,
      "Suhas": 5624,
      "Douglas": 5625,
      "avalas": 5626,
      "held": 5627,
      "Raymond": 5628,
      "Germany": 5629,
      "Phillips": 5630,
      "Phillippe": 5631,
      "Tanaka": 5632,
      "cinema": 5633,
      "murdered": 5634,
      "Gurung": 5635,
      "Imog": 5636,
      "November": 5637,
      "Owen": 5638,
      "euil": 5639,
      "Anthony": 5640,
      "special": 5641,
      "Umberto": 5642,
      "simultaneous": 5643,
      "Stuart": 5644,
      "Brazilian": 5645,
      "Mexican": 5646,
      "theatrical": 5647,
      "rapher": 5648,
      "Jayasudha": 5649,
      "Jagath": 5650,
      "égret": 5651,
      "explores": 5652,
      "Autry": 5653,
      "positive": 5654,
      "Emmanuel": 5655,
      "ampanini": 5656,
      "Konstant": 5657,
      "Latin": 5658,
      "female": 5659,
      "Eberle": 5660,
      "Gérard": 5661,
      "Vladimir": 5662,
      "dubbed": 5663,
      "goyan": 5664,
      "length": 5665,
      "sports": 5666,
      "success": 5667,
      "simultaneously": 5668,
      "29": 5669,
      "Abb": 5670,
      "Bang": 5671,
      "Bhan": 5672,
      "Bog": 5673,
      "Boyd": 5674,
      "Bresslaw": 5675,
      "Brah": 5676,
      "Cook": 5677,
      "Dar": 5678,
      "Dow": 5679,
      "Die": 5680,
      "Dai": 5681,
      "Dale": 5682,
      "Dillon": 5683,
      "Ear": 5684,
      "Ezz": 5685,
      "Fle": 5686,
      "Fero": 5687,
      "Friend": 5688,
      "Fabi": 5689,
      "Gang": 5690,
      "Gum": 5691,
      "Good": 5692,
      "Gast": 5693,
      "Gary": 5694,
      "Gail": 5695,
      "Gosse": 5696,
      "Hard": 5697,
      "Hob": 5698,
      "Hollywood": 5699,
      "Ian_": 5700,
      "Jon_": 5701,
      "Kam": 5702,
      "Kay": 5703,
      "Kok": 5704,
      "Kee": 5705,
      "Kaz": 5706,
      "Kay_": 5707,
      "Kerr": 5708,
      "Koh": 5709,
      "Los": 5710,
      "Lag": 5711,
      "Lev": 5712,
      "Loc": 5713,
      "Lok": 5714,
      "Lock": 5715,
      "Met": 5716,
      "Mass": 5717,
      "Meen": 5718,
      "Myl": 5719,
      "Miranda": 5720,
      "Nig": 5721,
      "Nish": 5722,
      "Nia_": 5723,
      "Nive": 5724,
      "Nelson": 5725,
      "Os": 5726,
      "Oleg": 5727,
      "Pá": 5728,
      "Pan": 5729,
      "Ped": 5730,
      "Port": 5731,
      "Paz": 5732,
      "Peng": 5733,
      "Price": 5734,
      "Rang": 5735,
      "Rab": 5736,
      "Rud": 5737,
      "Rush": 5738,
      "Reed": 5739,
      "Sl": 5740,
      "San": 5741,
      "Sall": 5742,
      "Sonn": 5743,
      "Tar": 5744,
      "Tit": 5745,
      "Tour": 5746,
      "Trey_": 5747,
      "Var": 5748,
      "Vill": 5749,
      "Vernon": 5750,
      "We": 5751,
      "Wah": 5752,
      "Wash": 5753,
      "Wade": 5754,
      "Yau": 5755,
      "Zim": 5756,
      "Zolt": 5757,
      "_Wilson": 5758,
      "beg": 5759,
      "boj": 5760,
      "card": 5761,
      "ce_D": 5762,
      "company": 5763,
      "cott_": 5764,
      "coup": 5765,
      "do": 5766,
      "dr": 5767,
      "derson": 5768,
      "eig": 5769,
      "eot": 5770,
      "eep": 5771,
      "et_G": 5772,
      "ga_": 5773,
      "ges": 5774,
      "hol": 5775,
      "het": 5776,
      "hite": 5777,
      "hmann": 5778,
      "hta": 5779,
      "huggi": 5780,
      "iele": 5781,
      "jö": 5782,
      "ject": 5783,
      "lv": 5784,
      "ly_H": 5785,
      "ms": 5786,
      "met": 5787,
      "more": 5788,
      "mem": 5789,
      "most": 5790,
      "marri": 5791,
      "nell": 5792,
      "ne_D": 5793,
      "oepp": 5794,
      "pict": 5795,
      "ry_": 5796,
      "run": 5797,
      "rost": 5798,
      "ss": 5799,
      "sa_": 5800,
      "sel": 5801,
      "sex": 5802,
      "some": 5803,
      "semi": 5804,
      "tor": 5805,
      "try": 5806,
      "trav": 5807,
      "uy": 5808,
      "uzz": 5809,
      "vid": 5810,
      "vill": 5811,
      "ville": 5812,
      "week": 5813,
      "wamb": 5814,
      "yon": 5815,
      "ypers": 5816,
      "zen": 5817,
      "Álv": 5818,
      "ène_D": 5819,
      "éry": 5820,
      "ín": 5821,
      "aran": 5822,
      "art_": 5823,
      "ana_P": 5824,
      "stories": 5825,
      "ered": 5826,
      "ery_": 5827,
      "erby": 5828,
      "eriti": 5829,
      "arrell": 5830,
      "ilp": 5831,
      "ily": 5832,
      "il_K": 5833,
      "ilog": 5834,
      "ilip": 5835,
      "rey_S": 5836,
      "remade": 5837,
      "replac": 5838,
      "tha": 5839,
      "onov": 5840,
      "e_K": 5841,
      "e_Y": 5842,
      "e_Z": 5843,
      "e_Mara": 5844,
      "icar": 5845,
      "enes": 5846,
      "enov": 5847,
      "andar": 5848,
      "andro": 5849,
      "andaram": 5850,
      "dited": 5851,
      "ribe": 5852,
      "a_F": 5853,
      "a_W": 5854,
      "a_Thompson": 5855,
      "asp": 5856,
      "ases": 5857,
      "ams": 5858,
      "amel": 5859,
      "elander": 5860,
      "y_film": 5861,
      "y_Sh": 5862,
      "y_Grewal": 5863,
      "ato": 5864,
      "atthau": 5865,
      "terling": 5866,
      "olk": 5867,
      "olin": 5868,
      "olte": 5869,
      "thew": 5870,
      "they": 5871,
      "_Sad": 5872,
      "_Sab": 5873,
      "_Shan": 5874,
      "_Soman": 5875,
      "_Scott": 5876,
      "_Mil": 5877,
      "_Mag": 5878,
      "_Mir": 5879,
      "_Madh": 5880,
      "_Mitch": 5881,
      "_Moretti": 5882,
      "_Matthau": 5883,
      "_Bre": 5884,
      "_Bhan": 5885,
      "_Bhar": 5886,
      "_Bail": 5887,
      "_Beer": 5888,
      "_Brid": 5889,
      "_Boyd": 5890,
      "_Baker": 5891,
      "chi_": 5892,
      "adav": 5893,
      "itar": 5894,
      "ouglas": 5895,
      "agan": 5896,
      "The_S": 5897,
      "Thomas_": 5898,
      "lev": 5899,
      "lein": 5900,
      "lect": 5901,
      "_Ren": 5902,
      "_Rey": 5903,
      "_Rai": 5904,
      "_Ray_": 5905,
      "_Reed": 5906,
      "nie_": 5907,
      "rael": 5908,
      "Carril": 5909,
      "Chev": 5910,
      "Chester": 5911,
      "Chief": 5912,
      "Channel": 5913,
      "exp": 5914,
      "exec": 5915,
      "lim": 5916,
      "live": 5917,
      "likar": 5918,
      "odandaram": 5919,
      "ovac": 5920,
      "o_P": 5921,
      "o_Cec": 5922,
      "acy": 5923,
      "acLaine": 5924,
      "an_K": 5925,
      "an_Nair": 5926,
      "an_Lane": 5927,
      "aves": 5928,
      "aken": 5929,
      "akov": 5930,
      "akrishn": 5931,
      "akrishna": 5932,
      "owan": 5933,
      "owdh": 5934,
      "i_Leo": 5935,
      "eto": 5936,
      "etz": 5937,
      "etlan": 5938,
      "arde": 5939,
      "ellman": 5940,
      "ently": 5941,
      "iman": 5942,
      "imhar": 5943,
      "icher": 5944,
      "ichael": 5945,
      "eves": 5946,
      "_Hy": 5947,
      "_Hoff": 5948,
      "illan_": 5949,
      "neg": 5950,
      "neo": 5951,
      "ship": 5952,
      "shown": 5953,
      "Capone": 5954,
      "Anu": 5955,
      "Anit": 5956,
      "Anub": 5957,
      "_Gre": 5958,
      "_Green": 5959,
      "_Grant": 5960,
      "_Del": 5961,
      "_Dou": 5962,
      "_Dub": 5963,
      "_Denn": 5964,
      "_Dale": 5965,
      "_Dhillon": 5966,
      "abell": 5967,
      "umi": 5968,
      "umathi": 5969,
      "umming": 5970,
      "umont": 5971,
      "manandam": 5972,
      "apa": 5973,
      "aph": 5974,
      "Shal": 5975,
      "Shah": 5976,
      "Shankar": 5977,
      "Shatr": 5978,
      "Shilp": 5979,
      "ucqu": 5980,
      "1988": 5981,
      "_Cook": 5982,
      "_Cole": 5983,
      "_Collins": 5984,
      "_Cobb": 5985,
      "_Fur": 5986,
      "_Frank": 5987,
      "ulin": 5988,
      "ended": 5989,
      "rani": 5990,
      "_Krishna": 5991,
      "_Koh": 5992,
      "Robin": 5993,
      "Rah": 5994,
      "Star": 5995,
      "ives": 5996,
      "emm": 5997,
      "ement": 5998,
      "emong": 5999,
      "emheld": 6000,
      "Alice": 6001,
      "_Per": 6002,
      "_Poll": 6003,
      "_Pull": 6004,
      "epis": 6005,
      "coming": 6006,
      "pring": 6007,
      "prov": 6008,
      "indh": 6009,
      "_Niven": 6010,
      "_Robert": 6011,
      "_Roemheld": 6012,
      "1954": 6013,
      "1957": 6014,
      "gheriti": 6015,
      "_Thomas_": 6016,
      "atten": 6017,
      "quez": 6018,
      "anti": 6019,
      "ants": 6020,
      "ttenberg": 6021,
      "Prab": 6022,
      "_Ward": 6023,
      "fee": 6024,
      "_Tal": 6025,
      "_Tri": 6026,
      "_Torn": 6027,
      "_Taylor": 6028,
      "1975": 6029,
      "ah_": 6030,
      "ogelman": 6031,
      "ogovac": 6032,
      "icker": 6033,
      "_Stu": 6034,
      "_Steiner": 6035,
      "_Jr": 6036,
      "cox": 6037,
      "_Sheen": 6038,
      "ekha": 6039,
      "scar": 6040,
      "ajwa": 6041,
      "awd": 6042,
      "Willi_For": 6043,
      "Franz": 6044,
      "Franç": 6045,
      "Davis": 6046,
      "John_B": 6047,
      "Williams_": 6048,
      "William_Boyd": 6049,
      "Brand": 6050,
      "Brown": 6051,
      "_Lov": 6052,
      "Art": 6053,
      "Artur": 6054,
      "assman": 6055,
      "_Vá": 6056,
      "countries": 6057,
      "haran": 6058,
      "othari": 6059,
      "David_D": 6060,
      "David_K": 6061,
      "David_Niven": 6062,
      "rent": 6063,
      "ieri": 6064,
      "Justin": 6065,
      "umar_": 6066,
      "Adrian": 6067,
      "arya": 6068,
      "Moe_H": 6069,
      "Mohan_": 6070,
      "Jamie_": 6071,
      "y_Sch": 6072,
      "y_Savalas": 6073,
      "Eddie": 6074,
      "conv": 6075,
      "Raj_K": 6076,
      "John_G": 6077,
      "alsam": 6078,
      "_McG": 6079,
      "_McDonald": 6080,
      "_McNam": 6081,
      "upper": 6082,
      "upta": 6083,
      "Paul_": 6084,
      "e_Niro": 6085,
      "a_Kar": 6086,
      "Onten": 6087,
      "ergus": 6088,
      "ergman": 6089,
      "a_Bh": 6090,
      "became": 6091,
      "arif": 6092,
      "arien": 6093,
      "Richard_B": 6094,
      "pect": 6095,
      "Robert_A": 6096,
      "22_Barr": 6097,
      "22Red": 6098,
      "Guttenberg": 6099,
      "glas_": 6100,
      "_Allégret": 6101,
      "Frank_R": 6102,
      "Cassel": 6103,
      "Tom_": 6104,
      "Carlo_": 6105,
      "Wild_Bill_Elliott": 6106,
      "ized": 6107,
      "ennet": 6108,
      "innelli": 6109,
      "ossi_": 6110,
      "madi": 6111,
      "Walsh": 6112,
      "errill": 6113,
      "ffer": 6114,
      "y_MacLaine": 6115,
      "Ramarajan": 6116,
      "enge": 6117,
      "y_Busey": 6118,
      "Martin_Sheen": 6119,
      "a_Ran": 6120,
      "Julie_": 6121,
      "Juliett": 6122,
      "orrupt": 6123,
      "y_Wong": 6124,
      "i_Kumar_": 6125,
      "English_": 6126,
      "_Brand": 6127,
      "_Brun": 6128,
      "Louis_D": 6129,
      "Henri": 6130,
      "axon": 6131,
      "axter": 6132,
      "lands": 6133,
      "reeman": 6134,
      "Steve_B": 6135,
      "Brian_D": 6136,
      "Eric_B": 6137,
      "Elliott_": 6138,
      "Neboj": 6139,
      "Sidney_D": 6140,
      "Westerby": 6141,
      "world": 6142,
      "an_Scott_": 6143,
      "_Marshall": 6144,
      "_Rajkumar": 6145,
      "un_Chakraborty": 6146,
      "leader": 6147,
      "iley_Bur": 6148,
      "Dev_Anand": 6149,
      "Heung": 6150,
      "Media": 6151,
      "reys": 6152,
      "Jimmy_": 6153,
      "Jim_Dale": 6154,
      "_Murray": 6155,
      "Manish": 6156,
      "Manuel": 6157,
      "lovo": 6158,
      "Jayanth": 6159,
      "Jayabhar": 6160,
      "Quent": 6161,
      "People": 6162,
      "Bernard_H": 6163,
      "Barry": 6164,
      "Barry_": 6165,
      "Girish": 6166,
      "_Anderson": 6167,
      "Sharada_": 6168,
      "Marcel": 6169,
      "Marc_Allégret": 6170,
      "Francesc": 6171,
      "Corpor": 6172,
      "Doro": 6173,
      "y_Fine": 6174,
      "Alexandr": 6175,
      "Suso_Cec": 6176,
      "_Chak": 6177,
      "a_Shankar": 6178,
      "zzard": 6179,
      "ensive": 6180,
      "ampton": 6181,
      "Mont": 6182,
      "Mayo": 6183,
      "oirala": 6184,
      "Victoria_": 6185,
      "Const": 6186,
      "Nathan_Scott_": 6187,
      "_Curtis": 6188,
      "Walter_Matthau": 6189,
      "Larry": 6190,
      "Larry_Fine": 6191,
      "Max_Steiner": 6192,
      "Young_": 6193,
      "arnad": 6194,
      "Gabby": 6195,
      "_Barrymore": 6196,
      "ography": 6197,
      "anthology": 6198,
      "Christopher_H": 6199,
      "Gary_Busey": 6200,
      "Newman": 6201,
      "Rita_M": 6202,
      "having": 6203,
      "Patrick_D": 6204,
      "Ashley_": 6205,
      "Domingo": 6206,
      "Venk": 6207,
      "desc": 6208,
      "Joey_K": 6209,
      "Claud": 6210,
      "Claude_": 6211,
      "Grac": 6212,
      "Karen": 6213,
      "Toole": 6214,
      "nolds": 6215,
      "therton": 6216,
      "_Arnold": 6217,
      "_Clair": 6218,
      "Sonj": 6219,
      "Sunil_Kumar": 6220,
      "Cooper": 6221,
      "Dasari": 6222,
      "Oliv": 6223,
      "burg": 6224,
      "_Schr": 6225,
      "_Bhalla": 6226,
      "Carlos_V": 6227,
      "Carlos_Al": 6228,
      "Cuypers": 6229,
      "Curly_H": 6230,
      "Randy_": 6231,
      "regulars": 6232,
      "rell": 6233,
      "Margaret_": 6234,
      "Mario_M": 6235,
      "Kathleen_": 6236,
      "000": 6237,
      "help": 6238,
      "_Rogell": 6239,
      "Charles_Chaplin": 6240,
      "Alekse": 6241,
      "Kannada_actress": 6242,
      "Jonathan": 6243,
      "Jerry": 6244,
      "Nancy": 6245,
      "Nancy_": 6246,
      "iente": 6247,
      "ala_Satyanarayana": 6248,
      "angerfield": 6249,
      "_Henry": 6250,
      "María": 6251,
      "endra_Rao": 6252,
      "Albert_S": 6253,
      "Bruno": 6254,
      "Nageswara": 6255,
      "Dennis_Hop": 6256,
      "Herbert": 6257,
      "Jean_": 6258,
      "Jean_D": 6259,
      "track": 6260,
      "Turtur": 6261,
      "o_Di_Leo": 6262,
      "_Hayes": 6263,
      "_Khanna": 6264,
      "Hugo_": 6265,
      "Smiley_Bur": 6266,
      "Yvonn": 6267,
      "mad_A": 6268,
      "Stuar": 6269,
      "Noah_Beer": 6270,
      "Virginia_": 6271,
      "Farrow": 6272,
      "July": 6273,
      "k_Udapurkar": 6274,
      "named": 6275,
      "_Somashekhar": 6276,
      "_Martin_": 6277,
      "_Hugh": 6278,
      "Alfred_Newman_": 6279,
      "William_Hanna": 6280,
      "Valerie_": 6281,
      "Fernando_Di_Leo": 6282,
      "Sai_Kumar_": 6283,
      "critics": 6284,
      "guest": 6285,
      "mission": 6286,
      "nominated": 6287,
      "student": 6288,
      "Anupam_K": 6289,
      "Shrut": 6290,
      "Ayres": 6291,
      "Eleonor": 6292,
      "Pete_": 6293,
      "Ryan_Phillippe": 6294,
      "Vijay": 6295,
      "cannibal": 6296,
      "_Sinha": 6297,
      "_Bernstein": 6298,
      "_Desai": 6299,
      "Johnny_M": 6300,
      "Robert_De_Niro": 6301,
      "Timothy_": 6302,
      "Peter_Butterworth": 6303,
      "Philip_Glass": 6304,
      "_Lee_Thompson": 6305,
      "Lawrence": 6306,
      "Bruno_Corbucci": 6307,
      "Sydney_": 6308,
      "Mrinal_Dev": 6309,
      "Zulficar": 6310,
      "psychological": 6311,
      "Brend": 6312,
      "Gippy_Grewal": 6313,
      "Mithun_Chakraborty": 6314,
      "Rip_Torn": 6315,
      "Suresh": 6316,
      "highest": 6317,
      "dialogue": 6318,
      "Sherri": 6319,
      "uloch": 6320,
      "Elmer_Bernstein": 6321,
      "grossing": 6322,
      "usudhana_Rao": 6323,
      "Binnu_Dhillon": 6324,
      "Cynth": 6325,
      "Dan_Eberle": 6326,
      "Rolf_H": 6327,
      "Tiger": 6328,
      "called": 6329,
      "ladesh": 6330,
      "wrote": 6331,
      "_Bandopadhyay": 6332,
      "o_Lediga": 6333,
      "apriya": 6334,
      "Shashank_Udapurkar": 6335,
      "_Krishna_Reddy": 6336,
      "_Prabhakar": 6337,
      "Dave_Clark": 6338,
      "Charan_Raj": 6339,
      "Rajasekhar": 6340,
      "_Ortol": 6341,
      "Tom_Hanks": 6342,
      "rinivasa_Rao": 6343,
      "Universal": 6344,
      "Nathalie_Baye": 6345,
      "Bertrand": 6346,
      "Shirley_MacLaine": 6347,
      "Gurpreet_G": 6348,
      "Bonnie_Hunt": 6349,
      "Jaswinder_Bhalla": 6350,
      "Satyaj": 6351,
      "Jeetendra": 6352,
      "Karamjit": 6353,
      "Kaikala_Satyanarayana": 6354,
      "Kagiso_Lediga": 6355,
      "Miguel": 6356,
      "Mukesh": 6357,
      "Nanni_Moretti": 6358,
      "Narasimhar": 6359,
      "Pearl": 6360,
      "Riz_Ortol": 6361,
      "Svetlan": 6362,
      "Soundarya": 6363,
      "Telly_Savalas": 6364,
      "Vittor": 6365,
      "affair": 6366,
      "develop": 6367,
      "studio": 6368,
      "photog": 6369,
      "Bangladesh": 6370,
      "Brahmanandam": 6371,
      "Dowell": 6372,
      "Feroz": 6373,
      "Gummadi": 6374,
      "Gossett": 6375,
      "Laglen": 6376,
      "Lokesh": 6377,
      "Massim": 6378,
      "Mylène_D": 6379,
      "Nigel": 6380,
      "Nivedit": 6381,
      "Pál": 6382,
      "Tourneur": 6383,
      "Trey_Parker": 6384,
      "jös": 6385,
      "picture": 6386,
      "wambharan": 6387,
      "ilogy": 6388,
      "enovela": 6389,
      "_Madhusudhana_Rao": 6390,
      "_Bhargava": 6391,
      "chi_d": 6392,
      "executive": 6393,
      "owdhury": 6394,
      "Anubhav": 6395,
      "Shatrughan": 6396,
      "emongeot": 6397,
      "Willi_Forst": 6398,
      "William_Boyd_": 6399,
      "Moe_Howard": 6400,
      "Onteniente": 6401,
      "22_Barry": 6402,
      "Nebojš": 6403,
      "Sidney_Drew": 6404,
      "Jayabharathi": 6405,
      "Corporation": 6406,
      "Suso_Cecchi_d": 6407,
      "Sunil_Kumar_Desai": 6408,
      "Curly_Howard": 6409,
      "Dennis_Hopper": 6410,
      "Turturro": 6411,
      "Smiley_Burnette": 6412,
      "Anupam_Kher": 6413,
      "Gurpreet_Ghuggi": 6414,
      "Narasimharaj": 6415,
      "Riz_Ortolani": 6416,
      "Mylène_Demongeot": 6417,
      "11": 6418,
      "17": 6419,
      "1st": 6420,
      "23": 6421,
      "26": 6422,
      "Au": 6423,
      "Az": 6424,
      "Ach": 6425,
      "Aud": 6426,
      "Aravind": 6427,
      "By": 6428,
      "Balu": 6429,
      "Bij": 6430,
      "Bizet": 6431,
      "Cer": 6432,
      "Cine": 6433,
      "Company": 6434,
      "Collins": 6435,
      "DV": 6436,
      "Des": 6437,
      "Drama": 6438,
      "Dwan": 6439,
      "Drew": 6440,
      "Dmit": 6441,
      "Eri": 6442,
      "Estev": 6443,
      "Fat": 6444,
      "Fore": 6445,
      "Fann": 6446,
      "Five": 6447,
      "First": 6448,
      "Fever": 6449,
      "Gian": 6450,
      "Glen": 6451,
      "Grig": 6452,
      "Ginger": 6453,
      "Gonz": 6454,
      "Haya": 6455,
      "Hannah": 6456,
      "Himan": 6457,
      "Iren": 6458,
      "Jorg": 6459,
      "Jenn": 6460,
      "Jij": 6461,
      "Jyoti": 6462,
      "Ki": 6463,
      "Kl": 6464,
      "Kin": 6465,
      "Kern": 6466,
      "Kali": 6467,
      "Krishn": 6468,
      "Kerman": 6469,
      "Ling": 6470,
      "Lon": 6471,
      "Lam": 6472,
      "Long": 6473,
      "Light": 6474,
      "Luch": 6475,
      "Ma": 6476,
      "Min": 6477,
      "Mak": 6478,
      "Meg": 6479,
      "Miller": 6480,
      "Meet": 6481,
      "Morgan": 6482,
      "Mandar": 6483,
      "Nin": 6484,
      "Nand": 6485,
      "Nas": 6486,
      "Net": 6487,
      "Nep": 6488,
      "Nando": 6489,
      "Oh": 6490,
      "Ot": 6491,
      "Our": 6492,
      "Orol": 6493,
      "Pand": 6494,
      "Pul": 6495,
      "Puri": 6496,
      "Ry": 6497,
      "Ron": 6498,
      "Rat": 6499,
      "Rum": 6500,
      "Rish": 6501,
      "Ross": 6502,
      "Rhe": 6503,
      "Rez": 6504,
      "Rita": 6505,
      "Ranj": 6506,
      "Sor": 6507,
      "Som": 6508,
      "Spe": 6509,
      "Serb": 6510,
      "Ti": 6511,
      "Tanner": 6512,
      "Tapas": 6513,
      "Toshi": 6514,
      "Urs": 6515,
      "Vo": 6516,
      "Vic": 6517,
      "Ved": 6518,
      "Vera": 6519,
      "Vallés": 6520,
      "Wright": 6521,
      "Wolf": 6522,
      "Yud": 6523,
      "Yok": 6524,
      "Zain": 6525,
      "bour": 6526,
      "cr": 6527,
      "cid": 6528,
      "coll": 6529,
      "cia": 6530,
      "corrupt": 6531,
      "dul": 6532,
      "drich": 6533,
      "eele": 6534,
      "fam": 6535,
      "fig": 6536,
      "gy": 6537,
      "gian": 6538,
      "guez": 6539,
      "hand": 6540,
      "hom": 6541,
      "hra": 6542,
      "how": 6543,
      "hap": 6544,
      "hims": 6545,
      "human": 6546,
      "ien": 6547,
      "ias": 6548,
      "ibal": 6549,
      "ji": 6550,
      "jam": 6551,
      "janović": 6552,
      "ko": 6553,
      "key": 6554,
      "mä": 6555,
      "mation": 6556,
      "mez": 6557,
      "million": 6558,
      "nd": 6559,
      "ning": 6560,
      "odi": 6561,
      "py": 6562,
      "prison": 6563,
      "raser": 6564,
      "send": 6565,
      "sele": 6566,
      "sitcom": 6567,
      "tar": 6568,
      "tega": 6569,
      "uz": 6570,
      "vin": 6571,
      "vra": 6572,
      "vary": 6573,
      "wu": 6574,
      "west": 6575,
      "witz": 6576,
      "water": 6577,
      "wait": 6578,
      "xel": 6579,
      "xley": 6580,
      "ze": 6581,
      "zv": 6582,
      "zeg": 6583,
      "Örne": 6584,
      "àto": 6585,
      "är": 6586,
      "ädrich": 6587,
      "ómez": 6588,
      "öder": 6589,
      "inz": 6590,
      "intsev": 6591,
      "anya": 6592,
      "erot": 6593,
      "ingwater": 6594,
      "reat": 6595,
      "reak": 6596,
      "reet": 6597,
      "reia": 6598,
      "Caine": 6599,
      "orm": 6600,
      "then": 6601,
      "thvir": 6602,
      "threat": 6603,
      "ones": 6604,
      "onah": 6605,
      "onym": 6606,
      "icz": 6607,
      "icle": 6608,
      "icago": 6609,
      "enon": 6610,
      "alt": 6611,
      "aled": 6612,
      "andarkar": 6613,
      "dio": 6614,
      "rib": 6615,
      "asing": 6616,
      "asikumar": 6617,
      "amu": 6618,
      "amagan": 6619,
      "elet": 6620,
      "19th": 6621,
      "omura": 6622,
      "ator": 6623,
      "atoro": 6624,
      "usch": 6625,
      "osa": 6626,
      "olta": 6627,
      "olhap": 6628,
      "writing": 6629,
      "Carter": 6630,
      "ofess": 6631,
      "che": 6632,
      "chu": 6633,
      "chin": 6634,
      "chlow": 6635,
      "ado": 6636,
      "adine": 6637,
      "adice": 6638,
      "itel": 6639,
      "itra": 6640,
      "itti": 6641,
      "itary": 6642,
      "oub": 6643,
      "oust": 6644,
      "ague": 6645,
      "Ames": 6646,
      "Ambr": 6647,
      "Thom": 6648,
      "Three": 6649,
      "2022": 6650,
      "ayev": 6651,
      "irc": 6652,
      "race": 6653,
      "Carradine": 6654,
      "Chase": 6655,
      "Chhet": 6656,
      "Chicago": 6657,
      "exter": 6658,
      "Beck": 6659,
      "aud": 6660,
      "auris": 6661,
      "idden": 6662,
      "ovina": 6663,
      "ange": 6664,
      "avin": 6665,
      "aku": 6666,
      "owers": 6667,
      "owley": 6668,
      "unter": 6669,
      "ety": 6670,
      "etime": 6671,
      "ardin": 6672,
      "took": 6673,
      "even": 6674,
      "eville": 6675,
      "show": 6676,
      "Capote": 6677,
      "Anat": 6678,
      "ige": 6679,
      "actors": 6680,
      "abor": 6681,
      "ions": 6682,
      "ume": 6683,
      "ummer": 6684,
      "Maris": 6685,
      "Marathi": 6686,
      "Marvin": 6687,
      "ota": 6688,
      "apore": 6689,
      "Shy": 6690,
      "Shin": 6691,
      "Shan": 6692,
      "Sham": 6693,
      "Shel": 6694,
      "Shadow": 6695,
      "athkumar": 6696,
      "oret": 6697,
      "1986": 6698,
      "ula": 6699,
      "endon": 6700,
      "endle": 6701,
      "Wilton": 6702,
      "Wilho": 6703,
      "Wilhel": 6704,
      "Wilcox": 6705,
      "Sté": 6706,
      "Steele": 6707,
      "Aless": 6708,
      "Alberto": 6709,
      "Leigh": 6710,
      "oph": 6711,
      "ople": 6712,
      "anco": 6713,
      "ancini": 6714,
      "ghlin": 6715,
      "gharia": 6716,
      "iana": 6717,
      "1946": 6718,
      "antam": 6719,
      "eyer": 6720,
      "eyder": 6721,
      "eymann": 6722,
      "Campog": 6723,
      "oca": 6724,
      "few": 6725,
      "1979": 6726,
      "ollin": 6727,
      "olled": 6728,
      "ogan": 6729,
      "ographer": 6730,
      "cost": 6731,
      "ekar": 6732,
      "producers": 6733,
      "awn": 6734,
      "award": 6735,
      "1937": 6736,
      "Johnson": 6737,
      "Johnston": 6738,
      "Charlie": 6739,
      "obu": 6740,
      "oble": 6741,
      "ashi": 6742,
      "eger": 6743,
      "okar": 6744,
      "oker": 6745,
      "assi": 6746,
      "arklow": 6747,
      "asterson": 6748,
      "hary": 6749,
      "harband": 6750,
      "Prates": 6751,
      "rimal": 6752,
      "Clar": 6753,
      "Clay": 6754,
      "rens": 6755,
      "ists": 6756,
      "ierig": 6757,
      "Judith": 6758,
      "Adler": 6759,
      "appears": 6760,
      "playing": 6761,
      "ueiro": 6762,
      "conti": 6763,
      "consid": 6764,
      "azz": 6765,
      "azaki": 6766,
      "araf": 6767,
      "upon": 6768,
      "Harsh": 6769,
      "Harish": 6770,
      "ariety": 6771,
      "people": 6772,
      "1928": 6773,
      "making": 6774,
      "Filmed": 6775,
      "ankesh": 6776,
      "offic": 6777,
      "Walk": 6778,
      "Walt": 6779,
      "orda": 6780,
      "block": 6781,
      "engupta": 6782,
      "Jansen": 6783,
      "mont": 6784,
      "month": 6785,
      "Jaclyn": 6786,
      "atesw": 6787,
      "onnard": 6788,
      "Julius": 6789,
      "Harris": 6790,
      "moeller": 6791,
      "Louisiana": 6792,
      "einhard": 6793,
      "Brid": 6794,
      "alke": 6795,
      "Elliot": 6796,
      "usselman": 6797,
      "following": 6798,
      "titled": 6799,
      "jadi": 6800,
      "Chandran": 6801,
      "every": 6802,
      "Keir": 6803,
      "ittle": 6804,
      "leading": 6805,
      "iriya": 6806,
      "Calcutta": 6807,
      "Tinto": 6808,
      "portray": 6809,
      "Heath": 6810,
      "Mikael": 6811,
      "Techn": 6812,
      "true": 6813,
      "trilogy": 6814,
      "uval": 6815,
      "Manoj": 6816,
      "Jayam": 6817,
      "North": 6818,
      "Ortega": 6819,
      "icolor": 6820,
      "ixit": 6821,
      "Barrymore": 6822,
      "pied": 6823,
      "2021": 6824,
      "Corman": 6825,
      "Valent": 6826,
      "Predator": 6827,
      "Susannah": 6828,
      "Burton": 6829,
      "rayer": 6830,
      "Christoph": 6831,
      "Asrani": 6832,
      "Parv": 6833,
      "assett": 6834,
      "asseur": 6835,
      "Adams": 6836,
      "Mahon": 6837,
      "international": 6838,
      "Angelo": 6839,
      "Maxwell": 6840,
      "ilescu": 6841,
      "Gregor": 6842,
      "Gregory": 6843,
      "Natal": 6844,
      "Wallace": 6845,
      "Nicolá": 6846,
      "police": 6847,
      "dieu": 6848,
      "Geethapriya": 6849,
      "Whip": 6850,
      "Isa": 6851,
      "Venice": 6852,
      "revol": 6853,
      "Bruce": 6854,
      "Berlin": 6855,
      "Matthew": 6856,
      "Palit": 6857,
      "Singeet": 6858,
      "Singapore": 6859,
      "worked": 6860,
      "Hambur": 6861,
      "Lytton": 6862,
      "Prisc": 6863,
      "Prithvir": 6864,
      "Solberg": 6865,
      "premiere": 6866,
      "Curtis": 6867,
      "Lisa": 6868,
      "Padmamagan": 6869,
      "regular": 6870,
      "Angeles": 6871,
      "Atom": 6872,
      "Gillingwater": 6873,
      "ozintsev": 6874,
      "passant": 6875,
      "Meliss": 6876,
      "reprise": 6877,
      "Afz": 6878,
      "Madhuri": 6879,
      "parents": 6880,
      "surv": 6881,
      "riedberg": 6882,
      "Chatmon": 6883,
      "lynn": 6884,
      "biography": 6885,
      "Balach": 6886,
      "Sreekumar": 6887,
      "Vishal": 6888,
      "school": 6889,
      "soundtrack": 6890,
      "Chakravarthy": 6891,
      "Rachael": 6892,
      "Indovina": 6893,
      "Dorothy": 6894,
      "Director": 6895,
      "Srinivas": 6896,
      "Vasilescu": 6897,
      "Glory": 6898,
      "Gilbert": 6899,
      "alliani": 6900,
      "performances": 6901,
      "Punjabi": 6902,
      "Taiwanese": 6903,
      "Costa": 6904,
      "Fais": 6905,
      "Florest": 6906,
      "Floren": 6907,
      "Romanian": 6908,
      "Tedd": 6909,
      "keley": 6910,
      "midt": 6911,
      "onzo": 6912,
      "oudhary": 6913,
      "abharana": 6914,
      "subject": 6915,
      "Sudhir": 6916,
      "Poe": 6917,
      "aquin": 6918,
      "Shroff": 6919,
      "collection": 6920,
      "Ghost": 6921,
      "Srivid": 6922,
      "deti": 6923,
      "funkel": 6924,
      "esnard": 6925,
      "esnick": 6926,
      "Nikol": 6927,
      "Travolta": 6928,
      "Viktor": 6929,
      "Yoshitar": 6930,
      "hospit": 6931,
      "marked": 6932,
      "Johannes": 6933,
      "cinematographer": 6934,
      "Animation": 6935,
      "Court": 6936,
      "Ethel": 6937,
      "Gains": 6938,
      "Penelop": 6939,
      "Pallavi": 6940,
      "Savitri": 6941,
      "Winston": 6942,
      "iyazaki": 6943,
      "major": 6944,
      "social": 6945,
      "Cava": 6946,
      "ABC": 6947,
      "Avani": 6948,
      "Bouchet": 6949,
      "Movie": 6950,
      "Paramount": 6951,
      "Visconti": 6952,
      "Alphonso": 6953,
      "Argentine": 6954,
      "Nagarjun": 6955,
      "Imogen": 6956,
      "Kazu": 6957,
      "Metro": 6958,
      "couple": 6959,
      "negative": 6960,
      "François": 6961,
      "Venkat": 6962,
      "Satyajit": 6963,
      "Auley": 6964,
      "Bijibal": 6965,
      "DVD": 6966,
      "Foreign": 6967,
      "Gonzal": 6968,
      "Himansu": 6969,
      "Jiju": 6970,
      "Otakar": 6971,
      "Serbian": 6972,
      "Vedantam": 6973,
      "famous": 6974,
      "himself": 6975,
      "jamin": 6976,
      "mäki": 6977,
      "selected": 6978,
      "western": 6979,
      "zegvary": 6980,
      "Örnek": 6981,
      "erotic": 6982,
      "eleti": 6983,
      "olhapure": 6984,
      "chlowicz": 6985,
      "aurismäki": 6986,
      "Wilhoite": 6987,
      "Wilhelm": 6988,
      "Campogalliani": 6989,
      "harbanda": 6990,
      "Technicolor": 6991,
      "Hamburger": 6992,
      "Prithviraj": 6993,
      "Srividya": 6994,
      "hospital": 6995,
      "14": 6996,
      "Aj": 6997,
      "Act": 6998,
      "Audi": 6999,
      "Actor": 7000,
      "Aadhi": 7001,
      "Bi": 7002,
      "Bo": 7003,
      "Bá": 7004,
      "Bor": 7005,
      "Big": 7006,
      "Ben_": 7007,
      "Boy": 7008,
      "Baker": 7009,
      "Butterworth": 7010,
      "Bergman": 7011,
      "CB": 7012,
      "Cly": 7013,
      "Cold": 7014,
      "Crime": 7015,
      "Cobb": 7016,
      "Cumming": 7017,
      "Dh": 7018,
      "Dy": 7019,
      "De_": 7020,
      "Dal": 7021,
      "Dur": 7022,
      "Dog": 7023,
      "Dhar": 7024,
      "Dine_": 7025,
      "Dwar": 7026,
      "Dan_F": 7027,
      "Duff": 7028,
      "Doyle": 7029,
      "Dutch": 7030,
      "Darien": 7031,
      "Ex": 7032,
      "Ethan_": 7033,
      "Fer": 7034,
      "Fard": 7035,
      "Ful": 7036,
      "Fair": 7037,
      "Ford": 7038,
      "Ferr": 7039,
      "Fried": 7040,
      "Fergus": 7041,
      "Gau": 7042,
      "Graves": 7043,
      "Ho": 7044,
      "Hy": 7045,
      "Hol": 7046,
      "Hav": 7047,
      "Haj": 7048,
      "Hass": 7049,
      "Hero": 7050,
      "Hudi": 7051,
      "Hale": 7052,
      "Horror": 7053,
      "Haas": 7054,
      "Hild": 7055,
      "Hunt": 7056,
      "Herman": 7057,
      "Holm": 7058,
      "Holloway": 7059,
      "Hunter": 7060,
      "Ig": 7061,
      "Ivo": 7062,
      "Jing": 7063,
      "Jes": 7064,
      "Jew": 7065,
      "Jay_": 7066,
      "Jord": 7067,
      "Jym": 7068,
      "Jaim": 7069,
      "Jarrett": 7070,
      "Kr": 7071,
      "Kel": 7072,
      "Kip": 7073,
      "Kous": 7074,
      "Kari_": 7075,
      "Kate": 7076,
      "Kander": 7077,
      "Land": 7078,
      "Lad": 7079,
      "Lem": 7080,
      "Lio": 7081,
      "Lax": 7082,
      "Linds": 7083,
      "Lorett": 7084,
      "Little": 7085,
      "Mer": 7086,
      "Ma_": 7087,
      "Mos": 7088,
      "Mou": 7089,
      "Mag": 7090,
      "Miss": 7091,
      "Maur": 7092,
      "Millan_": 7093,
      "Nil": 7094,
      "Niv": 7095,
      "Nip": 7096,
      "Night": 7097,
      "Niranj": 7098,
      "Nazir": 7099,
      "Og": 7100,
      "Ov": 7101,
      "Oth": 7102,
      "Ott": 7103,
      "Orig": 7104,
      "Pes": 7105,
      "Pol": 7106,
      "Pab": 7107,
      "Patt": 7108,
      "Pine": 7109,
      "Pino_": 7110,
      "Pione": 7111,
      "Pamel": 7112,
      "Ră": 7113,
      "Rid": 7114,
      "Rak": 7115,
      "Riv": 7116,
      "Roland": 7117,
      "Rome": 7118,
      "Sath": 7119,
      "Soman": 7120,
      "Suth": 7121,
      "Sandr": 7122,
      "Sitcom": 7123,
      "Santa": 7124,
      "Sterling": 7125,
      "Sindh": 7126,
      "Slovo": 7127,
      "Suloch": 7128,
      "Tun": 7129,
      "Trev": 7130,
      "Tatyan": 7131,
      "Tracy": 7132,
      "Tavernier": 7133,
      "Uk": 7134,
      "Ut": 7135,
      "Vi": 7136,
      "Ví": 7137,
      "Vich": 7138,
      "Ward": 7139,
      "Witt": 7140,
      "Winter": 7141,
      "Xav": 7142,
      "Xia": 7143,
      "Yū": 7144,
      "Yur": 7145,
      "Yev": 7146,
      "Yusu": 7147,
      "Zor": 7148,
      "Zah": 7149,
      "Zsa_": 7150,
      "_Carr": 7151,
      "_El": 7152,
      "_de_": 7153,
      "_Young": 7154,
      "_Christopher": 7155,
      "_Ud": 7156,
      "_Chandra": 7157,
      "_Cah": 7158,
      "_Cassel": 7159,
      "ao_": 7160,
      "aak": 7161,
      "bo": 7162,
      "bol": 7163,
      "bay": 7164,
      "best": 7165,
      "burn": 7166,
      "bury": 7167,
      "bards": 7168,
      "bdul": 7169,
      "bidden": 7170,
      "cy": 7171,
      "ced": 7172,
      "cim": 7173,
      "cap": 7174,
      "care": 7175,
      "cent_": 7176,
      "crew": 7177,
      "circ": 7178,
      "eo": 7179,
      "ead": 7180,
      "eer_": 7181,
      "ebb": 7182,
      "fir": 7183,
      "foc": 7184,
      "fight": 7185,
      "foot": 7186,
      "finds": 7187,
      "fron": 7188,
      "gom": 7189,
      "go_": 7190,
      "gant": 7191,
      "gari": 7192,
      "hal": 7193,
      "hini": 7194,
      "he_Musical": 7195,
      "hi_Ch": 7196,
      "home": 7197,
      "hmed": 7198,
      "ior": 7199,
      "iep": 7200,
      "iari": 7201,
      "ibl": 7202,
      "ju": 7203,
      "jar": 7204,
      "ji_": 7205,
      "jens": 7206,
      "j_Tri": 7207,
      "kk": 7208,
      "kiles": 7209,
      "lat": 7210,
      "l_H": 7211,
      "ler_": 7212,
      "look": 7213,
      "logovac": 7214,
      "men": 7215,
      "mes": 7216,
      "mo_": 7217,
      "mik": 7218,
      "my_T": 7219,
      "ns": 7220,
      "nan": 7221,
      "na_": 7222,
      "nur": 7223,
      "nino": 7224,
      "n_Mag": 7225,
      "oan": 7226,
      "oom": 7227,
      "o_S": 7228,
      "oo_M": 7229,
      "pt": 7230,
      "pra": 7231,
      "post": 7232,
      "pine": 7233,
      "publ": 7234,
      "pstein": 7235,
      "power": 7236,
      "pierig": 7237,
      "ra_": 7238,
      "ro_": 7239,
      "ra_D": 7240,
      "royd": 7241,
      "rgant": 7242,
      "so": 7243,
      "sent": 7244,
      "sini": 7245,
      "sung": 7246,
      "sy_R": 7247,
      "spi": 7248,
      "sokan": 7249,
      "tak": 7250,
      "talk": 7251,
      "toward": 7252,
      "ti_Kapoor": 7253,
      "tjens": 7254,
      "ui": 7255,
      "uang": 7256,
      "val": 7257,
      "von_": 7258,
      "view": 7259,
      "wy": 7260,
      "wid": 7261,
      "waj": 7262,
      "wen_": 7263,
      "wyn": 7264,
      "winning": 7265,
      "would": 7266,
      "yar": 7267,
      "yman": 7268,
      "yce": 7269,
      "yub": 7270,
      "yuki": 7271,
      "zo": 7272,
      "zanar": 7273,
      "z_Roemheld": 7274,
      "án": 7275,
      "áre": 7276,
      "än": 7277,
      "arian": 7278,
      "arina_": 7279,
      "arfunkel": 7280,
      "inv": 7281,
      "inn_": 7282,
      "ine_H": 7283,
      "inina": 7284,
      "ini_K": 7285,
      "ine_L": 7286,
      "intr": 7287,
      "inagi": 7288,
      "aner": 7289,
      "ane_L": 7290,
      "ano_V": 7291,
      "anski": 7292,
      "stand": 7293,
      "stat": 7294,
      "stick": 7295,
      "steen": 7296,
      "stair": 7297,
      "eral": 7298,
      "erra": 7299,
      "erue": 7300,
      "erlman": 7301,
      "arra": 7302,
      "arrie": 7303,
      "arrier": 7304,
      "ili": 7305,
      "ilt": 7306,
      "iley": 7307,
      "ilipp": 7308,
      "ref": 7309,
      "reed": 7310,
      "reis": 7311,
      "rey_W": 7312,
      "reason": 7313,
      "reekumar": 7314,
      "Cao_": 7315,
      "ora": 7316,
      "or_L": 7317,
      "orpe": 7318,
      "ori_K": 7319,
      "than": 7320,
      "tham": 7321,
      "those": 7322,
      "thorne": 7323,
      "ona": 7324,
      "onet": 7325,
      "ontes": 7326,
      "ondo": 7327,
      "ondeti": 7328,
      "e_film": 7329,
      "e_language": 7330,
      "e_Lewis": 7331,
      "e_Thomas": 7332,
      "e_Co": 7333,
      "e_de_Br": 7334,
      "e_Beery": 7335,
      "e_Palma": 7336,
      "e_Andrews": 7337,
      "e_Autry": 7338,
      "e_Wilton": 7339,
      "ices": 7340,
      "ician": 7341,
      "ice_F": 7342,
      "ica_L": 7343,
      "ically": 7344,
      "ening": 7345,
      "alam": 7346,
      "alter": 7347,
      "alle": 7348,
      "alov": 7349,
      "and_D": 7350,
      "andolph": 7351,
      "did": 7352,
      "differ": 7353,
      "riv": 7354,
      "rix": 7355,
      "ribbins": 7356,
      "a_E": 7357,
      "a_T": 7358,
      "a_Am": 7359,
      "a_St": 7360,
      "a_De": 7361,
      "a_Gu": 7362,
      "a_of_": 7363,
      "a_Roy": 7364,
      "a_Gray": 7365,
      "edic": 7366,
      "edy_film": 7367,
      "is_": 7368,
      "ising": 7369,
      "asu": 7370,
      "amon": 7371,
      "amama": 7372,
      "eli": 7373,
      "el_R": 7374,
      "elav": 7375,
      "rector": 7376,
      "y_G": 7377,
      "y_Chan": 7378,
      "y_Wilson_": 7379,
      "y_de_M": 7380,
      "y_Allen": 7381,
      "atre": 7382,
      "aton": 7383,
      "atres": 7384,
      "ators": 7385,
      "osc": 7386,
      "oseph": 7387,
      "oles": 7388,
      "ol_N": 7389,
      "olfe": 7390,
      "olberg": 7391,
      "oldberg": 7392,
      "theatres": 7393,
      "_Sr": 7394,
      "_Sil": 7395,
      "_Sam": 7396,
      "_Sid": 7397,
      "_Sov": 7398,
      "_Srid": 7399,
      "_Satyanarayana": 7400,
      "_Simon": 7401,
      "_Sbar": 7402,
      "_Simp": 7403,
      "_Sagar": 7404,
      "_Sasikumar": 7405,
      "_Saraf": 7406,
      "_Skiles": 7407,
      "_Mer": 7408,
      "_Mas": 7409,
      "_Mos": 7410,
      "_Mul": 7411,
      "_Muk": 7412,
      "_Mush": 7413,
      "_Morgan": 7414,
      "_Metz": 7415,
      "_Michael": 7416,
      "_Bry": 7417,
      "_Beth": 7418,
      "_Brit": 7419,
      "_Bald": 7420,
      "_Brol": 7421,
      "_Buck": 7422,
      "_Baum": 7423,
      "_Blier": 7424,
      "_Brault": 7425,
      "_Britt": 7426,
      "_Backer": 7427,
      "_Bartel": 7428,
      "_Bucqu": 7429,
      "_Barklow": 7430,
      "_Bonnard": 7431,
      "ch_": 7432,
      "chest": 7433,
      "advent": 7434,
      "itter": 7435,
      "it_K": 7436,
      "ities": 7437,
      "itail": 7438,
      "ita_M": 7439,
      "aga": 7440,
      "agid": 7441,
      "agher": 7442,
      "Amber": 7443,
      "Amrish": 7444,
      "Ameer_": 7445,
      "Thur": 7446,
      "Thorpe": 7447,
      "lea": 7448,
      "ley_S": 7449,
      "ley_H": 7450,
      "_Ravi": 7451,
      "_Riemann": 7452,
      "_Radice": 7453,
      "_Reinhard": 7454,
      "_Ritter": 7455,
      "ayed": 7456,
      "aylin": 7457,
      "aykin": 7458,
      "aya_G": 7459,
      "aya_Shankar": 7460,
      "Prem_N": 7461,
      "ompson_": 7462,
      "t_L": 7463,
      "t_Ne": 7464,
      "iro_": 7465,
      "irkan": 7466,
      "nia": 7467,
      "raw": 7468,
      "raham": 7469,
      "Chie_": 7470,
      "Chick": 7471,
      "Chinn": 7472,
      "China": 7473,
      "expe": 7474,
      "lie_": 7475,
      "living": 7476,
      "li_Sad": 7477,
      "n_Anderson": 7478,
      "s_Har": 7479,
      "auer": 7480,
      "aupassant": 7481,
      "ody": 7482,
      "odes": 7483,
      "odrí": 7484,
      "ido": 7485,
      "idan": 7486,
      "ov_": 7487,
      "ove": 7488,
      "o_E": 7489,
      "o_H": 7490,
      "o_Jr": 7491,
      "o_Ortega": 7492,
      "acqu": 7493,
      "ace_Beery": 7494,
      "an_G": 7495,
      "an_actor": 7496,
      "an_Dev": 7497,
      "an_Fre": 7498,
      "an_Gurung": 7499,
      "an_Vasilescu": 7500,
      "anged": 7501,
      "urst": 7502,
      "on_Harvey": 7503,
      "on_Craig": 7504,
      "avy": 7505,
      "avatt": 7506,
      "akk": 7507,
      "akth": 7508,
      "akish": 7509,
      "akash": 7510,
      "owden": 7511,
      "une": 7512,
      "berman": 7513,
      "bert_H": 7514,
      "ets": 7515,
      "et_M": 7516,
      "ardhan_": 7517,
      "ell_": 7518,
      "elly": 7519,
      "elly_": 7520,
      "ell_L": 7521,
      "ella_L": 7522,
      "ellamy": 7523,
      "America": 7524,
      "_Alex": 7525,
      "_Aumont": 7526,
      "_Asokan": 7527,
      "imer_": 7528,
      "events": 7529,
      "former": 7530,
      "_Hat": 7531,
      "_Hall": 7532,
      "_Huss": 7533,
      "_Hudson": 7534,
      "_Hans": 7535,
      "_Heb": 7536,
      "_Harris": 7537,
      "_Hynes": 7538,
      "illis": 7539,
      "illatoro": 7540,
      "shanti": 7541,
      "Cape": 7542,
      "Anita": 7543,
      "Joann": 7544,
      "Joe_W": 7545,
      "Jodie": 7546,
      "_Gi": 7547,
      "_Good": 7548,
      "_Grey": 7549,
      "_German": 7550,
      "_Graves": 7551,
      "_Du": 7552,
      "_Den": 7553,
      "_Dav": 7554,
      "_Dun": 7555,
      "_Donn": 7556,
      "_Dutt": 7557,
      "_Dixit": 7558,
      "abu": 7559,
      "abil": 7560,
      "umm": 7561,
      "um_Sov": 7562,
      "Maril": 7563,
      "Marth": 7564,
      "Marion": 7565,
      "Marie": 7566,
      "Marlin": 7567,
      "erson_Craig": 7568,
      "mane_": 7569,
      "apudi": 7570,
      "Show": 7571,
      "Shann": 7572,
      "Shaf": 7573,
      "Shiva_": 7574,
      "Sherman": 7575,
      "Sharif": 7576,
      "alls": 7577,
      "allas": 7578,
      "atha_": 7579,
      "athi_": 7580,
      "oreau": 7581,
      "_Cris": 7582,
      "_Coker": 7583,
      "_Cribbins": 7584,
      "_Farr": 7585,
      "_Fran": 7586,
      "_Five": 7587,
      "_Foster": 7588,
      "_Fitzgerald": 7589,
      "_Fraser": 7590,
      "_Feyder": 7591,
      "_Friedberg": 7592,
      "ulescu": 7593,
      "uléry": 7594,
      "endra_S": 7595,
      "respect": 7596,
      "es_d": 7597,
      "es_White": 7598,
      "Wilde": 7599,
      "rans": 7600,
      "_Kh": 7601,
      "_Kong": 7602,
      "_Knight": 7603,
      "_Kodandaram": 7604,
      "_Karnad": 7605,
      "_Kaylin": 7606,
      "Royal": 7607,
      "Roy_W": 7608,
      "Rae": 7609,
      "Stein": 7610,
      "Stagg": 7611,
      "Street": 7612,
      "Stan_Fre": 7613,
      "Cable": 7614,
      "ricker": 7615,
      "Alice_": 7616,
      "Alan_S": 7617,
      "Alme": 7618,
      "Alberto_": 7619,
      "Alois": 7620,
      "Alice_F": 7621,
      "udmil": 7622,
      "_Pil": 7623,
      "_Pat": 7624,
      "_Park": 7625,
      "_Patric": 7626,
      "_Parker": 7627,
      "Pré": 7628,
      "eping": 7629,
      "Leon_": 7630,
      "Lehmann": 7631,
      "Lea_Thompson": 7632,
      "Leelav": 7633,
      "opp": 7634,
      "opened": 7635,
      "ikar": 7636,
      "ika_": 7637,
      "ikov": 7638,
      "ika_Sh": 7639,
      "comb": 7640,
      "comm": 7641,
      "comes": 7642,
      "proc": 7643,
      "profess": 7644,
      "inda_": 7645,
      "ieb": 7646,
      "iet_": 7647,
      "iego_": 7648,
      "_Nichol": 7649,
      "_Nolte": 7650,
      "_Neville": 7651,
      "_Nibl": 7652,
      "_Roy": 7653,
      "_Robards": 7654,
      "Indi": 7655,
      "ance_film": 7656,
      "sec": 7657,
      "what": 7658,
      "whose": 7659,
      "1960s": 7660,
      "peroli": 7661,
      "ghese": 7662,
      "_Thiele": 7663,
      "_Thompson_": 7664,
      "iano": 7665,
      "ian_M": 7666,
      "1945": 7667,
      "atty": 7668,
      "attan": 7669,
      "ethi": 7670,
      "ether": 7671,
      "ante": 7672,
      "eyes": 7673,
      "_We": 7674,
      "_Wein": 7675,
      "_Wright": 7676,
      "_Ward_": 7677,
      "_Wolff": 7678,
      "_Wellman": 7679,
      "_Ti": 7680,
      "_Tom": 7681,
      "_Tol": 7682,
      "_Tul": 7683,
      "_Tracy": 7684,
      "ie_Hammer": 7685,
      "ie_Robertson": 7686,
      "1972": 7687,
      "1977": 7688,
      "erno": 7689,
      "ernando": 7690,
      "ongress": 7691,
      "eare": 7692,
      "icki": 7693,
      "tist": 7694,
      "_Str": 7695,
      "_Stutter": 7696,
      "_Ja": 7697,
      "_Jun": 7698,
      "_Joshi": 7699,
      "_Joseph": 7700,
      "co_M": 7701,
      "estic": 7702,
      "estri": 7703,
      "Belgi": 7704,
      "_Shep": 7705,
      "_Shetty": 7706,
      "ekh": 7707,
      "scene": 7708,
      "hero": 7709,
      "herjee": 7710,
      "ajima": 7711,
      "Beauty": 7712,
      "1938": 7713,
      "Deep": 7714,
      "Deann": 7715,
      "Franck": 7716,
      "igh_Cook": 7717,
      "Dave": 7718,
      "ach_": 7719,
      "io_Metz": 7720,
      "aif": 7721,
      "dead": 7722,
      "debrand": 7723,
      "served": 7724,
      "John_Mc": 7725,
      "John_Sto": 7726,
      "William_Sh": 7727,
      "William_Hen": 7728,
      "arty": 7729,
      "artin": 7730,
      "artek": 7731,
      "in_Campbell": 7732,
      "in_Chinese": 7733,
      "lyn_": 7734,
      "en_Onteniente": 7735,
      "Michell": 7736,
      "Michèle_": 7737,
      "iaz": 7738,
      "Jack_L": 7739,
      "Jacki_P": 7740,
      "Jack_Richardson_": 7741,
      "oks": 7742,
      "Broad": 7743,
      "_Lord": 7744,
      "_Lloyd": 7745,
      "_Lombardo": 7746,
      "ritz": 7747,
      "Georges_": 7748,
      "Georgia_": 7749,
      "George_H": 7750,
      "George_D": 7751,
      "George_L": 7752,
      "Arun": 7753,
      "Art_G": 7754,
      "Arno_": 7755,
      "_Var": 7756,
      "_Ven": 7757,
      "_Vitt": 7758,
      "_Venk": 7759,
      "_Vega": 7760,
      "ia_B": 7761,
      "ia_G": 7762,
      "harani": 7763,
      "David_S": 7764,
      "David_R": 7765,
      "David_W": 7766,
      "David_J": 7767,
      "David_Sch": 7768,
      "aniels": 7769,
      "irez": 7770,
      "ationship": 7771,
      "Clin": 7772,
      "Michael_O": 7773,
      "Michael_Ben": 7774,
      "Michael_Gold": 7775,
      "ckwell_": 7776,
      "ours": 7777,
      "Juan_D": 7778,
      "Juhi_Ch": 7779,
      "e_For": 7780,
      "e_Fletcher": 7781,
      "e_Smith": 7782,
      "e_Seig": 7783,
      "Mouse": 7784,
      "or_Young": 7785,
      "Jamie": 7786,
      "balist": 7787,
      "y_Sreekumar": 7788,
      "e_Magid": 7789,
      "e_Moreau": 7790,
      "Edwin": 7791,
      "contin": 7792,
      "contr": 7793,
      "Rajan": 7794,
      "Rajendra_S": 7795,
      "e_Hav": 7796,
      "John_F": 7797,
      "John_Kent_": 7798,
      "John_Clement": 7799,
      "John_Thomas_": 7800,
      "John_English_": 7801,
      "John_Farrow": 7802,
      "John_Turturro": 7803,
      "John_Travolta": 7804,
      "Christy_": 7805,
      "aza": 7806,
      "azel": 7807,
      "phy": 7808,
      "_McC": 7809,
      "_McDowell": 7810,
      "_McLaglen": 7811,
      "_McAuley": 7812,
      "_McMillan_": 7813,
      "claim": 7814,
      "upe_": 7815,
      "Bell_": 7816,
      "Paul_H": 7817,
      "Paul_Roth": 7818,
      "Paul_New": 7819,
      "Paul_Black": 7820,
      "Paul_Schr": 7821,
      "Paul_Martin_": 7822,
      "Paul_Bartel": 7823,
      "e_Nichol": 7824,
      "e_Noble": 7825,
      "a_Dru": 7826,
      "a_Douglas": 7827,
      "a_Koirala": 7828,
      "Enni": 7829,
      "Enrico": 7830,
      "ubien": 7831,
      "a_Sar": 7832,
      "a_Sof": 7833,
      "a_Singh": 7834,
      "a_Sawd": 7835,
      "a_Solberg": 7836,
      "Hardie_": 7837,
      "a_Bassett": 7838,
      "a_Babu": 7839,
      "Robert_Mc": 7840,
      "Robert_Bl": 7841,
      "Robert_Mitch": 7842,
      "becoming": 7843,
      "_Owen_": 7844,
      "Richard_C": 7845,
      "Richard_N": 7846,
      "Charles_Sp": 7847,
      "Donn": 7848,
      "Don_R": 7849,
      "Donagg": 7850,
      "Robert_F": 7851,
      "Robert_Low": 7852,
      "Robert_Westerby": 7853,
      "Robert_Young_": 7854,
      "Robert_Kerman": 7855,
      "22Gabby": 7856,
      "22_Hayes": 7857,
      "Guard": 7858,
      "Gujar": 7859,
      "Guerra": 7860,
      "Guy_de_M": 7861,
      "Guido": 7862,
      "Jose": 7863,
      "Josef": 7864,
      "Joshi": 7865,
      "ences": 7866,
      "encoun": 7867,
      "eley_": 7868,
      "eleine_": 7869,
      "1921": 7870,
      "1924": 7871,
      "Frank_D": 7872,
      "Frank_J": 7873,
      "Frank_Re": 7874,
      "Frank_Sin": 7875,
      "Frank_Lloyd": 7876,
      "Peter_F": 7877,
      "Peterson": 7878,
      "Peter_W": 7879,
      "Peter_Graves": 7880,
      "Upasan": 7881,
      "airns": 7882,
      "ownsend": 7883,
      "Tommy": 7884,
      "Tommy_": 7885,
      "izz": 7886,
      "iller_": 7887,
      "illermo": 7888,
      "uguese": 7889,
      "Film_Di": 7890,
      "Lau_Kar": 7891,
      "techn": 7892,
      "e_Baxter": 7893,
      "e_Bairns": 7894,
      "a_Mc": 7895,
      "a_Menon": 7896,
      "brother": 7897,
      "broad": 7898,
      "yn_S": 7899,
      "ording": 7900,
      "ordon": 7901,
      "a_Lankesh": 7902,
      "undin": 7903,
      "errmann": 7904,
      "Spirit": 7905,
      "Allan_Lane": 7906,
      "ffith": 7907,
      "Ramanand": 7908,
      "Ramirez": 7909,
      "Jane_F": 7910,
      "January": 7911,
      "y_Barrie": 7912,
      "Jaccard": 7913,
      "eeta": 7914,
      "Captain_Raju": 7915,
      "pregn": 7916,
      "one_Ren": 7917,
      "Alec": 7918,
      "Samson": 7919,
      "Sam_W": 7920,
      "Sammo_": 7921,
      "espite": 7922,
      "espeare": 7923,
      "ro_B": 7924,
      "rooks": 7925,
      "a_Rod": 7926,
      "a_Reed": 7927,
      "a_Rossi_": 7928,
      "Julia": 7929,
      "Julian": 7930,
      "Juliette": 7931,
      "amilton": 7932,
      "amilton_": 7933,
      "Colin_": 7934,
      "Harry_W": 7935,
      "anya_": 7936,
      "rises": 7937,
      "a_Perlman": 7938,
      "y_War": 7939,
      "i_Kaurismäki": 7940,
      "i_Kinagi": 7941,
      "Kenneth_McMillan_": 7942,
      "_Bros": 7943,
      "_Brad": 7944,
      "_Brass": 7945,
      "_Brown": 7946,
      "Louise_Fletcher": 7947,
      "Bill_Far": 7948,
      "Bill_Owen_": 7949,
      "Henr": 7950,
      "Khaled": 7951,
      "skey": 7952,
      "skaya": 7953,
      "Akira_": 7954,
      "Aki_Kaurismäki": 7955,
      "Brian_F": 7956,
      "Eric_P": 7957,
      "Great": 7958,
      "Tonino_": 7959,
      "e_La": 7960,
      "e_Law": 7961,
      "e_Ladd": 7962,
      "Anne_": 7963,
      "Anna_M": 7964,
      "Anne_Baxter": 7965,
      "Gross": 7966,
      "Neill": 7967,
      "an_Sto": 7968,
      "ussell": 7969,
      "_Marches": 7970,
      "_Margheriti": 7971,
      "_Rajendr": 7972,
      "_Raj_Anand": 7973,
      "Patricia": 7974,
      "_Babu_": 7975,
      "_Baboo": 7976,
      "Chandler": 7977,
      "Chandu_": 7978,
      "Chandra_S": 7979,
      "Chandoo_M": 7980,
      "Chandra_": 7981,
      "Jones_": 7982,
      "oor_Denn": 7983,
      "kins_": 7984,
      "Danièle_": 7985,
      "Hintjens": 7986,
      "Madeleine_": 7987,
      "Eve_": 7988,
      "Mehta": 7989,
      "Mike_": 7990,
      "Mike_Magid": 7991,
      "Mike_Nichol": 7992,
      "Jim_Thomas_": 7993,
      "Jim_Ward_": 7994,
      "Seeth": 7995,
      "o_Macc": 7996,
      "o_Miyazaki": 7997,
      "trag": 7998,
      "ine_Cuypers": 7999,
      "Lewis_D": 8000,
      "Lewis_Gil": 8001,
      "castle": 8002,
      "lover": 8003,
      "Orsini": 8004,
      "Quaid": 8005,
      "Vincen": 8006,
      "Vincent_": 8007,
      "u_Chatterjee": 8008,
      "_Rose": 8009,
      "_Rosi": 8010,
      "Catacombs": 8011,
      "Joseph_K": 8012,
      "Joseph_Bar": 8013,
      "Bernard_Cribbins": 8014,
      "Agnes": 8015,
      "Fred_Koh": 8016,
      "Fred_Ward": 8017,
      "Fred_Nibl": 8018,
      "ground": 8019,
      "Daniel_B": 8020,
      "Kevin_J": 8021,
      "Kevin_Poll": 8022,
      "Barrie": 8023,
      "Wendy_Barrie": 8024,
      "ino_Visconti": 8025,
      "_Ang": 8026,
      "_Anmol": 8027,
      "_Coates": 8028,
      "_Nagy": 8029,
      "_Nagabharana": 8030,
      "Drag": 8031,
      "vert": 8032,
      "Marcello": 8033,
      "Goldwyn": 8034,
      "Victor_Young": 8035,
      "inoche": 8036,
      "e_Ran": 8037,
      "e_Ronet": 8038,
      "y_Fole": 8039,
      "y_Hart": 8040,
      "_Beatty": 8041,
      "t_Gordon": 8042,
      "McQueen": 8043,
      "Antonio_": 8044,
      "Alexis": 8045,
      "Jacques_Beck": 8046,
      "Jacques_Feyder": 8047,
      "Kingdom": 8048,
      "_Chalke": 8049,
      "_Chiari": 8050,
      "e_Tucker": 8051,
      "a_Shetty": 8052,
      "y_King_": 8053,
      "y_Korman": 8054,
      "_Seitz": 8055,
      "an_Dy": 8056,
      "_Thomas_Hynes": 8057,
      "_born_1939": 8058,
      "Burt": 8059,
      "Burnett": 8060,
      "Murthy": 8061,
      "sequently": 8062,
      "Donald_O": 8063,
      "Donald_Britt": 8064,
      "Helen_Mir": 8065,
      "Helena_Solberg": 8066,
      "Mayer": 8067,
      "Mayum": 8068,
      "_Lee": 8069,
      "_Leigh_Cook": 8070,
      "ilde_Seig": 8071,
      "a_Choudhary": 8072,
      "_Fejös": 8073,
      "Apte": 8074,
      "Asim": 8075,
      "Paris": 8076,
      "uttolph": 8077,
      "Adams_": 8078,
      "Adam_Simon": 8079,
      "Victor_McLaglen": 8080,
      "Conchit": 8081,
      "Patsy_R": 8082,
      "del_Carril": 8083,
      "eaver": 8084,
      "inclair": 8085,
      "andra_Menon": 8086,
      "Thomas_Hugh": 8087,
      "o_Fernando": 8088,
      "Clarkson": 8089,
      "James_Woods": 8090,
      "Walter_Lang": 8091,
      "Walter_Chiari": 8092,
      "Barbara_Bouchet": 8093,
      "telenovela": 8094,
      "arna_S": 8095,
      "Pierre_Per": 8096,
      "Pierre_Aumont": 8097,
      "Stephen_Som": 8098,
      "Stephen_Mil": 8099,
      "Natash": 8100,
      "Rosa": 8101,
      "Rosen": 8102,
      "Rosa_": 8103,
      "Scott_Me": 8104,
      "Scott_Brad": 8105,
      "Tamil_language": 8106,
      "Wallace_Beery": 8107,
      "_Meter": 8108,
      "_Barrett": 8109,
      "Stanwy": 8110,
      "Stanley_H": 8111,
      "Tycoon": 8112,
      "Nicolai": 8113,
      "oshi_": 8114,
      "Shakti_Kapoor": 8115,
      "Leonardo": 8116,
      "Geetha_": 8117,
      "Gary_": 8118,
      "Ritesh": 8119,
      "Sudharani": 8120,
      "ley_and_D": 8121,
      "_Doctorz": 8122,
      "George_K": 8123,
      "Georges_Del": 8124,
      "included": 8125,
      "Cinema_of_": 8126,
      "Israel": 8127,
      "Isabell": 8128,
      "Mori": 8129,
      "Venant": 8130,
      "performer": 8131,
      "Bruce_Bairns": 8132,
      "Claude": 8133,
      "Claude_Br": 8134,
      "Japanes": 8135,
      "Narayana": 8136,
      "Terenc": 8137,
      "Woody_Allen": 8138,
      "century": 8139,
      "am_Srinivasa_Rao": 8140,
      "_Arm": 8141,
      "_Atkins": 8142,
      "Alan_Williams": 8143,
      "ekhar_Y": 8144,
      "Edwards": 8145,
      "Jefferson_Craig": 8146,
      "Bert": 8147,
      "Howard_Jack": 8148,
      "Howard_Bre": 8149,
      "Lorimer_": 8150,
      "Suz": 8151,
      "Singh": 8152,
      "Sonam_B": 8153,
      "Simon_": 8154,
      "Douglas_": 8155,
      "Gene": 8156,
      "Gene_Autry": 8157,
      "Hal_Hol": 8158,
      "Lydi": 8159,
      "Lyudmil": 8160,
      "Rick_Friedberg": 8161,
      "Uddin": 8162,
      "_Egoyan": 8163,
      "_Epstein": 8164,
      "adim": 8165,
      "burn_Anderson": 8166,
      "fictional": 8167,
      "partic": 8168,
      "on_Bennet": 8169,
      "e_Vernon": 8170,
      "e_Vallés": 8171,
      "a_Glogovac": 8172,
      "_Salvad": 8173,
      "_Bhagavan": 8174,
      "i_Goldberg": 8175,
      "Mark_T": 8176,
      "Roger_V": 8177,
      "Roger_Cor": 8178,
      "Maurice": 8179,
      "Maurice_Noble": 8180,
      "Maurice_Ronet": 8181,
      "Aaron_Harvey": 8182,
      "Lisa_G": 8183,
      "Padmarajan": 8184,
      "Padmini_K": 8185,
      "Sandy_Wilson_": 8186,
      "spy": 8187,
      "relationship": 8188,
      "Marguer": 8189,
      "Mario_Bonnard": 8190,
      "comedians": 8191,
      "Arthur_H": 8192,
      "Sarah_Chalke": 8193,
      "Angela_Douglas": 8194,
      "Atkins": 8195,
      "Gilles": 8196,
      "Living": 8197,
      "Salim": 8198,
      "Salerno": 8199,
      "my_Yau": 8200,
      "film_producer": 8201,
      "al_Saif": 8202,
      "_Modi": 8203,
      "_Mohan": 8204,
      "Intertitle": 8205,
      "Debraj": 8206,
      "Charles_W": 8207,
      "Charles_Williams_": 8208,
      "Antonio_Sab": 8209,
      "Antonio_Margheriti": 8210,
      "Paige": 8211,
      "Phyllis_Coates": 8212,
      "Phyllis_Nagy": 8213,
      "Augusto_": 8214,
      "Bharathan": 8215,
      "Comedy_film": 8216,
      "Delia_": 8217,
      "Del_Lord": 8218,
      "Hungarian": 8219,
      "Jainendr": 8220,
      "Janet_G": 8221,
      "Jason_Stutter": 8222,
      "created": 8223,
      "credited": 8224,
      "arily": 8225,
      "ilvestri": 8226,
      "_MacDonald": 8227,
      "_Romero": 8228,
      "Shirley_and_D": 8229,
      "Michel_Brault": 8230,
      "Armen": 8231,
      "Armie_Hammer": 8232,
      "Edmund_Cris": 8233,
      "Gordon_Chan": 8234,
      "Gordon_Douglas_": 8235,
      "Dinesh_Babu": 8236,
      "Dinesh_Baboo": 8237,
      "Cinema_of_German": 8238,
      "Cinema_of_Fran": 8239,
      "Hill_Har": 8240,
      "Imperoli": 8241,
      "Linda": 8242,
      "Linda_Bassett": 8243,
      "Nichols": 8244,
      "Sukhe_Musical": 8245,
      "Sean_McNam": 8246,
      "adagnino": 8247,
      "raj_Hans": 8248,
      "Anthony_": 8249,
      "Brady": 8250,
      "Norman_S": 8251,
      "Dorothy_": 8252,
      "Ralph_B": 8253,
      "Forrest": 8254,
      "Greenland": 8255,
      "Hong_Kong": 8256,
      "Leno": 8257,
      "Langrick": 8258,
      "Nick_Nolte": 8259,
      "Turner": 8260,
      "teenag": 8261,
      "teenage": 8262,
      "_Sarja": 8263,
      "_Sargharia": 8264,
      "_Mahendar": 8265,
      "_Berk": 8266,
      "Chuck_Wein": 8267,
      "Shea_": 8268,
      "_Sharp": 8269,
      "Mohan_Babu": 8270,
      "Patricia_Clarkson": 8271,
      "Derek_H": 8272,
      "Casablanca": 8273,
      "Hugo_Fernando": 8274,
      "LaCava": 8275,
      "Lesley_S": 8276,
      "Lowell_L": 8277,
      "Umberto_": 8278,
      "Yves_d": 8279,
      "ebastian": 8280,
      "Joel_Thomas_Hynes": 8281,
      "umann_": 8282,
      "Campbell_": 8283,
      "Mahesh_Rao": 8284,
      "Mahesh_Babu_": 8285,
      "Virginia": 8286,
      "Taiwanes": 8287,
      "Eugene_": 8288,
      "Faison": 8289,
      "Farrell": 8290,
      "Ira_": 8291,
      "Jason_": 8292,
      "Jules": 8293,
      "MacDonald": 8294,
      "Romance_film": 8295,
      "i_Sethi": 8296,
      "middle": 8297,
      "y_Chase": 8298,
      "y_Chaykin": 8299,
      "Amy_Irving": 8300,
      "Amy_Loc": 8301,
      "_Ramakrishn": 8302,
      "Chih": 8303,
      "berto_Prates": 8304,
      "_Huxley": 8305,
      "_Correia": 8306,
      "subsequently": 8307,
      "Spencer_Gord": 8308,
      "Harry_von": 8309,
      "Tony_Vallés": 8310,
      "Tony_Joe_W": 8311,
      "Gregory_Peck": 8312,
      "Gregory_Alan_Williams": 8313,
      "Gregory_LaCava": 8314,
      "Sudheer": 8315,
      "Luigi_": 8316,
      "Cecilia_": 8317,
      "Malcolm_McDowell": 8318,
      "Hema_Choudhary": 8319,
      "Jessica_L": 8320,
      "Kaloor_Denn": 8321,
      "Mexico": 8322,
      "Ricard": 8323,
      "Rodney_D": 8324,
      "Veronic": 8325,
      "buster": 8326,
      "duo": 8327,
      "domestic": 8328,
      "missing": 8329,
      "small": 8330,
      "students": 8331,
      "theatrically": 8332,
      "Adele_Mara": 8333,
      "René_Clair": 8334,
      "college": 8335,
      "Leonardo_": 8336,
      "Buck_Henry": 8337,
      "Cesare_Z": 8338,
      "Cesar_Romero": 8339,
      "Diane_Ladd": 8340,
      "Griffith": 8341,
      "Goldberg": 8342,
      "Kyle_": 8343,
      "Mitchell": 8344,
      "Olg": 8345,
      "Pollack": 8346,
      "Saiju": 8347,
      "Vijaya": 8348,
      "funović": 8349,
      "i_Reddy": 8350,
      "viol": 8351,
      "involving": 8352,
      "ingh_Babu": 8353,
      "en_Hamama": 8354,
      "_Mouret": 8355,
      "_Ryan_Barrett": 8356,
      "Antoine_D": 8357,
      "Antoine_Cuypers": 8358,
      "Marion_": 8359,
      "Martin_Campbell": 8360,
      "Robitail": 8361,
      "Geoffrey": 8362,
      "Jack_Neo": 8363,
      "George_Bassman": 8364,
      "Archie_": 8365,
      "David_Buttolph": 8366,
      "Juan_Orol": 8367,
      "Mohammad_A": 8368,
      "Rajesh_Khanna": 8369,
      "Christian_Clark": 8370,
      "Christian_Gossett": 8371,
      "Harvey_Korman": 8372,
      "a_Barrie": 8373,
      "Frankie_Chan": 8374,
      "Frankie_Faison": 8375,
      "Samuel_Kaylin": 8376,
      "Steve_James_": 8377,
      "Steve_Guttenberg": 8378,
      "Francis_D": 8379,
      "Francisco_M": 8380,
      "Ashok_Saraf": 8381,
      "Simone_S": 8382,
      "_Reiser": 8383,
      "Lawrence_D": 8384,
      "Bruno_Nicolai": 8385,
      "Sydney": 8386,
      "Giovanni_Lombardo": 8387,
      "Ruggero": 8388,
      "Ruggero_Macc": 8389,
      "Zulfikar": 8390,
      "Clifton_": 8391,
      "Judd_Nelson": 8392,
      "Kurt_Ne": 8393,
      "Katherine_": 8394,
      "Liz_Fraser": 8395,
      "Om_Prakash": 8396,
      "Travis": 8397,
      "Vikram": 8398,
      "hosla": 8399,
      "military": 8400,
      "zhinina": 8401,
      "Shiva": 8402,
      "orell": 8403,
      "Arjun_Sarja": 8404,
      "Edgar_Neville": 8405,
      "classic": 8406,
      "Noel_M": 8407,
      "Sergei_": 8408,
      "Sergej_Tri": 8409,
      "Philippe_de_Br": 8410,
      "Vanessa_": 8411,
      "Randolph_Scott": 8412,
      "cinematography": 8413,
      "Lionel_Barrymore": 8414,
      "Billie_Thomas": 8415,
      "Connor_": 8416,
      "Denis_P": 8417,
      "Farhad": 8418,
      "Hopper": 8419,
      "Ils": 8420,
      "Jerry_Goldsmith": 8421,
      "Kavitha_Lankesh": 8422,
      "Mathes": 8423,
      "Mathilde_Seig": 8424,
      "Nadine_L": 8425,
      "Rana_Ran": 8426,
      "Silvana_P": 8427,
      "Seymour_Cassel": 8428,
      "Vivian": 8429,
      "aïs": 8430,
      "idibe": 8431,
      "satova": 8432,
      "anandan": 8433,
      "onicelli": 8434,
      "Amanda_": 8435,
      "Amanda_Barrie": 8436,
      "Chris_Cooper": 8437,
      "aki_Kiriya": 8438,
      "_Garner": 8439,
      "_Gordon": 8440,
      "Ray_Milland": 8441,
      "_Prakash_Rao": 8442,
      "attempts": 8443,
      "_Walker": 8444,
      "John_Saxon": 8445,
      "Jackie_Shroff": 8446,
      "_Lang_": 8447,
      "George_Sanders": 8448,
      "Michael_Malt": 8449,
      "Adam_Christian_Clark": 8450,
      "consisting": 8451,
      "a_Bennett": 8452,
      "Annette_": 8453,
      "Martin_Balsam": 8454,
      "Martin_Bell_": 8455,
      "Jacques_Tourneur": 8456,
      "Sean_Ellis": 8457,
      "Norman_Hudi": 8458,
      "Giulian": 8459,
      "Malayalam_actress": 8460,
      "Franco_Indovina": 8461,
      "Francesco_Rosi": 8462,
      "Deborah_K": 8463,
      "Africa": 8464,
      "African": 8465,
      "Jeremy_Fole": 8466,
      "Vishnuvardhan": 8467,
      "Vishnuvardhan_": 8468,
      "Australian": 8469,
      "Australia": 8470,
      "_Raghavaiah": 8471,
      "_Raghavendra_Rao": 8472,
      "Lakshmi": 8473,
      "Lakshmi_": 8474,
      "Nina_Urgant": 8475,
      "Nina_Usatova": 8476,
      "Heinz_Roemheld": 8477,
      "Lenny_": 8478,
      "Misha_Sawd": 8479,
      "Seth_Green": 8480,
      "Tolga_": 8481,
      "Whoopi_Goldberg": 8482,
      "aglia": 8483,
      "Chingmy_Yau": 8484,
      "Theodore_": 8485,
      "Robbie_Robertson": 8486,
      "Ingrid": 8487,
      "Brooks": 8488,
      "astrone": 8489,
      "Tomm_Coker": 8490,
      "Sebastian": 8491,
      "Sharon_Stone": 8492,
      "Lorraine_": 8493,
      "Suhasini": 8494,
      "Jagathy_Sreekumar": 8495,
      "Emmanuel_Mouret": 8496,
      "Konstantin_": 8497,
      "Earl": 8498,
      "Ezz_El": 8499,
      "Friendly": 8500,
      "Fabien_Onteniente": 8501,
      "Hobart": 8502,
      "Jon_Vo": 8503,
      "Kerr_": 8504,
      "Portuguese": 8505,
      "Paz_Vega": 8506,
      "Rabi_Kinagi": 8507,
      "Sally_": 8508,
      "Zimbalist": 8509,
      "_Shannon": 8510,
      "_Bhanumathi": 8511,
      "_Bailey": 8512,
      "_Bridges": 8513,
      "The_Spierig": 8514,
      "_Reynolds": 8515,
      "Chevy_Chase": 8516,
      "_Hoffman": 8517,
      "_Dubosc": 8518,
      "_Pullayya": 8519,
      "episodes": 8520,
      "Arturo": 8521,
      "_Vávra": 8522,
      "David_Koepp": 8523,
      "Raj_Khosla": 8524,
      "_McGowan": 8525,
      "uppertz": 8526,
      "a_Bhatt": 8527,
      "Richard_Brooks": 8528,
      "Frank_Ryan_": 8529,
      "Tom_Wil": 8530,
      "Carlo_Campogalliani": 8531,
      "Julie_Walters": 8532,
      "Juliette_Lewis": 8533,
      "_Bruno": 8534,
      "Louis_Daquin": 8535,
      "Steve_Bartek": 8536,
      "Brian_De_Palma": 8537,
      "Eric_Besnard": 8538,
      "Jimmy_Heung": 8539,
      "Manisha_Koirala": 8540,
      "Jayanthi_": 8541,
      "Quentin": 8542,
      "Bernard_Herrmann": 8543,
      "Girish_Karnad": 8544,
      "Alexandra_": 8545,
      "_Chakravarthy": 8546,
      "Constanc": 8547,
      "Christopher_Hampton": 8548,
      "Rita_Moreno": 8549,
      "Ashley_Judd": 8550,
      "Joey_Klein": 8551,
      "Claude_Gillingwater": 8552,
      "Karen_Black": 8553,
      "Sonja_Bennett": 8554,
      "Carlos_Villatoro": 8555,
      "Carlos_Alberto_Prates": 8556,
      "Randy_Newman": 8557,
      "Mario_Monicelli": 8558,
      "Kathleen_Wilhoite": 8559,
      "Jean_Yves_d": 8560,
      "Hugo_del_Carril": 8561,
      "Stuart_Gordon": 8562,
      "Noah_Beery": 8563,
      "Virginia_Madsen": 8564,
      "Eleonora_Rossi_": 8565,
      "Pete_Chatmon": 8566,
      "Vijayshanti": 8567,
      "Suresh_Heb": 8568,
      "Cynthia_": 8569,
      "Rolf_Hädrich": 8570,
      "Tiger_Prabhakar": 8571,
      "Dave_Clark_Five": 8572,
      "Rajasekhar_": 8573,
      "Bertrand_Blier": 8574,
      "Karamjit_Anmol": 8575,
      "Mukesh_": 8576,
      "Svetlana_Dru": 8577,
      "Vittorio_Metz": 8578,
      "photograph": 8579,
      "Feroz_Khan_": 8580,
      "Nivedita_Jain": 8581,
      "Pál_Fejös": 8582,
      "Shatrughan_Sinha": 8583,
      "Nebojša_Glogovac": 8584,
      "Narasimharaju_": 8585,
      "Faten_Hamama": 8586,
      "Gianni": 8587,
      "Glenn_": 8588,
      "Grigori_K": 8589,
      "Hayao_Miyazaki": 8590,
      "Jyotii_Sethi": 8591,
      "Kali_Reis": 8592,
      "London": 8593,
      "Lightning": 8594,
      "Luchino_Visconti": 8595,
      "Mandarin_Chinese": 8596,
      "Network": 8597,
      "Nando_Bruno": 8598,
      "Rishi_Kapoor": 8599,
      "Rhea_Perlman": 8600,
      "Tanner_Barklow": 8601,
      "Tapas_Sargharia": 8602,
      "collabor": 8603,
      "figure": 8604,
      "zvan_Vasilescu": 8605,
      "Thom_Fitzgerald": 8606,
      "Chhetan_Gurung": 8607,
      "Anatol": 8608,
      "Shyam_": 8609,
      "Stéphan": 8610,
      "rimaldi": 8611,
      "considered": 8612,
      "official": 8613,
      "Walker_": 8614,
      "blockbuster": 8615,
      "Jaclyn_Beth": 8616,
      "ateswara_Rao": 8617,
      "Tinto_Brass": 8618,
      "Susannah_Grant": 8619,
      "Nicolás_": 8620,
      "Palito_Ortega": 8621,
      "Singeetam_Srinivasa_Rao": 8622,
      "Atom_Egoyan": 8623,
      "Madhuri_Dixit": 8624,
      "Balachandra_Menon": 8625,
      "Rachael_Leigh_Cook": 8626,
      "Faisal_Saif": 8627,
      "Florestano_V": 8628,
      "Florenc": 8629,
      "Johannes_Riemann": 8630,
      "Penelope_Wilton": 8631,
      "Savitri_": 8632,
      "Avani_Modi": 8633,
      "Alphonso_McAuley": 8634,
      "Kazuaki_Kiriya": 8635,
      "Venkatesh": 8636,
      "Satyajit_Ray": 8637,
      "Himansu_Rai": 8638,
      "Jiju_Asokan": 8639,
      "Otakar_Vávra": 8640,
      "Vedantam_Raghavaiah": 8641,
      "Wilhelm_Thiele": 8642,
      "Ben_Queen": 8643,
      "Cummings": 8644,
      "Dine_Zulficar": 8645,
      "Dwarakish": 8646,
      "Dan_Fogelman": 8647,
      "Fardeen": 8648,
      "Horror_film": 8649,
      "Jess_Har": 8650,
      "Jymn_Mag": 8651,
      "Jaime_Vallés": 8652,
      "Kousuk": 8653,
      "Laxmik": 8654,
      "Lindsay_": 8655,
      "Maury_Chaykin": 8656,
      "Pesci": 8657,
      "Pabón": 8658,
      "Pino_Donagg": 8659,
      "Pioneers": 8660,
      "Răzvan_Vasilescu": 8661,
      "Tunes": 8662,
      "Víctor": 8663,
      "Vichy": 8664,
      "Xavier": 8665,
      "Yury_": 8666,
      "Yevgen": 8667,
      "Yusuf": 8668,
      "_Carrol_N": 8669,
      "_Udaya_Shankar": 8670,
      "career": 8671,
      "oane_Tucker": 8672,
      "published": 8673,
      "spirit": 8674,
      "anerjee": 8675,
      "Cao_Hamburger": 8676,
      "different": 8677,
      "_Sridhar": 8678,
      "_Bryan": 8679,
      "_Brolin": 8680,
      "adventures": 8681,
      "Prem_Nazir": 8682,
      "li_Sadjadi": 8683,
      "odríguez": 8684,
      "avattini": 8685,
      "_Hussain": 8686,
      "Marlin_Skiles": 8687,
      "Shiva_Rajkumar": 8688,
      "_Kodandarami_Reddy": 8689,
      "Roy_Webb": 8690,
      "Stan_Freberg": 8691,
      "Alan_Silvestri": 8692,
      "Almeida": 8693,
      "Alois_Reiser": 8694,
      "_Patrick": 8695,
      "Belgium": 8696,
      "Franck_Dubosc": 8697,
      "John_Stockwell_": 8698,
      "William_Henry_": 8699,
      "Jacki_Piper": 8700,
      "Broadway": 8701,
      "George_Loane_Tucker": 8702,
      "Art_Garfunkel": 8703,
      "Arno_Hintjens": 8704,
      "_Vittal": 8705,
      "David_Schmoeller": 8706,
      "Michael_Benson_": 8707,
      "Michael_Goldenberg": 8708,
      "Juan_Diego_": 8709,
      "Juhi_Chawla": 8710,
      "Rajendra_Singh_Babu": 8711,
      "John_Kent_Harrison": 8712,
      "John_Clements_": 8713,
      "Paul_Rotha": 8714,
      "Paul_Newman": 8715,
      "Paul_Black_": 8716,
      "Paul_Schrader": 8717,
      "Hardie_Albright": 8718,
      "Robert_Blake_": 8719,
      "Robert_Mitchum": 8720,
      "Charles_Spaak": 8721,
      "Robert_Lowery_": 8722,
      "Guy_de_Maupassant": 8723,
      "Frank_Reicher": 8724,
      "Frank_Sinatra": 8725,
      "Upasana_Singh": 8726,
      "Film_Director": 8727,
      "broadcast": 8728,
      "Ramanand_Sagar": 8729,
      "Sammo_Hung": 8730,
      "Bill_Farmer": 8731,
      "Brian_Fee": 8732,
      "Tonino_Guerra": 8733,
      "_Marchesi": 8734,
      "_Rajendra_Babu": 8735,
      "Chandra_Sekhar_Y": 8736,
      "Chandoo_Mondeti": 8737,
      "Chandra_Mohan_": 8738,
      "Mike_Magidson": 8739,
      "Mike_Nichols": 8740,
      "Lewis_Gilbert": 8741,
      "Joseph_Barbera": 8742,
      "Fred_Kohler": 8743,
      "Kevin_Pollak": 8744,
      "Marcello_Marchesi": 8745,
      "Jacques_Becker": 8746,
      "Donald_Brittain": 8747,
      "Helen_Mirren": 8748,
      "Thomas_Hughes_": 8749,
      "Pierre_Perrault": 8750,
      "Stephen_Sommers": 8751,
      "Stephen_Milburn_Anderson": 8752,
      "Scott_Mechlowicz": 8753,
      "Stanwyck": 8754,
      "Georges_Delerue": 8755,
      "Cinema_of_Italy": 8756,
      "Bruce_Bairnsfather": 8757,
      "Claude_Brasseur": 8758,
      "Howard_Jackson_": 8759,
      "Howard_Bretherton": 8760,
      "Lorimer_Johnston": 8761,
      "Sonam_Bajwa": 8762,
      "Hal_Holbrook": 8763,
      "Roger_Corman": 8764,
      "Padmini_Kolhapure": 8765,
      "Marguerit": 8766,
      "Antonio_Sabàto": 8767,
      "Jainendra_Jain": 8768,
      "Shirley_and_Dino": 8769,
      "Edmund_Crispin": 8770,
      "Cinema_of_Germany": 8771,
      "Cinema_of_France": 8772,
      "Hill_Harper": 8773,
      "Sukhe_Musical_Doctorz": 8774,
      "Sean_McNamara_": 8775,
      "Lesley_Selander": 8776,
      "Lowell_Lo": 8777,
      "Amy_Locane": 8778,
      "_Ramakrishna_Rao": 8779,
      "Spencer_Gordon_Bennet": 8780,
      "Harry_von_Meter": 8781,
      "Tony_Joe_White": 8782,
      "Jessica_Lange": 8783,
      "Kaloor_Dennis": 8784,
      "Rodney_Dangerfield": 8785,
      "Cesare_Zavattini": 8786,
      "Antoine_Duléry": 8787,
      "Robitaille": 8788,
      "Mohammad_Ali_Sadjadi": 8789,
      "Giovanni_Lombardo_Radice": 8790,
      "Ruggero_Maccari": 8791,
      "Kurt_Neumann_": 8792,
      "Sergej_Trifunović": 8793,
      "Philippe_de_Broca": 8794,
      "Mathilde_Seigner": 8795,
      "Nadine_Labaki": 8796,
      "Rana_Ranbir": 8797,
      "Silvana_Pampanini": 8798,
      "Michael_Maltese": 8799,
      "Norman_Hudis": 8800,
      "Jeremy_Foley_": 8801,
      "Tolga_Örnek": 8802,
      "Jon_Voight": 8803,
      "The_Spierig_Brothers": 8804,
      "Carlos_Alberto_Prates_Correia": 8805,
      "Eleonora_Rossi_Drago": 8806,
      "Suresh_Heblikar": 8807,
      "Svetlana_Druzhinina": 8808,
      "Grigori_Kozintsev": 8809,
      "Jaclyn_Bethany": 8810,
      "Florestano_Vancini": 8811,
      "Jess_Harnell": 8812,
      "Jymn_Magon": 8813,
      "Laxmikant": 8814,
      "Pino_Donaggio": 8815,
      "_Carrol_Naish": 8816,
      "Chandra_Sekhar_Yeleti": 8817,
      "27": 8818,
      "28": 8819,
      "2nd": 8820,
      "500": 8821,
      "75": 8822,
      "7th": 8823,
      "8th": 8824,
      "Are": 8825,
      "Aam": 8826,
      "Aber": 8827,
      "Ade": 8828,
      "Astin": 8829,
      "Bos": 8830,
      "Bid": 8831,
      "Bac": 8832,
      "Bul": 8833,
      "But": 8834,
      "Borg": 8835,
      "Bart": 8836,
      "Both": 8837,
      "Bapp": 8838,
      "Bess": 8839,
      "Benn": 8840,
      "Banks": 8841,
      "Barker": 8842,
      "Bartel": 8843,
      "Buzz": 8844,
      "Cic": 8845,
      "Core": 8846,
      "Cul": 8847,
      "Count": 8848,
      "Coff": 8849,
      "Comb": 8850,
      "Comic": 8851,
      "Cosm": 8852,
      "Colly": 8853,
      "Cés": 8854,
      "Clive": 8855,
      "Cinz": 8856,
      "Congress": 8857,
      "Da": 8858,
      "Doc": 8859,
      "Dub": 8860,
      "Dway": 8861,
      "Dough": 8862,
      "Darsh": 8863,
      "Dodd": 8864,
      "Dirk": 8865,
      "Dool": 8866,
      "Dimp": 8867,
      "Dily": 8868,
      "Dexter": 8869,
      "Ech": 8870,
      "Eur": 8871,
      "Esh": 8872,
      "East": 8873,
      "Eyal": 8874,
      "Ewan": 8875,
      "Earth": 8876,
      "Edith": 8877,
      "Egoyan": 8878,
      "Egy": 8879,
[...]
