{
  "version": "1.0",
  "truncation": null,
  "padding": null,
  "added_tokens": [
    {
      "id": 0,
      "content": "<unk>",
      "single_word": false,
      "lstrip": false,
      "rstrip": false,
      "normalized": false,
      "special": true
    },
    {
      "id": 1,
      "content": "<pad>",
      "single_word": false,
      "lstrip": false,
      "rstrip": false,
      "normalized": false,
      "special": true
    },
    {
      "id": 2,
      "content": "<SOT>",
      "single_word": false,
      "lstrip": false,
      "rstrip": false,
      "normalized": false,
      "special": true
    },
    {
      "id": 3,
      "content": "<EOT>",
      "single_word": false,
      "lstrip": false,
      "rstrip": false,
      "normalized": false,
      "special": true
    },
    {
      "id": 4,
      "content": "<SUBJ>",
      "single_word": false,
      "lstrip": false,
      "rstrip": false,
      "normalized": false,
      "special": true
    },
    {
      "id": 5,
      "content": "<PRED>",
      "single_word": false,
      "lstrip": false,
      "rstrip": false,
      "normalized": false,
      "special": true
    },
    {
      "id": 6,
      "content": "<OBJ>",
      "single_word": false,
      "lstrip": false,
      "rstrip": false,
      "normalized": false,
      "special": true
    },
    {
      "id": 7,
      "content": "<OBJ_LIST>",
      "single_word": false,
      "lstrip": false,
      "rstrip": false,
      "normalized": false,
      "special": true
    },
    {
      "id": 8,
      "content": "|",
      "single_word": false,
      "lstrip": false,
      "rstrip": false,
      "normalized": false,
      "special": true
    },
    {
      "id": 9,
      "content": "<RDF2Text>",
      "single_word": false,
      "lstrip": false,
      "rstrip": false,
      "normalized": false,
      "special": true
    },
    {
      "id": 10,
      "content": "<Text2RDF>",
      "single_word": false,
      "lstrip": false,
      "rstrip": false,
      "normalized": false,
      "special": true
    },
    {
      "id": 11,
      "content": "<CONTINUERDF>",
      "single_word": false,
      "lstrip": false,
      "rstrip": false,
      "normalized": false,
      "special": true
    },
    {
      "id": 12,
      "content": "<MASK>",
      "single_word": false,
      "lstrip": false,
      "rstrip": false,
      "normalized": false,
      "special": true
    }
  ],
  "normalizer": null,
  "pre_tokenizer": {
    "type": "Whitespace"
  },
  "post_processor": {
    "type": "TemplateProcessing",
    "single": [
      {
        "Sequence": {
          "id": "A",
          "type_id": 0
        }
      }
    ],
    "pair": [
      {
        "Sequence": {
          "id": "A",
          "type_id": 0
        }
      },
      {
        "Sequence": {
          "id": "B",
          "type_id": 1
        }
      }
    ],
    "special_tokens": {
      "<pad>": {
        "id": "<pad>",
        "ids": [
          1
        ],
        "tokens": [
          "<pad>"
        ]
      }
    }
  },
  "decoder": null,
  "model": {
    "type": "BPE",
    "dropout": null,
    "unk_token": "<unk>",
    "continuing_subword_prefix": null,
    "end_of_word_suffix": null,
    "fuse_unk": false,
    "byte_fallback": false,
    "ignore_merges": false,
    "vocab": {
      "<unk>": 0,
      "<pad>": 1,
      "<SOT>": 2,
      "<EOT>": 3,
      "<SUBJ>": 4,
      "<PRED>": 5,
      "<OBJ>": 6,
      "<OBJ_LIST>": 7,
      "|": 8,
      "<RDF2Text>": 9,
      "<Text2RDF>": 10,
      "<CONTINUERDF>": 11,
      "<MASK>": 12,
      "!": 13,
      "\"": 14,
      "#": 15,
      "$": 16,
      "%": 17,
      "&": 18,
      "'": 19,
      "(": 20,
      ")": 21,
      "*": 22,
      "+": 23,
      ",": 24,
      "-": 25,
      ".": 26,
      "/": 27,
      "0": 28,
      "1": 29,
      "2": 30,
      "3": 31,
      "4": 32,
      "5": 33,
      "6": 34,
      "7": 35,
      "8": 36,
      "9": 37,
      ":": 38,
      ";": 39,
      "<": 40,
      ">": 41,
      "?": 42,
      "@": 43,
      "A": 44,
      "B": 45,
      "C": 46,
      "D": 47,
      "E": 48,
      "F": 49,
      "G": 50,
      "H": 51,
      "I": 52,
      "J": 53,
      "K": 54,
      "L": 55,
      "M": 56,
      "N": 57,
      "O": 58,
      "P": 59,
      "Q": 60,
      "R": 61,
      "S": 62,
      "T": 63,
      "U": 64,
      "V": 65,
      "W": 66,
      "X": 67,
      "Y": 68,
      "Z": 69,
      "[": 70,
      "]": 71,
      "_": 72,
      "a": 73,
      "b": 74,
      "c": 75,
      "d": 76,
      "e": 77,
      "f": 78,
      "g": 79,
      "h": 80,
      "i": 81,
      "j": 82,
      "k": 83,
      "l": 84,
      "m": 85,
      "n": 86,
      "o": 87,
      "p": 88,
      "q": 89,
      "r": 90,
      "s": 91,
      "t": 92,
      "u": 93,
      "v": 94,
      "w": 95,
      "x": 96,
      "y": 97,
      "z": 98,
      "~": 99,
      "¡": 100,
      "£": 101,
      "¥": 102,
      "§": 103,
      "ª": 104,
      "°": 105,
      "²": 106,
      "·": 107,
      "½": 108,
      "¿": 109,
      "À": 110,
      "Á": 111,
      "Â": 112,
      "Ä": 113,
      "Å": 114,
      "Æ": 115,
      "Ç": 116,
      "È": 117,
      "É": 118,
      "Ê": 119,
      "Í": 120,
      "Ó": 121,
      "Ô": 122,
      "Ö": 123,
      "×": 124,
      "Ø": 125,
      "Ú": 126,
      "Ü": 127,
      "Þ": 128,
      "ß": 129,
      "à": 130,
      "á": 131,
      "â": 132,
      "ã": 133,
      "ä": 134,
      "å": 135,
      "æ": 136,
      "ç": 137,
      "è": 138,
      "é": 139,
      "ê": 140,
      "ë": 141,
      "ì": 142,
      "í": 143,
      "î": 144,
      "ï": 145,
      "ð": 146,
      "ñ": 147,
      "ò": 148,
      "ó": 149,
      "ô": 150,
      "õ": 151,
      "ö": 152,
      "ø": 153,
      "ù": 154,
      "ú": 155,
      "û": 156,
      "ü": 157,
      "ý": 158,
      "þ": 159,
      "ÿ": 160,
      "Ā": 161,
      "ā": 162,
      "ă": 163,
      "ą": 164,
      "Ć": 165,
      "ć": 166,
      "Č": 167,
      "č": 168,
      "ď": 169,
      "Đ": 170,
      "đ": 171,
      "ē": 172,
      "ė": 173,
      "ę": 174,
      "ě": 175,
      "ğ": 176,
      "ģ": 177,
      "ī": 178,
      "İ": 179,
      "ı": 180,
      "ļ": 181,
      "ľ": 182,
      "Ł": 183,
      "ł": 184,
      "ń": 185,
      "ņ": 186,
      "ň": 187,
      "Ō": 188,
      "ō": 189,
      "ő": 190,
      "Œ": 191,
      "œ": 192,
      "Ř": 193,
      "ř": 194,
      "Ś": 195,
      "ś": 196,
      "Ş": 197,
      "ş": 198,
      "Š": 199,
      "š": 200,
      "ū": 201,
      "ů": 202,
      "Ż": 203,
      "ż": 204,
      "Ž": 205,
      "ž": 206,
      "ǎ": 207,
      "Ș": 208,
      "ș": 209,
      "Ț": 210,
      "ț": 211,
      "ə": 212,
      "ɪ": 213,
      "ʋ": 214,
      "ʱ": 215,
      "ʻ": 216,
      "ː": 217,
      "Α": 218,
      "Δ": 219,
      "ά": 220,
      "έ": 221,
      "α": 222,
      "δ": 223,
      "η": 224,
      "ι": 225,
      "λ": 226,
      "μ": 227,
      "ν": 228,
      "ξ": 229,
      "ο": 230,
      "ρ": 231,
      "ς": 232,
      "τ": 233,
      "Б": 234,
      "И": 235,
      "К": 236,
      "М": 237,
      "а": 238,
      "б": 239,
      "г": 240,
      "д": 241,
      "е": 242,
      "з": 243,
      "и": 244,
      "й": 245,
      "л": 246,
      "н": 247,
      "о": 248,
      "р": 249,
      "с": 250,
      "т": 251,
      "у": 252,
      "ц": 253,
      "ь": 254,
      "я": 255,
      "أ": 256,
      "ئ": 257,
      "ا": 258,
      "ة": 259,
      "ت": 260,
      "ذ": 261,
      "ر": 262,
      "س": 263,
      "ش": 264,
      "ص": 265,
      "ط": 266,
      "ف": 267,
      "ل": 268,
      "م": 269,
      "ن": 270,
      "ه": 271,
      "و": 272,
      "پ": 273,
      "چ": 274,
      "ک": 275,
      "ہ": 276,
      "ی": 277,
      "त": 278,
      "द": 279,
      "न": 280,
      "प": 281,
      "म": 282,
      "र": 283,
      "ह": 284,
      "ा": 285,
      "ि": 286,
      "ी": 287,
      "्": 288,
      "ঝ": 289,
      "ত": 290,
      "দ": 291,
      "ফ": 292,
      "ব": 293,
      "ম": 294,
      "র": 295,
      "ল": 296,
      "হ": 297,
      "া": 298,
      "ি": 299,
      "ৃ": 300,
      "ে": 301,
      "্": 302,
      "க": 303,
      "த": 304,
      "ள": 305,
      "வ": 306,
      "ி": 307,
      "ு": 308,
      "்": 309,
      "ಕ": 310,
      "ಟ": 311,
      "ಡ": 312,
      "ಣ": 313,
      "ತ": 314,
      "ನ": 315,
      "ಪ": 316,
      "ಫ": 317,
      "ಯ": 318,
      "ರ": 319,
      "ಸ": 320,
      "ಾ": 321,
      "ಿ": 322,
      "ು": 323,
      "ೆ": 324,
      "್": 325,
      "අ": 326,
      "එ": 327,
      "ක": 328,
      "ග": 329,
      "ණ": 330,
      "ත": 331,
      "ද": 332,
      "න": 333,
      "ඳ": 334,
      "ප": 335,
      "භ": 336,
      "ම": 337,
      "ය": 338,
      "ර": 339,
      "ල": 340,
      "ව": 341,
      "ෂ": 342,
      "හ": 343,
      "ළ": 344,
      "්": 345,
      "ා": 346,
      "ැ": 347,
      "ි": 348,
      "ී": 349,
      "ු": 350,
      "ෙ": 351,
      "ේ": 352,
      "ො": 353,
      "ෝ": 354,
      "ช": 355,
      "พ": 356,
      "ย": 357,
      "า": 358,
      "ี": 359,
      "่": 360,
      "ḥ": 361,
      "ạ": 362,
      "ả": 363,
      "ẵ": 364,
      "ế": 365,
      "ệ": 366,
      "ỳ": 367,
      "‌": 368,
      "‍": 369,
      "‐": 370,
      "–": 371,
      "—": 372,
      "‘": 373,
      "’": 374,
      "“": 375,
      "”": 376,
      "…": 377,
      "⁄": 378,
      "⁣": 379,
      "€": 380,
      "₱": 381,
      "₹": 382,
      "−": 383,
      "◎": 384,
      "★": 385,
      "あ": 386,
      "い": 387,
      "う": 388,
      "か": 389,
      "が": 390,
      "き": 391,
      "く": 392,
      "さ": 393,
      "す": 394,
      "た": 395,
      "ち": 396,
      "っ": 397,
      "て": 398,
      "な": 399,
      "に": 400,
      "の": 401,
      "は": 402,
      "ぴ": 403,
      "べ": 404,
      "ぼ": 405,
      "ま": 406,
      "ゃ": 407,
      "よ": 408,
      "り": 409,
      "る": 410,
      "ん": 411,
      "イ": 412,
      "エ": 413,
      "ケ": 414,
      "ゲ": 415,
      "ゴ": 416,
      "シ": 417,
      "ス": 418,
      "ズ": 419,
      "タ": 420,
      "チ": 421,
      "ッ": 422,
      "ツ": 423,
      "テ": 424,
      "ト": 425,
      "ド": 426,
      "ナ": 427,
      "バ": 428,
      "パ": 429,
      "ビ": 430,
      "ピ": 431,
      "ブ": 432,
      "プ": 433,
      "ホ": 434,
      "ボ": 435,
      "マ": 436,
      "ム": 437,
      "ャ": 438,
      "ョ": 439,
      "ラ": 440,
      "リ": 441,
      "ル": 442,
      "ロ": 443,
      "ン": 444,
      "・": 445,
      "ー": 446,
      "一": 447,
      "不": 448,
      "世": 449,
      "丸": 450,
      "主": 451,
      "久": 452,
      "之": 453,
      "事": 454,
      "云": 455,
      "交": 456,
      "亨": 457,
      "人": 458,
      "仇": 459,
      "今": 460,
      "代": 461,
      "伏": 462,
      "伯": 463,
      "似": 464,
      "但": 465,
      "住": 466,
      "体": 467,
      "保": 468,
      "俠": 469,
      "傳": 470,
      "傾": 471,
      "僕": 472,
      "先": 473,
      "八": 474,
      "公": 475,
      "决": 476,
      "冼": 477,
      "刀": 478,
      "刃": 479,
      "分": 480,
      "利": 481,
      "功": 482,
      "勤": 483,
      "升": 484,
      "参": 485,
      "反": 486,
      "台": 487,
      "呪": 488,
      "命": 489,
      "哥": 490,
      "国": 491,
      "園": 492,
      "地": 493,
      "城": 494,
      "夜": 495,
      "大": 496,
      "天": 497,
      "奇": 498,
      "女": 499,
      "好": 500,
      "如": 501,
      "姜": 502,
      "子": 503,
      "守": 504,
      "安": 505,
      "宏": 506,
      "宵": 507,
      "家": 508,
      "对": 509,
      "寺": 510,
      "尾": 511,
      "居": 512,
      "山": 513,
      "州": 514,
      "已": 515,
      "年": 516,
      "幻": 517,
      "広": 518,
      "店": 519,
      "府": 520,
      "影": 521,
      "很": 522,
      "復": 523,
      "怨": 524,
      "情": 525,
      "愛": 526,
      "感": 527,
      "成": 528,
      "我": 529,
      "战": 530,
      "手": 531,
      "政": 532,
      "故": 533,
      "新": 534,
      "方": 535,
      "日": 536,
      "明": 537,
      "昏": 538,
      "星": 539,
      "是": 540,
      "晚": 541,
      "曹": 542,
      "最": 543,
      "月": 544,
      "未": 545,
      "本": 546,
      "李": 547,
      "来": 548,
      "杨": 549,
      "果": 550,
      "梁": 551,
      "棠": 552,
      "楽": 553,
      "榮": 554,
      "次": 555,
      "水": 556,
      "永": 557,
      "江": 558,
      "治": 559,
      "流": 560,
      "海": 561,
      "温": 562,
      "然": 563,
      "爱": 564,
      "犬": 565,
      "狮": 566,
      "环": 567,
      "电": 568,
      "界": 569,
      "留": 570,
      "痞": 571,
      "百": 572,
      "的": 573,
      "盂": 574,
      "石": 575,
      "祝": 576,
      "神": 577,
      "种": 578,
      "第": 579,
      "等": 580,
      "策": 581,
      "糖": 582,
      "羲": 583,
      "胎": 584,
      "能": 585,
      "良": 586,
      "色": 587,
      "花": 588,
      "英": 589,
      "蘭": 590,
      "虽": 591,
      "行": 592,
      "記": 593,
      "誠": 594,
      "賭": 595,
      "起": 596,
      "超": 597,
      "越": 598,
      "这": 599,
      "速": 600,
      "酒": 601,
      "金": 602,
      "錦": 603,
      "長": 604,
      "陳": 605,
      "雄": 606,
      "雨": 607,
      "飛": 608,
      "香": 609,
      "高": 610,
      "魔": 611,
      "魚": 612,
      "鰻": 613,
      "鱸": 614,
      "鱼": 615,
      "黃": 616,
      "黎": 617,
      "黑": 618,
      "가": 619,
      "강": 620,
      "거": 621,
      "공": 622,
      "과": 623,
      "녀": 624,
      "니": 625,
      "다": 626,
      "답": 627,
      "동": 628,
      "라": 629,
      "랙": 630,
      "로": 631,
      "루": 632,
      "름": 633,
      "링": 634,
      "마": 635,
      "맥": 636,
      "머": 637,
      "먼": 638,
      "멍": 639,
      "물": 640,
      "뭉": 641,
      "바": 642,
      "벌": 643,
      "봉": 644,
      "블": 645,
      "비": 646,
      "빅": 647,
      "사": 648,
      "산": 649,
      "새": 650,
      "소": 651,
      "속": 652,
      "숨": 653,
      "스": 654,
      "시": 655,
      "식": 656,
      "아": 657,
      "야": 658,
      "연": 659,
      "오": 660,
      "울": 661,
      "웃": 662,
      "육": 663,
      "의": 664,
      "이": 665,
      "자": 666,
      "저": 667,
      "주": 668,
      "중": 669,
      "진": 670,
      "철": 671,
      "청": 672,
      "촌": 673,
      "카": 674,
      "퀵": 675,
      "타": 676,
      "톤": 677,
      "트": 678,
      "페": 679,
      "하": 680,
      "혈": 681,
      "황": 682,
      "히": 683,
      "ﬁ": 684,
      "﹟": 685,
      "！": 686,
      "，": 687,
      "：": 688,
      "db": 689,
      "OT": 690,
      "BJ": 691,
      "dbr": 692,
      "ar": 693,
      "in": 694,
      "dbo": 695,
      "PR": 696,
      "PRE": 697,
      "SU": 698,
      "EOT": 699,
      "OBJ": 700,
      "SOT": 701,
      "PRED": 702,
      "SUBJ": 703,
      "an": 704,
      "il": 705,
      "er": 706,
      "st": 707,
      "ing": 708,
      "arr": 709,
      "starr": 710,
      "starring": 711,
      "ilm": 712,
      "e_": 713,
      "film": 714,
      "or": 715,
      "en": 716,
      "on": 717,
      "th": 718,
      "re": 719,
      "ri": 720,
      "_film": 721,
      "ct": 722,
      "al": 723,
      "and": 724,
      "es": 725,
      "di": 726,
      "as": 727,
      "is": 728,
      "am": 729,
      "at": 730,
      "ic": 731,
      "ed": 732,
      "19": 733,
      "a_": 734,
      "el": 735,
      "y_": 736,
      "om": 737,
      "Th": 738,
      "ter": 739,
      "ctor": 740,
      "ag": 741,
      "dire": 742,
      "un": 743,
      "of": 744,
      "s_": 745,
      "ent": 746,
      "wri": 747,
      "ang": 748,
      "20": 749,
      "ol": 750,
      "_S": 751,
      "the": 752,
      "os": 753,
      "writer": 754,
      "us": 755,
      "ad": 756,
      "director": 757,
      "age": 758,
      "it": 759,
      "im": 760,
      "_M": 761,
      "ur": 762,
      "le": 763,
      "angu": 764,
      "_B": 765,
      "ac": 766,
      "anguage": 767,
      "language": 768,
      "The_": 769,
      "by": 770,
      "ay": 771,
      "the_": 772,
      "et": 773,
      "RD": 774,
      "RDF": 775,
      "d_": 776,
      "ow": 777,
      "o_": 778,
      "ch": 779,
      "ilent": 780,
      "ir": 781,
      "of_": 782,
      "unt": 783,
      "Silent": 784,
      "Silent_film": 785,
      "ion": 786,
      "Ch": 787,
      "an_": 788,
      "ak": 789,
      "Ro": 790,
      "ex": 791,
      "ill": 792,
      "t_": 793,
      "ig": 794,
      "Bl": 795,
      "av": 796,
      "ro": 797,
      "ul": 798,
      "oo": 799,
      "Tex": 800,
      "ev": 801,
      "ime": 802,
      "MA": 803,
      "MAS": 804,
      "Text": 805,
      "MASK": 806,
      "omp": 807,
      "ap": 808,
      "ov": 809,
      "id": 810,
      "_H": 811,
      "usic": 812,
      "runt": 813,
      "runtime": 814,
      "um": 815,
      "er_": 816,
      "music": 817,
      "i_": 818,
      "ompos": 819,
      "Jo": 820,
      "The": 821,
      "An": 822,
      "omposer": 823,
      "201": 824,
      "iv": 825,
      "ack": 826,
      "ies": 827,
      "ell": 828,
      "Be": 829,
      "ot": 830,
      "ut": 831,
      "200": 832,
      "Composer": 833,
      "musicComposer": 834,
      "cted": 835,
      "_D": 836,
      "ra": 837,
      "_W": 838,
      "actor": 839,
      "Am": 840,
      "_P": 841,
      "em": 842,
      "for": 843,
      "_C": 844,
      "directed": 845,
      "ber": 846,
      "_L": 847,
      "sh": 848,
      "ab": 849,
      "son": 850,
      "St": 851,
      "_the_": 852,
      "all": 853,
      "Sh": 854,
      "was": 855,
      "Mar": 856,
      "_R": 857,
      "_T": 858,
      "ich": 859,
      "ou": 860,
      "ath": 861,
      "ck": 862,
      "to": 863,
      "ard": 864,
      "ser": 865,
      "Al": 866,
      "_G": 867,
      "_K": 868,
      "est": 869,
      "ant": 870,
      "hn": 871,
      "In": 872,
      "ud": 873,
      "man": 874,
      "res": 875,
      "eric": 876,
      "ug": 877,
      "ey": 878,
      "ith": 879,
      "series": 880,
      "ain": 881,
      "_F": 882,
      "John": 883,
      "It": 884,
      "igh": 885,
      "ers": 886,
      "Americ": 887,
      "op": 888,
      "of_the_": 889,
      "199": 890,
      "NT": 891,
      "CO": 892,
      "IN": 893,
      "2RDF": 894,
      "2Text": 895,
      "ERDF": 896,
      "UERDF": 897,
      "RDF2Text": 898,
      "Text2RDF": 899,
      "NTIN": 900,
      "CONTIN": 901,
      "CONTINUERDF": 902,
      "le_": 903,
      "De": 904,
      "ran": 905,
      "_A": 906,
      "ah": 907,
      "ast": 908,
      "ie": 909,
      "ep": 910,
      "198": 911,
      "ann": 912,
      "ik": 913,
      "ish": 914,
      "uc": 915,
      "Bh": 916,
      "_series": 917,
      "Car": 918,
      "Black": 919,
      "aw": 920,
      "ram": 921,
      "ce": 922,
      "American": 923,
      "art": 924,
      "oll": 925,
      "aj": 926,
      "tt": 927,
      "192": 928,
      "V_series": 929,
      "if": 930,
      "ong": 931,
      "es_": 932,
      "ars": 933,
      "leas": 934,
      "act": 935,
      "ay_": 936,
      "rom": 937,
      "ie_": 938,
      "_N": 939,
      "Le": 940,
      "7_film": 941,
      "od": 942,
      "ian": 943,
      "197": 944,
      "releas": 945,
      "ood": 946,
      "00": 947,
      "up": 948,
      "ry": 949,
      "8_film": 950,
      "193": 951,
      "com": 952,
      "_St": 953,
      "end": 954,
      "wh": 955,
      "5_film": 956,
      "en_": 957,
      "co": 958,
      "Ho": 959,
      "195": 960,
      "rod": 961,
      "ub": 962,
      "own": 963,
      "ation": 964,
      "ist": 965,
      "enn": 966,
      "TV_series": 967,
      "ach": 968,
      "ern": 969,
      "6_film": 970,
      "Ar": 971,
      "194": 972,
      "_Sh": 973,
      "Bri": 974,
      "og": 975,
      "_E": 976,
      "2_film": 977,
      "4_film": 978,
      "_The_": 979,
      "oc": 980,
      "_J": 981,
      "org": 982,
      "und": 983,
      "att": 984,
      "arl": 985,
      "az": 986,
      "ai": 987,
      "196": 988,
      "3_film": 989,
      "ick": 990,
      "ind": 991,
      "with": 992,
      "ress": 993,
      "ary": 994,
      "qu": 995,
      "ess": 996,
      "Rober": 997,
      "ate": 998,
      "Pe": 999,
      "ton": 1000,
      "uk": 1001,
      "ff": 1002,
      "ust": 1003,
      "tten": 1004,
      "to_": 1005,
      "Qu": 1006,
      "1_film": 1007,
      "urn": 1008,
      "rama": 1009,
      "gen": 1010,
      "sc": 1011,
      "Dav": 1012,
      "0_film": 1013,
      "Cl": 1014,
      "ark": 1015,
      "ight": 1016,
      "oy": 1017,
      "ing_": 1018,
      "Sam": 1019,
      "written": 1020,
      "pl": 1021,
      "ond": 1022,
      "iam": 1023,
      "ort": 1024,
      "Br": 1025,
      "drama": 1026,
      "ip": 1027,
      "prod": 1028,
      "ce_": 1029,
      "stars": 1030,
      "ash": 1031,
      "Ge": 1032,
      "9_film": 1033,
      "itt": 1034,
      "ob": 1035,
      "He": 1036,
      "ec": 1037,
      "e_M": 1038,
      "een": 1039,
      "Will": 1040,
      "ew": 1041,
      "Pri": 1042,
      "eg": 1043,
      "Pr": 1044,
      "ung": 1045,
      "ia": 1046,
      "Fran": 1047,
      "eb": 1048,
      "au": 1049,
      "edy": 1050,
      "ett": 1051,
      "ard_": 1052,
      "produc": 1053,
      "ia_": 1054,
      "ugh": 1055,
      "from": 1056,
      "Pre": 1057,
      "on_": 1058,
      "ek": 1059,
      "her": 1060,
      "Big": 1061,
      "ood_": 1062,
      "ure": 1063,
      "Mich": 1064,
      "per": 1065,
      "adi": 1066,
      "Indi": 1067,
      "ect": 1068,
      "ass": 1069,
      "reen": 1070,
      "En": 1071,
      "ine": 1072,
      "ord": 1073,
      "Un": 1074,
      "rol": 1075,
      "actress": 1076,
      "our": 1077,
      "his": 1078,
      "comedy": 1079,
      "Georg": 1080,
      "Ros": 1081,
      "ael": 1082,
      "ost": 1083,
      "one": 1084,
      "ly": 1085,
      "ision": 1086,
      "Chri": 1087,
      "genre": 1088,
      "apt": 1089,
      "_V": 1090,
      "ok": 1091,
      "ore": 1092,
      "ani": 1093,
      "Don": 1094,
      "William": 1095,
      "How": 1096,
      "Rom": 1097,
      "ame": 1098,
      "tel": 1099,
      "ne": 1100,
      "a_M": 1101,
      "And": 1102,
      "_of_": 1103,
      "El": 1104,
      "evision": 1105,
      "e_S": 1106,
      "old": 1107,
      "ier": 1108,
      "ear": 1109,
      "_O": 1110,
      "produced": 1111,
      "Bar": 1112,
      "aul": 1113,
      "released": 1114,
      "han": 1115,
      "ory": 1116,
      "oth": 1117,
      "television": 1118,
      "Jos": 1119,
      "Dead": 1120,
      "inc": 1121,
      "app": 1122,
      "Je": 1123,
      "se": 1124,
      "esh": 1125,
      "ed_": 1126,
      "80": 1127,
      "Bill": 1128,
      "land": 1129,
      "Rich": 1130,
      "irl": 1131,
      "Wh": 1132,
      "_I": 1133,
      "orn": 1134,
      "Cam": 1135,
      "Ad": 1136,
      "Michael": 1137,
      "Bre": 1138,
      "iz": 1139,
      "Litt": 1140,
      "191": 1141,
      "ased": 1142,
      "ous": 1143,
      "_of_the_": 1144,
      "All": 1145,
      "Dev": 1146,
      "who": 1147,
      "Rob": 1148,
      "_and": 1149,
      "release": 1150,
      "Ph": 1151,
      "ee": 1152,
      "als": 1153,
      "Jam": 1154,
      "ya": 1155,
      "e_B": 1156,
      "Per": 1157,
      "ott": 1158,
      "Charl": 1159,
      "ib": 1160,
      "Pat": 1161,
      "_Y": 1162,
      "ers_": 1163,
      "ont": 1164,
      "y_M": 1165,
      "e_C": 1166,
      "eng": 1167,
      "play": 1168,
      "af": 1169,
      "ph": 1170,
      "40": 1171,
      "a_S": 1172,
      "eat": 1173,
      "Film": 1174,
      "Lov": 1175,
      "a_R": 1176,
      "de_": 1177,
      "Ed": 1178,
      "60": 1179,
      "Rock": 1180,
      "ial": 1181,
      "based": 1182,
      "ric": 1183,
      "ond_": 1184,
      "ank": 1185,
      "Little_": 1186,
      "_Ch": 1187,
      "Robert_": 1188,
      "Indian": 1189,
      "Hous": 1190,
      "ction": 1191,
      "yn": 1192,
      "ren": 1193,
      "Date": 1194,
      "id_": 1195,
      "Paul": 1196,
      "On": 1197,
      "he": 1198,
      "Jack": 1199,
      "air": 1200,
      "Christ": 1201,
      "ari": 1202,
      "releaseDate": 1203,
      "a_B": 1204,
      "be": 1205,
      "_Bl": 1206,
      "ument": 1207,
      "Hom": 1208,
      "ward": 1209,
      "Jul": 1210,
      "Sp": 1211,
      "eth": 1212,
      "ley": 1213,
      "ine_": 1214,
      "ire": 1215,
      "ru": 1216,
      "ocument": 1217,
      "de": 1218,
      "Blu": 1219,
      "Raj": 1220,
      "II": 1221,
      "Sc": 1222,
      "screen": 1223,
      "a_K": 1224,
      "ush": 1225,
      "orr": 1226,
      "Capt": 1227,
      "amil": 1228,
      "rim": 1229,
      "ocumentary": 1230,
      "Ann": 1231,
      "are": 1232,
      "untry": 1233,
      "ner": 1234,
      "eph": 1235,
      "in_": 1236,
      "Bey": 1237,
      "ess_": 1238,
      "gl": 1239,
      "iller": 1240,
      "ive": 1241,
      "202": 1242,
      "gh": 1243,
      "James": 1244,
      "arry_": 1245,
      "Hol": 1246,
      "_Mc": 1247,
      "off": 1248,
      "ry_": 1249,
      "Mo": 1250,
      "ins": 1251,
      "iy": 1252,
      "country": 1253,
      "ate_": 1254,
      "Par": 1255,
      "ler": 1256,
      "ild": 1257,
      "ight_": 1258,
      "in_the_": 1259,
      "Peter": 1260,
      "man_": 1261,
      "e_of_": 1262,
      "ife": 1263,
      "a_G": 1264,
      "ock": 1265,
      "Frank": 1266,
      "s_of_": 1267,
      "ara": 1268,
      "Re": 1269,
      "ures": 1270,
      "ork": 1271,
      "Robert": 1272,
      "ali": 1273,
      "ade": 1274,
      "Des": 1275,
      "Tom": 1276,
      "uss": 1277,
      "a_P": 1278,
      "Ev": 1279,
      "Gre": 1280,
      "Em": 1281,
      "ha": 1282,
      "Can": 1283,
      "iss": 1284,
      "Charles": 1285,
      "),": 1286,
      "ge": 1287,
      "ull": 1288,
      "_1": 1289,
      "kn": 1290,
      "Man": 1291,
      "oor": 1292,
      "ma": 1293,
      "Blood_": 1294,
      "ert": 1295,
      "ovie": 1296,
      "ook": 1297,
      "ax": 1298,
      "uck": 1299,
      "io": 1300,
      "Beyond_": 1301,
      "el_": 1302,
      "roles": 1303,
      "known": 1304,
      "Captain": 1305,
      "Sand": 1306,
      "umar": 1307,
      "al_": 1308,
      "Her": 1309,
      "aut": 1310,
      "rem": 1311,
      "Day": 1312,
      "Blood": 1313,
      "iel": 1314,
      "Call": 1315,
      "orl": 1316,
      "Bat": 1317,
      "_to_": 1318,
      "ens": 1319,
      "Hot": 1320,
      "San": 1321,
      "ice": 1322,
      "also": 1323,
      "lin": 1324,
      "adh": 1325,
      "Mal": 1326,
      "iri": 1327,
      "ez": 1328,
      "Gr": 1329,
      "Pro": 1330,
      "ment": 1331,
      "ide": 1332,
      "Hon": 1333,
      "Jan": 1334,
      "Cas": 1335,
      "irst": 1336,
      "Jon": 1337,
      "ever": 1338,
      "Ale": 1339,
      "ict": 1340,
      "inn": 1341,
      "feat": 1342,
      "Batt": 1343,
      "sk": 1344,
      "David_": 1345,
      "Gl": 1346,
      "ham": 1347,
      "Prem": 1348,
      "Wal": 1349,
      "Gu": 1350,
      "Ger": 1351,
      "yl": 1352,
      "ated": 1353,
      "ef": 1354,
      "antic": 1355,
      "y_S": 1356,
      "oss": 1357,
      "i_K": 1358,
      "e_D": 1359,
      "_Sp": 1360,
      "iet": 1361,
      "Fl": 1362,
      "ence": 1363,
      "Bo": 1364,
      "Holl": 1365,
      "Break": 1366,
      "ake": 1367,
      "ini": 1368,
      "ada": 1369,
      "Is": 1370,
      "ance": 1371,
      "George_": 1372,
      "Ben": 1373,
      "_Th": 1374,
      "ity": 1375,
      "y_H": 1376,
      "har": 1377,
      "mer": 1378,
      "ra_": 1379,
      "aur": 1380,
      "vent": 1381,
      "indi": 1382,
      "Ol": 1383,
      "ale": 1384,
      "out": 1385,
      "ina": 1386,
      "ana": 1387,
      "Sar": 1388,
      "Richard_": 1389,
      "edi": 1390,
      "onn": 1391,
      "Vi": 1392,
      "ind_": 1393,
      "Award": 1394,
      "Hum": 1395,
      "e_L": 1396,
      "port": 1397,
      "eet": 1398,
      "Johnn": 1399,
      "ix": 1400,
      "Ap": 1401,
      "The_M": 1402,
      "Ram": 1403,
      "West": 1404,
      "oung": 1405,
      "ald": 1406,
      "Mart": 1407,
      "has": 1408,
      "Ret": 1409,
      "Ang": 1410,
      "ace": 1411,
      "Ab": 1412,
      "Nor": 1413,
      "oon": 1414,
      "rid": 1415,
      "ical": 1416,
      "am_": 1417,
      "_Br": 1418,
      "uth": 1419,
      "red": 1420,
      "ool": 1421,
      "She": 1422,
      "a_L": 1423,
      "ao": 1424,
      "anc": 1425,
      "Brit": 1426,
      "Har": 1427,
      "films": 1428,
      "ors": 1429,
      "osh": 1430,
      "_Be": 1431,
      "augh": 1432,
      "a_D": 1433,
      "us_": 1434,
      "Best": 1435,
      "Up": 1436,
      "rap": 1437,
      "etw": 1438,
      "ar_": 1439,
      "ows": 1440,
      "ox": 1441,
      "udi": 1442,
      "der": 1443,
      "ane": 1444,
      "ue": 1445,
      "omb": 1446,
      "amp": 1447,
      "nov": 1448,
      "Col": 1449,
      "David": 1450,
      "Pl": 1451,
      "ons": 1452,
      "ival": 1453,
      "ail": 1454,
      "Andre": 1455,
      "story": 1456,
      "e_F": 1457,
      "son_": 1458,
      "yw": 1459,
      "Girl": 1460,
      "Hit": 1461,
      "uri": 1462,
      "ember": 1463,
      "The_S": 1464,
      "Carl": 1465,
      "..": 1466,
      "and_the_": 1467,
      "_Lov": 1468,
      "oman": 1469,
      "war": 1470,
      "min": 1471,
      "ster": 1472,
      "You": 1473,
      "rav": 1474,
      "novel": 1475,
      "as_": 1476,
      "y_W": 1477,
      "_Bro": 1478,
      "Hindi": 1479,
      "orror": 1480,
      "e_W": 1481,
      "2019": 1482,
      "y_B": 1483,
      "Hen": 1484,
      "u_": 1485,
      "Ter": 1486,
      "anth": 1487,
      "unn": 1488,
      "rish": 1489,
      "Mark": 1490,
      "_TV_series": 1491,
      "orld": 1492,
      "Dr": 1493,
      "io_": 1494,
      "Sant": 1495,
      "New": 1496,
      "ans": 1497,
      "way": 1498,
      "inal": 1499,
      "alam": 1500,
      "Tim": 1501,
      "Rog": 1502,
      "British": 1503,
      "te": 1504,
      "ates": 1505,
      "ere": 1506,
      "Return": 1507,
      "bar": 1508,
      "The_L": 1509,
      "Bir": 1510,
      "ound": 1511,
      "tern": 1512,
      "sp": 1513,
      "a_F": 1514,
      "ount": 1515,
      "uz": 1516,
      "Ag": 1517,
      "yr": 1518,
      "Det": 1519,
      "ot_": 1520,
      "action": 1521,
      "Beyond_the_": 1522,
      "eer": 1523,
      "_Sch": 1524,
      "_Mar": 1525,
      "Se": 1526,
      "ally": 1527,
      "but": 1528,
      "oul": 1529,
      "_Man": 1530,
      "_Par": 1531,
      "s_M": 1532,
      "ver": 1533,
      "role": 1534,
      "well": 1535,
      "ilip": 1536,
      "Stev": 1537,
      "ian_": 1538,
      "ited": 1539,
      "ese": 1540,
      "which": 1541,
      "y_C": 1542,
      "Gar": 1543,
      "atch": 1544,
      "Ke": 1545,
      "aker": 1546,
      "ala": 1547,
      "ational": 1548,
      "rit": 1549,
      "uch": 1550,
      "thr": 1551,
      "War": 1552,
      "oh": 1553,
      "documentary": 1554,
      "Alex": 1555,
      "arri": 1556,
      "lead": 1557,
      "etween": 1558,
      ").": 1559,
      "a_N": 1560,
      "Tel": 1561,
      "aud": 1562,
      "first": 1563,
      "_Wh": 1564,
      "ance_": 1565,
      "Franc": 1566,
      "e_T": 1567,
      "ss": 1568,
      "alk": 1569,
      "e_P": 1570,
      "oot": 1571,
      "ney": 1572,
      "itch": 1573,
      "or_": 1574,
      "a_H": 1575,
      "thriller": 1576,
      "rab": 1577,
      "ta": 1578,
      "mith": 1579,
      "a_T": 1580,
      "ley_": 1581,
      "Martin": 1582,
      "Camp": 1583,
      "rench": 1584,
      "tit": 1585,
      "Pict": 1586,
      "ai_": 1587,
      "e_R": 1588,
      "3F": 1589,
      "Bra": 1590,
      "ason": 1591,
      "Robin": 1592,
      "that": 1593,
      "eh": 1594,
      "ream": 1595,
      "Bel": 1596,
      "ey_": 1597,
      "ield": 1598,
      "estival": 1599,
      "glish": 1600,
      "int": 1601,
      "ite": 1602,
      "ald_": 1603,
      "Val": 1604,
      "For": 1605,
      "sup": 1606,
      "ater": 1607,
      "rick": 1608,
      "Bob": 1609,
      "Lou": 1610,
      "hu": 1611,
      "rev": 1612,
      "its": 1613,
      "ray": 1614,
      "ings": 1615,
      "Roy": 1616,
      "Wil": 1617,
      "aniel": 1618,
      "aughter": 1619,
      "erg": 1620,
      "ink": 1621,
      "Jim": 1622,
      "venture": 1623,
      "of_S": 1624,
      "Beaut": 1625,
      "ile": 1626,
      "wo": 1627,
      "composer": 1628,
      "Gen": 1629,
      "kin": 1630,
      "les": 1631,
      "yan": 1632,
      "e_H": 1633,
      "ather": 1634,
      "e_of_the_": 1635,
      "ree": 1636,
      "y_D": 1637,
      "umb": 1638,
      "Red": 1639,
      "Joseph": 1640,
      "a_C": 1641,
      "y_L": 1642,
      "Pictures": 1643,
      "hi": 1644,
      "Jud": 1645,
      "American_": 1646,
      "Festival": 1647,
      "inem": 1648,
      "Sw": 1649,
      "same": 1650,
      "ino": 1651,
      "alian": 1652,
      "ell_": 1653,
      "English": 1654,
      "bert": 1655,
      "ford": 1656,
      "ein": 1657,
      "e_N": 1658,
      "ity_": 1659,
      "screenwriter": 1660,
      "Documentary": 1661,
      "lud": 1662,
      "54": 1663,
      "e_K": 1664,
      "romantic": 1665,
      "under": 1666,
      "Battle_": 1667,
      "Del": 1668,
      "arn": 1669,
      "ad_": 1670,
      "_Sc": 1671,
      "amb": 1672,
      "_De": 1673,
      "Hollyw": 1674,
      "Priv": 1675,
      "awn": 1676,
      "Richard": 1677,
      "_language": 1678,
      "ign": 1679,
      "hy": 1680,
      "at_": 1681,
      "ron": 1682,
      "udd": 1683,
      "my": 1684,
      "os_": 1685,
      "ograp": 1686,
      "Er": 1687,
      "The_F": 1688,
      "2010_film": 1689,
      "Angel": 1690,
      "ory_": 1691,
      "olf": 1692,
      "Hel": 1693,
      "Documentary_film": 1694,
      "foll": 1695,
      "20_film": 1696,
      "outh": 1697,
      "ion_": 1698,
      "Telug": 1699,
      "uction": 1700,
      "Ren": 1701,
      "een_": 1702,
      "_Girl": 1703,
      "Detect": 1704,
      "li": 1705,
      "French": 1706,
      "Nat": 1707,
      "ident": 1708,
      "on_the_": 1709,
      "ret": 1710,
      "and_": 1711,
      "Con": 1712,
      "deb": 1713,
      "2013_film": 1714,
      "jee": 1715,
      "rime": 1716,
      "rishn": 1717,
      "Ne": 1718,
      "Res": 1719,
      "Malay": 1720,
      "Mc": 1721,
      "ury": 1722,
      "Bell": 1723,
      "Daniel": 1724,
      "horror": 1725,
      "10": 1726,
      "ies_": 1727,
      "den": 1728,
      "short": 1729,
      "Devil": 1730,
      "Jer": 1731,
      "_to": 1732,
      "name": 1733,
      "Tamil": 1734,
      "Bro": 1735,
      "y_T": 1736,
      "2007_film": 1737,
      "600": 1738,
      "hav": 1739,
      "o_M": 1740,
      "debut": 1741,
      "Pun": 1742,
      "ous_": 1743,
      "la": 1744,
      "band": 1745,
      "is_": 1746,
      "berg": 1747,
      "includ": 1748,
      "Lew": 1749,
      "Steph": 1750,
      "Ac": 1751,
      "_He": 1752,
      "Cap": 1753,
      "Thom": 1754,
      "et_": 1755,
      "Cal": 1756,
      "y_K": 1757,
      "2014_film": 1758,
      "Dou": 1759,
      "rough": 1760,
      "arry": 1761,
      "aksh": 1762,
      "_Re": 1763,
      "antas": 1764,
      "Movie": 1765,
      "other": 1766,
      "án": 1767,
      "age_": 1768,
      "rang": 1769,
      "Com": 1770,
      "Max": 1771,
      "eries": 1772,
      "Anton": 1773,
      "orri": 1774,
      "Reg": 1775,
      "ask": 1776,
      "ama": 1777,
      "ure_": 1778,
      "_Ar": 1779,
      "ut_": 1780,
      "ow_": 1781,
      "2018_film": 1782,
      "Night": 1783,
      "Andrew": 1784,
      "Russ": 1785,
      "apan": 1786,
      "Donald_": 1787,
      "Jean": 1788,
      "Ak": 1789,
      "ose": 1790,
      "ive_": 1791,
      "Hotel": 1792,
      "2017_film": 1793,
      "Aust": 1794,
      "oom": 1795,
      "sy": 1796,
      "Anth": 1797,
      "utt": 1798,
      "Hong": 1799,
      "Jay": 1800,
      "of_M": 1801,
      "ite_": 1802,
      "over": 1803,
      "a_Ch": 1804,
      "2008_film": 1805,
      "evin": 1806,
      "uring": 1807,
      "_Se": 1808,
      "Pra": 1809,
      "y_F": 1810,
      "Jeff": 1811,
      "vil": 1812,
      "Wom": 1813,
      "ence_": 1814,
      "India": 1815,
      "appear": 1816,
      "Philip": 1817,
      "Love": 1818,
      "Holid": 1819,
      "work": 1820,
      "Gold": 1821,
      "atter": 1822,
      "su": 1823,
      "Love_": 1824,
      "ely": 1825,
      "Journ": 1826,
      "Stephen": 1827,
      "Cr": 1828,
      "Ex": 1829,
      "pro": 1830,
      "2015_film": 1831,
      "Kann": 1832,
      "enc": 1833,
      "Hot_": 1834,
      "about": 1835,
      "2012_film": 1836,
      "ubl": 1837,
      "silent": 1838,
      "erson": 1839,
      "Hop": 1840,
      "bl": 1841,
      "unter": 1842,
      "Bord": 1843,
      "out_": 1844,
      "_Cl": 1845,
      "Ber": 1846,
      "gu": 1847,
      "ise": 1848,
      "ice_": 1849,
      "y_G": 1850,
      "_Ad": 1851,
      "Ash": 1852,
      "2016_film": 1853,
      "night": 1854,
      "United": 1855,
      "art_": 1856,
      "musical": 1857,
      "2009_film": 1858,
      "emp": 1859,
      "char": 1860,
      "Pol": 1861,
      "crime": 1862,
      "Kevin": 1863,
      "Lu": 1864,
      "ij": 1865,
      "ome": 1866,
      "omin": 1867,
      "urt": 1868,
      "ady": 1869,
      "feature": 1870,
      "Thomas": 1871,
      "Kim": 1872,
      "any": 1873,
      "Home_": 1874,
      "arth": 1875,
      "Dark": 1876,
      "anj": 1877,
      "urd": 1878,
      "ake_": 1879,
      "Bod": 1880,
      "uel": 1881,
      "Day_": 1882,
      "Jac": 1883,
      "let": 1884,
      "ace_": 1885,
      "Mon": 1886,
      "Py": 1887,
      "ife_": 1888,
      "ult": 1889,
      "screenplay": 1890,
      "title": 1891,
      "Sang": 1892,
      "No": 1893,
      "Adam": 1894,
      "ger": 1895,
      "ternational": 1896,
      "South": 1897,
      "Or": 1898,
      "ough": 1899,
      "Bas": 1900,
      "_in": 1901,
      "riend": 1902,
      "Princ": 1903,
      "Japan": 1904,
      "Honey": 1905,
      "add": 1906,
      "Dor": 1907,
      "o_B": 1908,
      "theat": 1909,
      "Rud": 1910,
      "Walter": 1911,
      "Anthon": 1912,
      "a_W": 1913,
      "und_": 1914,
      "o_T": 1915,
      "_Land": 1916,
      "Christop": 1917,
      "gar": 1918,
      "Malayalam": 1919,
      "Mik": 1920,
      "Gi": 1921,
      "Kenn": 1922,
      "inger": 1923,
      "Born": 1924,
      "2006_film": 1925,
      "cast": 1926,
      "ordon": 1927,
      "a_V": 1928,
      "2019_film": 1929,
      "Mil": 1930,
      "Mat": 1931,
      "cre": 1932,
      "José": 1933,
      "i_M": 1934,
      "old_": 1935,
      "_Bab": 1936,
      "Carol": 1937,
      "anim": 1938,
      "Harry_": 1939,
      "Pur": 1940,
      "Oliv": 1941,
      "World": 1942,
      "bert_": 1943,
      "ucc": 1944,
      "best": 1945,
      "ower": 1946,
      "had": 1947,
      "quel": 1948,
      "Bab": 1949,
      "aid": 1950,
      "charact": 1951,
      "_for": 1952,
      "edd": 1953,
      "The_T": 1954,
      "rip": 1955,
      "iseries": 1956,
      "The_C": 1957,
      "2011_film": 1958,
      "Mer": 1959,
      "ita": 1960,
      "pe": 1961,
      "lem": 1962,
      "Ju": 1963,
      "Law": 1964,
      "Cann": 1965,
      "Kh": 1966,
      "arg": 1967,
      "2005_film": 1968,
      "miniseries": 1969,
      "18": 1970,
      "made": 1971,
      "umm": 1972,
      "porting": 1973,
      "57": 1974,
      "ives": 1975,
      "Rome": 1976,
      "con": 1977,
      "e_G": 1978,
      "Prod": 1979,
      "fl": 1980,
      "uff": 1981,
      "thur": 1982,
      "not": 1983,
      "owd": 1984,
      "Marc": 1985,
      "Canadi": 1986,
      "Between": 1987,
      "ech": 1988,
      "athi": 1989,
      "Young": 1990,
      "by_": 1991,
      "ong_": 1992,
      "King": 1993,
      "Jun": 1994,
      "azz": 1995,
      "House_of_": 1996,
      "Jenn": 1997,
      "Sus": 1998,
      "movie": 1999,
      "Scott": 2000,
      "compos": 2001,
      "fi": 2002,
      "uj": 2003,
      "Just": 2004,
      "adapt": 2005,
      "ject": 2006,
      "dit": 2007,
      "Den": 2008,
      "2016": 2009,
      "Sun": 2010,
      "their": 2011,
      "Victor": 2012,
      "Laur": 2013,
      "TV": 2014,
      "Blind_": 2015,
      "Bhag": 2016,
      "rik": 2017,
      "ele": 2018,
      "Queen_": 2019,
      "Henry_": 2020,
      "May": 2021,
      "hm": 2022,
      "iss_": 2023,
      "5400": 2024,
      "Private_": 2025,
      "Mel": 2026,
      "ston": 2027,
      "55": 2028,
      "anch": 2029,
      "This": 2030,
      "_Sw": 2031,
      "1925_film": 2032,
      "Daughter": 2033,
      "two": 2034,
      "rel": 2035,
      "Ron": 2036,
      "andr": 2037,
      "own_": 2038,
      "We": 2039,
      "Italian": 2040,
      "Der": 2041,
      "stage": 2042,
      "rist": 2043,
      "Cab": 2044,
      "Ray": 2045,
      "ky": 2046,
      "ander": 2047,
      "Sch": 2048,
      "Beh": 2049,
      "Rang": 2050,
      "rin": 2051,
      "Boy": 2052,
      "len": 2053,
      "aram": 2054,
      "Rod": 2055,
      "2014": 2056,
      "2015": 2057,
      "_En": 2058,
      "Cra": 2059,
      "ears": 2060,
      "Shar": 2061,
      "rans": 2062,
      "composed": 2063,
      "Ken": 2064,
      "e_I": 2065,
      "Room": 2066,
      "Roll": 2067,
      "sen": 2068,
      "won": 2069,
      "prem": 2070,
      "ain_": 2071,
      "Cor": 2072,
      "e_the_": 2073,
      "1997_film": 2074,
      "Bruc": 2075,
      "rail": 2076,
      "1924_film": 2077,
      "11": 2078,
      "Patrick": 2079,
      "lan": 2080,
      "antasy": 2081,
      "Befor": 2082,
      "Bhal": 2083,
      "Ton": 2084,
      "ept": 2085,
      "Beast": 2086,
      "Mad": 2087,
      "araj": 2088,
      "s_C": 2089,
      "ent_": 2090,
      "As": 2091,
      "era": 2092,
      "Af": 2093,
      "_Man_": 2094,
      "2008": 2095,
      "Fre": 2096,
      "ero": 2097,
      "emy": 2098,
      "German": 2099,
      "uv": 2100,
      "reet": 2101,
      "Brid": 2102,
      "cl": 2103,
      "ribut": 2104,
      "Bern": 2105,
      "fect": 2106,
      "Rid": 2107,
      "ris": 2108,
      "ter_": 2109,
      "ublic": 2110,
      "Kath": 2111,
      "Luc": 2112,
      "life": 2113,
      "Dem": 2114,
      "e_St": 2115,
      "2004_film": 2116,
      "Arthur": 2117,
      "Christm": 2118,
      "follows": 2119,
      "International": 2120,
      "Peop": 2121,
      "...": 2122,
      "Pet": 2123,
      "Greg": 2124,
      "Ern": 2125,
      "Crim": 2126,
      "oj": 2127,
      "anger": 2128,
      "Detectiv": 2129,
      "Jess": 2130,
      "Park": 2131,
      "Western": 2132,
      "premier": 2133,
      "Prison": 2134,
      "Island": 2135,
      "2009": 2136,
      "Ray_": 2137,
      "ar_K": 2138,
      "Cand": 2139,
      "Ral": 2140,
      "ati": 2141,
      "Canadian": 2142,
      "100": 2143,
      "Hur": 2144,
      "Sil": 2145,
      "Ali": 2146,
      "ayan": 2147,
      "akk": 2148,
      "2013": 2149,
      "Kar": 2150,
      "set": 2151,
      "Carn": 2152,
      "ori": 2153,
      "Pya": 2154,
      "_Le": 2155,
      "sych": 2156,
      "Dan": 2157,
      "Fern": 2158,
      "after": 2159,
      "bo": 2160,
      "ke": 2161,
      "supporting": 2162,
      "ayl": 2163,
      "Prin": 2164,
      "producer": 2165,
      "ery": 2166,
      "How_to_": 2167,
      "Batman": 2168,
      "Hill": 2169,
      "Kannada": 2170,
      "Fred": 2171,
      "_and_the_": 2172,
      "George": 2173,
      "Your": 2174,
      "_2": 2175,
      "s_S": 2176,
      "Heart": 2177,
      "Telugu": 2178,
      "itz": 2179,
      "elli": 2180,
      "300": 2181,
      "ril": 2182,
      "ves": 2183,
      "ison": 2184,
      "Billy_": 2185,
      "Camer": 2186,
      "0s": 2187,
      "ful": 2188,
      "ling": 2189,
      "2021_film": 2190,
      "Go": 2191,
      "ano": 2192,
      "Francis": 2193,
      "Tak": 2194,
      "mar": 2195,
      "ankar": 2196,
      "iar": 2197,
      "ly_": 2198,
      "serial": 2199,
      "How_to": 2200,
      "features": 2201,
      "Last": 2202,
      "Rep": 2203,
      "usband": 2204,
      "Awards": 2205,
      "inter": 2206,
      "1927_film": 2207,
      "2018": 2208,
      "2011": 2209,
      "_Will": 2210,
      "1989_film": 2211,
      "Louis": 2212,
      "Rem": 2213,
      "mond": 2214,
      "ino_": 2215,
      "_Bo": 2216,
      "The_W": 2217,
      "Brian_": 2218,
      "Bit": 2219,
      "Carr": 2220,
      "s_of_the_": 2221,
      "auri": 2222,
      "Ey": 2223,
      "Nag": 2224,
      "oz": 2225,
      "ler_": 2226,
      "2007": 2227,
      "Ralph": 2228,
      "lo": 2229,
      "Alf": 2230,
      "ing_the_": 2231,
      "Barbar": 2232,
      "Dest": 2233,
      "field": 2234,
      "amily": 2235,
      "52": 2236,
      "yp": 2237,
      "inst": 2238,
      "into": 2239,
      "That": 2240,
      "Great": 2241,
      "part": 2242,
      "even": 2243,
      "s_in": 2244,
      "Carm": 2245,
      "Romance_": 2246,
      "maker": 2247,
      "aus": 2248,
      "ines": 2249,
      "ade_": 2250,
      "ave": 2251,
      "2022_film": 2252,
      "Wood": 2253,
      "2012": 2254,
      "mann": 2255,
      "Kill": 2256,
      "Sat": 2257,
      "day": 2258,
      "pr": 2259,
      "olog": 2260,
      "oot_": 2261,
      "1923_film": 2262,
      "sky": 2263,
      "Bird": 2264,
      "Hug": 2265,
      "him": 2266,
      "win": 2267,
      "enk": 2268,
      "12": 2269,
      "Jason": 2270,
      "anna": 2271,
      "Dream": 2272,
      "osed": 2273,
      "illion": 2274,
      "an_M": 2275,
      "Out": 2276,
      "2010": 2277,
      "2017": 2278,
      "ue_": 2279,
      "_Me": 2280,
      "1921_film": 2281,
      "Path": 2282,
      "Sal": 2283,
      "Sim": 2284,
      "Mag": 2285,
      "ingh": 2286,
      "2002_film": 2287,
      "e_Con": 2288,
      "aan": 2289,
      "cinem": 2290,
      "lov": 2291,
      "enter": 2292,
      "_In": 2293,
      "o_S": 2294,
      "ing_H": 2295,
      "ott_": 2296,
      "2003_film": 2297,
      "ght": 2298,
      "iev": 2299,
      "rat": 2300,
      "yam": 2301,
      "Bhar": 2302,
      "Bay": 2303,
      "Cast": 2304,
      "Gordon": 2305,
      "mi": 2306,
      "mon": 2307,
      "s_W": 2308,
      "abeth": 2309,
      "Lee": 2310,
      "ograph": 2311,
      "Bomb": 2312,
      "rong": 2313,
      "1985_film": 2314,
      "upp": 2315,
      "ents": 2316,
      "ived": 2317,
      "Rao": 2318,
      "loy": 2319,
      "pol": 2320,
      "ant_": 2321,
      "_Bh": 2322,
      "The_G": 2323,
      "Arm": 2324,
      "Mur": 2325,
      "avi": 2326,
      "iff": 2327,
      "Ver": 2328,
      "err": 2329,
      "s_B": 2330,
      "nomin": 2331,
      "ois": 2332,
      "orth": 2333,
      "At": 2334,
      "Johnson": 2335,
      "1928_film": 2336,
      "Austr": 2337,
      "uper": 2338,
      "Vinc": 2339,
      "ina_": 2340,
      "i_P": 2341,
      "_Day": 2342,
      "1998_film": 2343,
      "1922_film": 2344,
      "His": 2345,
      "Hugh": 2346,
      "ve": 2347,
      "sequel": 2348,
      "Cat": 2349,
      "eld": 2350,
      "Rough": 2351,
      "2006": 2352,
      "III": 2353,
      "atterjee": 2354,
      "Denn": 2355,
      "esc": 2356,
      "akan": 2357,
      "Blind": 2358,
      "1929_film": 2359,
      "achel": 2360,
      "gin": 2361,
      "_The_Movie": 2362,
      "jay": 2363,
      "Allen": 2364,
      "Far": 2365,
      "ka": 2366,
      "Blue_": 2367,
      "Bever": 2368,
      "bro": 2369,
      "ridge": 2370,
      "58": 2371,
      "High": 2372,
      "Pier": 2373,
      "more": 2374,
      "_Raj": 2375,
      "iew": 2376,
      "_Broth": 2377,
      "ova": 2378,
      "econd": 2379,
      "oir": 2380,
      "z_": 2381,
      "e_Cl": 2382,
      "_Mor": 2383,
      "Av": 2384,
      "Beng": 2385,
      "col": 2386,
      "Gra": 2387,
      "icol": 2388,
      "of_B": 2389,
      "Stu": 2390,
      "Bal": 2391,
      "Mah": 2392,
      "Sid": 2393,
      "ura": 2394,
      "Perfect": 2395,
      "_Z": 2396,
      "host": 2397,
      "on_M": 2398,
      "antom": 2399,
      "Queen": 2400,
      "Davis": 2401,
      "Keith": 2402,
      "Lind": 2403,
      "kar": 2404,
      "were": 2405,
      "1926_film": 2406,
      "oney_": 2407,
      "Whit": 2408,
      "Rub": 2409,
      "Romantic": 2410,
      "fiction": 2411,
      "Men": 2412,
      "Vir": 2413,
      "ington": 2414,
      "2020_film": 2415,
      "Deb": 2416,
      "1980_film": 2417,
      "Mor": 2418,
      "ecret": 2419,
      "My": 2420,
      "one_": 2421,
      "iful": 2422,
      "Eric": 2423,
      "rich": 2424,
      "_U": 2425,
      "ird": 2426,
      "John_H": 2427,
      "Kid": 2428,
      "Ra": 2429,
      "comp": 2430,
      "Part": 2431,
      "ker": 2432,
      "kins": 2433,
      "young": 2434,
      "1995_film": 2435,
      "Jones": 2436,
      "Detective_Con": 2437,
      "Detective_Conan": 2438,
      "Hay": 2439,
      "Les": 2440,
      "Prom": 2441,
      "orig": 2442,
      "along": 2443,
      "dist": 2444,
      "ado": 2445,
      "1993_film": 2446,
      "ation_": 2447,
      "House_": 2448,
      "Mac": 2449,
      "ual": 2450,
      "Phantom": 2451,
      "lav": 2452,
      "reak": 2453,
      "_Hay": 2454,
      "Batman_": 2455,
      "Bet": 2456,
      "Van": 2457,
      "gan": 2458,
      "Shir": 2459,
      "Royal": 2460,
      "character": 2461,
      "Carry_": 2462,
      "i_S": 2463,
      "ma_": 2464,
      "s_and": 2465,
      "i_Ch": 2466,
      "Princess_": 2467,
      "Cop": 2468,
      "filmmaker": 2469,
      "rece": 2470,
      "_New": 2471,
      "Sarah": 2472,
      "me": 2473,
      "animated": 2474,
      "wan": 2475,
      "apoor": 2476,
      "_El": 2477,
      "Penn": 2478,
      "Pal": 2479,
      "2000": 2480,
      "_Wil": 2481,
      "_Pl": 2482,
      "Stan": 2483,
      "1935_film": 2484,
      "Kumar": 2485,
      "forn": 2486,
      "aliforn": 2487,
      "ski": 2488,
      "2000_film": 2489,
      "Chris_": 2490,
      "Eliz": 2491,
      "Fernand": 2492,
      "ichol": 2493,
      "Fr": 2494,
      "iving": 2495,
      "1999_film": 2496,
      "es_of_": 2497,
      "a_Rao": 2498,
      "22": 2499,
      "van": 2500,
      "Tr": 2501,
      "aby": 2502,
      "ami": 2503,
      "ada_": 2504,
      "ika": 2505,
      "1936_film": 2506,
      "Beat": 2507,
      "she": 2508,
      "an_D": 2509,
      "Johnny_": 2510,
      "Lloy": 2511,
      "ula": 2512,
      "ack_": 2513,
      "Rey": 2514,
      "Tw": 2515,
      "nam": 2516,
      "Gil": 2517,
      "ge_": 2518,
      "ower_": 2519,
      "emb": 2520,
      "John_L": 2521,
      "Hong_K": 2522,
      "Cyr": 2523,
      "eed": 2524,
      "Prett": 2525,
      "orm": 2526,
      "_Boy": 2527,
      "1996_film": 2528,
      "to_the_": 2529,
      "Arch": 2530,
      "ette": 2531,
      "eel": 2532,
      "tr": 2533,
      "akt": 2534,
      "_Con": 2535,
      "_Tim": 2536,
      "1987_film": 2537,
      "Hollywood_": 2538,
      "during": 2539,
      "Acad": 2540,
      "ross": 2541,
      "_Men": 2542,
      "Boo": 2543,
      "ais": 2544,
      "mark": 2545,
      "Child": 2546,
      "2005": 2547,
      "_Don": 2548,
      "1950_film": 2549,
      "Michel": 2550,
      "Emil": 2551,
      "Death": 2552,
      "ci": 2553,
      "_We": 2554,
      "1978_film": 2555,
      "remake": 2556,
      "Barr": 2557,
      "ations": 2558,
      "49": 2559,
      "akash": 2560,
      "1930_film": 2561,
      "Hollywood": 2562,
      "Ernest": 2563,
      "premiered": 2564,
      "Mr": 2565,
      "all_": 2566,
      "Dec": 2567,
      "Jag": 2568,
      "sch": 2569,
      "rey": 2570,
      "hist": 2571,
      "ience": 2572,
      "vin": 2573,
      "wa": 2574,
      "elf": 2575,
      "um_": 2576,
      "Kenneth": 2577,
      "Crime_": 2578,
      "aylor": 2579,
      "Elizabeth": 2580,
      "ivers": 2581,
      "udu": 2582,
      "Vincent": 2583,
      "ks": 2584,
      "riv": 2585,
      "_Mur": 2586,
      "Jr": 2587,
      "Rev": 2588,
      "Night_": 2589,
      "vs": 2590,
      "wood": 2591,
      "e_A": 2592,
      "ones": 2593,
      "ico": 2594,
      "_Mag": 2595,
      "ire_": 2596,
      "1949_film": 2597,
      "perfor": 2598,
      "rest": 2599,
      "han_": 2600,
      "_Car": 2601,
      "1986_film": 2602,
      "ator": 2603,
      "Cyril": 2604,
      "Nas": 2605,
      "Ser": 2606,
      "an_B": 2607,
      "urs": 2608,
      "i_G": 2609,
      "Art": 2610,
      "1917_film": 2611,
      "Prince_": 2612,
      "Han": 2613,
      "ther": 2614,
      "North": 2615,
      "1918_film": 2616,
      "glas": 2617,
      "Japanese": 2618,
      "Californ": 2619,
      "Gab": 2620,
      "Im": 2621,
      "her_": 2622,
      "jo": 2623,
      "now": 2624,
      "ana_": 2625,
      "_Dav": 2626,
      "ugust": 2627,
      "Nick": 2628,
      "production": 2629,
      "Andr": 2630,
      "including": 2631,
      "in_Sh": 2632,
      "The_D": 2633,
      "2001_film": 2634,
      "song": 2635,
      "1934_film": 2636,
      "Little_M": 2637,
      "iograph": 2638,
      "anner": 2639,
      "Williams": 2640,
      "received": 2641,
      "Is_": 2642,
      "Vin": 2643,
      "il_": 2644,
      "it_": 2645,
      "qui": 2646,
      "Julie_": 2647,
      "Hor": 2648,
      "ze": 2649,
      "Jonath": 2650,
      "s_T": 2651,
      "els": 2652,
      "ings_": 2653,
      "1988_film": 2654,
      "_Love": 2655,
      "Sav": 2656,
      "uzz": 2657,
      "Honeym": 2658,
      "Kat": 2659,
      "anda": 2660,
      "Carry_On": 2661,
      "Academy": 2662,
      "shot": 2663,
      "Ir": 2664,
      "Pul": 2665,
      "cont": 2666,
      "care": 2667,
      "Project": 2668,
      "rig": 2669,
      "City": 2670,
      "Ka": 2671,
      "alu": 2672,
      "ular": 2673,
      "ider": 2674,
      "ide_": 2675,
      "Joy": 2676,
      "Black_": 2677,
      "awa": 2678,
      "Leon": 2679,
      "Doroth": 2680,
      "Dennis": 2681,
      "Puth": 2682,
      "Ind": 2683,
      "most": 2684,
      "y_of_": 2685,
      "between": 2686,
      "ata": 2687,
      "_Fran": 2688,
      "Pres": 2689,
      "dy": 2690,
      "akes": 2691,
      "Fox": 2692,
      "ats": 2693,
      "America": 2694,
      "1977_film": 2695,
      "1947_film": 2696,
      "_Your": 2697,
      "Romeo_": 2698,
      "distribut": 2699,
      "stein": 2700,
      "leg": 2701,
      "ouse": 2702,
      "och": 2703,
      "starred": 2704,
      "ali_": 2705,
      "1920_film": 2706,
      "_For": 2707,
      "_Ag": 2708,
      "1974_film": 2709,
      "played": 2710,
      "ales": 2711,
      "irk": 2712,
      "Brand": 2713,
      "Brav": 2714,
      "Golden": 2715,
      "Ma": 2716,
      "la_": 2717,
      "vers": 2718,
      "way_": 2719,
      "ories": 2720,
      "agon": 2721,
      "akrab": 2722,
      "que": 2723,
      "Gill": 2724,
      "led": 2725,
      "Christmas": 2726,
      "Bur": 2727,
      "_in_the_": 2728,
      "car": 2729,
      "vest": 2730,
      "rain": 2731,
      "Bed": 2732,
      "die": 2733,
      "thew": 2734,
      "Studi": 2735,
      "an_S": 2736,
      "aly": 2737,
      "Rose": 2738,
      "Dawn": 2739,
      "Pay": 2740,
      "Smith": 2741,
      "illa": 2742,
      "Hunt": 2743,
      "ing_P": 2744,
      "o_C": 2745,
      "ions": 2746,
      "Chand": 2747,
      "_Ab": 2748,
      "Lee_": 2749,
      "ters": 2750,
      "Production": 2751,
      "ic_": 2752,
      "aya": 2753,
      "iver": 2754,
      "endra": 2755,
      "Behind_": 2756,
      "Hung": 2757,
      "13": 2758,
      "Jung": 2759,
      "Mont": 2760,
      "Ry": 2761,
      "ki": 2762,
      "Thre": 2763,
      "2004": 2764,
      "_Ros": 2765,
      "ainb": 2766,
      "Deep": 2767,
      "Crime_film": 2768,
      "lyn": 2769,
      "enge": 2770,
      "Moon": 2771,
      "ideo": 2772,
      "Beautiful": 2773,
      "Bett": 2774,
      "Patt": 2775,
      "less_": 2776,
      "time": 2777,
      "through": 2778,
      "Mary_": 2779,
      "1972_film": 2780,
      "Pass": 2781,
      "po": 2782,
      "adow": 2783,
      "cher": 2784,
      "ody": 2785,
      "o_F": 2786,
      "2002": 2787,
      "score": 2788,
      "Donn": 2789,
      "_Love_": 2790,
      "adis": 2791,
      "Edward": 2792,
      "Flor": 2793,
      "ić": 2794,
      "second": 2795,
      "elle": 2796,
      "Holiday_": 2797,
      "Beverl": 2798,
      "Bor": 2799,
      "Hell": 2800,
      "Anim": 2801,
      "abh": 2802,
      "ja": 2803,
      "ward_": 2804,
      "ics": 2805,
      "Thil": 2806,
      "The_B": 2807,
      "_Gar": 2808,
      "Bride_": 2809,
      "_Ex": 2810,
      "_Evil": 2811,
      "_White_": 2812,
      "Douglas": 2813,
      "61": 2814,
      "ien": 2815,
      "musician": 2816,
      "Luis": 2817,
      "Sa": 2818,
      "ble_": 2819,
      "boy": 2820,
      "vo": 2821,
      "ship": 2822,
      "abb": 2823,
      "Journey_": 2824,
      "ness": 2825,
      "ica": 2826,
      "ofess": 2827,
      "oop": 2828,
      "orrow": 2829,
      "iographical": 2830,
      "i_B": 2831,
      "rad": 2832,
      "ven": 2833,
      "_Mac": 2834,
      "The_St": 2835,
      "ón": 2836,
      "aru": 2837,
      "Marsh": 2838,
      "Helen": 2839,
      "career": 2840,
      "Green": 2841,
      "th_": 2842,
      "adventure": 2843,
      "aster": 2844,
      "_The_F": 2845,
      "rishna": 2846,
      "5700": 2847,
      "Destin": 2848,
      "Thilakan": 2849,
      "Pen": 2850,
      "Trav": 2851,
      "rec": 2852,
      "Caf": 2853,
      "olph": 2854,
      "eman": 2855,
      "_Fl": 2856,
      "1984_film": 2857,
      "Anderson": 2858,
      "Jean_": 2859,
      "Return_of_the_": 2860,
      "Border_": 2861,
      "agh": 2862,
      "ella": 2863,
      "able": 2864,
      "Ja": 2865,
      "Lyn": 2866,
      "Wall": 2867,
      "ious": 2868,
      "y_R": 2869,
      "1982_film": 2870,
      "Naz": 2871,
      "Way": 2872,
      "ola": 2873,
      "Blond": 2874,
      "Dam": 2875,
      "Happ": 2876,
      "Hors": 2877,
      "Na": 2878,
      "o_L": 2879,
      "_Dev": 2880,
      "1990_film": 2881,
      "annah": 2882,
      "woman": 2883,
      "anish": 2884,
      "Bear": 2885,
      "utch": 2886,
      "ode": 2887,
      "Holiday": 2888,
      "un_": 2889,
      "_Gu": 2890,
      "ief": 2891,
      "_Story": 2892,
      "from_the_": 2893,
      "orld_": 2894,
      "Beauty_": 2895,
      "Mas": 2896,
      "Sm": 2897,
      "riff": 2898,
      "Nav": 2899,
      "der_": 2900,
      "chi": 2901,
      "aki": 2902,
      "Blaz": 2903,
      "ump": 2904,
      "Amb": 2905,
      "Pride_": 2906,
      "6000": 2907,
      "Nicol": 2908,
      "lis": 2909,
      "ya_": 2910,
      "Sher": 2911,
      "_Ram": 2912,
      "aine": 2913,
      "_Night": 2914,
      "1975_film": 2915,
      "Claud": 2916,
      "Khan": 2917,
      "La": 2918,
      "Me": 2919,
      "earl": 2920,
      "anam": 2921,
      "aven": 2922,
      "Mary": 2923,
      "inds": 2924,
      "s_G": 2925,
      "_West": 2926,
      "Hold_": 2927,
      "ita_": 2928,
      "09": 2929,
      "Mir": 2930,
      "Po": 2931,
      "riz": 2932,
      "asc": 2933,
      "States": 2934,
      "Host": 2935,
      "Ish": 2936,
      "aar": 2937,
      "omer": 2938,
      "s_D": 2939,
      "_But": 2940,
      "et_M": 2941,
      "o_G": 2942,
      "Beau": 2943,
      "1994_film": 2944,
      "1983_film": 2945,
      "1941_film": 2946,
      "1940_film": 2947,
      "House": 2948,
      "So": 2949,
      "orty": 2950,
      "Hold": 2951,
      "Kell": 2952,
      "des": 2953,
      "ame_": 2954,
      "Nar": 2955,
      "born": 2956,
      "enz": 2957,
      "1919": 2958,
      "Beach": 2959,
      "April": 2960,
      "distributed": 2961,
      "Bon": 2962,
      "Kam": 2963,
      "Ru": 2964,
      "dom": 2965,
      "_Per": 2966,
      "upta": 2967,
      "Quick": 2968,
      "Hall": 2969,
      "Sol": 2970,
      "lim": 2971,
      "science": 2972,
      "adaptation": 2973,
      "_Al": 2974,
      "gro": 2975,
      "side": 2976,
      "o_D": 2977,
      "_Har": 2978,
      "2001": 2979,
      "Inn": 2980,
      "while": 2981,
      "plot": 2982,
      "ght_": 2983,
      "Vijay": 2984,
      "appeared": 2985,
      "Life": 2986,
      "ired": 2987,
      "pres": 2988,
      "re_": 2989,
      "ras": 2990,
      "tim": 2991,
      "three": 2992,
      "ition": 2993,
      "_Ber": 2994,
      "ummer": 2995,
      "_Dr": 2996,
      "_Tw": 2997,
      "1973_film": 2998,
      "Donald": 2999,
      "Home": 3000,
      "Catch": 3001,
      "Dann": 3002,
      "eff": 3003,
      "Russell": 3004,
      "Jennif": 3005,
      "Ha": 3006,
      "Rachel": 3007,
      "Wat": 3008,
      "Yam": 3009,
      "ux": 3010,
      "and_S": 3011,
      "_Wom": 3012,
      "Vis": 3013,
      "Light": 3014,
      "four": 3015,
      "i_H": 3016,
      "ella_": 3017,
      "Person": 3018,
      "Frank_Mc": 3019,
      "Jacqu": 3020,
      "Christopher_": 3021,
      "Spanish": 3022,
      "friend": 3023,
      "ors_": 3024,
      "usin": 3025,
      "oud": 3026,
      "_Night_": 3027,
      "Samur": 3028,
      "Films": 3029,
      "The_Last": 3030,
      "eptember": 3031,
      "48": 3032,
      "Son": 3033,
      "1993": 3034,
      "Fantasy": 3035,
      "Kay_": 3036,
      "Radh": 3037,
      "ha_": 3038,
      "arren": 3039,
      "1999": 3040,
      "1991_film": 3041,
      "1952_film": 3042,
      "1954_film": 3043,
      "1948_film": 3044,
      "Brad": 3045,
      "Wild": 3046,
      "we": 3047,
      "Adventure": 3048,
      "Blue": 3049,
      "Ven": 3050,
      "del": 3051,
      "ih": 3052,
      "ty": 3053,
      "o_P": 3054,
      "irc": 3055,
      "Beg": 3056,
      "Univers": 3057,
      "_Blood": 3058,
      "Case_Cl": 3059,
      "BC": 3060,
      "Oct": 3061,
      "banner": 3062,
      "rew": 3063,
      "Howard": 3064,
      "histor": 3065,
      "Dick": 3066,
      "Hal": 3067,
      "Li": 3068,
      "Psych": 3069,
      "With": 3070,
      "tain": 3071,
      "adway": 3072,
      "Josh": 3073,
      "_II": 3074,
      "Nam": 3075,
      "ida": 3076,
      "Pras": 3077,
      "2021": 3078,
      "August": 3079,
      "Life_": 3080,
      "_Ro": 3081,
      "__1": 3082,
      "line": 3083,
      "_City_": 3084,
      "March": 3085,
      "1932_film": 3086,
      "Terr": 3087,
      "Nichol": 3088,
      "sur": 3089,
      "Ay": 3090,
      "oon_": 3091,
      "oland": 3092,
      "_William": 3093,
      "Nik": 3094,
      "star": 3095,
      "amm": 3096,
      "elv": 3097,
      "avan": 3098,
      "Priy": 3099,
      "eerudd": 3100,
      "15": 3101,
      "kumar": 3102,
      "aga": 3103,
      "_War": 3104,
      "aster_": 3105,
      "_On": 3106,
      "ouse_": 3107,
      "y_Hill": 3108,
      "Case_Closed": 3109,
      "Co": 3110,
      "Music": 3111,
      "Nov": 3112,
      "later": 3113,
      "Star": 3114,
      "Clark": 3115,
      "Berlin": 3116,
      "Naseerudd": 3117,
      "Rand": 3118,
      "September": 3119,
      "Tro": 3120,
      "Ur": 3121,
      "ober": 3122,
      "arro": 3123,
      "_Sa": 3124,
      "_Mock": 3125,
      "acc": 3126,
      "o_K": 3127,
      "ope": 3128,
      "Fantasy_film": 3129,
      "Bad": 3130,
      "Lor": 3131,
      "vi": 3132,
      "Quest": 3133,
      "Cinem": 3134,
      "ima": 3135,
      "_Ben": 3136,
      "_Her": 3137,
      "Bew": 3138,
      "ainst": 3139,
      "inning": 3140,
      "Cyril_J": 3141,
      "_Mockridge": 3142,
      "30": 3143,
      "epend": 3144,
      "na": 3145,
      "ness_": 3146,
      "thy": 3147,
      "The_R": 3148,
      "Big_B": 3149,
      "Enter": 3150,
      "Studios": 3151,
      "Public": 3152,
      "ll": 3153,
      "world": 3154,
      "iro": 3155,
      "1989": 3156,
      "ecial": 3157,
      "Craig": 3158,
      "Ble": 3159,
      "Hy": 3160,
      "Lost": 3161,
      "Nath": 3162,
      "_de_": 3163,
      "ains": 3164,
      "ast_": 3165,
      "_Ne": 3166,
      "1937_film": 3167,
      "erner": 3168,
      "_Jul": 3169,
      "Play": 3170,
      "Lewis": 3171,
      "get": 3172,
      "640": 3173,
      "Harr": 3174,
      "ary_": 3175,
      "ural": 3176,
      "1946_film": 3177,
      "1916_film": 3178,
      "2003": 3179,
      "ike": 3180,
      "Bol": 3181,
      "sound": 3182,
      "_Bur": 3183,
      "Joan_": 3184,
      "for_": 3185,
      "e_Mc": 3186,
      "Roger_": 3187,
      "Telugu_": 3188,
      "itha": 3189,
      "uccess": 3190,
      "ken": 3191,
      "oes": 3192,
      "par": 3193,
      "pos": 3194,
      "singer": 3195,
      "ver_": 3196,
      "video": 3197,
      "_Russ": 3198,
      "_Nag": 3199,
      "ear_": 3200,
      "English_language": 3201,
      "Nature_": 3202,
      "Lew_Land": 3203,
      "in_Shah": 3204,
      "Naseeruddin_Shah": 3205,
      "Lew_Landers": 3206,
      "64": 3207,
      "Ham": 3208,
      "Horror": 3209,
      "str": 3210,
      "1998": 3211,
      "900": 3212,
      "Ek": 3213,
      "Larry_": 3214,
      "Madh": 3215,
      "_director": 3216,
      "family": 3217,
      "ple_": 3218,
      "y_P": 3219,
      "_Smith": 3220,
      "acy": 3221,
      "Days_of_": 3222,
      "Kal": 3223,
      "trans": 3224,
      "elyn": 3225,
      "Kathle": 3226,
      "nominated": 3227,
      "box": 3228,
      "oe": 3229,
      "s_F": 3230,
      "_Me_": 3231,
      "1967_film": 3232,
      "Matthew": 3233,
      "Derek": 3234,
      "Stuart_": 3235,
      "01": 3236,
      "17": 3237,
      "ys": 3238,
      "ilian": 3239,
      "directorial": 3240,
      "ards": 3241,
      "ister": 3242,
      "Little": 3243,
      "Parker": 3244,
      "Bry": 3245,
      "Lar": 3246,
      "Pleas": 3247,
      "nold": 3248,
      "por": 3249,
      "tell": 3250,
      "worth": 3251,
      "en_H": 3252,
      "elle_": 3253,
      "ck_": 3254,
      "Alan_": 3255,
      "1992_film": 3256,
      "head": 3257,
      "Krist": 3258,
      "ple": 3259,
      "ros": 3260,
      "1995": 3261,
      "akraborty": 3262,
      "fran": 3263,
      "teen": 3264,
      "ert_": 3265,
      "e_to_": 3266,
      "ism": 3267,
      "_Mid": 3268,
      "Edward_": 3269,
      "Captain_": 3270,
      "Run": 3271,
      "Sk": 3272,
      "1991": 3273,
      "1992": 3274,
      "Prairi": 3275,
      "Iran": 3276,
      "Pav": 3277,
      "ba": 3278,
      "Chatterjee": 3279,
      "Big_T": 3280,
      "Honor": 3281,
      "Christopher": 3282,
      "People_": 3283,
      "California_": 3284,
      "Sall": 3285,
      "da": 3286,
      "ues": 3287,
      "Conn": 3288,
      "Fel": 3289,
      "sever": 3290,
      "right": 3291,
      "Desper": 3292,
      "The_Man_": 3293,
      "Kong": 3294,
      "hol": 3295,
      "ades": 3296,
      "egan": 3297,
      "5100": 3298,
      "Tal": 3299,
      "ho": 3300,
      "mond_": 3301,
      "success": 3302,
      "year": 3303,
      "ase": 3304,
      "1997": 3305,
      "1938_film": 3306,
      "1933_film": 3307,
      "ts": 3308,
      "2022": 3309,
      "portray": 3310,
      "Bitter": 3311,
      "Aar": 3312,
      "Dire": 3313,
      "Rel": 3314,
      "ore_": 3315,
      "_Bell": 3316,
      "ivas": 3317,
      "Black_M": 3318,
      "1955_film": 3319,
      "ney_": 3320,
      "5580": 3321,
      "ring": 3322,
      "erland": 3323,
      "onda": 3324,
      "original": 3325,
      "National": 3326,
      "Tar": 3327,
      "von": 3328,
      "aka": 3329,
      "1981_film": 3330,
      "1953_film": 3331,
      "Arg": 3332,
      "1960_film": 3333,
      "other_": 3334,
      "Battle": 3335,
      "Brahm": 3336,
      "Beverly_Hill": 3337,
      "bur": 3338,
      "Under": 3339,
      "Glenn": 3340,
      "Ass": 3341,
      "Gun": 3342,
      "One": 3343,
      "aff": 3344,
      "burn": 3345,
      "use": 3346,
      "ille_": 3347,
      "iver_": 3348,
      "_Dog": 3349,
      "ific": 3350,
      "where": 3351,
      "Robin_H": 3352,
      "follow": 3353,
      "Woman_": 3354,
      "pre": 3355,
      "Chin": 3356,
      "Ross": 3357,
      "Philipp": 3358,
      "Mex": 3359,
      "law": 3360,
      "erv": 3361,
      "a_Sh": 3362,
      "for_the_": 3363,
      "Prim": 3364,
      "Wild_": 3365,
      "several": 3366,
      "fer": 3367,
      "this": 3368,
      "ira": 3369,
      "Dar": 3370,
      "Hu": 3371,
      "Power_": 3372,
      "been": 3373,
      "ooth": 3374,
      "form": 3375,
      "ath_": 3376,
      "_God": 3377,
      "_Star": 3378,
      "End": 3379,
      "Dead_": 3380,
      "_Black": 3381,
      "After": 3382,
      "Archainb": 3383,
      "October": 3384,
      "Archainbaud": 3385,
      "02": 3386,
      "God": 3387,
      "back": 3388,
      "die_": 3389,
      "ass_": 3390,
      "_Mart": 3391,
      "Chan": 3392,
      "Joe": 3393,
      "Bewar": 3394,
      "Story": 3395,
      "_Is_": 3396,
      "_You": 3397,
      "Robinson": 3398,
      "Jerem": 3399,
      "Reb": 3400,
      "jun": 3401,
      "ted": 3402,
      "za": 3403,
      "2020": 3404,
      "Margar": 3405,
      "Journey": 3406,
      "Op": 3407,
      "Wolf": 3408,
      "red_": 3409,
      "alie_": 3410,
      "ady_": 3411,
      "_Warri": 3412,
      "_Com": 3413,
      "Adri": 3414,
      "American_TV_series": 3415,
      "theatre": 3416,
      "Fred_": 3417,
      "Lloyd_": 3418,
      "Jacques": 3419,
      "Nature_documentary": 3420,
      "Road": 3421,
      "Land": 3422,
      "riel": 3423,
      "1988": 3424,
      "black": 3425,
      "eer_": 3426,
      "key": 3427,
      "ral": 3428,
      "wford": 3429,
      "years": 3430,
      "fore": 3431,
      "Street": 3432,
      "_Rid": 3433,
      "1968_film": 3434,
      "ield_": 3435,
      "Garc": 3436,
      "Dis": 3437,
      "child": 3438,
      "ots": 3439,
      "1996": 3440,
      "iamond": 3441,
      "ecre": 3442,
      "Hir": 3443,
      "_Mon": 3444,
      "Anj": 3445,
      "Alber": 3446,
      "1939_film": 3447,
      "1965_film": 3448,
      "Prakash": 3449,
      "Herbert_": 3450,
      "5520": 3451,
      "stery": 3452,
      "arried": 3453,
      "25": 3454,
      "_American": 3455,
      "direct": 3456,
      "ets": 3457,
      "_Wit": 3458,
      "_Gre": 3459,
      "Black_W": 3460,
      "ection": 3461,
      "People": 3462,
      "Hugo_": 3463,
      "1919_film": 3464,
      "crit": 3465,
      "unch": 3466,
      "1985": 3467,
      "Lau": 3468,
      "night_": 3469,
      "ing_S": 3470,
      "an_P": 3471,
      "Eng": 3472,
      "George_Archainbaud": 3473,
      "Pupp": 3474,
      "Rav": 3475,
      "ava": 3476,
      "Anand": 3477,
      "ubb": 3478,
      "Rogers": 3479,
      "Lesl": 3480,
      "pri": 3481,
      "i_L": 3482,
      "_Co": 3483,
      "ester": 3484,
      "_Strang": 3485,
      "ondon": 3486,
      "_Is": 3487,
      "Beyond": 3488,
      "Luck": 3489,
      "Our": 3490,
      "sub": 3491,
      "elson": 3492,
      "raj": 3493,
      "Evil": 3494,
      "Australian": 3495,
      "Barry_": 3496,
      "Rick": 3497,
      "Vik": 3498,
      "yd": 3499,
      "itra_": 3500,
      "_My_": 3501,
      "iger": 3502,
      "1987": 3503,
      "ecut": 3504,
      "14": 3505,
      "Cad": 3506,
      "Kore": 3507,
      "Tor": 3508,
      "Tru": 3509,
      "York": 3510,
      "around": 3511,
      "Bhe": 3512,
      "comedi": 3513,
      "04": 3514,
      "Man_": 3515,
      "ait": 3516,
      "ena": 3517,
      "asi": 3518,
      "eder": 3519,
      "_Sar": 3520,
      "they": 3521,
      "ever_": 3522,
      "_Cr": 3523,
      "_Shar": 3524,
      "Pyar": 3525,
      "ecret_": 3526,
      "Tri": 3527,
      "Ing": 3528,
      "ollyw": 3529,
      "June": 3530,
      "Off": 3531,
      "Sri": 3532,
      "eath": 3533,
      "hel": 3534,
      "mart": 3535,
      "aser": 3536,
      "amar": 3537,
      "s_the_": 3538,
      "ang_": 3539,
      "_Mont": 3540,
      "aku": 3541,
      "_Hol": 3542,
      "_Pe": 3543,
      "_Pre": 3544,
      "Show": 3545,
      "Grand": 3546,
      "theatric": 3547,
      "December": 3548,
      "03": 3549,
      "Husband": 3550,
      "Rest": 3551,
      "Sund": 3552,
      "rock": 3553,
      "Leg": 3554,
      "ips": 3555,
      "Valent": 3556,
      "Bengali": 3557,
      "5640": 3558,
      "Rug": 3559,
      "ten": 3560,
      "ille": 3561,
      "ove": 3562,
      "_Pro": 3563,
      "1958_film": 3564,
      "1959_film": 3565,
      "_Jack": 3566,
      "Queen_of_the_": 3567,
      "Book": 3568,
      "Mim": 3569,
      "Sank": 3570,
      "Yu": 3571,
      "olk": 3572,
      "osc": 3573,
      "aye": 3574,
      "owell": 3575,
      "1986": 3576,
      "uke": 3577,
      "liott": 3578,
      "6300": 3579,
      "Bast": 3580,
      "Pud": 3581,
      "fantasy": 3582,
      "mir": 3583,
      "oin": 3584,
      "onz": 3585,
      "eson": 3586,
      "ional": 3587,
      "able_": 3588,
      "1969_film": 3589,
      "phy": 3590,
      "before": 3591,
      "ative": 3592,
      "agn": 3593,
      "rote": 3594,
      "1990": 3595,
      "Sanj": 3596,
      "edding": 3597,
      "Produc": 3598,
      "Sur": 3599,
      "ud_": 3600,
      "film_series": 3601,
      "i_T": 3602,
      "Maria_": 3603,
      "awk": 3604,
      "1915_film": 3605,
      "Human_": 3606,
      "Virgin": 3607,
      "pop": 3608,
      "anti": 3609,
      "coming": 3610,
      "rican": 3611,
      "Productions": 3612,
      "67": 3613,
      "Tur": 3614,
      "_Kumar": 3615,
      "Walk": 3616,
      "Birth": 3617,
      "_Juliet": 3618,
      "Lis": 3619,
      "iya": 3620,
      "anders": 3621,
      "olan": 3622,
      "leton": 3623,
      "ukh": 3624,
      "ography": 3625,
      "akshmi": 3626,
      "performan": 3627,
      "05": 3628,
      "360": 3629,
      "Din": 3630,
      "pect": 3631,
      "va": 3632,
      "van_": 3633,
      "wrote": 3634,
      "ing_C": 3635,
      "ora": 3636,
      "_Woman": 3637,
      "top": 3638,
      "Bright_": 3639,
      "Under_": 3640,
      "Rose_": 3641,
      "Barb": 3642,
      "Up_": 3643,
      "Feb": 3644,
      "Meg": 3645,
      "iw": 3646,
      "new": 3647,
      "yer": 3648,
      "arrell": 3649,
      "ffair": 3650,
      "Desert": 3651,
      "tainment": 3652,
      "De_": 3653,
      "Hem": 3654,
      "Push": 3655,
      "Vl": 3656,
      "ji": 3657,
      "rice_": 3658,
      "at_the_": 3659,
      "Behind_the_": 3660,
      "24": 3661,
      "isod": 3662,
      "aman": 3663,
      "angal": 3664,
      "evi": 3665,
      "ompson": 3666,
      "urner": 3667,
      "Mount": 3668,
      "Old": 3669,
      "Promis": 3670,
      "Sl": 3671,
      "men": 3672,
      "arm": 3673,
      "ipp": 3674,
      "Desert_": 3675,
      "Alexand": 3676,
      "Punch": 3677,
      "Argent": 3678,
      "16": 3679,
      "cent": 3680,
      "weet": 3681,
      "andit": 3682,
      "oto": 3683,
      "ukher": 3684,
      "Febru": 3685,
      "45": 3686,
      "erman": 3687,
      "ole": 3688,
      "_Hill": 3689,
      "arkar": 3690,
      "_Or": 3691,
      "Barn": 3692,
      "_York": 3693,
      "iya_": 3694,
      "Santh": 3695,
      "Santa_": 3696,
      "5760": 3697,
      "Pyaar_K": 3698,
      "5280": 3699,
      "Nicholas": 3700,
      "_American_film": 3701,
      "Ow": 3702,
      "jam": 3703,
      "octor": 3704,
      "ayam": 3705,
      "Earth": 3706,
      "Ric": 3707,
      "bell": 3708,
      "girl": 3709,
      "such": 3710,
      "u_M": 3711,
      "isc": 3712,
      "_Sk": 3713,
      "lett": 3714,
      "_Bar": 3715,
      "owan": 3716,
      "_Ter": 3717,
      "_Gl": 3718,
      "gend_": 3719,
      "ashi": 3720,
      "George_S": 3721,
      "Dead_Man": 3722,
      "White": 3723,
      "Scott_": 3724,
      "office": 3725,
      "Women_": 3726,
      "Comp": 3727,
      "father": 3728,
      "go": 3729,
      "yle": 3730,
      "ato": 3731,
      "February": 3732,
      "Bonn": 3733,
      "bec": 3734,
      "gram": 3735,
      "dies": 3736,
      "ela": 3737,
      "chise": 3738,
      "uman": 3739,
      "ants": 3740,
      "Black_S": 3741,
      "audi": 3742,
      "ers_of_the_": 3743,
      "Charles_B": 3744,
      "historical": 3745,
      "50": 3746,
      "Bom": 3747,
      "Myr": 3748,
      "Rul": 3749,
      "ames": 3750,
      "Henry": 3751,
      "\".": 3752,
      "21": 3753,
      "340": 3754,
      "Hunter": 3755,
      "Van_": 3756,
      "eal": 3757,
      "hill": 3758,
      "uary": 3759,
      "unk": 3760,
      "ange": 3761,
      "_Lo": 3762,
      "_Rich": 3763,
      "Baref": 3764,
      "Judy_": 3765,
      "5820": 3766,
      "Min": 3767,
      "Nanc": 3768,
      "ban": 3769,
      "self": 3770,
      "thers": 3771,
      "isch": 3772,
      "leep": 3773,
      "heim": 3774,
      "cinema": 3775,
      "iews": 3776,
      "riffith": 3777,
      "franchise": 3778,
      "Act": 3779,
      "last": 3780,
      "_Ash": 3781,
      "ummer_": 3782,
      "arajan": 3783,
      "70": 3784,
      "Di": 3785,
      "Ele": 3786,
      "Gro": 3787,
      "olves": 3788,
      "utter": 3789,
      "Braz": 3790,
      "240": 3791,
      "nine": 3792,
      "ini_": 3793,
      "ands": 3794,
      "o_N": 3795,
      "Beth": 3796,
      "1978": 3797,
      "1956_film": 3798,
      "ton_": 3799,
      "Curt": 3800,
      "Kent": 3801,
      "real": 3802,
      "ante": 3803,
      "oph": 3804,
      "Christian": 3805,
      "July": 3806,
      "Evelyn": 3807,
      "André": 3808,
      "Karl": 3809,
      "_with": 3810,
      "du": 3811,
      "ila": 3812,
      "_Be_": 3813,
      "The_P": 3814,
      "owe": 3815,
      "_Hom": 3816,
      "John_W": 3817,
      "Robot_": 3818,
      "Juli": 3819,
      "_Beaut": 3820,
      "adapted": 3821,
      "Marshall": 3822,
      "List": 3823,
      "ges": 3824,
      "them": 3825,
      "endez": 3826,
      "Plan": 3827,
      "Resident": 3828,
      "cinemat": 3829,
      "King_": 3830,
      "My_": 3831,
      "les_": 3832,
      "ena_": 3833,
      "oviet": 3834,
      "_Green": 3835,
      "ociet": 3836,
      "Heart_": 3837,
      "When": 3838,
      "Patric": 3839,
      "ville": 3840,
      "_Babbar": 3841,
      "Barbara_": 3842,
      "Romantic_Warri": 3843,
      "Margaret": 3844,
      "Kaz": 3845,
      "Sin": 3846,
      "Syl": 3847,
      "ball": 3848,
      "book": 3849,
      "gg": 3850,
      "ago": 3851,
      "arty": 3852,
      "ists": 3853,
      "Alexander": 3854,
      "Ranj": 3855,
      "ne_": 3856,
      "reg": 3857,
      "a_de_": 3858,
      "agg": 3859,
      "ley_M": 3860,
      "ulu": 3861,
      "_Khan": 3862,
      "ahl": 3863,
      "1984": 3864,
      "5220": 3865,
      "27": 3866,
      "Sing": 3867,
      "Yuk": 3868,
      "Chick": 3869,
      "Block": 3870,
      "Texas": 3871,
      "Steven": 3872,
      "credit": 3873,
      "ependent": 3874,
      "Entertainment": 3875,
      "Be_": 3876,
      "Cag": 3877,
      "It_": 3878,
      "Ruth": 3879,
      "break": 3880,
      "cons": 3881,
      "fe": 3882,
      "high": 3883,
      "ores": 3884,
      "_Can": 3885,
      "John_B": 3886,
      "ah_": 3887,
      "1962_film": 3888,
      "Brend": 3889,
      "Brown": 3890,
      "Phil": 3891,
      "_Blood_": 3892,
      "Call_of_the_": 3893,
      "January": 3894,
      "Warner": 3895,
      "Simon": 3896,
      "_David": 3897,
      "Telugu_language": 3898,
      "Miss": 3899,
      "zi": 3900,
      "show": 3901,
      "Marj": 3902,
      "Rocket": 3903,
      "love": 3904,
      "transl": 3905,
      "Il": 3906,
      "Pa": 3907,
      "Rag": 3908,
      "Sub": 3909,
      "adb": 3910,
      "my_": 3911,
      "wick": 3912,
      "ing_B": 3913,
      "_Sim": 3914,
      "Raj_Babbar": 3915,
      "Mohan": 3916,
      "Agn": 3917,
      "160": 3918,
      "Cre": 3919,
      "Dal": 3920,
      "Ng": 3921,
      "Sab": 3922,
      "Sky": 3923,
      "ft": 3924,
      "num": 3925,
      "only": 3926,
      "ital": 3927,
      "Bhoom": 3928,
      "urns": 3929,
      "Scar": 3930,
      "Ted": 3931,
      "day_": 3932,
      "gie_": 3933,
      "film_director": 3934,
      "an_N": 3935,
      "Blon": 3936,
      "_Del": 3937,
      "Albert": 3938,
      "Inter": 3939,
      "ike_": 3940,
      "ocial": 3941,
      "_Jr": 3942,
      "Billy": 3943,
      "edish": 3944,
      "_Part_": 3945,
      "5460": 3946,
      "_Adventure": 3947,
      "mp": 3948,
      "psych": 3949,
      "yc": 3950,
      "190": 3951,
      "abel": 3952,
      "1983": 3953,
      "adise": 3954,
      "playing": 3955,
      "Roberts": 3956,
      "November": 3957,
      "Hood": 3958,
      "Living": 3959,
      "Sap": 3960,
      "final": 3961,
      "ier_": 3962,
      "ko": 3963,
      "in_M": 3964,
      "orah": 3965,
      "_Sol": 3966,
      "_Paul": 3967,
      "Dean_": 3968,
      "1979_film": 3969,
      "1966_film": 3970,
      "_Young": 3971,
      "Brave_": 3972,
      "Fire": 3973,
      "Fonda": 3974,
      "rand": 3975,
      "ene": 3976,
      "Shadow": 3977,
      "Honeymoon": 3978,
      "Bil": 3979,
      "East": 3980,
      "Out_": 3981,
      "Wid": 3982,
      "blem": 3983,
      "amy": 3984,
      "a_A": 3985,
      "_Borg": 3986,
      "irac": 3987,
      "ika_": 3988,
      "organ": 3989,
      "1968": 3990,
      "Franç": 3991,
      "Charlie_": 3992,
      "Jackson": 3993,
      "Juliet": 3994,
      "ould": 3995,
      "Helm": 3996,
      "Hong_Kong": 3997,
      "Hong_Kong_": 3998,
      "Jonathan_": 3999,
      "_Witney": 4000,
      "Cent": 4001,
      "Mauri": 4002,
      "Pu": 4003,
      "enberg": 4004,
      "adu": 4005,
      "1982": 4006,
      "Quiet": 4007,
      "Lawren": 4008,
      "Soum": 4009,
      "Benn": 4010,
      "Gang": 4011,
      "Roland": 4012,
      "Sel": 4013,
      "Viv": 4014,
      "yon": 4015,
      "ari_": 4016,
      "alv": 4017,
      "a_St": 4018,
      "_Mo": 4019,
      "_Mich": 4020,
      "Anup": 4021,
      "_Rom": 4022,
      "_Ap": 4023,
      "Legend_": 4024,
      "Howard_": 4025,
      "Taylor": 4026,
      "Ug": 4027,
      "fin": 4028,
      "mov": 4029,
      "vis": 4030,
      "ican": 4031,
      "roub": 4032,
      "ute": 4033,
      "Bhai": 4034,
      "unny": 4035,
      "Bharath": 4036,
      "ukherjee": 4037,
      "Om": 4038,
      "Pep": 4039,
      "Rowd": 4040,
      "Soviet": 4041,
      "field_": 4042,
      "oo_": 4043,
      "rud": 4044,
      "iment": 4045,
      "ula_": 4046,
      "Marie_": 4047,
      "ople": 4048,
      "_No": 4049,
      "1970_film": 4050,
      "Ell": 4051,
      "Robot": 4052,
      "_McG": 4053,
      "_Space": 4054,
      "Johnny": 4055,
      "Jerry_": 4056,
      "5880": 4057,
      "Aaron": 4058,
      "Marjor": 4059,
      "une": 4060,
      "Round": 4061,
      "aves": 4062,
      "Joann": 4063,
      "Club": 4064,
      "being": 4065,
      "Bhagy": 4066,
      "Serge": 4067,
      "Café": 4068,
      "\",": 4069,
      "5340": 4070,
      "Fa": 4071,
      "Kid_": 4072,
      "Lev": 4073,
      "Vamp": 4074,
      "dep": 4075,
      "press": 4076,
      "aran": 4077,
      "in_P": 4078,
      "e_Ch": 4079,
      "third": 4080,
      "_Miller": 4081,
      "urder": 4082,
      "The_Great": 4083,
      "_Walk": 4084,
      "_Cop": 4085,
      "1971": 4086,
      "ryn": 4087,
      "1951_film": 4088,
      "Peter_W": 4089,
      "American_actor": 4090,
      "urder_": 4091,
      "Little_Miss_": 4092,
      "tells": 4093,
      "Robin_Hood_": 4094,
      "Hard": 4095,
      "Pot": 4096,
      "ble": 4097,
      "rant": 4098,
      "ting": 4099,
      "1994": 4100,
      "Women": 4101,
      "Deborah": 4102,
      "Good": 4103,
      "Kn": 4104,
      "eep": 4105,
      "na_L": 4106,
      "ym": 4107,
      "ams": 4108,
      "Chi": 4109,
      "igan": 4110,
      "ooper": 4111,
      "i_N": 4112,
      "_Af": 4113,
      "1976_film": 4114,
      "1931_film": 4115,
      "Head": 4116,
      "William_Witney": 4117,
      "Roman": 4118,
      "itchell_": 4119,
      "Bernard_": 4120,
      "59": 4121,
      "Fish": 4122,
      "Ryan": 4123,
      "Super": 4124,
      "Tan": 4125,
      "Woman": 4126,
      "Yev": 4127,
      "both": 4128,
      "main": 4129,
      "ér": 4130,
      "ín": 4131,
      "oli": 4132,
      "adows": 4133,
      "idden": 4134,
      "alongside": 4135,
      "Pleasence": 4136,
      "Eth": 4137,
      "Jas": 4138,
      "Mid": 4139,
      "Te": 4140,
      "loc": 4141,
      "line_": 4142,
      "mak": 4143,
      "akh": 4144,
      "allment": 4145,
      "_Trail": 4146,
      "_Kap": 4147,
      "Bhakt": 4148,
      "1944_film": 4149,
      "ull_": 4150,
      "_to_the_": 4151,
      "limited": 4152,
      "group": 4153,
      "Frank_McDonald_": 4154,
      "_Williams": 4155,
      "Bert": 4156,
      "Fe": 4157,
      "Harry": 4158,
      "Serg": 4159,
      "sit": 4160,
      "ito": 4161,
      "inder": 4162,
      "Aleks": 4163,
      "installment": 4164,
      "Korean": 4165,
      "Hook": 4166,
      "oes_": 4167,
      "sl": 4168,
      "_Bel": 4169,
      "ird_": 4170,
      "an_K": 4171,
      "_Pr": 4172,
      "1963_film": 4173,
      "James_": 4174,
      "Girl_": 4175,
      "Donald_Pleasence": 4176,
      "Crawford": 4177,
      "Ca": 4178,
      "Cz": 4179,
      "Die": 4180,
      "Suk": 4181,
      "Temp": 4182,
      "ried": 4183,
      "umi": 4184,
      "Bha": 4185,
      "acher": 4186,
      "ibal": 4187,
      "featuring": 4188,
      "Los": 4189,
      "eck": 4190,
      "ye": 4191,
      "_Mount": 4192,
      "_Bern": 4193,
      "Anne": 4194,
      "_Wal": 4195,
      "_Law": 4196,
      "alli": 4197,
      "est_": 4198,
      "1981": 4199,
      "1970": 4200,
      "oster": 4201,
      "Param": 4202,
      "Boy_": 4203,
      "Ramesh": 4204,
      "Russian": 4205,
      "Jeffre": 4206,
      "Pyaar": 4207,
      "Romantic_Warriors_": 4208,
      "Dog": 4209,
      "Over": 4210,
      "Som": 4211,
      "iles": 4212,
      "popular": 4213,
      "3600": 4214,
      "ren_": 4215,
      "ed_L": 4216,
      "a_Th": 4217,
      "ement": 4218,
      "ikk": 4219,
      "Hob": 4220,
      "1951": 4221,
      "ister_": 4222,
      "End_": 4223,
      "Ernest_Borg": 4224,
      "itra_Chatterjee": 4225,
      "Soumitra_Chatterjee": 4226,
      "06": 4227,
      "Cec": 4228,
      "Rah": 4229,
      "gang": 4230,
      "jan": 4231,
      "dis": 4232,
      "irt": 4233,
      "1980": 4234,
      "Sup": 4235,
      "gi": 4236,
      "una": 4237,
      "itri": 4238,
      "ige": 4239,
      "ović": 4240,
      "Joel": 4241,
      "eller": 4242,
      "Clair": 4243,
      "Jeann": 4244,
      "have": 4245,
      "_Heart": 4246,
      "Maxwell": 4247,
      "George_Sanders": 4248,
      "Ernest_Borgnine": 4249,
      "Pran": 4250,
      "Win": 4251,
      "ouch": 4252,
      "ewart": 4253,
      "enkat": 4254,
      "7200": 4255,
      "Bang": 4256,
      "Long": 4257,
      "Su": 4258,
      "_Mr": 4259,
      "The_N": 4260,
      "ett_": 4261,
      "Blow": 4262,
      "_High": 4263,
      "_Pat": 4264,
      "ather_": 4265,
      "_Gold": 4266,
      "aire": 4267,
      "ction_": 4268,
      "3F_": 4269,
      "Demon": 4270,
      "Billy_the_": 4271,
      "_Time_": 4272,
      "Myrna_L": 4273,
      "Myrna_Loy": 4274,
      "43": 4275,
      "46": 4276,
      "First": 4277,
      "Pad": 4278,
      "Va": 4279,
      "hit": 4280,
      "filmed": 4281,
      "asu": 4282,
      "1972": 4283,
      "Breath": 4284,
      "Swedish": 4285,
      "Eug": 4286,
      "Fat": 4287,
      "Kate_": 4288,
      "La_": 4289,
      "San_": 4290,
      "jab": 4291,
      "agi": 4292,
      "_Pol": 4293,
      "1959": 4294,
      "Profess": 4295,
      "Hotel_": 4296,
      "_Brown": 4297,
      "Regin": 4298,
      "4980": 4299,
      "_Again": 4300,
      "version": 4301,
      "François": 4302,
      "Actor": 4303,
      "Nolan": 4304,
      "Tob": 4305,
      "less": 4306,
      "mand": 4307,
      "mod": 4308,
      "oni": 4309,
      "thor": 4310,
      "irth": 4311,
      "igg": 4312,
      "etti": 4313,
      "hero": 4314,
      "Manoj": 4315,
      "Gabriel": 4316,
      "07": 4317,
      "Fer": 4318,
      "Kapoor": 4319,
      "Rit": 4320,
      "Trail": 4321,
      "VD": 4322,
      "1943_film": 4323,
      "_Ed": 4324,
      "_Jones": 4325,
      "que_": 4326,
      "ebast": 4327,
      "alian_": 4328,
      "_Paris": 4329,
      "Body": 4330,
      "Henry_Fonda": 4331,
      "ological": 4332,
      "Bombay_": 4333,
      "4800": 4334,
      "Sud": 4335,
      "Ant": 4336,
      "insp": 4337,
      "itchell": 4338,
      "Carmen": 4339,
      "early": 4340,
      "nolds": 4341,
      "ollywood": 4342,
      "Produced": 4343,
      "Nob": 4344,
      "Year": 4345,
      "ía": 4346,
      "entry": 4347,
      "itic": 4348,
      "_Back": 4349,
      "illo": 4350,
      "serv": 4351,
      "_Kh": 4352,
      "aja": 4353,
      "1971_film": 4354,
      "Hour": 4355,
      "1961_film": 4356,
      "independent": 4357,
      "ights": 4358,
      "Bill_": 4359,
      "atherine_": 4360,
      "_Dead": 4361,
      "Babu": 4362,
      "_Juliet_": 4363,
      "Vladi": 4364,
      "adbent": 4365,
      "Air": 4366,
      "Ky": 4367,
      "rez": 4368,
      "reat": 4369,
      "osely": 4370,
      "away": 4371,
      "1974": 4372,
      "Brian": 4373,
      "oshi": 4374,
      "540": 4375,
      "Code": 4376,
      "caus": 4377,
      "mi_": 4378,
      "phan": 4379,
      "sar": 4380,
      "ild_": 4381,
      "ale_": 4382,
      "olut": 4383,
      "_My": 4384,
      "o_R": 4385,
      "Shah": 4386,
      "Shankar": 4387,
      "_Ret": 4388,
      "endr": 4389,
      "1957_film": 4390,
      "ogue": 4391,
      "Samuel": 4392,
      "Brun": 4393,
      "ash_": 4394,
      "Joshi": 4395,
      "reviews": 4396,
      "Antonio_": 4397,
      "orris_": 4398,
      "Ashok": 4399,
      "Paramount": 4400,
      "08": 4401,
      "Lin": 4402,
      "Nin": 4403,
      "To": 4404,
      "gn": 4405,
      "tha": 4406,
      "itel": 4407,
      "ollar": 4408,
      "ogn": 4409,
      "Advent": 4410,
      "Emm": 4411,
      "Canada": 4412,
      "Neal": 4413,
      "Kathleen": 4414,
      "Card": 4415,
      "Siv": 4416,
      "Seven": 4417,
      "row": 4418,
      "aro": 4419,
      "onson": 4420,
      "ed_F": 4421,
      "a_Z": 4422,
      "_Mer": 4423,
      "_Ha": 4424,
      "_Hop": 4425,
      "_House_": 4426,
      "Strang": 4427,
      "John_C": 4428,
      "_Ale": 4429,
      "1945_film": 4430,
      "Phill": 4431,
      "Robert_F": 4432,
      "Spiri": 4433,
      "Ever": 4434,
      "Blood_and": 4435,
      "_Scott": 4436,
      "Border": 4437,
      "_Babu": 4438,
      "characters": 4439,
      "23": 4440,
      "Biz": 4441,
      "Mill": 4442,
      "Matt": 4443,
      "Maur": 4444,
      "Os": 4445,
      "mil": 4446,
      "sson": 4447,
      "etter": 4448,
      "elly": 4449,
      "1954": 4450,
      "Bros": 4451,
      "Glor": 4452,
      "gomer": 4453,
      "Rod_": 4454,
      "uli": 4455,
      "_Gun": 4456,
      "_Nov": 4457,
      "_Street": 4458,
      "1960": 4459,
      "etty": 4460,
      "land_": 4461,
      "Annie_": 4462,
      "Frances": 4463,
      "Jacob": 4464,
      "Purple_": 4465,
      "_Weis": 4466,
      "Jennifer_": 4467,
      "Garcia": 4468,
      "Barefoot_": 4469,
      "Resident_Evil": 4470,
      "66": 4471,
      "78": 4472,
      "Cour": 4473,
      "sm": 4474,
      "yde": 4475,
      "esar": 4476,
      "raham": 4477,
      "Vladimir": 4478,
      "aal": 4479,
      "down": 4480,
      "may": 4481,
      "in_B": 4482,
      "di_": 4483,
      "ater_": 4484,
      "s_of": 4485,
      "olo": 4486,
      "uso": 4487,
      "aver": 4488,
      "_Hall": 4489,
      "_Kill": 4490,
      "many": 4491,
      "erick": 4492,
      "annon": 4493,
      "enna": 4494,
      "Andy_": 4495,
      "_It_": 4496,
      "One_": 4497,
      "_Broadbent": 4498,
      "revor": 4499,
      "Jim_Broadbent": 4500,
      "Cannes": 4501,
      "Birds_of_": 4502,
      "Pierr": 4503,
      "6120": 4504,
      "oint_": 4505,
      "Marjorie_": 4506,
      "Eg": 4507,
      "uses": 4508,
      "idy": 4509,
      "ucci": 4510,
      "Kingdom": 4511,
      "Carniv": 4512,
      "Menon": 4513,
      "Bik": 4514,
      "Dian": 4515,
      "Rh": 4516,
      "hl": 4517,
      "in_T": 4518,
      "ing_T": 4519,
      "alia": 4520,
      "ed_S": 4521,
      "urre": 4522,
      "_Baker": 4523,
      "eva": 4524,
      "i_D": 4525,
      "_Day_": 4526,
      "Marie": 4527,
      "Clar": 4528,
      "Prey_": 4529,
      "ers_of_": 4530,
      "Breakf": 4531,
      "ory_of_": 4532,
      "azzi": 4533,
      "Romeo_and": 4534,
      "5940": 4535,
      "Fort": 4536,
      "Fly": 4537,
      "Var": 4538,
      "vill": 4539,
      "oney": 4540,
      "Beck": 4541,
      "raz": 4542,
      "What": 4543,
      "offic": 4544,
      "Days": 4545,
      "Abb": 4546,
      "Reneg": 4547,
      "Prasad": 4548,
      "Yevgen": 4549,
      "Ep": 4550,
      "Jav": 4551,
      "Jay_": 4552,
      "ani_": 4553,
      "y_and": 4554,
      "Thiev": 4555,
      "aving": 4556,
      "rook": 4557,
      "_Harr": 4558,
      "_Cor": 4559,
      "Blackma": 4560,
      "ift": 4561,
      "_The_Last": 4562,
      "Prat": 4563,
      "Hitler": 4564,
      "Bobb": 4565,
      "Wilson": 4566,
      "Before_the_": 4567,
      "track": 4568,
      "Children_": 4569,
      "Hart": 4570,
      "Kir": 4571,
      "London": 4572,
      "Met": 4573,
      "Pir": 4574,
      "ating": 4575,
      "radi": 4576,
      "opal": 4577,
      "1952": 4578,
      "France": 4579,
      "Anthony": 4580,
      "Hurrican": 4581,
      "Reynolds": 4582,
      "Disney": 4583,
      "Ed_": 4584,
      "Id": 4585,
      "Us_": 4586,
      "bon": 4587,
      "bes": 4588,
      "house": 4589,
      "so": 4590,
      "u_S": 4591,
      "_Bal": 4592,
      "ovan": 4593,
      "ellow": 4594,
      "ody_": 4595,
      "peri": 4596,
      "Sandra_": 4597,
      "Timoth": 4598,
      "Battle_of_the_": 4599,
      "_Girl_": 4600,
      "Punjab": 4601,
      "Raymond_": 4602,
      "Christmas_": 4603,
      "Honeymoon_": 4604,
      "Hold_That": 4605,
      "gomery_": 4606,
      "Du": 4607,
      "Ly": 4608,
      "Lil": 4609,
      "Ot": 4610,
      "hal": 4611,
      "én": 4612,
      "atsu": 4613,
      "atural": 4614,
      "1975": 4615,
      "1956": 4616,
      "Drac": 4617,
      "5160": 4618,
      "Aur": 4619,
      "Dh": 4620,
      "Knight": 4621,
      "Lam": 4622,
      "Lion": 4623,
      "Wong": 4624,
      "_An": 4625,
      "sim": 4626,
      "vey": 4627,
      "ero_": 4628,
      "oft": 4629,
      "_Moon": 4630,
      "ovie_": 4631,
      "_Rub": 4632,
      "athi_": 4633,
      "_Fre": 4634,
      "America_": 4635,
      "1940": 4636,
      "e_Me": 4637,
      "1914_film": 4638,
      "Anthony_W": 4639,
      "conc": 4640,
      "Bruce_B": 4641,
      "Cameron_M": 4642,
      "Row": 4643,
      "Sum": 4644,
      "Vas": 4645,
      "than": 4646,
      "amura": 4647,
      "ovich": 4648,
      "ello": 4649,
      "1950": 4650,
      "scap": 4651,
      "Devi": 4652,
      "Hitch": 4653,
      "igned": 4654,
      "named": 4655,
      "Nazarro": 4656,
      "Cant": 4657,
      "Dom": 4658,
      "Filip": 4659,
      "Set": 4660,
      "World_": 4661,
      "dec": 4662,
      "hosh": 4663,
      "ied": 4664,
      "noir": 4665,
      "yay": 4666,
      "e_Th": 4667,
      "a_of_": 4668,
      "The_Ch": 4669,
      "o_H": 4670,
      "ote": 4671,
      "_Trans": 4672,
      "to_S": 4673,
      "hni": 4674,
      "ajor": 4675,
      "1964_film": 4676,
      "ordon_": 4677,
      "izz": 4678,
      "el_documentary": 4679,
      "Judg": 4680,
      "United_St": 4681,
      "Anthony_": 4682,
      "Travel_documentary": 4683,
      "Joan_Crawford": 4684,
      "ognazzi": 4685,
      "Est": 4686,
      "Fore": 4687,
      "Sure": 4688,
      "ullet": 4689,
      "1976": 4690,
      "ission": 4691,
      "Jane": 4692,
      "Valer": 4693,
      "Based": 4694,
      "Lauri": 4695,
      "biographical": 4696,
      "anda_": 4697,
      "ur_": 4698,
      "aken": 4699,
      "Roy_": 4700,
      "_Der": 4701,
      "raw": 4702,
      "Alan": 4703,
      "John_F": 4704,
      "romance": 4705,
      "1947": 4706,
      "1965": 4707,
      "plays": 4708,
      "Campbell": 4709,
      "program": 4710,
      "people": 4711,
      "_Sweet": 4712,
      "loosely": 4713,
      "Boris": 4714,
      "Innoc": 4715,
      "Mexican": 4716,
      "comedian": 4717,
      "Cameron_Mitchell_": 4718,
      "Lon": 4719,
      "Ob": 4720,
      "Rek": 4721,
      "Sach": 4722,
      "Zh": 4723,
      "bor": 4724,
      "ces": 4725,
      "iern": 4726,
      "tor": 4727,
      "1977": 4728,
      "Geoff": 4729,
      "orris": 4730,
      "Bernard": 4731,
      "Chinese": 4732,
      "Ian_": 4733,
      "Lan": 4734,
      "Port": 4735,
      "_or": 4736,
      "fall": 4737,
      "gress": 4738,
      "ng": 4739,
      "ro_": 4740,
      "_Beg": 4741,
      "_Break": 4742,
      "an_G": 4743,
      "Rose_of_the_": 4744,
      "Chris": 4745,
      "phy_": 4746,
      "becom": 4747,
      "Call_M": 4748,
      "Breaking": 4749,
      "George_H": 4750,
      "Jimm": 4751,
      "Body_": 4752,
      "Noah": 4753,
      "Graham": 4754,
      "Fernando_": 4755,
      "Samurai": 4756,
      "Actress": 4757,
      "Ugo_T": 4758,
      "United_States": 4759,
      "Cath": 4760,
      "Hos": 4761,
      "Hans": 4762,
      "Ker": 4763,
      "Put": 4764,
      "Vill": 4765,
      "lost": 4766,
      "rac": 4767,
      "tra": 4768,
      "inv": 4769,
      "reas": 4770,
      "ries": 4771,
      "ising": 4772,
      "aked": 4773,
      "expl": 4774,
      "former": 4775,
      "1953": 4776,
      "1955": 4777,
      "1967": 4778,
      "Columb": 4779,
      "Cannon": 4780,
      "Down": 4781,
      "Dhar": 4782,
      "Mick": 4783,
      "Pak": 4784,
      "Secret": 4785,
      "_All": 4786,
      "judi": 4787,
      "k_": 4788,
      "vous_": 4789,
      "anes": 4790,
      "akar": 4791,
      "akrishna": 4792,
      "_City": 4793,
      "Mario": 4794,
      "toon": 4795,
      "oci": 4796,
      "1969": 4797,
      "arks": 4798,
      "a_Man": 4799,
      "ulliv": 4800,
      "Keith_David": 4801,
      "adise_": 4802,
      "Hong_Kong_actor": 4803,
      "Carnival_": 4804,
      "Ugo_Tognazzi": 4805,
      "Ba": 4806,
      "Count": 4807,
      "Ko": 4808,
      "Town": 4809,
      "cident": 4810,
      "prev": 4811,
      "illai": 4812,
      "shi": 4813,
      "1979": 4814,
      "1941": 4815,
      "Britt": 4816,
      "ordan": 4817,
      "Phyl": 4818,
      "Paris": 4819,
      "unning": 4820,
      "Sea": 4821,
      "Aj": 4822,
      "Az": 4823,
      "Krishn": 4824,
      "_born": 4825,
      "mo": 4826,
      "adav": 4827,
      "_Money_": 4828,
      "Joe_": 4829,
      "White_": 4830,
      "Camille_": 4831,
      "_Brent": 4832,
      "Carlos_": 4833,
      "_Broadway": 4834,
      "Neil": 4835,
      "Resurre": 4836,
      "Tamil_language": 4837,
      "worked": 4838,
      "by_the_": 4839,
      "Sunil": 4840,
      "_Elliott": 4841,
      "Chicken": 4842,
      "Anthony_Wong_": 4843,
      "Fear": 4844,
      "Meh": 4845,
      "Not": 4846,
      "River": 4847,
      "Rendez": 4848,
      "Tod": 4849,
      "ili": 4850,
      "andran": 4851,
      "urse": 4852,
      "aired": 4853,
      "Pros": 4854,
      "ether": 4855,
      "death": 4856,
      "Desp": 4857,
      "entered": 4858,
      "Irani": 4859,
      "28": 4860,
      "4200": 4861,
      "6600": 4862,
      "Honey_": 4863,
      "Od": 4864,
      "Sath": 4865,
      "V_": 4866,
      "can": 4867,
      "e_You": 4868,
      "edy_": 4869,
      "s_2": 4870,
      "_May": 4871,
      "The_Sh": 4872,
      "Bloom": 4873,
      "arton": 4874,
      "our_": 4875,
      "_Chap": 4876,
      "Janet": 4877,
      "Benjam": 4878,
      "Santa_F": 4879,
      "Room_": 4880,
      "Ray_Nazarro": 4881,
      "3000": 4882,
      "Black_Wid": 4883,
      "Aleksandr": 4884,
      "Cecil": 4885,
      "Eugen": 4886,
      "Hush": 4887,
      "Oh": 4888,
      "Ty": 4889,
      "Um": 4890,
      "hard": 4891,
      "ona": 4892,
      "rie": 4893,
      "alakshmi": 4894,
      "Through": 4895,
      "ently": 4896,
      "Bless": 4897,
      "otion": 4898,
      "1961": 4899,
      "ized": 4900,
      "Norman": 4901,
      "leading": 4902,
      "Belov": 4903,
      "ummings": 4904,
      "Alfred": 4905,
      "Lloyd": 4906,
      "performance": 4907,
      "26": 4908,
      "Ast": 4909,
      "Fall": 4910,
      "Ok": 4911,
      "hr": 4912,
      "uy": 4913,
      "ina_G": 4914,
      "ile_": 4915,
      "against": 4916,
      "_Sav": 4917,
      "adas": 4918,
      "_How": 4919,
      "_Col": 4920,
      "_Roll": 4921,
      "awan": 4922,
      "_Stone": 4923,
      "ekhar": 4924,
      "hail": 4925,
      "Dragon": 4926,
      "y_Field": 4927,
      "Boys_": 4928,
      "class": 4929,
      "Carmen_": 4930,
      "Beauty_and_the_": 4931,
      "usiness_": 4932,
      "Affair": 4933,
      "Finn": 4934,
      "Sen": 4935,
      "Tam": 4936,
      "began": 4937,
      "ient": 4938,
      "esp": 4939,
      "anga": 4940,
      "Italy": 4941,
      "award": 4942,
      "aji": 4943,
      "scrip": 4944,
      "Antonio": 4945,
      "Cannibal": 4946,
      "previous": 4947,
      "Get": 4948,
      "Ghost": 4949,
      "Ped": 4950,
      "ka_": 4951,
      "ti": 4952,
      "in_F": 4953,
      "ord_": 4954,
      "and_H": 4955,
      "omen": 4956,
      "ities": 4957,
      "_Bas": 4958,
      "aya_": 4959,
      "cha": 4960,
      "akth": 4961,
      "_Down": 4962,
      "_Dream": 4963,
      "abl": 4964,
      "Marg": 4965,
      "_King": 4966,
      "es_of_the_": 4967,
      "1973": 4968,
      "eart_": 4969,
      "Perc": 4970,
      "Jack_Ne": 4971,
      "screened": 4972,
      "e_Wood": 4973,
      "_Girls": 4974,
      "ences": 4975,
      "Oliver": 4976,
      "Tony_": 4977,
      "Carroll": 4978,
      "holm": 4979,
      "Lloyd_Nolan": 4980,
      "_Green_": 4981,
      "Leslie_": 4982,
      "Romeo_and_Juliet_": 4983,
      "Phyllis": 4984,
      "Jack_Neo": 4985,
      "Cle": 4986,
      "Nand": 4987,
      "Raf": 4988,
      "Wend": 4989,
      "ür": 4990,
      "abor": 4991,
      "uda": 4992,
      "ighter": 4993,
      "Leigh": 4994,
      "1935": 4995,
      "1958": 4996,
      "1943": 4997,
      "Gerald": 4998,
      "Returns": 4999,
      "Pursu": 5000,
      "6240": 5001,
      "Kr": 5002,
      "Sent": 5003,
      "Warren": 5004,
      "_a_": 5005,
      "_Am": 5006,
      "kill": 5007,
      "sin": 5008,
      "u_T": 5009,
      "u_K": 5010,
      "anu": 5011,
      "andra": 5012,
      "atic": 5013,
      "s_L": 5014,
      "_Berg": 5015,
      "Chap": 5016,
      "ová": 5017,
      "_Diamond": 5018,
      "_Wild": 5019,
      "Shiv": 5020,
      "John_M": 5021,
      "le_of_": 5022,
      "iko_": 5023,
      "arton_": 5024,
      "Leung": 5025,
      "comm": 5026,
      "1946": 5027,
      "Big_F": 5028,
      "Roman_": 5029,
      "y_Mc": 5030,
      "Jones_": 5031,
      "Justice": 5032,
      "Jessic": 5033,
      "sets": 5034,
      "6180": 5035,
      "Samurai_": 5036,
      "theatrical": 5037,
      "became": 5038,
      "75": 5039,
      "DVD": 5040,
      "Mak": 5041,
      "Soph": 5042,
      "agar": 5043,
      "ague": 5044,
      "Marion": 5045,
      "commer": 5046,
      "ebb": 5047,
      "anks": 5048,
      "Blues": 5049,
      "Girls": 5050,
      "mystery": 5051,
      "Angeles": 5052,
      "Andrews": 5053,
      "origin": 5054,
      "psychological": 5055,
      "140": 5056,
      "Barry": 5057,
      "Cass": 5058,
      "Fuzz": 5059,
      "Ul": 5060,
      "_X": 5061,
      "hart": 5062,
      "ingo": 5063,
      "ama_": 5064,
      "s_R": 5065,
      "_Mat": 5066,
      "ov_": 5067,
      "_Kid": 5068,
      "Def": 5069,
      "_Show": 5070,
      "ing_with": 5071,
      "lands": 5072,
      "6060": 5073,
      "Emman": 5074,
      "include": 5075,
      "Politic": 5076,
      "Law_": 5077,
      "rell": 5078,
      "Tony": 5079,
      "Beast_": 5080,
      "_Brothers": 5081,
      "_Sahni": 5082,
      "Beverly_Hills_": 5083,
      "Ah": 5084,
      "Danger": 5085,
      "Judi": 5086,
      "Vern": 5087,
      "mel": 5088,
      "ardi": 5089,
      "arsh": 5090,
      "ored": 5091,
      "Che": 5092,
      "Cher": 5093,
      "actors": 5094,
      "Stars": 5095,
      "1938": 5096,
      "Arn": 5097,
      "Pearl": 5098,
      "author": 5099,
      "ekar": 5100,
      "Grant": 5101,
      "Holland": 5102,
      "Broadway": 5103,
      "profess": 5104,
      "polit": 5105,
      "inspired": 5106,
      "840": 5107,
      "Boot": 5108,
      "Pers": 5109,
      "ty_": 5110,
      "ins_": 5111,
      "erz": 5112,
      "stone": 5113,
      "elop": 5114,
      "ader": 5115,
      "_Mal": 5116,
      "The_In": 5117,
      "_Wel": 5118,
      "udson": 5119,
      "acting": 5120,
      "1931": 5121,
      "when": 5122,
      "1964": 5123,
      "_Ol": 5124,
      "adhyay": 5125,
      "eful": 5126,
      "team": 5127,
      "_Whit": 5128,
      "super": 5129,
      "guez": 5130,
      "Stuart": 5131,
      "oscow": 5132,
      "Charles_Barton_": 5133,
      "Gor": 5134,
      "Hand": 5135,
      "Irish": 5136,
      "Lom": 5137,
      "Pan": 5138,
      "Pus": 5139,
      "foc": 5140,
      "strong": 5141,
      "Blad": 5142,
      "atha": 5143,
      "Cloud": 5144,
      "Viol": 5145,
      "ierney": 5146,
      "Biographical": 5147,
      "Horn": 5148,
      "Luk": 5149,
      "US": 5150,
      "aat": 5151,
      "mid": 5152,
      "section": 5153,
      "stand": 5154,
      "ster_": 5155,
      "asim": 5156,
      "_Sand": 5157,
      "_Sub": 5158,
      "The_Un": 5159,
      "ext_": 5160,
      "aval": 5161,
      "overn": 5162,
      "_Hunter": 5163,
      "_Taylor": 5164,
      "aint": 5165,
      "Black_B": 5166,
      "Black_and": 5167,
      "1957": 5168,
      "ustl": 5169,
      "Samb": 5170,
      "earch": 5171,
      "a_Singh": 5172,
      "Julia_": 5173,
      "ock_": 5174,
      "Every": 5175,
      "Charles_Br": 5176,
      "_School": 5177,
      "How_to_M": 5178,
      "_Brothers_": 5179,
      "ecutive": 5180,
      "Argentine": 5181,
      "Biographical_film": 5182,
      "Zach": 5183,
      "member": 5184,
      "olv": 5185,
      "Cho": 5186,
      "ieg": 5187,
      "1934": 5188,
      "Housef": 5189,
      "uchi": 5190,
      "ronic": 5191,
      "cinematography": 5192,
      "34": 5193,
      "Iv": 5194,
      "Pell": 5195,
      "aum": 5196,
      "ior": 5197,
      "mal": 5198,
      "murder": 5199,
      "ound_": 5200,
      "per_": 5201,
      "run": 5202,
      "via_": 5203,
      "agan": 5204,
      "aga_": 5205,
      "che": 5206,
      "Becaus": 5207,
      "_With": 5208,
      "Shr": 5209,
      "eyer": 5210,
      "Black_C": 5211,
      "whose": 5212,
      "_Shadows": 5213,
      "_Ever": 5214,
      "obb": 5215,
      "Indian_": 5216,
      "rica": 5217,
      "Emp": 5218,
      "ylvan": 5219,
      "_Rea": 5220,
      "appearance": 5221,
      "Philip_Green_": 5222,
      "Stephen_Rea": 5223,
      "Raymond": 5224,
      "Prisoner_": 5225,
      "Shirley_": 5226,
      "Gilbert_": 5227,
      "quiem": 5228,
      "Holidays_": 5229,
      "designed": 5230,
      "Felix": 5231,
      "Renegad": 5232,
      "Suresh": 5233,
      "e_Woodard": 5234,
      "31": 5235,
      "Hyp": 5236,
      "Us": 5237,
      "Winter": 5238,
      "lad": 5239,
      "rep": 5240,
      "amas": 5241,
      "Roc": 5242,
      "ext": 5243,
      "Blair": 5244,
      "ahan": 5245,
      "oke": 5246,
      "Denis": 5247,
      "elected": 5248,
      "Bos": 5249,
      "Cur": 5250,
      "Calam": 5251,
      "Dol": 5252,
      "Hist": 5253,
      "IV": 5254,
      "Kan": 5255,
      "selected": 5256,
      "uter": 5257,
      "ily": 5258,
      "ones_": 5259,
      "ami_": 5260,
      "_Bad": 5261,
      "The_Devil": 5262,
      "Starr": 5263,
      "_Far": 5264,
      "aza": 5265,
      "Big_M": 5266,
      "_Val": 5267,
      "Devika": 5268,
      "ment_": 5269,
      "German_": 5270,
      "ances": 5271,
      "Kevin_K": 5272,
      "leming": 5273,
      "ember_": 5274,
      "4920": 5275,
      "usiness": 5276,
      "Harris": 5277,
      "following": 5278,
      "Puppet_M": 5279,
      "hillon": 5280,
      "Evelyn_Brent": 5281,
      "olution": 5282,
      "Family": 5283,
      "Top": 5284,
      "path": 5285,
      "ront": 5286,
      "inh": 5287,
      "ager": 5288,
      "Step": 5289,
      "ikh": 5290,
      "odu": 5291,
      "1949": 5292,
      "ords": 5293,
      "Barney": 5294,
      "Anna": 5295,
      "Bharat": 5296,
      "Jennifer": 5297,
      "friends": 5298,
      "Bizarr": 5299,
      "6360": 5300,
      "Kee": 5301,
      "Lif": 5302,
      "Miri": 5303,
      "Yv": 5304,
      "ger_": 5305,
      "ku": 5306,
      "lon": 5307,
      "mother": 5308,
      "ned": 5309,
      "wife": 5310,
      "refer": 5311,
      "Thompson": 5312,
      "s_to_": 5313,
      "_Singh": 5314,
      "_Mad": 5315,
      "_Mann": 5316,
      "acL": 5317,
      "Char": 5318,
      "eves": 5319,
      "_Des": 5320,
      "_Litt": 5321,
      "Marin": 5322,
      "Alice_": 5323,
      "In_the_": 5324,
      "John_D": 5325,
      "anna_": 5326,
      "upon": 5327,
      "1939": 5328,
      "Unlimited": 5329,
      "_Var": 5330,
      "appa": 5331,
      "esh_": 5332,
      "Charlott": 5333,
      "ancer": 5334,
      "David_B": 5335,
      "Return_to_": 5336,
      "Natalie_": 5337,
      "Olivia_": 5338,
      "Blonde_": 5339,
      "_Butler_": 5340,
      "5040": 5341,
      "Rowdy_": 5342,
      "29": 5343,
      "37": 5344,
      "cr": 5345,
      "cer": 5346,
      "foot": 5347,
      "eland": 5348,
      "avin": 5349,
      "ahu": 5350,
      "ianc": 5351,
      "Peac": 5352,
      "Clyde": 5353,
      "Geeth": 5354,
      "Robo": 5355,
      "eeth": 5356,
      "rue": 5357,
      "Steve": 5358,
      "Stevens": 5359,
      "includes": 5360,
      "Silver": 5361,
      "Lynn": 5362,
      "depict": 5363,
      "47": 5364,
      "440": 5365,
      "960": 5366,
      "Hul": 5367,
      "Ned": 5368,
      "_actor": 5369,
      "anz": 5370,
      "reet_": 5371,
      "alist": 5372,
      "alitha": 5373,
      "_Sil": 5374,
      "_Mir": 5375,
      "_Band": 5376,
      "Rox": 5377,
      "Jok": 5378,
      "_World": 5379,
      "_Pal": 5380,
      "_Red": 5381,
      "ugg": 5382,
      "ram_": 5383,
      "ramp": 5384,
      "1937": 5385,
      "ationship": 5386,
      "place": 5387,
      "William_G": 5388,
      "Who_": 5389,
      "Rocky_": 5390,
      "Anne_": 5391,
      "Paradise_": 5392,
      "Daughter_of_the_": 5393,
      "Weaving": 5394,
      "rinivas": 5395,
      "Candy": 5396,
      "Republic": 5397,
      "Prince_of_": 5398,
      "Chandler": 5399,
      "_Nagarajan": 5400,
      "Curtis": 5401,
      "Dharm": 5402,
      "Charles_Bronson": 5403,
      "Ahm": 5404,
      "Him": 5405,
      "Saw": 5406,
      "Two": 5407,
      "ias": 5408,
      "vari": 5409,
      "wyn": 5410,
      "disc": 5411,
      "akov": 5412,
      "athan": 5413,
      "arden": 5414,
      "Samanth": 5415,
      "onder": 5416,
      "Preeth": 5417,
      "Enri": 5418,
      "Ari": 5419,
      "Murder_": 5420,
      "Rus": 5421,
      "Trevor": 5422,
      "inch": 5423,
      "stin": 5424,
      "_Sad": 5425,
      "_Squ": 5426,
      "The_Big": 5427,
      "ets_": 5428,
      "aper": 5429,
      "ots_": 5430,
      "_Life": 5431,
      "Arjun": 5432,
      "1942_film": 5433,
      "_Ey": 5434,
      "e_Smith": 5435,
      "_Chakraborty": 5436,
      "Peter_G": 5437,
      "Hit_the_": 5438,
      "Double_": 5439,
      "_Landau": 5440,
      "Mikhail": 5441,
      "Candy_": 5442,
      "_Hayden": 5443,
      "Shirley_M": 5444,
      "cartoon": 5445,
      "voice": 5446,
      "6480": 5447,
      "Virginia_": 5448,
      "Road_": 5449,
      "Dutch": 5450,
      "Earl": 5451,
      "Time": 5452,
      "hood": 5453,
      "kh": 5454,
      "owley": 5455,
      "Ald": 5456,
      "anne": 5457,
      "engupta": 5458,
      "ossom": 5459,
      "relationship": 5460,
      "Gregor": 5461,
      "Dreams": 5462,
      "Gal": 5463,
      "Pand": 5464,
      "_Up": 5465,
      "bel": 5466,
      "ee_": 5467,
      "low": 5468,
      "ere_": 5469,
      "is_T": 5470,
      "_Men_": 5471,
      "ayn": 5472,
      "ave_": 5473,
      "_Dawn": 5474,
      "olly": 5475,
      "white": 5476,
      "1948": 5477,
      "ing_All": 5478,
      "Samson": 5479,
      "eker": 5480,
      "Charles_": 5481,
      "Jackie_": 5482,
      "Reed": 5483,
      "Manuel": 5484,
      "Casan": 5485,
      "Glory": 5486,
      "Youth": 5487,
      "British_TV_series": 5488,
      "_Death": 5489,
      "Detective_": 5490,
      "Day_of_the_": 5491,
      "Pyar_K": 5492,
      "_The_Final": 5493,
      "Personal": 5494,
      "soundtrack": 5495,
      "Directed": 5496,
      "Herbert_Lom": 5497,
      "76": 5498,
      "Ciar": 5499,
      "Gall": 5500,
      "Ji": 5501,
      "Prab": 5502,
      "Sn": 5503,
      "Ins": 5504,
      "Insp": 5505,
      "ega": 5506,
      "Beneath": 5507,
      "President": 5508,
      "isodes": 5509,
      "Widmark": 5510,
      "Columbia": 5511,
      "Miriam": 5512,
      "Iron": 5513,
      "Osc": 5514,
      "Sy": 5515,
      "card": 5516,
      "u_P": 5517,
      "in_H": 5518,
      "though": 5519,
      "riya": 5520,
      "amous": 5521,
      "Chen": 5522,
      "utta": 5523,
      "_Cast": 5524,
      "annel": 5525,
      "Blackb": 5526,
      "_Ste": 5527,
      "aid_": 5528,
      "ustaf": 5529,
      "Enem": 5530,
      "Elli": 5531,
      "Michael_C": 5532,
      "ible_": 5533,
      "a_Ram": 5534,
      "Rock_": 5535,
      "Robert_C": 5536,
      "Robert_L": 5537,
      "Captive_": 5538,
      "Sean_": 5539,
      "Martin_Landau": 5540,
      "Gener": 5541,
      "_Girls_": 5542,
      "Alfr": 5543,
      "instone": 5544,
      "Deepak": 5545,
      "Alberto_": 5546,
      "Black_Widow_": 5547,
      "Dun": 5548,
      "Iren": 5549,
      "Kay": 5550,
      "Lag": 5551,
      "Let": 5552,
      "Rab": 5553,
      "light": 5554,
      "pal": 5555,
      "wara": 5556,
      "rov": 5557,
      "aps": 5558,
      "1942": 5559,
      "1962": 5560,
      "1963": 5561,
      "ffer": 5562,
      "Heaven": 5563,
      "Who": 5564,
      "created": 5565,
      "Coll": 5566,
      "Circ": 5567,
      "Erik": 5568,
      "Mig": 5569,
      "late": 5570,
      "tz": 5571,
      "rey_": 5572,
      "_Sal": 5573,
      "o_de_": 5574,
      "aven_": 5575,
      "_Hen": 5576,
      "_Friend": 5577,
      "ished": 5578,
      "ishra": 5579,
      "_Strong": 5580,
      "ernatural": 5581,
      "under_": 5582,
      "Romance": 5583,
      "amilton_": 5584,
      "Hero": 5585,
      "oshi_": 5586,
      "stery_": 5587,
      "Forest": 5588,
      "Calend": 5589,
      "y_Knight": 5590,
      "Born_to": 5591,
      "Germany": 5592,
      "Ray_W": 5593,
      "Atl": 5594,
      "_Brother_": 5595,
      "Betray": 5596,
      "_Frank": 5597,
      "Quicks": 5598,
      "_Two_": 5599,
      "Boman_": 5600,
      "Planet": 5601,
      "ociety": 5602,
      "Patricia_": 5603,
      "Professor": 5604,
      "Pakist": 5605,
      "script": 5606,
      "Alfre_Woodard": 5607,
      "Bis": 5608,
      "Buck": 5609,
      "Corn": 5610,
      "Dust": 5611,
      "Meet": 5612,
      "ju": 5613,
      "arian": 5614,
      "studi": 5615,
      "rib": 5616,
      "asan": 5617,
      "itter": 5618,
      "Chuck": 5619,
      "Anil": 5620,
      "opp": 5621,
      "artist": 5622,
      "aiah": 5623,
      "arya": 5624,
      "gener": 5625,
      "works": 5626,
      "Outlaw": 5627,
      "emble": 5628,
      "school": 5629,
      "Kamal": 5630,
      "Universal": 5631,
      "Att": 5632,
      "Bud_": 5633,
      "Bollywood": 5634,
      "Fury": 5635,
      "Gem": 5636,
      "Poon": 5637,
      "Tat": 5638,
      "don": 5639,
      "yar": 5640,
      "on_H": 5641,
      "ase_": 5642,
      "s_of_S": 5643,
      "_Mem": 5644,
      "_Brod": 5645,
      "chan": 5646,
      "Chandr": 5647,
      "_Hell": 5648,
      "er_K": 5649,
      "Another_": 5650,
      "_Div": 5651,
      "_Count": 5652,
      "ouri": 5653,
      "episodes": 5654,
      "iano": 5655,
      "1933": 5656,
      "ing_of_": 5657,
      "Casino_": 5658,
      "Guy": 5659,
      "Richard_Widmark": 5660,
      "Kannada_": 5661,
      "_Close": 5662,
      "Princess": 5663,
      "School": 5664,
      "Carrie_": 5665,
      "Leonard": 5666,
      "Dorothy_": 5667,
      "_Woman_": 5668,
      "Hugo_Weaving": 5669,
      "Owen": 5670,
      "Robot_Chicken": 5671,
      "Maurice_": 5672,
      "Foreign": 5673,
      "_born_": 5674,
      "Fuzzy_Knight": 5675,
      "Singh": 5676,
      "Wher": 5677,
      "long": 5678,
      "sport": 5679,
      "ör": 5680,
      "ared": 5681,
      "ices": 5682,
      "ayana": 5683,
      "roy": 5684,
      "oti": 5685,
      "Sha": 5686,
      "1932": 5687,
      "Brien": 5688,
      "azh": 5689,
      "inda": 5690,
      "ensemble": 5691,
      "Roger": 5692,
      "Maxim": 5693,
      "orrigan": 5694,
      "Corpor": 5695,
      "Bhalob": 5696,
      "Takay": 5697,
      "perform": 5698,
      "sitcom": 5699,
      ".,": 5700,
      "Cow": 5701,
      "Escap": 5702,
      "Lill": 5703,
      "Muk": 5704,
      "Oz": 5705,
      "_3": 5706,
      "game": 5707,
      "six": 5708,
      "vid": 5709,
      "ilar": 5710,
      "ener": 5711,
      "alo": 5712,
      "dic": 5713,
      "am_D": 5714,
      "a_3": 5715,
      "a_Y": 5716,
      "ury_": 5717,
      "_Barr": 5718,
      "acation": 5719,
      "o_V": 5720,
      "akrav": 5721,
      "i_R": 5722,
      "ively": 5723,
      "Shel": 5724,
      "opra": 5725,
      "Bhad": 5726,
      "ist_": 5727,
      "adison": 5728,
      "Jeet": 5729,
      "ucker": 5730,
      "_That": 5731,
      "e_For": 5732,
      "Santa": 5733,
      "Steve_": 5734,
      "revolves": 5735,
      "Matt_": 5736,
      "Oliver_": 5737,
      "owdh": 5738,
      "Hans_": 5739,
      "Irv": 5740,
      "Russell_Hayden": 5741,
      "Glenn_Close": 5742,
      "heimer": 5743,
      "Helmut_": 5744,
      "German_language": 5745,
      "acLaine": 5746,
      "Shirley_MacLaine": 5747,
      "Bing": 5748,
      "Door": 5749,
      "Ian": 5750,
      "Laksh": 5751,
      "Mam": 5752,
      "Mol": 5753,
      "dev": 5754,
      "ga": 5755,
      "ires": 5756,
      "iti": 5757,
      "itra": 5758,
      "Theat": 5759,
      "Their": 5760,
      "uti": 5761,
      "Shin": 5762,
      "ajda": 5763,
      "counter": 5764,
      "Quent": 5765,
      "Quinn": 5766,
      "Howl": 5767,
      "ehr": 5768,
      "Conrad": 5769,
      "featured": 5770,
      "Eyes": 5771,
      "Andrze": 5772,
      "Andrzej": 5773,
      "A_S": 5774,
      "Ben_": 5775,
      "Budd": 5776,
      "Can_": 5777,
      "Mith": 5778,
      "Wel": 5779,
      "_John": 5780,
      "co_": 5781,
      "dr": 5782,
      "ara_": 5783,
      "ane_": 5784,
      "ing_F": 5785,
      "e_Al": 5786,
      "on_F": 5787,
      "al_L": 5788,
      "ates_": 5789,
      "a_Bar": 5790,
      "_Sam": 5791,
      "let_": 5792,
      "_Barry": 5793,
      "room": 5794,
      "oott": 5795,
      "umari": 5796,
      "otal": 5797,
      "_Leg": 5798,
      "John_R": 5799,
      "olly_": 5800,
      "endra_": 5801,
      "_She": 5802,
      "ession": 5803,
      "Samsar": 5804,
      "Georges": 5805,
      "sequ": 5806,
      "On_the_": 5807,
      "Homew": 5808,
      "ruth": 5809,
      "Robert_Mont": 5810,
      "Return_": 5811,
      "Valley_": 5812,
      "Detective": 5813,
      "Susan_": 5814,
      "Island_": 5815,
      "Hills": 5816,
      "himself": 5817,
      "colm": 5818,
      "John_Litel": 5819,
      "_Murder": 5820,
      "Jungle_": 5821,
      "Passion": 5822,
      "Wayn": 5823,
      "critics": 5824,
      "_Greene": 5825,
      "credited": 5826,
      "Billy_the_Kid_": 5827,
      "_Little_": 5828,
      "Robert_Montgomery_": 5829,
      "Bj": 5830,
      "Ik": 5831,
      "Ki": 5832,
      "Mann": 5833,
      "Misch": 5834,
      "Oper": 5835,
      "bie": 5836,
      "dix": 5837,
      "among": 5838,
      "urb": 5839,
      "ete": 5840,
      "Blink": 5841,
      "Amit": 5842,
      "Marvin": 5843,
      "ahi": 5844,
      "1936": 5845,
      "attle": 5846,
      "ashington": 5847,
      "Spenc": 5848,
      "arriage": 5849,
      "rilog": 5850,
      "Universe": 5851,
      "Oscar": 5852,
      "Div": 5853,
      "Doctor": 5854,
      "Fed": 5855,
      "Haw": 5856,
      "Miller": 5857,
      "No_": 5858,
      "Nelson": 5859,
      "Power": 5860,
      "Ruper": 5861,
      "Sebast": 5862,
      "_Un": 5863,
      "cal": 5864,
      "cat": 5865,
      "ced": 5866,
      "del_": 5867,
      "ning": 5868,
      "pe_": 5869,
      "some": 5870,
      "west": 5871,
      "ort_": 5872,
      "asa_": 5873,
      "_Serv": 5874,
      "imb": 5875,
      "China": 5876,
      "Rook": 5877,
      "oodb": 5878,
      "Shash": 5879,
      "_Tak": 5880,
      "_Town": 5881,
      "aha": 5882,
      "1926": 5883,
      "isters": 5884,
      "_The_S": 5885,
      "indust": 5886,
      "Pegg": 5887,
      "Davies": 5888,
      "1913_film": 5889,
      "Breaking_the_": 5890,
      "Wilson_": 5891,
      "Neill": 5892,
      "argan": 5893,
      "Bhagav": 5894,
      "Hearts_": 5895,
      "Brian_Keith": 5896,
      "Woods": 5897,
      "Woods_": 5898,
      "Gillian_": 5899,
      "ing_Point_": 5900,
      "6420": 5901,
      "Bryan_": 5902,
      "Desperate_": 5903,
      "_Sharma": 5904,
      "Santa_Cl": 5905,
      "originally": 5906,
      "Political_": 5907,
      "William_Gargan": 5908,
      "Rupert_": 5909,
      "Bish": 5910,
      "Byr": 5911,
      "Hale": 5912,
      "Jorg": 5913,
      "Language": 5914,
      "Song": 5915,
      "gor": 5916,
      "sex": 5917,
      "asa": 5918,
      "illy": 5919,
      "Bez": 5920,
      "rael": 5921,
      "rait": 5922,
      "Calling": 5923,
      "Glend": 5924,
      "supernatural": 5925,
      "Brook": 5926,
      "Giorg": 5927,
      "Marcel": 5928,
      "Denholm": 5929,
      "eldon": 5930,
      "surv": 5931,
      "Da": 5932,
      "Gig": 5933,
      "Her_": 5934,
      "Lo": 5935,
      "Lois": 5936,
      "Rain": 5937,
      "Radi": 5938,
      "Rumb": 5939,
      "Sankar": 5940,
      "_l": 5941,
      "_Rob": 5942,
      "gross": 5943,
      "prom": 5944,
      "al_R": 5945,
      "agon_": 5946,
      "s_in_the_": 5947,
      "urphy": 5948,
      "_Big": 5949,
      "The_O": 5950,
      "ex_": 5951,
      "_Was": 5952,
      "Amaz": 5953,
      "_Run": 5954,
      "_Tal": 5955,
      "Black_R": 5956,
      "_Nar": 5957,
      "_Just": 5958,
      "on_of_": 5959,
      "_Ver": 5960,
      "Ellis": 5961,
      "y_Man": 5962,
      "_Blu": 5963,
      "oore_": 5964,
      "iot_": 5965,
      "Herbert": 5966,
      "David_S": 5967,
      "_Scott_": 5968,
      "Hotel_Trans": 5969,
      "Bridget": 5970,
      "premiere": 5971,
      "Sidne": 5972,
      "Dracula": 5973,
      "political": 5974,
      "Boman_Irani": 5975,
      "Political_thriller": 5976,
      "Hotel_Transylvan": 5977,
      "73": 5978,
      "84": 5979,
      "Eag": 5980,
      "Fight": 5981,
      "Gul": 5982,
      "Lang": 5983,
      "Liv": 5984,
      "call": 5985,
      "hatt": 5986,
      "amel": 5987,
      "iday": 5988,
      "1928": 5989,
      "Wheel": 5990,
      "Franklin": 5991,
      "special": 5992,
      "laim": 5993,
      "Czech": 5994,
      "260": 5995,
      "By": 5996,
      "Bic": 5997,
      "Bark": 5998,
      "Cain": 5999,
      "Dy": 6000,
      "Hrid": 6001,
      "Horri": 6002,
      "Kur": 6003,
      "Kav": 6004,
      "capt": 6005,
      "cial": 6006,
      "daughter": 6007,
      "find": 6008,
      "hand": 6009,
      "ror": 6010,
      "ersh": 6011,
      "ony_": 6012,
      "dial": 6013,
      "wright": 6014,
      "The_Girl": 6015,
      "o_J": 6016,
      "apadi": 6017,
      "ford_": 6018,
      "_Conn": 6019,
      "_Fe": 6020,
      "opadhyay": 6021,
      "Black_F": 6022,
      "Blackout_": 6023,
      "_Shane": 6024,
      "uki": 6025,
      "Quant": 6026,
      "adies": 6027,
      "a_Mc": 6028,
      "Ellen": 6029,
      "_Off": 6030,
      "Moore": 6031,
      "a_Gupta": 6032,
      "Malcolm": 6033,
      "Hollow": 6034,
      "Breaking_": 6035,
      "Harold": 6036,
      "Colle": 6037,
      "_Brook": 6038,
      "Brain": 6039,
      "Crenna": 6040,
      "Susannah": 6041,
      "Remember_": 6042,
      "_Boy_": 6043,
      "company": 6044,
      "Stanley_": 6045,
      "rizz": 6046,
      "ascal": 6047,
      "_Women": 6048,
      "Mountain": 6049,
      "Van_Johnson": 6050,
      "Lawrence": 6051,
      "Maxwell_Shane": 6052,
      "Bizarre_": 6053,
      "Ray_Winstone": 6054,
      "Bes": 6055,
      "Mau": 6056,
      "din": 6057,
      "ío": 6058,
      "andal": 6059,
      "uru": 6060,
      "berry": 6061,
      "Bhary": 6062,
      "others": 6063,
      "Emmy": 6064,
      "Isab": 6065,
      "Beauty": 6066,
      "askar": 6067,
      "urders": 6068,
      "Cabar": 6069,
      "Roller": 6070,
      "Bruce": 6071,
      "Vishn": 6072,
      "82": 6073,
      "Back": 6074,
      "CB": 6075,
      "Cair": 6076,
      "Puzz": 6077,
      "coll": 6078,
      "cult": 6079,
      "feld": 6080,
      "neg": 6081,
      "social": 6082,
      "tion": 6083,
      "wig": 6084,
      "eni": 6085,
      "end_": 6086,
      "onic": 6087,
      "at_S": 6088,
      "Thor": 6089,
      "Thunder": 6090,
      "ages": 6091,
      "_Mil": 6092,
      "Roth": 6093,
      "ap_": 6094,
      "_Daughter": 6095,
      "_Danger": 6096,
      "Amrit": 6097,
      "_Pa": 6098,
      "_Life_": 6099,
      "Marathi": 6100,
      "Bhav": 6101,
      "Black_H": 6102,
      "_Ek": 6103,
      "Rome_": 6104,
      "amily_": 6105,
      "Old_": 6106,
      "Mark_Strong": 6107,
      "Juan": 6108,
      "Blind_D": 6109,
      "_Murphy_": 6110,
      "Douglas_F": 6111,
      "Urs": 6112,
      "Sally_Field": 6113,
      "children": 6114,
      "_Island": 6115,
      "Bonnie_": 6116,
      "_Romance": 6117,
      "_Walker": 6118,
      "Breakfast": 6119,
      "Blackmail_": 6120,
      "Fernando_Rey": 6121,
      "anesan": 6122,
      "Gilbert_Roland": 6123,
      "Puppet_Master_": 6124,
      "Ciarán": 6125,
      "Denholm_Elliott": 6126,
      "Gh": 6127,
      "Rhy": 6128,
      "Tet": 6129,
      "Tab": 6130,
      "pict": 6131,
      "wal": 6132,
      "iner": 6133,
      "onym": 6134,
      "ede": 6135,
      "agu": 6136,
      "adcast": 6137,
      "eta": 6138,
      "Ank": 6139,
      "Marqu": 6140,
      "ained": 6141,
      "Hein": 6142,
      "Screen": 6143,
      "Sweet": 6144,
      "Farce": 6145,
      "Jungle": 6146,
      "sports": 6147,
      "Edi": 6148,
      "Ford": 6149,
      "Fair": 6150,
      "Garr": 6151,
      "Gol": 6152,
      "Krishna": 6153,
      "Og": 6154,
      "Venge": 6155,
      "Ye": 6156,
      "ber_": 6157,
      "los_": 6158,
      "se_": 6159,
      "é_": 6160,
      "e_Ar": 6161,
      "onto": 6162,
      "then": 6163,
      "ther_": 6164,
      "ata_": 6165,
      "a_J": 6166,
      "aces": 6167,
      "akam": 6168,
      "Bliss_": 6169,
      "_Wife": 6170,
      "emi": 6171,
      "Shawn": 6172,
      "to_B": 6173,
      "John_G": 6174,
      "_Ass": 6175,
      "1944": 6176,
      "Bride": 6177,
      "_The_N": 6178,
      "1966": 6179,
      "Pec": 6180,
      "Big_Brother_": 6181,
      "William_Ben": 6182,
      "Eddi": 6183,
      "Julian_": 6184,
      "Frank_Butler_": 6185,
      "Charles_C": 6186,
      "Richard_Crenna": 6187,
      "Time_": 6188,
      "atch_": 6189,
      "Susan": 6190,
      "TV_": 6191,
      "Danish": 6192,
      "Ruby_": 6193,
      "Better": 6194,
      "_Conway": 6195,
      "Blazing": 6196,
      "Cinema": 6197,
      "Director": 6198,
      "Beware_of_": 6199,
      "Emmanu": 6200,
      "36": 6201,
      "ABC": 6202,
      "Bog": 6203,
      "Lim": 6204,
      "Lady": 6205,
      "Trip": 6206,
      "Yas": 6207,
      "cou": 6208,
      "gie": 6209,
      "medi": 6210,
      "ère": 6211,
      "rop": 6212,
      "Bears": 6213,
      "abhar": 6214,
      "Arun": 6215,
      "Quar": 6216,
      "hanam": 6217,
      "ibb": 6218,
      "Homic": 6219,
      "Cross": 6220,
      "arget": 6221,
      "Bran": 6222,
      "Bars": 6223,
      "Das": 6224,
      "Four": 6225,
      "Saur": 6226,
      "Zomb": 6227,
      "hann": 6228,
      "live": 6229,
      "vel": 6230,
      "winning": 6231,
      "in_S": 6232,
      "ores_": 6233,
      "reland": 6234,
      "rice": 6235,
      "ala_": 6236,
      "andan": 6237,
      "adha": 6238,
      "adway_": 6239,
      "_Mah": 6240,
      "oween": 6241,
      "Champ": 6242,
      "Joy_": 6243,
      "_Dark": 6244,
      "_World_": 6245,
      "athil": 6246,
      "Albert_": 6247,
      "Inf": 6248,
      "awards": 6249,
      "atty": 6250,
      "Quin": 6251,
      "Anders": 6252,
      "Mohan_": 6253,
      "Grac": 6254,
      "Norman_": 6255,
      "Scott_Br": 6256,
      "dition": 6257,
      "Danny_": 6258,
      "_Midnight": 6259,
      "consider": 6260,
      "Century": 6261,
      "Spirit_": 6262,
      "Andy_Clyde": 6263,
      "Sandra_Ng": 6264,
      "Federic": 6265,
      "77": 6266,
      "Boss": 6267,
      "Jol": 6268,
      "Now": 6269,
      "Vo": 6270,
      "Wag": 6271,
      "bu": 6272,
      "bidden": 6273,
      "home": 6274,
      "turn": 6275,
      "andi": 6276,
      "dier": 6277,
      "atan": 6278,
      "1920": 6279,
      "acon": 6280,
      "ayi": 6281,
      "etime": 6282,
      "road": 6283,
      "ugu": 6284,
      "1927": 6285,
      "ender": 6286,
      "Brief": 6287,
      "arland": 6288,
      "1917": 6289,
      "ohen": 6290,
      "Below": 6291,
      "azzara": 6292,
      "Sharma": 6293,
      "Hearts": 6294,
      "Banglad": 6295,
      "Bodygu": 6296,
      "Bangladesh": 6297,
      "Bond": 6298,
      "Baby": 6299,
      "Domin": 6300,
      "Gina_G": 6301,
      "Mass": 6302,
      "Yosh": 6303,
      "ector": 6304,
      "ienn": 6305,
      "ny": 6306,
      "sol": 6307,
      "town": 6308,
      "uh": 6309,
      "international": 6310,
      "ans_": 6311,
      "erous": 6312,
      "ing_M": 6313,
      "and_C": 6314,
      "_Sm": 6315,
      "_Hinds": 6316,
      "utler": 6317,
      "_Camp": 6318,
      "Storm": 6319,
      "Marí": 6320,
      "_Gal": 6321,
      "_Ghost": 6322,
      "Bhai_": 6323,
      "1921": 6324,
      "ick_": 6325,
      "auer": 6326,
      "assin": 6327,
      "_Out_": 6328,
      "Blue_S": 6329,
      "Rajkumar": 6330,
      "Calling_All": 6331,
      "wara_Rao": 6332,
      "ravel": 6333,
      "René": 6334,
      "Doug": 6335,
      "_Sea_": 6336,
      "addy": 6337,
      "Walter_Greene": 6338,
      "animator": 6339,
      "Bridge_": 6340,
      "Cameron_": 6341,
      "Castle_": 6342,
      "Bengali_": 6343,
      "Two_": 6344,
      "Jean_Parker": 6345,
      "Pride_of_the_": 6346,
      "present": 6347,
      "Captain_America": 6348,
      "Temple": 6349,
      "Miguel": 6350,
      "Poonam_D": 6351,
      "ershon": 6352,
      "Gina_Gershon": 6353,
      "Poonam_Dhillon": 6354,
      "Berg": 6355,
      "Erich": 6356,
      "From": 6357,
      "Nan": 6358,
      "Por": 6359,
      "Press": 6360,
      "Tin": 6361,
      "det": 6362,
      "mad": 6363,
      "million": 6364,
      "post": 6365,
      "sel": 6366,
      "vir": 6367,
      "enst": 6368,
      "ened": 6369,
      "ense": 6370,
      "andre": 6371,
      "rane": 6372,
      "anning": 6373,
      "Leo": 6374,
      "Lead": 6375,
      "endran": 6376,
      "aiy": 6377,
      "oys": 6378,
      "Price": 6379,
      "eks": 6380,
      "Sandhy": 6381,
      "Honk": 6382,
      "Basil": 6383,
      "Vaness": 6384,
      "numerous": 6385,
      "Benjamin": 6386,
      "rilogy": 6387,
      "Cont": 6388,
      "Field": 6389,
      "Hoff": 6390,
      "Iain": 6391,
      "Jan_": 6392,
      "Log": 6393,
      "Mamm": 6394,
      "Paw": 6395,
      "Train": 6396,
      "aam": 6397,
      "desc": 6398,
      "gom": 6399,
      "light_": 6400,
      "iness": 6401,
      "e_and": 6402,
      "dig": 6403,
      "am_P": 6404,
      "_Smart": 6405,
      "_Summer_": 6406,
      "imp": 6407,
      "The_Sp": 6408,
      "The_Woman_": 6409,
      "owers": 6410,
      "Anur": 6411,
      "ivil": 6412,
      "iven": 6413,
      "Among": 6414,
      "_Light": 6415,
      "Stef": 6416,
      "_Te": 6417,
      "Alic": 6418,
      "_Kra": 6419,
      "_Fah": 6420,
      "Dean": 6421,
      "Bhan": 6422,
      "_Stall": 6423,
      "1945": 6424,
      "oyer": 6425,
      "etta": 6426,
      "Preston": 6427,
      "How_the_": 6428,
      "Els": 6429,
      "_Op": 6430,
      "Robber": 6431,
      "a_Rag": 6432,
      "a_Raj": 6433,
      "Once_": 6434,
      "head_": 6435,
      "Parv": 6436,
      "Bloody_": 6437,
      "Sanam": 6438,
      "Ben_G": 6439,
      "ritz": 6440,
      "Conf": 6441,
      "Royale_": 6442,
      "Revenge": 6443,
      "songs": 6444,
      "Journey_to_the_": 6445,
      "press_": 6446,
      "_Martin": 6447,
      "Robinson_Cr": 6448,
      "_Beauty_": 6449,
      "Deborah_K": 6450,
      "Vaug": 6451,
      "period": 6452,
      "Rendezvous_": 6453,
      "Black_and_White_": 6454,
      "Corporation": 6455,
      "gomery": 6456,
      "88": 6457,
      "Bul": 6458,
      "Corrigan": 6459,
      "Eur": 6460,
      "Gert": 6461,
      "Hara": 6462,
      "Jak": 6463,
      "Kä": 6464,
      "came": 6465,
      "ui": 6466,
      "stud": 6467,
      "uni": 6468,
      "uram": 6469,
      "Chang": 6470,
      "events": 6471,
      "sha": 6472,
      "anta": 6473,
      "Carter": 6474,
      "iper": 6475,
      "person": 6476,
      "Billion": 6477,
      "Rockin": 6478,
      "uckle": 6479,
      "arni": 6480,
      "Akkin": 6481,
      "Karen": 6482,
      "Australia": 6483,
      "colle": 6484,
      "Jagger": 6485,
      "successful": 6486,
      "century": 6487,
      "ullivan": 6488,
      "A_M": 6489,
      "Bi": 6490,
      "Band": 6491,
      "Borrow": 6492,
      "Cost": 6493,
      "Don_": 6494,
      "Hou": 6495,
      "Pett": 6496,
      "Ran": 6497,
      "fre": 6498,
      "ious_": 6499,
      "ine_B": 6500,
      "ening": 6501,
      "reek": 6502,
      "al_K": 6503,
      "alam_": 6504,
      "asi_": 6505,
      "agic": 6506,
      "ola_": 6507,
      "_Boot": 6508,
      "Blade_": 6509,
      "round_": 6510,
      "_Dou": 6511,
      "_Call": 6512,
      "_Go": 6513,
      "_Kapoor": 6514,
      "uggl": 6515,
      "Johnson_": 6516,
      "Carey": 6517,
      "Black_P": 6518,
      "arts": 6519,
      "1930": 6520,
      "Brew": 6521,
      "Jules": 6522,
      "Blueb": 6523,
      "Captain_F": 6524,
      "remade": 6525,
      "ensen": 6526,
      "riday_": 6527,
      "umber_": 6528,
      "Darkness_": 6529,
      "Day_of_": 6530,
      "South_": 6531,
      "owery_": 6532,
      "Between_the_": 6533,
      "Francis_L": 6534,
      "_Magic": 6535,
      "_About_": 6536,
      "Big_Town": 6537,
      "Jeremy_": 6538,
      "_Prejudi": 6539,
      "_Jackson": 6540,
      "George_Hamilton_": 6541,
      "Ciarán_Hinds": 6542,
      "William_Bendix": 6543,
      "Ben_Gazzara": 6544,
      "85": 6545,
      "Fab": 6546,
      "Morn": 6547,
      "Pump": 6548,
      "Ris": 6549,
      "Snow": 6550,
      "Venkat": 6551,
      "Wedding": 6552,
      "Yul": 6553,
      "cell": 6554,
      "hor": 6555,
      "mings": 6556,
      "stit": 6557,
      "chin": 6558,
      "igel": 6559,
      "Bhatt": 6560,
      "ocal": 6561,
      "Breach": 6562,
      "eature": 6563,
      "deal": 6564,
      "Vij": 6565,
      "Balraj": 6566,
      "Copper": 6567,
      "Children": 6568,
      "Hemmings": 6569,
      "ootty": 6570,
      "Dist": 6571,
      "Fro": 6572,
      "Foll": 6573,
      "Kl": 6574,
      "Oss": 6575,
      "Pott": 6576,
      "Putt": 6577,
      "Wy": 6578,
      "f_": 6579,
      "hum": 6580,
      "pa": 6581,
      "pir": 6582,
      "prim": 6583,
      "si": 6584,
      "walk": 6585,
      "yo": 6586,
      "és": 6587,
      "on_Par": 6588,
      "anger_": 6589,
      "ayne": 6590,
      "an_Kh": 6591,
      "ive_M": 6592,
      "utner": 6593,
      "_Wajda": 6594,
      "Amar": 6595,
      "_Tr": 6596,
      "_Fer": 6597,
      "ish_": 6598,
      "Career_": 6599,
      "Black_Ros": 6600,
      "_Shadow": 6601,
      "inde": 6602,
      "_of_Love": 6603,
      "Charlie": 6604,
      "Julien": 6605,
      "ussain": 6606,
      "etween_": 6607,
      "ographer": 6608,
      "Const": 6609,
      "oomey": 6610,
      "police": 6611,
      "Linds": 6612,
      "_Donovan": 6613,
      "California": 6614,
      "Without_": 6615,
      "Beware": 6616,
      "Alexander_": 6617,
      "4500": 6618,
      "Gloria_": 6619,
      "various": 6620,
      "Maximilian": 6621,
      "Andrzej_Wajda": 6622,
      "Douglas_Fowley": 6623,
      "Robinson_Cruso": 6624,
      "!!": 6625,
      "Rent": 6626,
      "Wenn": 6627,
      "Zero": 6628,
      "fighter": 6629,
      "Being": 6630,
      "ract": 6631,
      "Brick": 6632,
      "oca": 6633,
      "quer": 6634,
      "oburn": 6635,
      "Prof": 6636,
      "Allan": 6637,
      "Edu": 6638,
      "Paradise": 6639,
      "Apte": 6640,
      "Aksh": 6641,
      "iffer": 6642,
      "Haunt": 6643,
      "superhero": 6644,
      "Mammootty": 6645,
      "6540": 6646,
      "Aw": 6647,
      "Dix": 6648,
      "Forg": 6649,
      "Jub": 6650,
      "Lal": 6651,
      "Miss_": 6652,
      "Vid": 6653,
      "Vish": 6654,
      "ead": 6655,
      "mission": 6656,
      "ni": 6657,
      "oore": 6658,
      "tar": 6659,
      "arch": 6660,
      "ree_": 6661,
      "eless_": 6662,
      "s_Ar": 6663,
      "20th": 6664,
      "itation": 6665,
      "_Mel": 6666,
      "_Bu": 6667,
      "_Bre": 6668,
      "_Bra": 6669,
      "_Bust": 6670,
      "o_Al": 6671,
      "ira_": 6672,
      "executive": 6673,
      "oven": 6674,
      "ota": 6675,
      "otic": 6676,
      "_Rest": 6677,
      "_Río": 6678,
      "Alice": 6679,
      "_Gordon": 6680,
      "_Khan_": 6681,
      "John_K": 6682,
      "op_": 6683,
      "Clif": 6684,
      "aux": 6685,
      "Baron": 6686,
      "_and_C": 6687,
      "a_Ravi": 6688,
      "Eden": 6689,
      "ial_": 6690,
      "i_Kapoor": 6691,
      "You_": 6692,
      "Terry_": 6693,
      "Rogue_": 6694,
      "a_Farrell": 6695,
      "_Paradise": 6696,
      "y_Cur": 6697,
      "a_Hall": 6698,
      "Campus_": 6699,
      "Louis_": 6700,
      "Reddy": 6701,
      "French_language": 6702,
      "Resc": 6703,
      "roughton": 6704,
      "_Seas": 6705,
      "Jacquel": 6706,
      "Romeo": 6707,
      "Justice_": 6708,
      "Behind": 6709,
      "Nages": 6710,
      "Alfred_": 6711,
      "ology": 6712,
      "Armstrong": 6713,
      "Beatrice_": 6714,
      "Kelly": 6715,
      "Frank_McHugh": 6716,
      "Kay_Kay_": 6717,
      "Quest_for": 6718,
      "Cinema_of_": 6719,
      "6720": 6720,
      "6780": 6721,
      "7800": 6722,
      "Glenda_Farrell": 6723,
      "Emmanuelle_": 6724,
      "Scott_Brady": 6725,
      "considered": 6726,
      "Kay_Kay_Menon": 6727,
      "79": 6728,
      "Griffith": 6729,
      "Mand": 6730,
      "Poo": 6731,
      "Trench": 6732,
      "Wind": 6733,
      "five": 6734,
      "Ther": 6735,
      "union": 6736,
      "lee": 6737,
      "akrishn": 6738,
      "Carav": 6739,
      "lymp": 6740,
      "Joshu": 6741,
      "esham": 6742,
      "Israel": 6743,
      "titled": 6744,
      "Capit": 6745,
      "Barbara": 6746,
      "Caesar": 6747,
      "Molina": 6748,
      "Mithun": 6749,
      "3D": 6750,
      "Burn": 6751,
      "Hudson": 6752,
      "Katherine_": 6753,
      "Mack": 6754,
      "Morgan": 6755,
      "Nay": 6756,
      "Sreen": 6757,
      "Tit": 6758,
      "cor": 6759,
      "de_M": 6760,
      "found": 6761,
      "gay": 6762,
      "iu": 6763,
      "karni": 6764,
      "mes": 6765,
      "ning_": 6766,
      "napp": 6767,
      "rill": 6768,
      "went": 6769,
      "enstein": 6770,
      "thm": 6771,
      "s_for": 6772,
      "_Sant": 6773,
      "_Stern": 6774,
      "_Movie": 6775,
      "_Mein": 6776,
      "_Bhas": 6777,
      "an_F": 6778,
      "i_V": 6779,
      "_Do_": 6780,
      "_Warren": 6781,
      "_Lew": 6782,
      "_Lost": 6783,
      "shown": 6784,
      "Mario_": 6785,
      "_Rag": 6786,
      "_Rah": 6787,
      "_Gold_": 6788,
      "este_": 6789,
      "Italian_": 6790,
      "_Naz": 6791,
      "_Sher": 6792,
      "_Jones_": 6793,
      "Claudi": 6794,
      "ip_T": 6795,
      "eball": 6796,
      "Camill": 6797,
      "Bread": 6798,
      "Special": 6799,
      "ork_": 6800,
      "Days_": 6801,
      "Guy_": 6802,
      "Boomer": 6803,
      "Human": 6804,
      "The_Secret_": 6805,
      "Steve_B": 6806,
      "Battle_of_": 6807,
      "_Heaven": 6808,
      "Jeff_Fah": 6809,
      "e_It_": 6810,
      "Bruce_": 6811,
      "Alien": 6812,
      "Pretty_": 6813,
      "irkland": 6814,
      "Florence_": 6815,
      "Destiny": 6816,
      "4860": 6817,
      "Bradley_": 6818,
      "Adventures_of_": 6819,
      "Terror": 6820,
      "Bleak": 6821,
      "Mimi_": 6822,
      "Robotech": 6823,
      "Episod": 6824,
      "Thieves": 6825,
      "Bruce_Broughton": 6826,
      "Cathy_": 6827,
      "Resurrection_": 6828,
      "depicts": 6829,
      "Käutner": 6830,
      "Jeff_Fahey": 6831,
      "87": 6832,
      "Desh": 6833,
      "Diamond": 6834,
      "Lenn": 6835,
      "Mitchell": 6836,
      "Net": 6837,
      "Puss": 6838,
      "Sex": 6839,
      "athe": 6840,
      "lives": 6841,
      "sing": 6842,
      "sbert": 6843,
      "orc": 6844,
      "andon": 6845,
      "icz": 6846,
      "used": 6847,
      "acre": 6848,
      "ulp": 6849,
      "aller": 6850,
      "Mari": 6851,
      "uge": 6852,
      "erno": 6853,
      "attemp": 6854,
      "ukla": 6855,
      "Adoor": 6856,
      "Rajesh": 6857,
      "Board": 6858,
      "antasm": 6859,
      "Rudolph": 6860,
      "enko": 6861,
      "brother": 6862,
      "Priyank": 6863,
      "akravarth": 6864,
      "Aut": 6865,
      "Dur": 6866,
      "Friend": 6867,
      "Zind": 6868,
      "eev": 6869,
      "hem": 6870,
      "wn": 6871,
      "aner": 6872,
      "ament": 6873,
      "a_Qu": 6874,
      "of_Blood": 6875,
      "_Sor": 6876,
      "_Sur": 6877,
      "_Sto": 6878,
      "_Benn": 6879,
      "_Back_": 6880,
      "o_E": 6881,
      "Chic": 6882,
      "an_Em": 6883,
      "_Ham": 6884,
      "_Hunt": 6885,
      "_Griffith": 6886,
      "_Ac": 6887,
      "away_": 6888,
      "ie_Davis": 6889,
      "1960s": 6890,
      "ark_": 6891,
      "El_": 6892,
      "e_Sweet": 6893,
      "enger": 6894,
      "a_Berner": 6895,
      "dez": 6896,
      "Rajan_P": 6897,
      "Moham": 6898,
      "Gret": 6899,
      "David_Hemmings": 6900,
      "Walker": 6901,
      "Sara_Berner": 6902,
      "Beyond_the_Law_": 6903,
      "_Schell": 6904,
      "_Marsh": 6905,
      "Bobby_": 6906,
      "Calc": 6907,
      "Regis_T": 6908,
      "Giann": 6909,
      "Between_Two_": 6910,
      "Queen_of_": 6911,
      "Pete": 6912,
      "Silva": 6913,
      "broadcast": 6914,
      "Front": 6915,
      "Puthiya_": 6916,
      "Bride_of_": 6917,
      "Bright_Light": 6918,
      "rouble_": 6919,
      "Robert_Folk": 6920,
      "radio": 6921,
      "Timothy_": 6922,
      "_Rubens": 6923,
      "_Deramas": 6924,
      "Beneath_the_": 6925,
      "called": 6926,
      "Balraj_Sahni": 6927,
      "Maximilian_Schell": 6928,
      "Mimi_Rogers": 6929,
      "Regis_Toomey": 6930,
      "Bart": 6931,
      "Lab": 6932,
      "Oleg": 6933,
      "Punn": 6934,
      "Ravi": 6935,
      "Saj": 6936,
      "Syd": 6937,
      "Talk": 6938,
      "br": 6939,
      "center": 6940,
      "ei": 6941,
      "fem": 6942,
      "alb": 6943,
      "itive": 6944,
      "Maril": 6945,
      "Dek": 6946,
      "ishi": 6947,
      "1929": 6948,
      "count": 6949,
      "achchan": 6950,
      "Brig": 6951,
      "Samar": 6952,
      "Brave": 6953,
      "ekha": 6954,
      "okh": 6955,
      "Phantasm": 6956,
      "Patel": 6957,
      "Eddie": 6958,
      "Canyon": 6959,
      "Daybreak": 6960,
      "Sean": 6961,
      "Television": 6962,
      "Luig": 6963,
      "Carnival": 6964,
      "420": 6965,
      "7140": 6966,
      "City_": 6967,
      "Good_": 6968,
      "If": 6969,
      "Jur": 6970,
      "Jug": 6971,
      "Kas": 6972,
      "Mum": 6973,
      "Never_": 6974,
      "Rex": 6975,
      "Teen": 6976,
      "Vers": 6977,
      "takes": 6978,
      "zz": 6979,
      "él": 6980,
      "ing_L": 6981,
      "s_Great": 6982,
      "_Ser": 6983,
      "osa": 6984,
      "_Bey": 6985,
      "ch_": 6986,
      "until": 6987,
      "_Hain": 6988,
      "_House": 6989,
      "_Lalitha": 6990,
      "aby_": 6991,
      "_Two": 6992,
      "_Kenn": 6993,
      "Its": 6994,
      "Care_": 6995,
      "Leo_": 6996,
      "en_Ch": 6997,
      "_Earth": 6998,
      "_Jung": 6999,
      "undar": 7000,
      "oka": 7001,
      "ible": 7002,
      "_Year": 7003,
      "e_Com": 7004,
      "a_Row": 7005,
      "Annie": 7006,
      "Moh": 7007,
      "ez_": 7008,
      "_Thom": 7009,
      "a_Del": 7010,
      "Forrest": 7011,
      "Prath": 7012,
      "working": 7013,
      "Hope": 7014,
      "Rangers_": 7015,
      "Rodri": 7016,
      "_Eng": 7017,
      "Bhale_": 7018,
      "e_Story": 7019,
      "nominations": 7020,
      "_Garc": 7021,
      "annah_": 7022,
      "Radha_Ravi": 7023,
      "Toronto": 7024,
      "Turk": 7025,
      "Judy_Davis": 7026,
      "Anup_Rubens": 7027,
      "_Mountain": 7028,
      "4680": 7029,
      "Carroll_Baker": 7030,
      "since": 7031,
      "Housefull_": 7032,
      "RoboCop": 7033,
      "Laglen": 7034,
      "owdhury": 7035,
      "collabor": 7036,
      "Bengali_language": 7037,
      "Wenn_V": 7038,
      "Trenchard": 7039,
      "Aud": 7040,
      "BBC": 7041,
      "Gail": 7042,
      "Jill": 7043,
      "Wit": 7044,
      "Ward": 7045,
      "dor": 7046,
      "dram": 7047,
      "done": 7048,
      "mam": 7049,
      "ually": 7050,
      "ør": 7051,
      "rix": 7052,
      "amama": 7053,
      "imm": 7054,
      "aks": 7055,
      "Joan": 7056,
      "Stra": 7057,
      "Stewart": 7058,
      "Deiv": 7059,
      "Bhook": 7060,
      "awson": 7061,
      "Qual": 7062,
      "Priyam": 7063,
      "ective": 7064,
      "Colin": 7065,
      "eddy": 7066,
      "Rangayan": 7067,
      "Boys": 7068,
      "Prince": 7069,
      "achelor": 7070,
      "journ": 7071,
      "followed": 7072,
      "Gan": 7073,
      "Hag": 7074,
      "Mov": 7075,
      "Moscow": 7076,
      "Rat": 7077,
      "__The_": 7078,
      "horn": 7079,
      "ilson": 7080,
      "diqui": 7081,
      "differ": 7082,
      "_Sing": 7083,
      "_Saw": 7084,
      "using": 7085,
      "_Ba": 7086,
      "_Bullet": 7087,
      "ira_K": 7088,
      "Roj": 7089,
      "Blossom": 7090,
      "apore": 7091,
      "_Wood": 7092,
      "_Rav": 7093,
      "John_Fran": 7094,
      "Dep": 7095,
      "_At": 7096,
      "arty_": 7097,
      "iant_": 7098,
      "_Story_": 7099,
      "ube": 7100,
      "Roberto_": 7101,
      "Michael_R": 7102,
      "Michael_T": 7103,
      "Michael_Murphy_": 7104,
      "Peril": 7105,
      "_Blanc": 7106,
      "Jane_": 7107,
      "Janis": 7108,
      "Hitman_": 7109,
      "Rogu": 7110,
      "_Heaven_": 7111,
      "prot": 7112,
      "s_Cop": 7113,
      "Cameron": 7114,
      "Rough_Rid": 7115,
      "Perfect_Strang": 7116,
      "John_Hannah_": 7117,
      "_Haysbert": 7118,
      "Gil_Bell": 7119,
      "Dennis_Haysbert": 7120,
      "del_Río": 7121,
      "Nathalie_": 7122,
      "_Russo": 7123,
      "en_Hamama": 7124,
      "theatrically": 7125,
      "Brazilian": 7126,
      "Dean_Jagger": 7127,
      "Faten_Hamama": 7128,
      "_Alex": 7129,
      "Filipino": 7130,
      "Vernon": 7131,
      "Kevin_Kline": 7132,
      "Elliott_": 7133,
      "Robert_Lowery_": 7134,
      "Calendar": 7135,
      "studio": 7136,
      "Helmut_Käutner": 7137,
      "Theatre": 7138,
      "akravarthy": 7139,
      "Gil_Bellows": 7140,
      "Ach": 7141,
      "Hend": 7142,
      "Jarr": 7143,
      "Kad": 7144,
      "Soh": 7145,
      "Ten": 7146,
      "Yellow": 7147,
      "do": 7148,
      "dem": 7149,
      "hot": 7150,
      "aren": 7151,
      "elt": 7152,
      "eleb": 7153,
      "lez": 7154,
      "Blank": 7155,
      "Any": 7156,
      "tog": 7157,
      "000": 7158,
      "Cliff": 7159,
      "Reign": 7160,
      "Graves": 7161,
      "ountain": 7162,
      "ssen": 7163,
      "ologn": 7164,
      "brook": 7165,
      "Reyes": 7166,
      "Pudhu": 7167,
      "rouble": 7168,
      "focuses": 7169,
      "Gordon_": 7170,
      "Jor": 7171,
      "Kul": 7172,
      "Mach": 7173,
      "ms": 7174,
      "major": 7175,
      "na_": 7176,
      "women": 7177,
      "ories_": 7178,
      "reshi": 7179,
      "es_Again": 7180,
      "am_K": 7181,
      "ator_": 7182,
      "Three": 7183,
      "s_of_M": 7184,
      "usp": 7185,
      "_Mull": 7186,
      "_Burn": 7187,
      "round": 7188,
      "_Hor": 7189,
      "uman_": 7190,
      "_Wolf": 7191,
      "_Park": 7192,
      "_Coll": 7193,
      "Stella_": 7194,
      "_the_M": 7195,
      "_TV_": 7196,
      "Alib": 7197,
      "Alone_": 7198,
      "udhu": 7199,
      "eyes": 7200,
      "_Aur": 7201,
      "Carthy": 7202,
      "Black_Beauty_": 7203,
      "_Ship": 7204,
      "eena": 7205,
      "ects": 7206,
      "Chris_M": 7207,
      "_Ven": 7208,
      "William_Sad": 7209,
      "ed_to_": 7210,
      "ously": 7211,
      "Blue_M": 7212,
      "Guil": 7213,
      "_Sea": 7214,
      "Doris": 7215,
      "a_Wat": 7216,
      "Mike": 7217,
      "Mike_": 7218,
      "189": 7219,
      "Jenny_": 7220,
      "Ride_": 7221,
      "Brian_Trenchard": 7222,
      "_Morita": 7223,
      "Ryan_": 7224,
      "Three_": 7225,
      "Luis_Rest": 7226,
      "Damian_": 7227,
      "_Rama_Rao": 7228,
      "Beverly_Hills_Cop": 7229,
      "Power_Rangers_": 7230,
      "Company": 7231,
      "Blondie_": 7232,
      "Potter": 7233,
      "Rod_Cameron_": 7234,
      "Metro": 7235,
      "Geraldine_": 7236,
      "picture": 7237,
      "Below_the_": 7238,
      "Cathy_Garcia": 7239,
      "William_Sadler_": 7240,
      "Luis_Resto_": 7241,
      "Tra": 7242,
      "Washington": 7243,
      "beg": 7244,
      "far": 7245,
      "like": 7246,
      "no": 7247,
      "ps": 7248,
      "rd": 7249,
      "yal": 7250,
      "ycl": 7251,
      "died": 7252,
      "atin": 7253,
      "ume": 7254,
      "umph": 7255,
      "JoBeth": 7256,
      "State": 7257,
      "athu": 7258,
      "Daven": 7259,
      "Adel": 7260,
      "ength": 7261,
      "ario": 7262,
      "issing": 7263,
      "Glob": 7264,
      "appearances": 7265,
      "Polish": 7266,
      "echn": 7267,
      "Ronald": 7268,
      "fourth": 7269,
      "Prairie": 7270,
      "Rugrat": 7271,
      "imental": 7272,
      "making": 7273,
      "Bav": 7274,
      "Bull": 7275,
      "Dim": 7276,
      "Gold_": 7277,
      "Jew": 7278,
      "Page": 7279,
      "Pull": 7280,
      "Wars": 7281,
      "aan_": 7282,
      "eur": 7283,
      "idi": 7284,
      "oy_": 7285,
      "zt": 7286,
      "dberg": 7287,
      "e_language": 7288,
      "asing": 7289,
      "ischer": 7290,
      "a_2": 7291,
      "a_O": 7292,
      "s_H": 7293,
      "s_Daughter": 7294,
      "olin": 7295,
      "oslav": 7296,
      "_Bill": 7297,
      "The_H": 7298,
      "aye_": 7299,
      "iger_": 7300,
      "_Husband": 7301,
      "umber": 7302,
      "_Dem": 7303,
      "_Lee": 7304,
      "Stone": 7305,
      "_Glen": 7306,
      "eym": 7307,
      "Bhoot_": 7308,
      "Careful": 7309,
      "with_": 7310,
      "Samay": 7311,
      "ughes": 7312,
      "lyric": 7313,
      "William_L": 7314,
      "_III": 7315,
      "1918": 7316,
      "_Yadav": 7317,
      "House_P": 7318,
      "Only_": 7319,
      "Raja": 7320,
      "Desire": 7321,
      "Prot": 7322,
      "ments": 7323,
      "David_Copper": 7324,
      "About_": 7325,
      "Harv": 7326,
      "Carlo_": 7327,
      "Drake": 7328,
      "Gary_": 7329,
      "Carolina_": 7330,
      "notable": 7331,
      "Frederick": 7332,
      "brothers": 7333,
      "Pierre": 7334,
      "fictional": 7335,
      "Donnell": 7336,
      "Halloween": 7337,
      "effer": 7338,
      "Rachel_Weis": 7339,
      "elvet": 7340,
      "port_": 7341,
      "_Michael": 7342,
      "movies": 7343,
      "Faith": 7344,
      "Indian_actress": 7345,
      "Dolores_": 7346,
      "Robert_Cummings": 7347,
      "Mischa_B": 7348,
      "Hotel_Transylvania_": 7349,
      "Susannah_York": 7350,
      "_The_Next_": 7351,
      "Saurabh": 7352,
      "Iain_Glen": 7353,
      "a_Raghu": 7354,
      "Gertrud": 7355,
      "Ossie_Davis": 7356,
      "Rangayana_Raghu": 7357,
      "David_Copperfield_": 7358,
      "Rachel_Weisz": 7359,
      "Dolores_del_Río": 7360,
      "Bram": 7361,
      "Cry": 7362,
      "Igor": 7363,
      "Pick": 7364,
      "Wyn": 7365,
      "married": 7366,
      "som": 7367,
      "suck": 7368,
      "êt": 7369,
      "Şen": 7370,
      "stem": 7371,
      "usep": 7372,
      "ador": 7373,
      "Johann": 7374,
      "Shaw": 7375,
      "1916": 7376,
      "Captiv": 7377,
      "Boil": 7378,
      "Against": 7379,
      "Broken": 7380,
      "Asner": 7381,
      "Whitford": 7382,
      "Horiz": 7383,
      "position": 7384,
      "directing": 7385,
      "small": 7386,
      "Radio": 7387,
      "olognini": 7388,
      "A_F": 7389,
      "Bib": 7390,
      "Between_": 7391,
      "Gay": 7392,
      "Len": 7393,
      "Lady_": 7394,
      "Mustaf": 7395,
      "Nann": 7396,
      "Vol": 7397,
      "_Christmas": 7398,
      "hi_": 7399,
      "iary": 7400,
      "je": 7401,
      "mik": 7402,
      "try": 7403,
      "zman": 7404,
      "inson": 7405,
      "iley": 7406,
      "stick": 7407,
      "a_Day": 7408,
      "ag_": 7409,
      "_Mark": 7410,
      "_Ball": 7411,
      "Chill": 7412,
      "over_": 7413,
      "_Hindi": 7414,
      "i_F": 7415,
      "Jourd": 7416,
      "ives_": 7417,
      "uts": 7418,
      "athon": 7419,
      "anted": 7420,
      "opera": 7421,
      "_Az": 7422,
      "Bhaj": 7423,
      "Black_But": 7424,
      "_Str": 7425,
      "_Shep": 7426,
      "og_": 7427,
      "occ": 7428,
      "econd_": 7429,
      "assidy": 7430,
      "Enn": 7431,
      "George_C": 7432,
      "William_Dev": 7433,
      "Dead_S": 7434,
      "Deadly_": 7435,
      "y_Madison": 7436,
      "eat_": 7437,
      "Christian_": 7438,
      "Casper": 7439,
      "Box": 7440,
      "y_Hunter": 7441,
      "Harold_": 7442,
      "_Beach": 7443,
      "Hitler_": 7444,
      "Martin_Donovan": 7445,
      "titles": 7446,
      "Joseph_F": 7447,
      "e_No": 7448,
      "Daniel_Stern": 7449,
      "_Enem": 7450,
      "e_Is_": 7451,
      "Rolling": 7452,
      "rising": 7453,
      "Eye_": 7454,
      "ypt": 7455,
      "Magn": 7456,
      "Baye": 7457,
      "Kids": 7458,
      "Boog": 7459,
      "Destiny_": 7460,
      "Waters": 7461,
      "Nikol": 7462,
      "Kathleen_": 7463,
      "Lloyd_Corrigan": 7464,
      "Legend": 7465,
      "_Home_": 7466,
      "Romantic_Warriors_II": 7467,
      "4320": 7468,
      "John_Frizz": 7469,
      "Prisoner_of_": 7470,
      "Bryan_Leung": 7471,
      "Blind_Date_": 7472,
      "Deborah_Kerr": 7473,
      "Episode_": 7474,
      "_Hindi_film": 7475,
      "William_Devane": 7476,
      "Daniel_Stern_": 7477,
      "John_Frizzell_": 7478,
      ".\"": 7479,
      "Bij": 7480,
      "Gop": 7481,
      "Kon": 7482,
      "Kate": 7483,
      "Lane": 7484,
      "Mani": 7485,
      "Nir": 7486,
      "Pac": 7487,
      "Ronn": 7488,
      "Tre": 7489,
      "zen": 7490,
      "inent": 7491,
      "anan": 7492,
      "rier": 7493,
      "oment": 7494,
      "etz": 7495,
      "Rot": 7496,
      "idd": 7497,
      "Sté": 7498,
      "Shil": 7499,
      "Maria": 7500,
      "ikumar": 7501,
      "azaki": 7502,
      "Edd": 7503,
      "Edm": 7504,
      "Tomorrow": 7505,
      "axter": 7506,
      "Sheil": 7507,
      "Express": 7508,
      "Adams": 7509,
      "Roomm": 7510,
      "Jonathan": 7511,
      "vestig": 7512,
      "Greene": 7513,
      "Domini": 7514,
      "Quinlan": 7515,
      "Jourdan": 7516,
      "Baw": 7517,
      "Gary": 7518,
      "Game": 7519,
      "Gér": 7520,
      "Post": 7521,
      "Pawn": 7522,
      "Rain_": 7523,
      "Tell": 7524,
      "Ush": 7525,
      "_Rock": 7526,
      "ft_": 7527,
      "oun": 7528,
      "weg": 7529,
      "wide": 7530,
      "watch": 7531,
      "zo_": 7532,
      "ég": 7533,
      "arb": 7534,
      "y_Sh": 7535,
      "y_and_the_": 7536,
      "Than_": 7537,
      "_Stop": 7538,
      "_Mass": 7539,
      "anguly": 7540,
      "Chat": 7541,
      "Blake": 7542,
      "Blanch": 7543,
      "iddiqui": 7544,
      "_His": 7545,
      "_Pass": 7546,
      "_Cle": 7547,
      "berry_": 7548,
      "_Lu": 7549,
      "shows": 7550,
      "Short": 7551,
      "_Ki_": 7552,
      "_Nob": 7553,
      "Army": 7554,
      "_Shaw": 7555,
      "_Shukla": 7556,
      "uki_H": 7557,
      "uster": 7558,
      "ing_of_the_": 7559,
      "William_F": 7560,
      "_Yee": 7561,
      "Edgar": 7562,
      "ush_": 7563,
      "offin": 7564,
      "Moon_": 7565,
      "a_Gu": 7566,
      "Janssen": 7567,
      "ham_": 7568,
      "i_Khan": 7569,
      "a_Turner": 7570,
      "ergus": 7571,
      "Privat": 7572,
      "Belle_": 7573,
      "Accident": 7574,
      "akshi": 7575,
      "Austin": 7576,
      "Cros": 7577,
      "Milburn": 7578,
      "aiders": 7579,
      "s_in_Boot": 7580,
      "Murray": 7581,
      "_Days": 7582,
      "Michel_Mag": 7583,
      "_Wars_": 7584,
      "Sally_K": 7585,
      "Valentin": 7586,
      "Yuen": 7587,
      "Scarlet": 7588,
      "Kyle_": 7589,
      "Ed_Asner": 7590,
      "Rekha_": 7591,
      "Lana_Turner": 7592,
      "Puss_in_Boot": 7593,
      "How_to_Make_": 7594,
      "couple": 7595,
      "South_Indian_actress": 7596,
      "JoBeth_Williams": 7597,
      "Michel_Magne": 7598,
      "Bess": 7599,
      "Fin": 7600,
      "Hatt": 7601,
      "Jordan": 7602,
      "Lud": 7603,
      "Live": 7604,
      "Mall": 7605,
      "Sapt": 7606,
      "acted": 7607,
      "kk": 7608,
      "list": 7609,
      "met": 7610,
      "narr": 7611,
      "nom": 7612,
      "taz": 7613,
      "zys": 7614,
      "asekhar": 7615,
      "isi": 7616,
      "amam": 7617,
      "angel": 7618,
      "theater": 7619,
      "adam": 7620,
      "exter": 7621,
      "Bharg": 7622,
      "Care": 7623,
      "ended": 7624,
      "achandran": 7625,
      "uka": 7626,
      "umaran": 7627,
      "Alej": 7628,
      "Flesh": 7629,
      "edited": 7630,
      "Carlo": 7631,
      "Newman": 7632,
      "Milton": 7633,
      "Week": 7634,
      "Ernst": 7635,
      "ecrets": 7636,
      "Raghav": 7637,
      "commercial": 7638,
      "ronicles": 7639,
      "6900": 7640,
      "Ful": 7641,
      "Ivan": 7642,
      "Kish": 7643,
      "Not_": 7644,
      "Ragh": 7645,
      "Sor": 7646,
      "Soul": 7647,
      "Ta": 7648,
      "Yves": 7649,
      "famous": 7650,
      "husband": 7651,
      "lal": 7652,
      "lock": 7653,
      "mán": 7654,
      "non": 7655,
      "nick": 7656,
      "piv": 7657,
      "vert": 7658,
      "web": 7659,
      "tham": 7660,
      "aly_": 7661,
      "ando": 7662,
      "ed_M": 7663,
      "Thir": 7664,
      "aguchi": 7665,
      "_Sex": 7666,
      "osaur": 7667,
      "itar": 7668,
      "_Batt": 7669,
      "_Brit": 7670,
      "_Baby": 7671,
      "The_Red": 7672,
      "aymond": 7673,
      "Cheat": 7674,
      "ova_": 7675,
      "ido": 7676,
      "i_Yam": 7677,
      "ute_": 7678,
      "_Dh": 7679,
      "_Wat": 7680,
      "_Water": 7681,
      "_Winter": 7682,
      "_Carr": 7683,
      "_Gr": 7684,
      "_Krishn": 7685,
      "_Fall": 7686,
      "John_P": 7687,
      "Hoc": 7688,
      "ust_": 7689,
      "asher": 7690,
      "Big_City_": 7691,
      "rol_": 7692,
      "George_M": 7693,
      "Rosem": 7694,
      "William_K": 7695,
      "_Ot": 7696,
      "Jamie_": 7697,
      "playwright": 7698,
      "Little_Women_": 7699,
      "Paul_G": 7700,
      "James_Russo": 7701,
      "_McLaglen": 7702,
      "a_Girl": 7703,
      "Requiem": 7704,
      "Battal": 7705,
      "Walt": 7706,
      "Walsh": 7707,
      "Johnny_D": 7708,
      "Angel_": 7709,
      "Henri": 7710,
      "_White": 7711,
      "Gena_Row": 7712,
      "umbai": 7713,
      "Joseph_P": 7714,
      "The_Fight": 7715,
      "included": 7716,
      "_Art": 7717,
      "Hope_": 7718,
      "o_Bolognini": 7719,
      "Born_to_": 7720,
      "Lauren": 7721,
      "Mayer": 7722,
      "Dana_Del": 7723,
      "Saturd": 7724,
      "illions": 7725,
      "_Days_": 7726,
      "_Wilson": 7727,
      "vester": 7728,
      "Dawn_of_the_": 7729,
      "voice_": 7730,
      "Persona_3": 7731,
      "Derek_Yee": 7732,
      "ydon": 7733,
      "_Ashmore": 7734,
      "7020": 7735,
      "Barbara_Eden": 7736,
      "number": 7737,
      "Supporting": 7738,
      "Phillip": 7739,
      "Ahs": 7740,
      "Calamity_": 7741,
      "Starring": 7742,
      "Horrible_": 7743,
      "Louis_Jourdan": 7744,
      "Bradley_Whitford": 7745,
      "Nathalie_Baye": 7746,
      "Mischa_Barton": 7747,
      "Saurabh_Shukla": 7748,
      "Stéphan": 7749,
      "pivotal": 7750,
      "Gena_Rowlands": 7751,
      "Dana_Delany": 7752,
      "Persona_3_The_Movie": 7753,
      "Cit": 7754,
      "Ear": 7755,
      "Foot": 7756,
      "Rap": 7757,
      "Srid": 7758,
      "Sound": 7759,
      "dubb": 7760,
      "hil": 7761,
      "oen": 7762,
      "ohan": 7763,
      "sid": 7764,
      "rial": 7765,
      "lev": 7766,
      "Chad": 7767,
      "akumar": 7768,
      "ardo": 7769,
      "Bhooth": 7770,
      "Bhaskar": 7771,
      "Carson": 7772,
      "iani": 7773,
      "etwork": 7774,
      "huahu": 7775,
      "Delhi": 7776,
      "Nights": 7777,
      "uvard": 7778,
      "Lucas": 7779,
      "Magic": 7780,
      "Verma": 7781,
      "point": 7782,
      "Leslie": 7783,
      "Vampire": 7784,
      "location": 7785,
      "Vishnuvard": 7786,
      "together": 7787,
      "Bus": 7788,
      "Bash": 7789,
      "Cash": 7790,
      "Cru": 7791,
      "Do": 7792,
      "Dan_": 7793,
      "Dul": 7794,
      "Father": 7795,
      "Lake": 7796,
      "Voy": 7797,
      "ej": 7798,
      "go_": 7799,
      "how": 7800,
      "pear": 7801,
      "suk": 7802,
      "enth": 7803,
      "isa": 7804,
      "ised": 7805,
      "ato_": 7806,
      "adev": 7807,
      "etim": 7808,
      "ir_": 7809,
      "Channel": 7810,
      "akaz": 7811,
      "_Dub": 7812,
      "emick": 7813,
      "_Cost": 7814,
      "_Ka": 7815,
      "isher": 7816,
      "Carbon": 7817,
      "1923": 7818,
      "Lee_R": 7819,
      "odd": 7820,
      "_Shor": 7821,
      "_Sheffer": 7822,
      "que_L": 7823,
      "e_Morris_": 7824,
      "Prav": 7825,
      "ette_": 7826,
      "Rosie_": 7827,
      "Elliott": 7828,
      "Pat_Morita": 7829,
      "_Chatterjee": 7830,
      "One_M": 7831,
      "Jack_L": 7832,
      "Bluff": 7833,
      "Blue_C": 7834,
      "Tommy_": 7835,
      "Blood_Brothers_": 7836,
      "y_We": 7837,
      "Sea_": 7838,
      "Lewis_": 7839,
      "Hot_T": 7840,
      "Justin": 7841,
      "Ken_Lo": 7842,
      "ayanam_": 7843,
      "aylor_": 7844,
      "Batman_Unlimited": 7845,
      "_Berlin": 7846,
      "_Hero_": 7847,
      "Big_Business_": 7848,
      "Craig_Sheffer": 7849,
      "9000": 7850,
      "Under_the_": 7851,
      "iracle_": 7852,
      "Lawrence_": 7853,
      "Legend_of_": 7854,
      "Chihuahu": 7855,
      "_Return": 7856,
      "Phillips": 7857,
      "Mauro_Bolognini": 7858,
      "Shirley_Temple": 7859,
      "Europe": 7860,
      "Brewster": 7861,
      "_Bhasi": 7862,
      "a_Qureshi": 7863,
      "centers": 7864,
      "Kathleen_Quinlan": 7865,
      "Lee_Remick": 7866,
      "Ken_Loach": 7867,
      "Hass": 7868,
      "Lup": 7869,
      "Pil": 7870,
      "Rust": 7871,
      "Water": 7872,
      "hai": 7873,
      "sey": 7874,
      "ref": 7875,
      "ayak": 7876,
      "Chir": 7877,
      "ides": 7878,
      "umn": 7879,
      "Anat": 7880,
      "iva": 7881,
      "rahm": 7882,
      "Priest": 7883,
      "season": 7884,
      "Evid": 7885,
      "utherland": 7886,
      "Private": 7887,
      "Brothers": 7888,
      "Command": 7889,
      "Monster": 7890,
      "Meliss": 7891,
      "Before": 7892,
      "Listen": 7893,
      "model": 7894,
      "Inspector": 7895,
      "Rodriguez": 7896,
      "aney": 7897,
      "A_C": 7898,
      "Cav": 7899,
      "Dil": 7900,
      "Darr": 7901,
      "Doo": 7902,
      "Dais": 7903,
      "Ib": 7904,
      "Ice_": 7905,
      "Liz": 7906,
      "Luke": 7907,
      "Men_": 7908,
      "Pay_": 7909,
      "Rio_": 7910,
      "Rele": 7911,
      "bud": 7912,
      "dar": 7913,
      "lik": 7914,
      "pital": 7915,
      "yat": 7916,
      "alem": 7917,
      "agal": 7918,
      "enton": 7919,
      "_Sent": 7920,
      "_Sund": 7921,
      "_More": 7922,
      "_Meet": 7923,
      "_Bor": 7924,
      "_Bryn": 7925,
      "The_Little_": 7926,
      "The_New": 7927,
      "ayer": 7928,
      "_Haw": 7929,
      "_Home": 7930,
      "_Def": 7931,
      "fort": 7932,
      "_Reb": 7933,
      "ikari": 7934,
      "1922": 7935,
      "_Stewart": 7936,
      "achar": 7937,
      "ewell": 7938,
      "aus_": 7939,
      "Perkins": 7940,
      "Home_Sweet": 7941,
      "in_the_Dark": 7942,
      "ussi": 7943,
      "Herman": 7944,
      "Case": 7945,
      "David_W": 7946,
      "Flight": 7947,
      "West_": 7948,
      "_Befor": 7949,
      "_End_": 7950,
      "ma_Blair": 7951,
      "_Wild_": 7952,
      "_Wilson_": 7953,
      "Artist": 7954,
      "Julie_Andrews": 7955,
      "lynn": 7956,
      "_Love_You": 7957,
      "abbit": 7958,
      "Happiness": 7959,
      "_Russell_": 7960,
      "_Star_Wars_": 7961,
      "Beware_": 7962,
      "performances": 7963,
      "Riccard": 7964,
      "Intertitle": 7965,
      "Elliot_": 7966,
      "Peter_Weller": 7967,
      "Jimmy_L": 7968,
      "Krzys": 7969,
      "Everyth": 7970,
      "Kannada_actor": 7971,
      "Wayne_Morris_": 7972,
      "Gillian_Anderson": 7973,
      "CBS": 7974,
      "onymous": 7975,
      "Charles_Coburn": 7976,
      "Italian_language": 7977,
      "Mustafa_Qureshi": 7978,
      "Sally_Kirkland": 7979,
      "_Star_Wars_Episode_": 7980,
      "Krzyszt": 7981,
      "Are": 7982,
      "Baz": 7983,
      "DC": 7984,
      "Lock": 7985,
      "Lax": 7986,
      "Pas": 7987,
      "Sick": 7988,
      "Wand": 7989,
      "Wang": 7990,
      "Zo": 7991,
      "fist": 7992,
      "hman": 7993,
      "hash": 7994,
      "mix": 7995,
      "rí": 7996,
      "true": 7997,
      "trilogy": 7998,
      "ás": 7999,
      "inha": 8000,
      "rees": 8001,
      "Thed": 8002,
      "rob": 8003,
      "ooter": 8004,
      "acker": 8005,
      "aba": 8006,
      "alla": 8007,
      "Alb": 8008,
      "ahin": 8009,
      "iki": 8010,
      "1925": 8011,
      "comb": 8012,
      "1950s": 8013,
      "arly": 8014,
      "ecc": 8015,
      "Primar": 8016,
      "Allison": 8017,
      "Rockies": 8018,
      "Bloodfist": 8019,
      "atherine": 8020,
      "theaters": 8021,
      "Laurent": 8022,
      "icolor": 8023,
      "viol": 8024,
      "Bewitch": 8025,
      "onzo": 8026,
      "Singapore": 8027,
      "anerjee": 8028,
      "different": 8029,
      "Catherine_": 8030,
      "Dall": 8031,
      "Fay_": 8032,
      "Hus": 8033,
      "Lance_": 8034,
      "Pi": 8035,
      "Sug": 8036,
      "Six": 8037,
      "m_": 8038,
      "wood_": 8039,
      "ée": 8040,
      "right_": 8041,
      "did": 8042,
      "isode": 8043,
      "amma": 8044,
      "at_W": 8045,
      "ically": 8046,
      "ed_H": 8047,
      "terbur": 8048,
      "writing": 8049,
      "adine": 8050,
      "_Min": 8051,
      "_Mill": 8052,
      "_Mask": 8053,
      "ura_": 8054,
      "The_Lov": 8055,
      "chik": 8056,
      "illon": 8057,
      "_Hoff": 8058,
      "usic_S": 8059,
      "_Die": 8060,
      "_Dollar": 8061,
      "_Wish": 8062,
      "_Plan": 8063,
      "_Lives": 8064,
      "Sheldon": 8065,
      "_Ru": 8066,
      "_Tom": 8067,
      "Along": 8068,
      "_Gray": 8069,
      "_Game_": 8070,
      "ress_": 8071,
      "_A_Pro": 8072,
      "anned": 8073,
      "ishing": 8074,
      "ish_film": 8075,
      "ie_L": 8076,
      "ache": 8077,
      "attori": 8078,
      "ateg": 8079,
      "asha": 8080,
      "a_Million": 8081,
      "All_the_": 8082,
      "_and_M": 8083,
      "_Cheng": 8084,
      "House_of_the_": 8085,
      "Christine_": 8086,
      "_Blond": 8087,
      "_Blue": 8088,
      "Tom_Conway": 8089,
      "hai_": 8090,
      "Blood_of_the_": 8091,
      "Blood_on_the_": 8092,
      "Guiller": 8093,
      "Santa_B": 8094,
      "oul_": 8095,
      "ian_language": 8096,
      "Richardson": 8097,
      "Donald_Woods_": 8098,
      "Jayaram": 8099,
      "_Clark": 8100,
      "Adam_West": 8101,
      "Victoria_": 8102,
      "Mel_Blanc": 8103,
      "Romance_of_": 8104,
      "Phantom_of_the_": 8105,
      "ichols": 8106,
      "Vinay_": 8107,
      "akrabarty": 8108,
      "_Garber": 8109,
      "_Garfield": 8110,
      "Bride_of_the_": 8111,
      "Wallace": 8112,
      "Bewaf": 8113,
      "kenheimer": 8114,
      "Bryan": 8115,
      "_Midnight_": 8116,
      "Connor": 8117,
      "Battlestar": 8118,
      "Brahmach": 8119,
      "prison": 8120,
      "Viktor": 8121,
      "Sylvia_": 8122,
      "Selma_Blair": 8123,
      "_Alej": 8124,
      "gressive_M": 8125,
      "becomes": 8126,
      "Prosper": 8127,
      "_Welsh": 8128,
      "Life_of_": 8129,
      "Olivia_Williams": 8130,
      "Irving": 8131,
      "a_Bara": 8132,
      "8400": 8133,
      "Vengeance": 8134,
      "Yul_Bryn": 8135,
      "John_Frankenheimer": 8136,
      "Perfect_Strangers_": 8137,
      "Stella_Stevens": 8138,
      "House_Party_": 8139,
      "budget": 8140,
      "terbury_T": 8141,
      "_A_Progressive_M": 8142,
      "Yul_Brynner": 8143,
      "_A_Progressive_Music_S": 8144,
      "Carry": 8145,
      "Drew": 8146,
      "Gur": 8147,
      "Look": 8148,
      "Past": 8149,
      "Peng": 8150,
      "Rach": 8151,
      "Vitt": 8152,
      "Vadi": 8153,
      "Wes": 8154,
      "crim": 8155,
      "mare": 8156,
      "sang": 8157,
      "ão": 8158,
      "aling": 8159,
      "Thief": 8160,
      "terling": 8161,
      "etto": 8162,
      "igar": 8163,
      "evney": 8164,
      "otto": 8165,
      "Shakt": 8166,
      "ouk": 8167,
      "Aless": 8168,
      "ugs": 8169,
      "rani": 8170,
      "ikal": 8171,
      "Bhoot": 8172,
      "Carib": 8173,
      "1924": 8174,
      "ennie": 8175,
      "arling": 8176,
      "quest": 8177,
      "Peck": 8178,
      "hana": 8179,
      "ibson": 8180,
      "Patri": 8181,
      "ricane": 8182,
      "Evans": 8183,
      "Grey": 8184,
      "Honour": 8185,
      "edith": 8186,
      "Hitman": 8187,
      "Agent": 8188,
      "Again": 8189,
      "Russia": 8190,
      "Miles": 8191,
      "credi": 8192,
      "Francisco": 8193,
      "Murphy": 8194,
      "nomination": 8195,
      "record": 8196,
      "England": 8197,
      "Zhang": 8198,
      "Beloved": 8199,
      "onderful": 8200,
      "Dominic": 8201,
      "echnicolor": 8202,
      "Crist": 8203,
      "Eas": 8204,
      "Fool": 8205,
      "Hann": 8206,
      "Lok": 8207,
      "Puri": 8208,
      "Sah": 8209,
      "Vic": 8210,
      "Wri": 8211,
      "Yuri": 8212,
      "_miniseries": 8213,
      "ball_": 8214,
      "fest": 8215,
      "g_": 8216,
      "oi": 8217,
      "wen": 8218,
      "wala": 8219,
      "zy": 8220,
      "in_D": 8221,
      "ility": 8222,
      "on_T": 8223,
      "atra": 8224,
      "at_G": 8225,
      "a_Al": 8226,
      "a_and_the_": 8227,
      "ages_": 8228,
      "ente": 8229,
      "_Saf": 8230,
      "_Summer": 8231,
      "_Bat": 8232,
      "aces_": 8233,
      "chu": 8234,
      "ill_": 8235,
      "illac": 8236,
      "Bless_": 8237,
      "event": 8238,
      "_Wars": 8239,
      "_Pand": 8240,
      "ements": 8241,
      "emories": 8242,
      "_Card": 8243,
      "_Cont": 8244,
      "_the_Movie": 8245,
      "_Rising": 8246,
      "_Fox": 8247,
      "_Att": 8248,
      "epic": 8249,
      "1970s": 8250,
      "_Steven": 8251,
      "Bright": 8252,
      "_Ja": 8253,
      "inda_": 8254,
      "quis": 8255,
      "ce_of_": 8256,
      "e_Me_": 8257,
      "Roses_": 8258,
      "ision_": 8259,
      "William_H": 8260,
      "a_Mal": 8261,
      "Andy": 8262,
      "e_Se": 8263,
      "Dead_Men": 8264,
      "1914": 8265,
      "Allen_": 8266,
      "Devd": 8267,
      "Julie": 8268,
      "James_B": 8269,
      "_McDon": 8270,
      "Roberts_": 8271,
      "i_Ka": 8272,
      "Rama": 8273,
      "orsy": 8274,
      "Hit_Par": 8275,
      "antha": 8276,
      "_Marg": 8277,
      "_Paradis": 8278,
      "e_Raymond": 8279,
      "of_Sil": 8280,
      "Gene_Raymond": 8281,
      "Khanna": 8282,
      "fly_": 8283,
      "Victor_Garber": 8284,
      "Daughter_of_": 8285,
      "Kathryn": 8286,
      "month": 8287,
      "Australian_": 8288,
      "Mac_Alej": 8289,
      "_Hayes": 8290,
      "Spanish_language": 8291,
      "Radhika_": 8292,
      "Psycho_": 8293,
      "acclaim": 8294,
      "Bleach": 8295,
      "7080": 8296,
      "John_Brahm": 8297,
      "Claire_": 8298,
      "Court": 8299,
      "become": 8300,
      "Percy_": 8301,
      "standing": 8302,
      "Natalie_Wood": 8303,
      "Blackbird_": 8304,
      "Ursula_": 8305,
      "Wagner": 8306,
      "Caravan_": 8307,
      "Damian_Lau": 8308,
      "Boogey": 8309,
      "Mac_Alejandre": 8310,
      "Bah": 8311,
      "Biw": 8312,
      "Doll": 8313,
      "Ice": 8314,
      "Medi": 8315,
      "Orig": 8316,
      "Sai": 8317,
      "Seth": 8318,
      "Sara": 8319,
      "Suz": 8320,
      "Tosh": 8321,
      "Yash": 8322,
      "cover": 8323,
      "publ": 8324,
      "arang": 8325,
      "start": 8326,
      "enes": 8327,
      "eda": 8328,
      "omic": 8329,
      "Chakraborty": 8330,
      "Root": 8331,
      "athar": 8332,
      "ckhart": 8333,
      "Int": 8334,
      "1980s": 8335,
      "actica": 8336,
      "odern": 8337,
      "associ": 8338,
      "otten": 8339,
      "2023": 8340,
      "Gray": 8341,
      "Flam": 8342,
      "Abraham": 8343,
      "Colomb": 8344,
      "Francesc": 8345,
      "Kennedy": 8346,
      "flix": 8347,
      "Haywood": 8348,
      "akespear": 8349,
      "previously": 8350,
      "Rafael": 8351,
      "arshan": 8352,
      "members": 8353,
      "Empire": 8354,
      "enstern": 8355,
      "Netflix": 8356,
      "dubbed": 8357,
      "6960": 8358,
      "Ariz": 8359,
      "Coy": 8360,
      "Dri": 8361,
      "Dani": 8362,
      "Eil": 8363,
      "KO": 8364,
      "Lin_Sh": 8365,
      "Secret_": 8366,
      "Trans": 8367,
      "Tucker": 8368,
      "Witch": 8369,
      "_of_M": 8370,
      "mit": 8371,
      "oos": 8372,
      "td": 8373,
      "uf": 8374,
      "uit": 8375,
      "vyn": 8376,
      "view": 8377,
      "ří": 8378,
      "arily": 8379,
      "ilani": 8380,
      "erk": 8381,
      "inger_": 8382,
      "rif": 8383,
      "aldi": 8384,
      "askin": 8385,
      "ises": 8386,
      "isler": 8387,
      "a_Le": 8388,
      "eless": 8389,
      "elchin": 8390,
      "y_Don": 8391,
      "s_Island": 8392,
      "_Sun": 8393,
      "avathi": 8394,
      "_Happ": 8395,
      "They": 8396,
      "Anit": 8397,
      "utton": 8398,
      "_Das": 8399,
      "_Dim": 8400,
      "_Wall": 8401,
      "_Pleas": 8402,
      "_Priv": 8403,
      "for_S": 8404,
      "_Can_": 8405,
      "_Cra": 8406,
      "_Temp": 8407,
      "_Turner": 8408,
      "Ali_": 8409,
      "Alley": 8410,
      "_Good": 8411,
      "_Kiss": 8412,
      "mani": 8413,
      "aines": 8414,
      "Cargo_": 8415,
      "oda": 8416,
      "_Stev": 8417,
      "_Jan": 8418,
      "_James": 8419,
      "Samson_": 8420,
      "Franco": 8421,
      "ette_M": 8422,
      "on_a_": 8423,
      "William_Mc": 8424,
      "e_Spr": 8425,
      "Dead_End_": 8426,
      "Billa_": 8427,
      "y_Murphy": 8428,
      "a_Reed": 8429,
      "Peter_S": 8430,
      "Reck": 8431,
      "_Brown_": 8432,
      "Henrik": 8433,
      "Steve_C": 8434,
      "Jerry": 8435,
      "Austri": 8436,
      "vili": 8437,
      "Goldwyn": 8438,
      "urtis": 8439,
      "Darkness": 8440,
      "Rudolf": 8441,
      "Olivier": 8442,
      "Juan_": 8443,
      "Veronic": 8444,
      "Mrs": 8445,
      "Kenneth_Welsh": 8446,
      "Dorothy": 8447,
      "ainbow": 8448,
      "Destination": 8449,
      "Water_": 8450,
      "Venice": 8451,
      "Psycho": 8452,
      "_Smith_": 8453,
      "Philippines": 8454,
      "Restless_": 8455,
      "4560": 8456,
      "Caged_": 8457,
      "_Canterbury_T": 8458,
      "Paol": 8459,
      "_After": 8460,
      "_Kaplan": 8461,
      "Jeffrey_Hunter": 8462,
      "Breaking_New": 8463,
      "Brittan": 8464,
      "7500": 8465,
      "Stephan": 8466,
      "_Varalakshmi": 8467,
      "stinct": 8468,
      "_Brody": 8469,
      "Amrita_Singh": 8470,
      "Tetsu": 8471,
      "Robinson_Crusoe_": 8472,
      "Milburn_Stone": 8473,
      "Joseph_Pevney": 8474,
      "Jimmy_Lydon": 8475,
      "Theda_Bara": 8476,
      "Radhika_Apte": 8477,
      "Lin_Shaye": 8478,
      "Adit": 8479,
      "Bim": 8480,
      "Cort": 8481,
      "Duck": 8482,
      "Dirk": 8483,
      "Farr": 8484,
      "Gam": 8485,
      "Hust": 8486,
      "Mast": 8487,
      "Morg": 8488,
      "Powd": 8489,
      "Slav": 8490,
      "Summer": 8491,
      "Sleep": 8492,
      "cy": 8493,
      "cis": 8494,
      "dou": 8495,
      "human": 8496,
      "jad": 8497,
      "length": 8498,
      "wai": 8499,
      "andam": 8500,
      "olt": 8501,
      "Theod": 8502,
      "ichael": 8503,
      "ieux": 8504,
      "ikala": 8505,
      "Bhakth": 8506,
      "Sampo": 8507,
      "Bron": 8508,
      "here": 8509,
      "Bates": 8510,
      "Boom": 8511,
      "antham": 8512,
      "uzet": 8513,
      "Comedy": 8514,
      "Kathar": 8515,
      "marks": 8516,
      "Nicolas": 8517,
      "Danny": 8518,
      "subject": 8519,
      "helm": 8520,
      "Pushp": 8521,
      "Rules": 8522,
      "Tobin": 8523,
      "western": 8524,
      "Wheeler": 8525,
      "akespeare": 8526,
      "Es": 8527,
      "Hrud": 8528,
      "Ny": 8529,
      "Nair": 8530,
      "Pens": 8531,
      "Sadd": 8532,
      "Srinivas": 8533,
      "Tenn": 8534,
      "Uday": 8535,
      "Years": 8536,
      "aat_": 8537,
      "eevi": 8538,
      "jit": 8539,
      "nath": 8540,
      "uart": 8541,
      "oro": 8542,
      "eni_": 8543,
      "ris_": 8544,
      "alt": 8545,
      "amer": 8546,
      "y_Ch": 8547,
      "_Sac": 8548,
      "_Sab": 8549,
      "ade_of_": 8550,
      "_Ma": 8551,
      "_Mand": 8552,
      "owsky": 8553,
      "ions_": 8554,
      "aker_": 8555,
      "Anita_": 8556,
      "_Cent": 8557,
      "_Carl": 8558,
      "_Lang": 8559,
      "_Language": 8560,
      "abad": 8561,
      "Shannon": 8562,
      "arde": 8563,
      "Alone": 8564,
      "_Gill": 8565,
      "_Ker": 8566,
      "_Kore": 8567,
      "In_": 8568,
      "Black_Mag": 8569,
      "_Strik": 8570,
      "Peep": 8571,
      "eena_": 8572,
      "Big_J": 8573,
      "Elis": 8574,
      "appears": 8575,
      "Michael_W": 8576,
      "Michael_G": 8577,
      "1915": 8578,
      "Eddie_": 8579,
      "Christin": 8580,
      "a_Berg": 8581,
      "beck": 8582,
      "Raju": 8583,
      "Ann_D": 8584,
      "Annab": 8585,
      "iya_K": 8586,
      "Sandh": 8587,
      "Proph": 8588,
      "Prem_Naz": 8589,
      "Gerard": 8590,
      "Break_": 8591,
      "The_My": 8592,
      "aldwin": 8593,
      "anther": 8594,
      "return": 8595,
      "Caprice_": 8596,
      "Southern": 8597,
      "Baby_": 8598,
      "Blind_Justice_": 8599,
      "andro_": 8600,
      "Patrick_": 8601,
      "s_Coffin": 8602,
      "_Wills": 8603,
      "compet": 8604,
      "Phantom_": 8605,
      "Sarah_Paul": 8606,
      "Chris_Haywood": 8607,
      "orm_": 8608,
      "Boogie_": 8609,
      "Elizabeth_McG": 8610,
      "an_Barr": 8611,
      "Lee_Marvin": 8612,
      "Betty": 8613,
      "Horse_": 8614,
      "Nathan_Barr": 8615,
      "Talb": 8616,
      "Lucky_": 8617,
      "Sanjay_": 8618,
      "ociety_": 8619,
      "End_of_the_": 8620,
      "4620": 8621,
      "Regina_Hall": 8622,
      "Kathleen_Turner": 8623,
      "Marjorie_Reynolds": 8624,
      "reasure": 8625,
      "Beauty_and_the_Beast_": 8626,
      "Cheung": 8627,
      "Samantha_": 8628,
      "Born_to_B": 8629,
      "Takayuki_H": 8630,
      "Lakshmi_": 8631,
      "Homeward": 8632,
      "Puzzle_": 8633,
      "Mohan_Joshi": 8634,
      "Pettico": 8635,
      "an_Khan_": 8636,
      "Sampoorn": 8637,
      "Black_Magic_": 8638,
      "Sarah_Paulson": 8639,
      "Takayuki_Hattori": 8640,
      "Arab": 8641,
      "Fritz": 8642,
      "Kab": 8643,
      "Mul": 8644,
      "Main": 8645,
      "Master": 8646,
      "Nish": 8647,
      "Never": 8648,
      "NBC": 8649,
      "Pá": 8650,
      "Sapp": 8651,
      "Vacation": 8652,
      "Wife": 8653,
      "hir": 8654,
      "nes": 8655,
      "roll": 8656,
      "wald": 8657,
      "reck": 8658,
      "amor": 8659,
      "Chev": 8660,
      "otter": 8661,
      "Shan": 8662,
      "Marth": 8663,
      "raman": 8664,
      "Arrow": 8665,
      "aze": 8666,
      "Samud": 8667,
      "order": 8668,
      "ours": 8669,
      "neo": 8670,
      "Josef": 8671,
      "maid": 8672,
      "Cole": 8673,
      "Teres": 8674,
      "leader": 8675,
      "Armand": 8676,
      "Mahesh": 8677,
      "Imp": 8678,
      "Hostel": 8679,
      "Ishq": 8680,
      "Troub": 8681,
      "positive": 8682,
      "baum": 8683,
      "Felic": 8684,
      "Judgment": 8685,
      "Potts": 8686,
      "primarily": 8687,
      "Vittor": 8688,
      "Cro": 8689,
      "Cohen": 8690,
      "Dilip": 8691,
      "Jes": 8692,
      "Kin": 8693,
      "Rolf": 8694,
      "RKO": 8695,
      "Zan": 8696,
      "_It": 8697,
      "bal": 8698,
      "back_": 8699,
      "cop": 8700,
      "ke_": 8701,
      "latter": 8702,
      "rose": 8703,
      "u_H": 8704,
      "wid": 8705,
      "are_": 8706,
      "into_": 8707,
      "ilt": 8708,
      "e_2": 8709,
      "y_Le": 8710,
      "agan_": 8711,
      "s_Dream": 8712,
      "_Sn": 8713,
      "_Song": 8714,
      "_Maj": 8715,
      "_Mukherjee": 8716,
      "urch": 8717,
      "_Bhar": 8718,
      "acle_": 8719,
      "o_A": 8720,
      "Roots": 8721,
      "ig_": 8722,
      "ooby": 8723,
      "ray_": 8724,
      "Amy_": 8725,
      "_Ph": 8726,
      "_Long": 8727,
      "_Rev": 8728,
      "_Gener": 8729,
      "rescher": 8730,
      "John_T": 8731,
      "ople_": 8732,
      "ahir": 8733,
      "_Not_": 8734,
      "coming_": 8735,
      "_Street_": 8736,
      "_Eag": 8737,
      "_Ele": 8738,
      "inee": 8739,
      "Rosen": 8740,
      "oster_": 8741,
      "How_I": 8742,
      "e_Sch": 8743,
      "Michael_O": 8744,
      "_and_Del": 8745,
      "_Yelchin": 8746,
      "phot": 8747,
      "4080": 8748,
      "Edg": 8749,
      "Little_Red": 8750,
      "Robert_D": 8751,
      "Jack_El": 8752,
      "air_": 8753,
      "_Blue_": 8754,
      "Moor": 8755,
      "Sanada_": 8756,
      "Alek": 8757,
      "e_Land": 8758,
      "Ramon": 8759,
      "ox_": 8760,
      "Terence_": 8761,
      "ouls_": 8762,
      "Keep": 8763,
      "e_Trail": 8764,
      "Bob_": 8765,
      "Louise": 8766,
      "kins_": 8767,
      "a_Cassidy": 8768,
      "ront_": 8769,
      "Angels": 8770,
      "Resist": 8771,
      "Malayalam_": 8772,
      "Anton_Yelchin": 8773,
      "_Club": 8774,
      "a_Woman": 8775,
      "Caroline_": 8776,
      "Laurence_": 8777,
      "Range": 8778,
      "Jesse_": 8779,
      "How_to_Be_": 8780,
      "yps": 8781,
      "Raoul": 8782,
      "_Days_in": 8783,
      "Virg": 8784,
      "Emilio_": 8785,
      "Puli_": 8786,
      "_Evil_": 8787,
      "Claude": 8788,
      "_Perfect": 8789,
      "Sky_": 8790,
      "portrayal": 8791,
      "iver_Us_": 8792,
      "Rebecc": 8793,
      "Tris_Coffin": 8794,
      "_People_": 8795,
      "Ruggl": 8796,
      "Nancy_": 8797,
      "_Moore": 8798,
      "Joanna_Cassidy": 8799,
      "Adventure_": 8800,
      "Neal_McDon": 8801,
      "Rhond": 8802,
      "ed_Siddiqui": 8803,
      "Javed_Siddiqui": 8804,
      "involv": 8805,
      "_Chapter_": 8806,
      "_Howard": 8807,
      "Beverly_Hills_Chihuahu": 8808,
      "_Everett": 8809,
      "Renegades_": 8810,
      "uter_Space": 8811,
      "Keefe": 8812,
      "_Up_the_": 8813,
      "performed": 8814,
      "Jeetendra": 8815,
      "Rupert_Graves": 8816,
      "Rumble_": 8817,
      "female": 8818,
      "Daybreak_": 8819,
      "Chill_Wills": 8820,
      "voice_actor": 8821,
      "mixed": 8822,
      "Hit_Parade_of_": 8823,
      "Prem_Nazir": 8824,
      "Elizabeth_McGovern": 8825,
      "Petticoat": 8826,
      "iver_Us_from": 8827,
      "Neal_McDonough": 8828,
      "91": 8829,
      "AF": 8830,
      "Dexter": 8831,
      "Frid": 8832,
      "Feature": 8833,
      "Nil": 8834,
      "Pé": 8835,
      "Ranch": 8836,
      "bury": 8837,
      "cle": 8838,
      "ethe": 8839,
      "fif": 8840,
      "fare": 8841,
      "just": 8842,
      "áv": 8843,
      "arc": 8844,
      "ature": 8845,
      "educ": 8846,
      "owl": 8847,
      "chel": 8848,
      "irō": 8849,
      "Stand": 8850,
      "Shak": 8851,
      "Inv": 8852,
      "ainter": 8853,
      "ahiri": 8854,
      "ickman": 8855,
      "Pear": 8856,
      "Closed": 8857,
      "Enough": 8858,
      "Sansh": 8859,
      "Abd": 8860,
      "Sheedy": 8861,
      "Carlsson": 8862,
      "Terry": 8863,
      "ansom": 8864,
      "Hopper": 8865,
      "Ort": 8866,
      "Stanley": 8867,
      "Trac": 8868,
      "Animal": 8869,
      "Animation": 8870,
      "voices": 8871,
      "Horses": 8872,
      "prise": 8873,
      "Adventures": 8874,
      "Gloria": 8875,
      "Punjabi": 8876,
      "profession": 8877,
      "Pakistani": 8878,
      "industry": 8879,
      "grossing": 8880,
      "Chiranj": 8881,
      "Laxmik": 8882,
      "8100": 8883,
      "Butler": 8884,
      "Dw": 8885,
      "Kanch": 8886,
      "Larry": 8887,
      "Maj": 8888,
      "My_S": 8889,
      "River_": 8890,
      "Social": 8891,
      "TA": 8892,
      "Tol": 8893,
      "_on_the_": 8894,
      "aa": 8895,
      "fa": 8896,
      "mons": 8897,
      "puri": 8898,
      "rush": 8899,
      "ined": 8900,
      "anay": 8901,
      "ilah_": 8902,
      "ing_G": 8903,
      "eno": 8904,
      "reon": 8905,
      "riend_": 8906,
      "elal": 8907,
      "Thunder_": 8908,
      "often": 8909,
      "s_Revenge": 8910,
      "ol_": 8911,
      "_Sak": 8912,
      "adal": 8913,
      "The_Girl_": 8914,
      "owski": 8915,
      "o_d": 8916,
      "illa_": 8917,
      "umi_": 8918,
      "_Dob": 8919,
      "_Well": 8920,
      "_Port": 8921,
      "Stock": 8922,
      "Story_of_": 8923,
      "ester_": 8924,
      "aint_": 8925,
      "opez": 8926,
      "_Av": 8927,
      "_A_F": 8928,
      "ahil": 8929,
      "_Nor": 8930,
      "ians": 8931,
      "_Stories": 8932,
      "erny": 8933,
      "_Eckhart": 8934,
      "ocus_": 8935,
      "Clos": 8936,
      "Prison_": 8937,
      "a_Mor": 8938,
      "Barney_": 8939,
      "izen": 8940,
      "_and_R": 8941,
      "y_Moore_": 8942,
      "Lovel": 8943,
      "_Child": 8944,
      "Robert_W": 8945,
      "ocket": 8946,
      "Reinh": 8947,
      "alier_": 8948,
      "Charles_Mar": 8949,
      "Blood_Money_": 8950,
      "Glady": 8951,
      "_Spy": 8952,
      "_Speed": 8953,
      "Breaking_Point_": 8954,
      "ridges": 8955,
      "Play_": 8956,
      "Girls_": 8957,
      "y_Waller": 8958,
      "Santos": 8959,
      "Santosh": 8960,
      "Return_to": 8961,
      "a_Fleming": 8962,
      "uzh": 8963,
      "e_Pal": 8964,
      "Martin_K": 8965,
      "Camping_": 8966,
      "_Dead_": 8967,
      "y_Ton": 8968,
      "Jayas": 8969,
      "_Cluzet": 8970,
      "Body_of_": 8971,
      "Noel": 8972,
      "Harry_Daven": 8973,
      "Khal": 8974,
      "Henry_Silva": 8975,
      "Brides": 8976,
      "How_to_Train": 8977,
      "Remember": 8978,
      "Romance_of_the_": 8979,
      "_Bhatt": 8980,
      "_Rajkumar": 8981,
      "Royal_T": 8982,
      "_Play": 8983,
      "Pretty_Cur": 8984,
      "history": 8985,
      "Reveng": 8986,
      "i_Ganesan": 8987,
      "_Your_Dr": 8988,
      "_Express_": 8989,
      "earlier": 8990,
      "Sol_Kaplan": 8991,
      "Terry_Moore_": 8992,
      "Telugu_actor": 8993,
      "Bheem": 8994,
      "Julius_": 8995,
      "Listen_": 8996,
      "ycle_": 8997,
      "Aaron_Eckhart": 8998,
      "_Africa": 8999,
      "Bhakta_P": 9000,
      "François_Cluzet": 9001,
      "hardt": 9002,
      "Pursuit_": 9003,
      "_Without_": 9004,
      "Samson_and_Del": 9005,
      "develop": 9006,
      "Samsaram_": 9007,
      "Cairo_": 9008,
      "negative": 9009,
      "iennes": 9010,
      "Honky_Ton": 9011,
      "Vijay_": 9012,
      "_Raghav": 9013,
      "Boomerang_": 9014,
      "Hagman": 9015,
      "Eddy_Waller": 9016,
      "Ahsan_Khan_": 9017,
      "Krzysztof_": 9018,
      "Battlestar_Gal": 9019,
      "Jack_Elam": 9020,
      "Rhonda_Fleming": 9021,
      "Harry_Davenport_": 9022,
      "How_to_Train_Your_Dr": 9023,
      "Samson_and_Delilah_": 9024,
      "99": 9025,
      "Crom": 9026,
      "Dutt": 9027,
      "Dowell": 9028,
      "Famil": 9029,
      "Gran": 9030,
      "Neen": 9031,
      "Si": 9032,
      "Sad": 9033,
      "XX": 9034,
      "añ": 9035,
      "fight": 9036,
      "hon": 9037,
      "ials": 9038,
      "mult": 9039,
      "oof": 9040,
      "ël": 9041,
      "stories": 9042,
      "ony": 9043,
      "asp": 9044,
      "asion": 9045,
      "amoto": 9046,
      "exper": 9047,
      "rah": 9048,
      "Amand": 9049,
      "abu": 9050,
      "episode": 9051,
      "Bhool": 9052,
      "Carb": 9053,
      "Blackbo": 9054,
      "ubir": 9055,
      "aiz": 9056,
      "itti": 9057,
      "Franz": 9058,
      "appy": 9059,
      "Devadas": 9060,
      "Perf": 9061,
      "ertain": 9062,
      "Sandak": 9063,
      "Heroes": 9064,
      "Problem": 9065,
      "aurav": 9066,
      "Sarab": 9067,
      "Harmon": 9068,
      "Believ": 9069,
      "inker": 9070,
      "Gene": 9071,
      "appearing": 9072,
      "problem": 9073,
      "Sidney": 9074,
      "Party": 9075,
      "Gabri": 9076,
      "productions": 9077,
      "contin": 9078,
      "ochran": 9079,
      "Chandra": 9080,
      "Navy": 9081,
      "Musical": 9082,
      "ificent": 9083,
      "Mexico": 9084,
      "Adrian": 9085,
      "ustlers": 9086,
      "Quentin": 9087,
      "Cabaret": 9088,
      "Globe": 9089,
      "Bhargav": 9090,
      "Raghubir": 9091,
      "Original": 9092,
      "39": 9093,
      "4440": 9094,
      "Dud": 9095,
      "Gov": 9096,
      "Line_": 9097,
      "Mort": 9098,
      "Pure_": 9099,
      "Qav": 9100,
      "Qai": 9101,
      "Sir": 9102,
      "Tong": 9103,
      "Veer": 9104,
      "camp": 9105,
      "hakar": 9106,
      "mer_": 9107,
      "oi_": 9108,
      "rag": 9109,
      "sa": 9110,
      "seven": 9111,
      "will": 9112,
      "zar": 9113,
      "thers_": 9114,
      "read": 9115,
      "ream_": 9116,
      "asw": 9117,
      "atra_": 9118,
      "s_V": 9119,
      "_Mas": 9120,
      "urai": 9121,
      "_Bri": 9122,
      "The_Th": 9123,
      "The_Ex": 9124,
      "ionic": 9125,
      "ape": 9126,
      "_Holl": 9127,
      "er_T": 9128,
      "i_Gar": 9129,
      "otland": 9130,
      "utes": 9131,
      "_Pres": 9132,
      "for_Th": 9133,
      "_Circ": 9134,
      "_Time": 9135,
      "_Garr": 9136,
      "_Kar": 9137,
      "_Killer": 9138,
      "respect": 9139,
      "_Stuff": 9140,
      "_Steel": 9141,
      "_Ep": 9142,
      "essler": 9143,
      "uke_": 9144,
      "ffic": 9145,
      "Quart": 9146,
      "Clay": 9147,
      "Willard_": 9148,
      "Prith": 9149,
      "Preci": 9150,
      "ourt": 9151,
      "Donal_L": 9152,
      "_One": 9153,
      "_I_": 9154,
      "All_": 9155,
      "e_Call": 9156,
      "a_Sen": 9157,
      "a_Kan": 9158,
      "ushik": 9159,
      "Holy_M": 9160,
      "Peter_P": 9161,
      "Blood_and_S": 9162,
      "Jonah": 9163,
      "Isa": 9164,
      "editing": 9165,
      "App": 9166,
      "Apes": 9167,
      "_Beh": 9168,
      "ail_": 9169,
      "Bird_": 9170,
      "ould_": 9171,
      "_Who_": 9172,
      "Valley": 9173,
      "Bobby": 9174,
      "Gene_T": 9175,
      "y_Day_": 9176,
      "_Heff": 9177,
      "Stephen_M": 9178,
      "y_Garland": 9179,
      "_Adreon": 9180,
      "Adam_Brody": 9181,
      "_Leon": 9182,
      "Satish": 9183,
      "uppi": 9184,
      "iewicz": 9185,
      "Bengal": 9186,
      "Eric_T": 9187,
      "_Boys": 9188,
      "Joyce_": 9189,
      "The_Strang": 9190,
      "Ambush": 9191,
      "Narasim": 9192,
      "_Harper": 9193,
      "Terror_": 9194,
      "Pyarelal": 9195,
      "_Rich_": 9196,
      "John_Wick": 9197,
      "highest": 9198,
      "Brave_New": 9199,
      "local": 9200,
      "Romantic_Warriors_III": 9201,
      "Birds_of_Prey_": 9202,
      "officer": 9203,
      "Thieves_": 9204,
      "Dangerous_": 9205,
      "Arnold_": 9206,
      "Casanova_": 9207,
      "_Sheikh": 9208,
      "Shashikala": 9209,
      "_Justice": 9210,
      "Franklin_Adreon": 9211,
      "reekumar": 9212,
      "_Prejudice_": 9213,
      "_TV_serial": 9214,
      "Bessie_": 9215,
      "William_Katt": 9216,
      "Rio_Grand": 9217,
      "credible_": 9218,
      "quis_Warren": 9219,
      "_Canterbury_Tales": 9220,
      "Charles_Marquis_Warren": 9221,
      "Qavi_Khan": 9222,
      "Donal_Logue": 9223,
      "Blood_and_Sand_": 9224,
      "Ax": 9225,
      "Dary": 9226,
      "Eat": 9227,
      "Ga": 9228,
      "Gaut": 9229,
      "Jum": 9230,
      "Kun": 9231,
      "Kirk": 9232,
      "Mun": 9233,
      "Ori": 9234,
      "Pend": 9235,
      "Puff": 9236,
      "Sof": 9237,
      "Say": 9238,
      "Tai": 9239,
      "Technicolor": 9240,
      "dle": 9241,
      "due": 9242,
      "few": 9243,
      "grad": 9244,
      "kov": 9245,
      "lay": 9246,
      "sister": 9247,
      "wer": 9248,
      "wart": 9249,
      "ilot": 9250,
      "atr": 9251,
      "eden": 9252,
      "idan": 9253,
      "Beeth": 9254,
      "forman": 9255,
      "Str": 9256,
      "cker": 9257,
      "ishek": 9258,
      "artment": 9259,
      "comic": 9260,
      "indu": 9261,
      "Brat": 9262,
      "Unt": 9263,
      "Perry": 9264,
      "ottom": 9265,
      "beau": 9266,
      "ushal": 9267,
      "Sanct": 9268,
      "Gross": 9269,
      "Guest": 9270,
      "anca": 9271,
      "raves": 9272,
      "Detro": 9273,
      "Belle": 9274,
      "Jimmy": 9275,
      "having": 9276,
      "Doub": 9277,
      "anji": 9278,
      "Sharon": 9279,
      "Rollin": 9280,
      "African": 9281,
      "Alias": 9282,
      "Palmer": 9283,
      "marked": 9284,
      "Jagath": 9285,
      "Masakaz": 9286,
      "Bleed": 9287,
      "Kristen": 9288,
      "eathers": 9289,
      "Vivek": 9290,
      "Someth": 9291,
      "Padm": 9292,
      "Lionel": 9293,
      "aumont": 9294,
      "cameo": 9295,
      "Bu": 9296,
      "Bionic": 9297,
      "Gift": 9298,
      "Kinn": 9299,
      "Ni": 9300,
      "Other": 9301,
      "Ut": 9302,
      "Well": 9303,
      "Year_": 9304,
      "bie_": 9305,
      "eter": 9306,
      "eek": 9307,
      "fly": 9308,
      "ja_": 9309,
      "lia": 9310,
      "must": 9311,
      "mitt": 9312,
      "took": 9313,
      "wok": 9314,
      "wee": 9315,
      "would": 9316,
      "anie_": 9317,
      "il_S": 9318,
      "atal": 9319,
      "y_N": 9320,
      "y_Sheedy": 9321,
      "s__1": 9322,
      "s_Holiday": 9323,
      "_My_S": 9324,
      "uro": 9325,
      "etch": 9326,
      "owie": 9327,
      "owitz": 9328,
      "o_the_": 9329,
      "ion_of_": 9330,
      "an_TV_series": 9331,
      "exico": 9332,
      "ompson_": 9333,
      "uty": 9334,
      "_Din": 9335,
      "raine": 9336,
      "_Pur": 9337,
      "ement_": 9338,
      "shan_": 9339,
      "Stan_": 9340,
      "Sham": 9341,
      "_Roman": 9342,
      "_Gh": 9343,
      "ants_": 9344,
      "Carp": 9345,
      "Cart": 9346,
      "_Stan": 9347,
      "_Stein": 9348,
      "cox": 9349,
      "Arlen": 9350,
      "_Eric": 9351,
      "_Jun": 9352,
      "_Jatt": 9353,
      "ustav": 9354,
      "ipman": 9355,
      "Michelle_": 9356,
      "asse_": 9357,
      "Dead_A": 9358,
      "_Ir": 9359,
      "Ally_Sheedy": 9360,
      "4020": 9361,
      "eaton": 9362,
      "Rocky": 9363,
      "Spring": 9364,
      "dead": 9365,
      "Blues_": 9366,
      "orrow_": 9367,
      "ook_": 9368,
      "ictim": 9369,
      "Guy_Madison": 9370,
      "_Spr": 9371,
      "George_Gordon_": 9372,
      "Johnny_C": 9373,
      "_Brand": 9374,
      "Harvest": 9375,
      "sterious_": 9376,
      "Return_of_": 9377,
      "spy": 9378,
      "spin": 9379,
      "ountry_": 9380,
      "_Reunion": 9381,
      "Jean_Smart": 9382,
      "Jayabhar": 9383,
      "Malayalam_Language": 9384,
      "_for_": 9385,
      "_for_the_": 9386,
      "_End": 9387,
      "_English": 9388,
      "Gregory_": 9389,
      "ington_": 9390,
      "Party_": 9391,
      "_Newman": 9392,
      "Fran_D": 9393,
      "Donna_Reed": 9394,
      "Lord_": 9395,
      "Captain_America_": 9396,
      "_Comedy_": 9397,
      "_Saroj": 9398,
      "help": 9399,
      "martial": 9400,
      "_Prett": 9401,
      "Mohanlal": 9402,
      "Rahul": 9403,
      "served": 9404,
      "_Hopkins": 9405,
      "6660": 9406,
      "_Savage": 9407,
      "Judith": 9408,
      "4740": 9409,
      "aynor": 9410,
      "stery_of_the_": 9411,
      "Casino_Royale_": 9412,
      "Gig_Young": 9413,
      "Black_Friday_": 9414,
      "round_the_": 9415,
      "Bluebe": 9416,
      "Calcutt": 9417,
      "_Beyond": 9418,
      "Michael_Rennie": 9419,
      "_Private_": 9420,
      "Battlestar_Galactica": 9421,
      "Raghubir_Yadav": 9422,
      "Peter_Pan_": 9423,
      "Gene_Tierney": 9424,
      "Fran_Drescher": 9425,
      "Bath": 9426,
      "Cic": 9427,
      "Etern": 9428,
      "Karth": 9429,
      "Nev": 9430,
      "Neg": 9431,
      "Nadi": 9432,
      "Nade": 9433,
      "Omar": 9434,
      "Pov": 9435,
      "Rath": 9436,
      "Rec": 9437,
      "Ull": 9438,
      "Viet": 9439,
      "Wright": 9440,
      "aadi": 9441,
      "dam": 9442,
      "fig": 9443,
      "gun": 9444,
      "hag": 9445,
      "iction": 9446,
      "kir": 9447,
      "py": 9448,
      "tri": 9449,
      "ua": 9450,
      "eri": 9451,
      "ately": 9452,
      "osi": 9453,
      "oov": 9454,
      "iesz": 9455,
      "uten": 9456,
      "emat": 9457,
      "Inc": 9458,
      "resp": 9459,
      "cock": 9460,
      "ipal": 9461,
      "ipper": 9462,
      "Unknown": 9463,
      "ault": 9464,
      "ynam": 9465,
      "Julian": 9466,
      "amilton": 9467,
      "Reeves": 9468,
      "Santo": 9469,
      "edict": 9470,
      "Abh": 9471,
      "Norweg": 9472,
      "Harvey": 9473,
      "Carlos": 9474,
      "Franci": 9475,
      "hyun": 9476,
      "guer": 9477,
      "uffman": 9478,
      "Silence": 9479,
      "Vinod": 9480,
      "Hungarian": 9481,
      "adislav": 9482,
      "Kristoff": 9483,
      "teenth": 9484,
      "portrayed": 9485,
      "Relat": 9486,
      "Cadet": 9487,
      "ealand": 9488,
      "credits": 9489,
      "Agniesz": 9490,
      "Otto": 9491,
      "Canton": 9492,
      "Cowboy": 9493,
      "Welcom": 9494,
      "hattan": 9495,
      "Clifton": 9496,
      "Vietnam": 9497,
      "3300": 9498,
      "3900": 9499,
      "Aish": 9500,
      "BO": 9501,
      "Cry_": 9502,
      "Hank": 9503,
      "Jord": 9504,
      "Kiss": 9505,
      "Lank": 9506,
      "Way_": 9507,
      "foot_": 9508,
      "hom": 9509,
      "jin": 9510,
      "manga": 9511,
      "nd": 9512,
      "sent": 9513,
      "side_": 9514,
      "uer": 9515,
      "anski": 9516,
      "e_in": 9517,
      "ona_": 9518,
      "onado": 9519,
      "rise": 9520,
      "dia": 9521,
      "eli": 9522,
      "omon": 9523,
      "ango": 9524,
      "_Sky": 9525,
      "_Sleep": 9526,
      "_Mot": 9527,
      "uraj": 9528,
      "_Bry": 9529,
      "_Beat": 9530,
      "The_V": 9531,
      "igal": 9532,
      "avu": 9533,
      "avy": 9534,
      "overs": 9535,
      "_Hur": 9536,
[...]
